{"[CLS]":0,"[SEP]":1,"[PAD]":2,"[MASK]":3,"!":4,"\"":5,"#":6,"%":7,"&":8,"'":9,"(":10,")":11,"*":12,"+":13,",":14,"-":15,".":16,"/":17,"0":18,"1":19,"2":20,"3":21,"4":22,"5":23,"6":24,"7":25,"8":26,"9":27,":":28,";":29,"<":30,"=":31,">":32,"?":33,"A":34,"B":35,"C":36,"D":37,"E":38,"F":39,"G":40,"H":41,"I":42,"J":43,"K":44,"L":45,"M":46,"N":47,"O":48,"P":49,"Q":50,"R":51,"S":52,"T":53,"U":54,"V":55,"W":56,"X":57,"Y":58,"Z":59,"[":60,"]":61,"_":62,"a":63,"b":64,"c":65,"d":66,"e":67,"f":68,"g":69,"h":70,"i":71,"j":72,"k":73,"l":74,"m":75,"n":76,"o":77,"p":78,"q":79,"r":80,"s":81,"t":82,"u":83,"v":84,"w":85,"x":86,"y":87,"z":88,"~":89,"¡":90,"¢":91,"£":92,"¤":93,"¥":94,"¦":95,"§":96,"¨":97,"©":98,"ª":99,"«":100,"¬":101,"®":102,"¯":103,"°":104,"±":105,"²":106,"³":107,"´":108,"µ":109,"¶":110,"·":111,"¸":112,"¹":113,"º":114,"»":115,"¼":116,"½":117,"¾":118,"¿":119,"â":120,"ã":121,"ä":122,"å":123,"æ":124,"ç":125,"è":126,"é":127,"Ċ":128,"Ġ":129,"Ģ":130,"ģ":131,"Ĥ":132,"ĥ":133,"Ħ":134,"ħ":135,"Ĩ":136,"ĩ":137,"Ī":138,"ī":139,"Ĭ":140,"ĭ":141,"Į":142,"į":143,"İ":144,"ı":145,"Ĳ":146,"ĳ":147,"Ĵ":148,"ĵ":149,"Ķ":150,"ķ":151,"ĸ":152,"Ĺ":153,"ĺ":154,"Ļ":155,"ļ":156,"Ľ":157,"ľ":158,"Ŀ":159,"ŀ":160,"Ł":161,"ł":162,"Ń":163,"ãģ":164,"ãĤ":165,"ãĥ":166,"ãģĦ":167,"ãģ®":168,"ãģ¯":169,"ãĢ":170,"ãģª":171,"ãģŁ":172,"ãģ¦":173,"ãģ«":174,"ãĤĴ":175,"ãĤĭ":176,"Ġãģ":177,"ãģĹ":178,"ãĢĤ":179,"ãģĭ":180,"ãģ¨":181,"ãģĮ":182,"ãģ£":183,"ãģł":184,"ãĤĮ":185,"ãģ§":186,"ç§":187,"ãģĻ":188,"ç§ģ":189,"ãĥ¼":190,"ãĢģ":191,"ãģĨ":192,"Ġ?":193,"ãģĵ":194,"ãģªãģĦ":195,"Ġå":196,"ãģ¾":197,"ãĤĤ":198,"ãĤī":199,"ãģĤ":200,"ãĥ³":201,"½¼":202,"ãģ£ãģ¦":203,"Ġç§ģ":204,"ãĤĵ":205,"ãģı":206,"ä½":207,"Ġãĥ":208,"ãģªãģŁ":209,"ä¸":210,"ãģĹãģ¦":211,"äº":212,"ĠãģĿ":213,"ãĤĬ":214,"ãģ£ãģŁ":215,"ãĤĪ":216,"ãĤ¹":217,"ãģĵãģ¨":218,"ãĥ¼ãĥ":219,"ãģį":220,"ãĥĥ":221,"ä½ķ":222,"ãĤĴæ":223,"ãģĿ":224,"ãģ®å":225,"ĠãĤ":226,"ĠãģĤ":227,"ãģ¯å":228,"ãģ¾ãģĻ":229,"Ġå½¼":230,"è¦":231,"ãģĹãģŁ":232,"ãģķ":233,"ãģĦãĤĭ":234,"Ġæ":235,"ãĤ¯":236,"ãģĳ":237,"ãĤĴå":238,"ãĤ¤":239,"ä»":240,"ãģ§ãģĻ":241,"ãĤı":242,"ãģĪ":243,"äºº":244,"ãĥĪ":245,"Ġç§ģãģ¯":246,"ãģĽ":247,"è¨":248,"Ġ!":249,"ãģ¡":250,"æĢ":251,"ãģĻãĤĭ":252,"ãĥ«":253,"ãģ¤":254,"ãģĤãģªãģŁ":255,"ãĥª":256,"ĠãģĿãĤĮ":257,"ãĥ»":258,"ĠãģĤãģªãģŁ":259,"ãĤģ":260,"å¥":261,"çĶ":262,"ãģ«å":263,"è¡":264,"èª":265,"ãĥ©":266,"ãģ©":267,"Ġãģĵ":268,"åĪ":269,"ãģ®æ":270,"å½¼":271,"ãģĺ":272,"çŁ":273,"ãģ®ãģĭ":274,"ãģĭãĤī":275,"æĢĿ":276,"ãģ£ãģ¦ãĤĭ":277,"è¨Ģ":278,"çŁ¥":279,"éģ":280,"è¦ĭ":281,"å¥³":282,"ãģ¯æ":283,"è¡Į":284,"ãģĤãĤĭ":285,"ãĤ¢":286,"éĸ":287,"ãĤ£":288,"ãģĿãĤĮ":289,"ãģĦãģĦ":290,"ĲĽ":291,"ãĥī":292,"ãĤĪãģĨ":293,"å¤":294,"Ġç":295,"Ġä½ķ":296,"ãĤĦ":297,"ä¸Ģ":298,"ãģŁãģ¡":299,"ãĤį":300,"ãģ«æ":301,"è©":302,"ãģĦãģŁ":303,"ãģ§ãģį":304,"ãģ¨æĢĿ":305,"ãģĦãģ¾ãģĻ":306,"Ġ-":307,"ä¿":308,"ãĤĥ":309,"ãģĬ":310,"ĠãģĿãģĨ":311,"ãģĦãģ¦":312,"ãģ¾ãģĽ":313,"ãĤ·":314,"éĢ":315,"ãģ¾ãģĽãĤĵ":316,"ãĥ¬":317,"ãĥĥãĤ¯":318,"ãĥŃ":319,"äºĭ":320,"ãĤ¸":321,"ãĥķ":322,"è©±":323,"ãģ«ãģ¯":324,"ãģªãĤī":325,"ãģıãĤĮ":326,"īį":327,"å®":328,"ãģĭãģ£ãģŁ":329,"ãģŁãĤģ":330,"ãģĤãĤĬ":331,"ãĤ¿":332,"èª°":333,"ãģĺãĤĥ":334,"ãģ®ç":335,"éĸĵ":336,"åĪĨ":337,"ãģĮæ":338,"èĢ":339,"ãĤĵãģł":340,"Įģ":341,"ä¼":342,"ãģĺãĤĥãģªãģĦ":343,"ãģ¯ç§ģ":344,"ĻĤ":345,"ãĥ£":346,"Ġè":347,"ãģ®ãĥ":348,"ä»Ĭ":349,"åīį":350,"ãģ°":351,"ãĤĴç":352,"ãģĹãģ¦ãĤĭ":353,"ãģĮãģĤãĤĭ":354,"ãģĹãģĦ":355,"ãģ§ãģ¯":356,"°Ĺ":357,"ãĤ«":358,"ãĤĴè¦ĭ":359,"ãģ«ãģª":360,"éĩ":361,"ãĤ°":362,"æľ":363,"ãģŃ":364,"ãĤ§":365,"Ġãģ©":366,"ĩº":367,"ãģ£ãģ¦ãģĦãĤĭ":368,"ãģ¯ãģĦ":369,"ãģĮå":370,"ãĥĨ":371,"ãĥŀ":372,"ãģĵãģ«":373,"ãĥĹ":374,"ãĤĵãģª":375,"ãģ¹":376,"ãĥĩ":377,"ãģ¯ç":378,"ĠãģĬ":379,"ĠãģĵãĤĮ":380,"ãĤĮãģ¦":381,"ãģªãģĭãģ£ãģŁ":382,"Ġ1":383,"ãģłãģĳ":384,"ãģĵãģ¨ãģĮ":385,"ãģ¾ãģĹãģŁ":386,"ĠåĲĽ":387,"ãĤĤãģ®":388,"Ġé":389,"ãĤ¦":390,"æī":391,"ãĥĳ":392,"ãģĪãģ¦":393,"ãģķãģĦ":394,"ãĤĴè":395,"è¦ģ":396,"ä¸Ń":397,"å¾":398,"ãģĹãģ¦ãģĦãĤĭ":399,"ãģ©ãģĨ":400,"ãģ®é":401,"ãĥ¼ãĥ«":402,"ĩª":403,"ãĤĴæĮģ":404,"ãģ®ãģŁãĤģ":405,"ãģ®è":406,"ãģ¯å½¼":407,"ãģĿãģĨ":408,"Ġå½¼å¥³":409,"Ġå½¼ãģ¯":410,"æĸ":411,"ãĤ³":412,"ç§ģãģ¯":413,"ãĤĩ":414,"ãĥĸ":415,"ĠãģĦãģĦ":416,"Ĺ¥":417,"ŃĲ":418,"åħ":419,"çĶ·":420,"ãģ¿":421,"åı":422,"çŁ¥ãģ£ãģ¦ãĤĭ":423,"ãĥĲ":424,"ä¼ļ":425,"ãĥĥãĥĪ":426,"Ŀ¥":427,"Ġç§ģãģŁãģ¡":428,"ãģķãĤĵ":429,"ãĤĤãģĹ":430,"åĳ":431,"ĠãģĿãģĨãģł":432,"ãĤŃ":433,"ãĤĮãģŁ":434,"ãĥģ":435,"Ġãģ§":436,"åĲ":437,"ãĥ¥":438,"ãģłãģ£ãģŁ":439,"ãģ¯ä½ķ":440,"ãĤĮãģªãģĦ":441,"å¿":442,"ãĥł":443,"ãĤº":444,"å½":445,"é¡":446,"ãĤĮãģ°":447,"ãģľ":448,"Ġãģª":449,"ãģĦãģĨ":450,"ãģ§ãģĻãģĭ":451,"ħè¦ģ":452,"ãĤĭãģ®":453,"æĦ":454,"ģŀ":455,"çĶŁ":456,"ãĥĵ":457,"ãĤµ":458,"ĠãģĿãĤĮãģ¯":459,"ãĤĪãģĨãģ«":460,"éĽ":461,"Ġ2":462,"ãģ¤ãģĦãģ¦":463,"æĻĤ":464,"ãĥĭ":465,"ä¸Ĭ":466,"ãģĵãģ¨ãĤĴ":467,"ãģ¨æĢĿãģĨ":468,"Ġä»Ĭ":469,"çī":470,"Ġå½¼ãĤī":471,"ãģĵãģ¨ãģĮãģ§ãģį":472,"ãģĦãģªãģĦ":473,"°ĳ":474,"Ġæľ":475,"èĩª":476,"Ġãģ¯ãģĦ":477,"çµ":478,"ãģĹãģ¾ãģĻ":479,"çļ":480,"ĲĨ":481,"ł´":482,"ãĤĤãģĨ":483,"ĠãģĤãģªãģŁãģ¯":484,"èĢħ":485,"ãĤª":486,"Ġãģ§ãĤĤ":487,"Ġãģ©ãģĨ":488,"ãģ¨è¨Ģ":489,"å½ĵ":490,"ãĥªãĥ¼":491,"ä¿º":492,"ħ¥":493,"ãĥ¼ãĥĪ":494,"æ°Ĺ":495,"è¡Įãģı":496,"ãģ«ãģ¤ãģĦãģ¦":497,"ãĤ¹ãĥĪ":498,"ãĥ¡":499,"éĻ":500,"ãĥ§":501,"ãģłãĤį":502,"Ń¦":503,"ĠãģĤãģĤ":504,"®º":505,"åº":506,"ä»ķ":507,"æĹ¥":508,"ãģ£ãģ¨":509,"ãĤĵãģ§":510,"ãģĹãģªãģĦ":511,"é£":512,"ãģ¨ãģĦãģĨ":513,"åĩº":514,"éĩĳ":515,"Ġãģªãģľ":516,"ãĤĮãĤĭ":517,"çļĦ":518,"ãģĵãģ¨ãģ¯":519,"Ġèª°":520,"ãģĳãĤĮãģ°":521,"ãģĤãĤĬãģ¾ãģĽãĤĵ":522,"¤§":523,"ĠãģĦ":524,"ãģªãģĳãĤĮãģ°":525,"ä¾":526,"ãģĹãĤĩ":527,"īĭ":528,"¬å½ĵ":529,"¹´":530,"ãĤ¨":531,"Ń»":532,"ãģ®ãģ¯":533,"ãĢħ":534,"ãĤ½":535,"ãģ«ãģªãĤĭ":536,"ãģ¤ãĤĤ":537,"ãģ®ãģŁãĤģãģ«":538,"ä»ķäºĭ":539,"ĠãģĿãģĨãģłãģª":540,"ç·":541,"Ĥª":542,"ĥ¨":543,"ãĤĴåı":544,"ãĥĬ":545,"ä¿¡":546,"ãĤ¤ãĥ³":547,"ķı":548,"ãģŁãģĦ":549,"çĽ":550,"æĢ§":551,"çī©":552,"åĭ":553,"ãĥŁ":554,"ãģ«åħ¥":555,"æķ":556,"ãĤ¡":557,"ĠãĤ¸":558,"å½¼å¥³":559,"ãģªãĤīãģªãģĦ":560,"èĢĥ":561,"éģķ":562,"çķ":563,"ãģĤãĤĬãģ¾ãģĻ":564,"ãģ¹ãģ¦":565,"ãĥ©ãĥ³":566,"æĸ¹":567,"ãģĵãĤĮ":568,"ãģ¤ãģĳ":569,"ç´":570,"Ġäºº":571,"ãĢĮ":572,"å¼":573,"ãģıãģł":574,"ãĥĢ":575,"ãģĹãĤĩãģĨ":576,"ç§ģãģŁãģ¡":577,"åį":578,"ãĥ¼ãĥī":579,"æīĢ":580,"ãĢį":581,"æ³":582,"Īĳ":583,"ãģıãģłãģķãģĦ":584,"Ī¶":585,"ãģĭãĤīãģªãģĦ":586,"ãĥĨãĤ£":587,"ãģłãĤįãģĨ":588,"ãģĪãĤĭ":589,"ãģ§ãĤĤ":590,"èµ":591,"ãģ®ä¸Ń":592,"ãĤīãģªãģĦ":593,"ãĤ¿ãĥ¼":594,"çĲĨ":595,"ãģ¦ãĤĤ":596,"Ġç§ģãģĮ":597,"æĺ":598,"ãĤ±":599,"åĲĽ":600,"å¤§":601,"ĪĨ":602,"ãģĶ":603,"ãĤ¬":604,"ãĤ»":605,"ãĥĩãĤ£":606,"Ġä¿º":607,"Ġãģ¾":608,"ä½ķãģĭ":609,"åŃĲ":610,"ãĥ¼ãĥ³":611,"éł":612,"ĠãģĤãģªãģŁãģĮ":613,"ãĥĥãĥĹ":614,"ãģ§ãģ¯ãģªãģĦ":615,"ãĤĴãģĻãĤĭ":616,"ä¸ĭ":617,"ī¯":618,"ãģ«è":619,"ãģ®äºº":620,"ãģĵãģĵ":621,"åº¦":622,"Ī»":623,"ãģĭãĤĤãģĹ":624,"å£":625,"Ġãĥŀ":626,"ãĥ³ãĤ°":627,"ĠãĤ¢":628,"åĽ":629,"ãģķãģĽ":630,"èĩªåĪĨ":631,"ãģªãģĳãĤĮãģ°ãģªãĤīãģªãģĦ":632,"ä»ĸ":633,"ãģłãģĳãģł":634,"ãģĴ":635,"ãĥĶ":636,"ãĥĥãĥī":637,"¢º":638,"ãĥĻ":639,"Ġç§ģãģ¯å":640,"ãĥľ":641,"ãģªãģ®":642,"å½¼ãĤī":643,"ä¸Ģç·":644,"ä¸Ģç·Ĵ":645,"åĳ³":646,"ãĥı":647,"éģĶ":648,"Ġãģĵãģĵ":649,"ãģĤãģªãģŁãģĮ":650,"çĻ":651,"éĥ¨":652,"æŃ":653,"¥ŀ":654,"ãģļ":655,"Ġãģ¤":656,"ãģ¨ãģĨ":657,"Ġç§ģãģŁãģ¡ãģ¯":658,"å¯":659,"å¿ħè¦ģ":660,"è»":661,"ĠãģĿãĤĮãģ§":662,"ľŁ":663,"ãĤĴæĮģãģ£ãģ¦":664,"åĬ":665,"ãģıãģªãģĦ":666,"ãĤĦãģ£ãģ¦":667,"å¾Į":668,"æ³ķ":669,"ĪĳãĢħ":670,"ħ¨":671,"ãĥĦ":672,"ãģ¯ãģ©ãģĨ":673,"ãģĻãģ¹ãģ¦":674,"§£":675,"ãģĻãģ":676,"ãģ«ç":677,"ãĥ³ãĥĪ":678,"¬²":679,"åł´":680,"ãģ¨ãģĹãģ¦":681,"ãĥ³ãĥī":682,"ä½ľ":683,"ãģĮãģ¨ãģĨ":684,"ãĥ¼ãĤ¹":685,"ĠãģĿãģĨãģĺãĤĥãģªãģĦ":686,"ãģĭãĤĤãģĹãĤĮãģªãģĦ":687,"ãĥį":688,"ãģĹãģŁãģĦ":689,"¿ħè¦ģ":690,"ãĤĴçŁ¥":691,"Ġãģķ":692,"ä½ķãĤĴ":693,"é¡Į":694,"ãģ¨ãģ¦ãĤĤ":695,"è¦ª":696,"®¶":697,"ãģĦãģ¾ãģĹãģŁ":698,"ĠãģĦãĤĦ":699,"èµ·":700,"ãģ§ãģĹãĤĩãģĨ":701,"åħ¨":702,"½ãģį":703,"Ġ3":704,"ãģ®çĶ·":705,"ĠãģĹ":706,"æĿ¥":707,"ãģ«æĿ¥":708,"©ļ":709,"ãĥ¯":710,"ãģ®ãĤĪãģĨ":711,"ãģĭãģĹ":712,"ľ°":713,"ä¾Ľ":714,"ķıé¡Į":715,"ãĥ´":716,"ãģ¹ãģį":717,"ãģ®ãĤĪãģĨãģ«":718,"éħ":719,"è¨ĢãģĨ":720,"ãģĵãģ«ãģĦãĤĭ":721,"èģŀ":722,"ãģ®ãģĵãģ¨":723,"ãĥ¼ãĤ¯":724,"Ġç§ģãģ¯ãģĤãģªãģŁ":725,"éļ":726,"ãģŁãģł":727,"ãĤĴåıĸ":728,"Ĳį":729,"å½¼ãģ¯":730,"ãģĿãĤĮãĤĴ":731,"éĢļ":732,"å±":733,"ãģ¶":734,"ãĥ¢":735,"ãģ«ãģĦãĤĭ":736,"ãģĤãģ£ãģŁ":737,"è¦ļ":738,"»è©±":739,"ãģ®ãĤĪ":740,"è¨Ģãģ£ãģŁ":741,"ĠåĲĽãģ¯":742,"Ġå½¼å¥³ãģ¯":743,"ĦĽ":744,"ãģ¦ãģıãĤĮ":745,"Ġãĥī":746,"Ġå¤":747,"ãģ¯æľ":748,"æīĭ":749,"æĦı":750,"ãģ¤ãĤĤãĤĬ":751,"è§£":752,"ãģ£ãģ¦ãģĦãģ¾ãģĻ":753,"Ġãĥķ":754,"ãģķãĤĮãģŁ":755,"ãĥªãĥĥãĤ¯":756,"ĠãģĦãģĦãĤı":757,"ãģ¨æĢĿãģĦãģ¾ãģĻ":758,"ĠãĤĤãģĨ":759,"ķ·":760,"ãģ§ãģįãģªãģĦ":761,"èī¯":762,"ãĤĴæ®º":763,"ãģķãĤĮãģ¦":764,"å¤«":765,"Ġå½¼ãĤīãģ¯":766,"..":767,"ĠãĤ¹":768,"Ĺħ":769,"ãĥİ":770,"ãģ£ãģ¦ãģŁ":771,"ãģ§ãģįãĤĭ":772,"¥³":773,"ãģªãģı":774,"ãģ«è¡Į":775,"ãĥ¼ãĥł":776,"çļĦãģª":777,"ĻãģĪãģ¦":778,"ãģ¾ãģ§":779,"ĺãģĦ":780,"ãĥĿ":781,"ãģĮç§ģ":782,"ãģĮãģĤãĤĬãģ¾ãģĻ":783,"ä½¿":784,"Ġ\"":785,"ãĤıãģĭãĤīãģªãģĦ":786,"å¤ľ":787,"°ı":788,"è³":789,"ãģįãģŁ":790,"ĠãĤ¯":791,"ĠãģĵãĤĮãģ¯":792,"ä¿¡ãģĺ":793,"å¸":794,"éĿ":795,"ãģ«ãģĻãĤĭ":796,"ĠãģĻ":797,"éģĭ":798,"ĠãģĹãģĭãģĹ":799,"ä¹":800,"èŃ":801,"ãģ¨ä¸Ģç·Ĵ":802,"ä¸ĸ":803,"ãĥ©ãĤ¤":804,"Ġä½ķãģĭ":805,"å®Ł":806,"ãĤĪãĤĬ":807,"ãģ®å¤":808,"å¹´":809,"ĠãĤĤ":810,"ĠãģĪ":811,"ãģĭãģª":812,"Ġãĥĩ":813,"Įãģĺ":814,"ãģŀ":815,"ãģ¨ãģ¯":816,"ãģ£ãģ¦ãģĦãģŁ":817,"ãĥĽ":818,"ãģ§ãģĹãģŁ":819,"åīįãģ¯":820,"æĽ":821,"ĭäºº":822,"ãģ«ãĤĤ":823,"Ġç§ģãģ¯å½¼":824,"ä¸į":825,"ãģ®åı":826,"éĢ£":827,"ãģĵãģ¨ãģ§ãģĻ":828,"ãģ®åŃĲ":829,"°ĳãģĹ":830,"®ĭ":831,"ãģ³":832,"ĻĤéĸĵ":833,"ãĤĴè¦ĭãģ¤ãģĳ":834,"å¾ħ":835,"§ĭ":836,"ãģ¯ãģªãģĦ":837,"ä½ĵ":838,"å¥½ãģį":839,"ãĤ¸ãĥ£":840,"åĭķ":841,"èĥ":842,"Ġãĥı":843,"ãģĤãģªãģŁãģ¯":844,"éĸ¢":845,"¬²ãģĹãģĦ":846,"ãĤĭãģĵãģ¨ãģĮãģ§ãģį":847,"ãģĹãģ¦ãģĦãģ¾ãģĻ":848,"Ġå¤§":849,"ä»¥":850,"´ãĤī":851,"æĻ":852,"ãģ«ä¼ļ":853,"Ġãĥĳ":854,"ãģ¾ãĤĬ":855,"ãĤ·ãĥ§":856,"ãģ¾ãģł":857,"å©ļ":858,"è¿":859,"çĶ¨":860,"æĬ":861,"ãĤĭãģĭ":862,"ç§ģãģĮ":863,"ĠåĪĨ":864,"ãģĹãģ¦ãģıãĤĮ":865,"ãģ¡ãĤį":866,"ãģ©ãģĵ":867,"¬å½ĵãģ«":868,"Ġä¸Ģ":869,"åĲĪ":870,"ãģĵãģ¨ãģł":871,"ãĤ·ãĥ¼":872,"ãģĹãģ¦ãĤĭãģ®":873,"é£Ł":874,"çĪ¶":875,"ĦŁ":876,"Ĵĥ":877,"ãģ«ãģ¯å":878,"ãģĸ":879,"ãĤ¯ãĤ½":880,"ãĤĴå¾":881,"ãĤıãģªãģĦ":882,"çĽ®":883,"¥½":884,"ãģ®ä»ķäºĭ":885,"ĠãĤĦ":886,"ãĤ¸ãĤ§":887,"ãĥķãĤ£":888,"ãģ¨è¨Ģãģ£ãģŁ":889,"ç¤":890,"Ħ¡":891,"Ń£":892,"ãģ»":893,"ãĤĴæīĭ":894,"ĠãģĤãĤĬ":895,"ãĤģãĤĵãģª":896,"ãģŁãĤģãģ«":897,"ãĤģãĤĵãģªãģķãģĦ":898,"ãĤ©":899,"ãģ®ãĤĤãģ®":900,"çĶ±":901,"çĶ»":902,"å£«":903,"æĮģ":904,"ãģĭãģªãģĦ":905,"ãģ«è¡Įãģı":906,"éķ·":907,"Īå¤«":908,"ãģ®äºĭ":909,"ãģ¦ãģĦãĤĭ":910,"ä¸Īå¤«":911,"ãĥĲãĥ¼":912,"ĤªãģĦ":913,"ãģ®ãĤĪãģĨãģª":914,"įķ":915,"ãģĦãģ¾ãģĽãĤĵ":916,"ĠãĥĢ":917,"èĢĥãģĪ":918,"º«":919,"ãģ®åĲį":920,"ĠãģĤãģªãģŁãģ¯ç§ģ":921,"æľĢ":922,"ĠãģĦãģĦãģĪ":923,"ãĥĭãĥ¼":924,"ãģĻãģĲ":925,"±º":926,"ç½":927,"ãĤ®":928,"ãģ¦ãĤĭ":929,"ĠãģĶ":930,"ĠãĤª":931,"éĽ»è©±":932,"©Ł":933,"¯į":934,"ãĤ¶":935,"ãģĮãģĤãģ£ãģŁ":936,"ãĥªãĥ³":937,"ãĥĥãĤ¯ãĤ¹":938,"æĺİ":939,"ĠãģĪãģĪ":940,"ĠãĢĮ":941,"ãģĹãģŁãģ®":942,"å®¶":943,"ä¼Ŀ":944,"ãĤĴæĮģãģ£ãģ¦ãģĦãĤĭ":945,"ĿĢ":946,"ãģ§ãģ¯ãģĤãĤĬãģ¾ãģĽãĤĵ":947,"ãĤĴå¤":948,"ãĤ·ãĥ¥":949,"çķĮ":950,"©ãģĳ":951,"«ĭ":952,"è²":953,"ãģªãĤĭ":954,"Ġãģł":955,"Ġå¹´":956,"ä¸İ":957,"ãĥ¼ãĥª":958,"ãģ®æľ":959,"å¤ĸ":960,"ĠãģĤãĤĬãģĮãģ¨ãģĨ":961,"¿ĥ":962,"ĠãĥŃ":963,"ĠãĤ¦":964,"ãģ¯ä½ķãģł":965,"éħį":966,"åĤ":967,"Ķ¯":968,"ãģıãĤī":969,"ãģĻãĤĭãģ®":970,"ãĥªãĤ¢":971,"ãģĬéĩĳ":972,"ĠãĤĤãģ¡ãĤį":973,"æł":974,"Ġ5":975,"ãģ£ãģ¦ãģıãĤĮ":976,"ãģ¾ãģĻãģĭ":977,"åĪĿ":978,"¾Į":979,"ãĤĢ":980,"ãĥ³ãĤ¹":981,"ãĥķãĤ¡":982,"ãĤĩãģ£ãģ¨":983,"é¡ĺãģĦ":984,"èĥ½":985,"æĥ":986,"æĿ":987,"è¾":988,"Ĳå©ļ":989,"ãģ¨ãĤĤ":990,"Ġãĥª":991,"ĠãĤ¤":992,"éĩį":993,"ĻãģĪãģ¦ãģıãĤĮ":994,"ãĤīãĤĮãģªãģĦ":995,"åĪĩ":996,"ãģĮç":997,"ĠãģĿãģĹãģ¦":998,"ãģŁãģ®":999,"ãģ¨ãģĵ":1000,"ãģłãģ¨":1001,"çŁ¥ãĤīãģªãģĦ":1002,"ãĥģãĥ£":1003,"åĮ":1004,"ãģ®ä¸Ģ":1005,"ä¸ĸçķĮ":1006,"åĢ":1007,"åĵ":1008,"è£":1009,"è«":1010,"èº«":1011,"Ġå½¼ãģ¯å":1012,"Ġæĺ":1013,"ä¸Ģåº¦":1014,"ãģ®è©±":1015,"ãĤĴçŁ¥ãģ£ãģ¦ãĤĭ":1016,"ãĤĴæķ":1017,"ĠãĤ¨":1018,"ãĤĴèģŀ":1019,"ãģĿãģĨãģł":1020,"¶Ī":1021,"ļãģı":1022,"ãĥļ":1023,"ãģ¤ãģĭ":1024,"è¦ļãģĪãģ¦":1025,"åľ°":1026,"èĪ":1027,"Ġ4":1028,"Ġãģ¨":1029,"ãĥ¼ãĤ¸":1030,"ĠãĥĪ":1031,"ãģįãģª":1032,"åĲĮãģĺ":1033,"èĢĥãģĪãģ¦":1034,"èī¯ãģĦ":1035,"Ī¦":1036,"ãģĮãģĦãģĦ":1037,"Ġåı":1038,"éĢ±":1039,"ĠæľĢ":1040,"éģķãģĨ":1041,"Ġ*":1042,"ãģ®ä¸Ĭ":1043,"ãģ®æĸ":1044,"åĥ":1045,"ãĥ¼ãĤº":1046,"ãĥ¼ãĥĸ":1047,"ãģ£ãģ¦ãĤĭãģ®":1048,"èª°ãģĭ":1049,"Ġ10":1050,"æĻĤéĸĵ":1051,"ĠãĤĤãģĹ":1052,"Ĭ©ãģĳ":1053,"ãģĿãĤĵãģª":1054,"ãģĿãĤĮãģ¯":1055,"å®ĺ":1056,"ãĤĴè¦ĭãģŁ":1057,"ãĤ¦ãĤ§":1058,"å°":1059,"æĹ":1060,"ĤãĤı":1061,"ãģĵãģ®":1062,"ãĤīãģĽ":1063,"ĠæĪĳãĢħ":1064,"ãģ©ãģĵãģ«":1065,"ãĤĦãģ£ãģŁ":1066,"éĢĥ":1067,"æĦŁ":1068,"åķı":1069,"ãģģ":1070,"ãĤĴãģĹãģ¦":1071,"Ġç§ģãģ®":1072,"ãĤĬãģŁãģĦ":1073,"Ġæ°Ĺ":1074,"ãģĪãģŁ":1075,"å®ļ":1076,"åĬĽ":1077,"¹¸":1078,"ãģłãĤĪ":1079,"ĠãĤ³":1080,"ãģ«æĪ»":1081,"æĦĽ":1082,"éĢ£ãĤĮãģ¦":1083,"İ¢":1084,"ãģªãģ®ãģĭ":1085,"ãģ§æ":1086,"Ġå®":1087,"ãĤĪãģı":1088,"ĠãģĿãĤĮãģĮ":1089,"ãĤ·ãĥ£":1090,"åīįãģ«":1091,"éĩİ":1092,"ãģĮå¿ħè¦ģ":1093,"é«":1094,"ģ¯":1095,"Ħı":1096,"ãĤĴãģĹãģŁ":1097,"ĠãĤ·":1098,"Ġå½¼ãģĮ":1099,"éģĵ":1100,"Ġä¸":1101,"ãģĮãģªãģĦ":1102,"ãĥªãĤ¹":1103,"ãĤĬãģ¾ãģĻ":1104,"ãĥ¼ãĥĦ":1105,"ãĤĪãģĨãģ¨":1106,"ä¿Ŀ":1107,"ãĤ¸ãĥ§":1108,"æ©Ł":1109,"Ĺãģĳ":1110,"Ġãģ¡":1111,"ãģ®åł´":1112,"ãĤĴè¦ĭãģ¦":1113,"é£Ľ":1114,"ĠãģĶãĤģãĤĵãģªãģķãģĦ":1115,"ãĤ¤ãĥ«":1116,"Ġç§ģãģ¯ãģĿãĤĮ":1117,"ãģĮæľ":1118,"ãĤĴæĮģãģ£ãģ¦ãĤĭ":1119,"åĭĻ":1120,"çĻº":1121,"ãģ¨ãģĵãĤį":1122,"ãĤ²":1123,"ãģ«ãģĤãĤĭ":1124,"ãģĪãģªãģĦ":1125,"è¨Ī":1126,"Ġãģĵãģ®":1127,"¦¬":1128,"èĳ":1129,"Ġä»ĸ":1130,"ãĥ¼ãĥĹ":1131,"ä½ķãĤĤ":1132,"ãģ¯åĲĽ":1133,"ãĤ¢ãĥ³":1134,"äºĮ":1135,"ĠãĤµ":1136,"èª°ãĤĤ":1137,"Ġèĩª":1138,"çķª":1139,"ãģĶãģĸ":1140,"¼ķ":1141,"åĨ":1142,"åŃ¦":1143,"Ĳ½":1144,"ãĤĭãģ¨":1145,"ç§ģãģ«":1146,"ãģĵãģĵãģ«":1147,"Ġãģ©ãģĨãĤĦãģ£ãģ¦":1148,"§ĺ":1149,"Ķ¾":1150,"ãģ«ãĤĪ":1151,"ãģĮãģĦãĤĭ":1152,"ĠãĤ«":1153,"ãģķãĤĮãĤĭ":1154,"ãģĤãģªãģŁãģ®":1155,"èªŀ":1156,"ãĤĴè¿":1157,"åĲį":1158,"¢ºãģĭ":1159,"ħ¨ãģ¦":1160,"ãģĮèµ·":1161,"ãģ®ä¸Ńãģ§":1162,"ãģĵãģĵãģ§":1163,"ãĤĴä½ľ":1164,"Ġæķ":1165,"ãģ«å¯":1166,"Ġçµ":1167,"éĢģ":1168,"ãĤµãĥ¼":1169,"Ġèª°ãģĭ":1170,"ĠãģĦãģĦãĤıãĤĪ":1171,"ä¹Ĺ":1172,"ãĤĴæīĭãģ«åħ¥":1173,"įķãģ¾":1174,"°ãģĹãģĦ":1175,"å·":1176,"æ§ĺ":1177,"éĥ":1178,"ãģªãģķãģĦ":1179,"ãģ«å½¼":1180,"æĸ¹æ³ķ":1181,"½ãģĦ":1182,"ãģĭãģ£ãģ¦ãĤĭ":1183,"ãĤĬãģ¾ãģĽãĤĵ":1184,"ãģ«åĩº":1185,"Ĭĥ":1186,"ĭĤ":1187,"ãĤĴèª":1188,"ãģłãģ¨æĢĿãģĨ":1189,"ĠãĥĲ":1190,"ãģ®å¥³":1191,"å½¼ãĤīãģ¯":1192,"ç¥ŀ":1193,"ł±":1194,"ãĥ¤":1195,"ãĤģãĤĭ":1196,"Ġç¥ŀ":1197,"Ġæľ¬å½ĵ":1198,"ĠãĤ¸ãĤ§":1199,"æĻ´ãĤī":1200,"ãĤĴå¾Ĺ":1201,"Ġãģ¡ãĤĩãģ£ãģ¨":1202,"ĠçŁ¥ãģ£ãģ¦ãĤĭ":1203,"Ľ®":1204,"ãĥĴ":1205,"ĠãģĨ":1206,"ãģĮå¥½ãģį":1207,"ãģłãģ¨æĢĿ":1208,"Ġãĥ©":1209,"ãģĹãģ¦ãģĦãģŁ":1210,"ãĥ¼ãĥŀ":1211,"ä»»":1212,"éģ¸":1213,"éĸĵéģķ":1214,"åĳ¼":1215,"çĶŁãģį":1216,"æĦıåĳ³":1217,"ģ«":1218,"łæĻ´ãĤī":1219,"ŃĶ":1220,"ĠãĥĨ":1221,"ĠãģĿãĤĮãģĭãĤī":1222,"ãģ¯æŃ»":1223,"ãĥŀãĥ³":1224,"©º":1225,"çĤ":1226,"ãģĦãģı":1227,"ãģ®ãģĵãģ¨ãĤĴ":1228,"ãģĹãģ¾ãģĹãģŁ":1229,"ãģ¾ãģĹãĤĩãģĨ":1230,"è¨±":1231,"éĸĭ":1232,"ãģ¯ç§ģãģĮ":1233,"ãĤŃãĥ£":1234,"éł¼":1235,"...":1236,"İæĹ¥":1237,"ç§ģãģ¯å":1238,"ãģĳãģ©":1239,"ãĤĴåĲ":1240,"å±ĭ":1241,"°ıãģķ":1242,"ãģıãĤīãģĦ":1243,"ãĥ¼ãĥĨ":1244,"ãĤĴæĦĽ":1245,"ĠæĹ¥":1246,"ãĤ¤ãĤ¯":1247,"ãĥ»ãĥ»":1248,"ãģĦãģŁãģĦ":1249,"ãģ©ãģĨãģĭ":1250,"ãģ¯å½¼å¥³":1251,"å¿ĥ":1252,"éĽ¢":1253,"ãĤĴåıĹãģĳ":1254,"åĽŀ":1255,"æĿŁ":1256,"è¬":1257,"èŃ¦":1258,"ãģ®å®¶":1259,"è¨¼":1260,"ãģ¡ãĤĥ":1261,"ãģĤãģªãģŁãģ«":1262,"ĠãģĿãĤĮãģ¯å":1263,"åıĸ":1264,"ãĥ©ãĥ³ãĤ¯":1265,"éĢļãĤĬ":1266,"łæĻ´ãĤīãģĹãģĦ":1267,"ªåķı":1268,"åģ":1269,"æŃ»":1270,"ıĲ":1271,"ãģ¨ãģ£ãģ¦":1272,"Ġãĥĸ":1273,"Ġãĥľ":1274,"ãĤĴæī":1275,"ãģĿãģĹãģ¦":1276,"ä»ĺ":1277,"ãĤģãģ¦":1278,"Ġèģŀ":1279,"ãĤ³ãĥ³":1280,"ãĤŃãĥ¼":1281,"ãģĵãģ¨ãģĮãģ§ãģįãĤĭ":1282,"ç´Ħ":1283,"è»Ĭ":1284,"åł´æīĢ":1285,"åĤĻ":1286,"ģ¯åŃĲ":1287,"¬¡":1288,"¿ĺ":1289,"çĦ":1290,"çĬ":1291,"İĭ":1292,"Ľ¸":1293,"ãģĵãģĵãģ«ãģĦãĤĭ":1294,"Ġç§ģãģ«":1295,"éģħ":1296,"ãĥĵãĥ¼":1297,"Ġãģĵãģĵãģ§":1298,"°ıãģķãģª":1299,"Ġè¦ĭ":1300,"ãĤĴãģĹãģ¦ãģĦãĤĭ":1301,"ãģ¨åĲĮãģĺ":1302,"ãģĹãģ¦ãģıãģłãģķãģĦ":1303,"ĠãĤŃ":1304,"ĠãģĬåīį":1305,"ãĤĮãģ¦ãģĦãĤĭ":1306,"é£²":1307,"å¿ħè¦ģãģĮãģĤãĤĭ":1308,"ãģ®æĸ¹":1309,"±ãģĦ":1310,"Ġ...":1311,"İ»":1312,"Ń¢":1313,"ãģ¯ãģĤãĤĬãģ¾ãģĽãĤĵ":1314,"ãĤĴä¸İ":1315,"ãģķãĤĮ":1316,"ĠæĻĤéĸĵ":1317,"çŁ¥ãģ£ãģ¦ãģĦãĤĭ":1318,"Ġç´":1319,"ä¿Ĥ":1320,"ãģĬåīį":1321,"è©±ãģĻ":1322,"ãĤĤãģ®ãģ§ãģĻ":1323,"Ġèª°ãĤĤ":1324,"çĲĨçĶ±":1325,"ãģ®äººçĶŁ":1326,"ĠãģķãģĤ":1327,"ãĥ´ãĤ¡":1328,"ãĤĪãĤĬãĤĤ":1329,"ĠãĤĤãģ¡ãĤįãĤĵ":1330,"èĳī":1331,"¦»":1332,"¹¿":1333,"½®":1334,"ķª":1335,"ãĤ´":1336,"ãĤīãģı":1337,"Ġãĥĵ":1338,"ä¸»":1339,"ãĥ¬ãĤ¤":1340,"ãģĤãĤĬãģĮãģ¨ãģĨ":1341,"ĠéĽ":1342,"ãģ®éĥ¨":1343,"ãģĵãģ¨ãģ¯ãģ§ãģįãģªãģĦ":1344,"èŃ°":1345,"éĸ¢ä¿Ĥ":1346,"çĪ¶ãģķãĤĵ":1347,"çĿĢ":1348,"Ġ6":1349,"ç§ģãģ®":1350,"ãģĤãģ¾ãĤĬ":1351,"Ġãĥģ":1352,"ĠãģĿãĤĵãģª":1353,"äººãģł":1354,"ãĤĴè²":1355,"åħ¥":1356,"ãĤĭãģ®ãģ¯":1357,"ĲĨè§£":1358,"ãĤĵãģ§ãģĦãĤĭ":1359,"ĠãĤ¸ãĥ£":1360,"ç§ģãģŁãģ¡ãģ¯":1361,"åĽ½":1362,"ãģ¨ä¸Ģç·Ĵãģ«":1363,"åĵ¡":1364,"ı¾":1365,"ãģªãģľ":1366,"ãĤĴãģĬ":1367,"Ġãģı":1368,"ãĥ¼ãĤ¿ãĥ¼":1369,"ãĤĤãģªãģĦ":1370,"ãĤĵãģ¦":1371,"ãģ£ãģŁãģ®":1372,"ãĤĴåĪ":1373,"è¨Ģèĳī":1374,"è¡Įãģĭ":1375,"åĳĬ":1376,"¶ļ":1377,"»Ĭ":1378,"¾İ":1379,"æħ":1380,"ãĤĭãģĵãģ¨":1381,"Ġãĥ¬":1382,"ãĤ¹ãĤ¿":1383,"ãĥĥãĤ·ãĥ¥":1384,"ãĤĴæĢ":1385,"ĠãĤı":1386,"ãĥªãĤ«":1387,"éģİ":1388,"ĠãģĿãģĨãģĭ":1389,"ãģĦãģ¦ãģıãĤĮ":1390,"ãĤĵãģ§ãĤĭ":1391,"çĽ´":1392,"ĠãĤ¸ãĥ§":1393,"ãĤ·ãĥ§ãĥ³":1394,"ĠãģĪãģĪãģ¨":1395,"ãģ®åł´æīĢ":1396,"ãģ«å¯¾":1397,"¯èĥ½":1398,"ç¢º":1399,"èĭ":1400,"ģåĪĨ":1401,"ĪĲ":1402,"ãĤ¥":1403,"ãģ®éĸĵ":1404,"ãĤĴä½¿":1405,"ãģĵãģ¨ãģĮãģĤãĤĭ":1406,"èªį":1407,"éĻĲ":1408,"Ġãģ¾ãģĤ":1409,"è»į":1410,"åī":1411,"æ®º":1412,"æ¬²ãģĹãģĦ":1413,"ģĲ":1414,"ãģ§ãģĤãĤĭ":1415,"ãĤīãĤĮãĤĭ":1416,"ãĥĥãĥģ":1417,"ãģ®å¾Į":1418,"ä»£":1419,"ĠãģĤãģªãģŁãģ®":1420,"ãģ®éł":1421,"éļĽ":1422,"Ħıåĳ³":1423,"é¨":1424,"ãģĭãĤĬ":1425,"ãģªãģĦãģĭ":1426,"äººãģ¯":1427,"ãģ®æīĭ":1428,"Ġãģ¾ãģł":1429,"ä»¥ä¸Ĭ":1430,"ĠãģłãģĭãĤī":1431,"ĠèĩªåĪĨ":1432,"ºĸ":1433,"åľ":1434,"æ¥½":1435,"çľŁ":1436,"ãģ®ãģ§":1437,"ãģ«ãģĹãģªãģĦ":1438,"ãĤĤãģ£ãģ¨":1439,"ãģıãģª":1440,"ãĤĴæľ":1441,"ãĤ¯ãĥ©":1442,"ãĤĴå®":1443,"ä¼ĳ":1444,"ŃĲä¾Ľ":1445,"ãģ¨ãģĦãģĨãģĵãģ¨ãģ§ãģĻ":1446,"¸°":1447,"Ł³":1448,"ç§»":1449,"ãĤĤãģĦãģĦ":1450,"ãģ¯å¤§":1451,"ĠãģĿãĤĮãģ¯æ":1452,"æĢĿãģĨ":1453,"ä¸Ģãģ¤":1454,"ãģ®çĪ¶":1455,"æľ¬":1456,"éĻº":1457,"æĹı":1458,"ãĥ¼ãĥĨãĤ£":1459,"¹³":1460,"æĤª":1461,"ĸ¬":1462,"ľł":1463,"łçĶ»":1464,"Ńĺ":1465,"ãģ²":1466,"ãĤĭãĤı":1467,"ãģĭãģĳ":1468,"ãģ¨åĳ¼":1469,"ãĤĴæİ¢":1470,"ãĥ«ãĥĪ":1471,"åĪ¥":1472,"ãĤ¦ãĥ³":1473,"ãģ¨è¨ĢãģĨ":1474,"Ī»ãģ£ãģ¦":1475,"éĿ¢":1476,"æł¡":1477,"åĮĸ":1478,"Ġä¸ĩ":1479,"æ¸":1480,"é¹¿":1481,"ãģ¸":1482,"ãģ¯ãģ©ãģĵ":1483,"ĠãĥĻ":1484,"ĠãģĿãģ®":1485,"ãĤĴæįķãģ¾":1486,"ãģ¯å®":1487,"ĠæĻĤ":1488,"è¨ĺ":1489,"èª¿":1490,"ãģ®ãĥĳ":1491,"æľĪ":1492,"ãĤĤãģ®ãģł":1493,"çµĲå©ļ":1494,"æŃ£":1495,"ãģ¯ãģ©ãģĨãģł":1496,"ãģĻãģİ":1497,"åķıé¡Į":1498,"æŁ":1499,"æ¯į":1500,"ãģ«ãģĹãģ¦":1501,"Ġãģĭ":1502,"ãģĹãģªãģĳãĤĮãģ°ãģªãĤīãģªãģĦ":1503,"ãĥ³ãĤ¯":1504,"ĠãĥĽ":1505,"ãģĽãĤĭ":1506,"å¥³æĢ§":1507,"ãģ¯ãģĦãģ¤ãĤĤ":1508,"ä¾¡":1509,"ãģ¨ãģ¯æĢĿ":1510,"±ºãģĹãģ¦":1511,"¿ĥéħį":1512,"éĩİéĥ":1513,"çĦ¶":1514,"éĩİéĥİ":1515,"¨©":1516,"°´":1517,"¾ħ":1518,"ĠãģŁ":1519,"ĬĢ":1520,"Įĩ":1521,"ĳ¼":1522,"ĠãĥŁ":1523,"ãĥīãĥ«":1524,"ãģĦãģ¾ãģĻãģĭ":1525,"ãĥķãĥ¬":1526,"ãĤ¦ãĤ£":1527,"ãģĵãģ¨ãģ¯ãģªãģĦ":1528,"ãģ¶ãĤĵ":1529,"Ĺħæ°Ĺ":1530,"è¾¼":1531,"¦¬é¹¿":1532,"ãģ«ãĤĪãģ£ãģ¦":1533,"¨®":1534,"¨ĺ":1535,"è·":1536,"ãģĭãģ©ãģĨãģĭ":1537,"ãģ¨ãģį":1538,"ãĤ¹ãĥĨ":1539,"ãĥĥãĤ°":1540,"ãģĿãģ®":1541,"ãģĿãģĵ":1542,"ãģĿãģĵãģ«":1543,"ãģĹãģŁãĤī":1544,"èª¬":1545,"ĠãģĵãĤĮãĤī":1546,"çµ±":1547,"åįĺ":1548,"åįļ":1549,"éĢ±éĸĵ":1550,"é«ĺ":1551,"ĠãģıãģĿ":1552,"¾©":1553,"å°ĳ":1554,"æĴĥ":1555,"ãģ¯ãģĤãģªãģŁ":1556,"ãģ«ä½ķ":1557,"Ġåį":1558,"ãĥ³ãĥĲãĥ¼":1559,"Ġãĥĭ":1560,"ãģĹãģ¦ãģĦãģªãģĦ":1561,"ãĤ¹ãĤ¿ãĥ¼":1562,"ãģĮæ¬²ãģĹãģĦ":1563,"ãĥĳãĥĳ":1564,"ãĥĸãĥ«":1565,"å¿µ":1566,"Ġ20":1567,"èĩªèº«":1568,"ãĤ¸ãĥ£ãĥĥãĤ¯":1569,"è¬Ŀ":1570,"£²":1571,"µ·":1572,"¶³":1573,"ãģĲ":1574,"ãģĭçŁ¥ãģ£ãģ¦ãĤĭ":1575,"ãģ¯å¤":1576,"Ġå½¼ãģ¯ç§ģ":1577,"ãģ£ãģ¦ãĤĭãģ®ãģĭ":1578,"è¦ĭãģĪãĤĭ":1579,"Ġä½ķãĤĴ":1580,"Ġãģ©ãģĵãģ«":1581,"ĠãģĬåīįãģ¯":1582,"æīķ":1583,"ãģĭãģªãĤĬ":1584,"Ġå¤§ä¸Īå¤«":1585,"æĥħ":1586,"å§ĭ":1587,"æĨ":1588,"æĭ":1589,"ãģ¨è©±":1590,"ãģłãģª":1591,"ãģłãģĭãĤī":1592,"ãĤĵãģ©":1593,"ä½ı":1594,"Ġå½¼ãģ¯æ":1595,"ãģĽãģ¦":1596,"ãģĻãĤĭãģĵãģ¨":1597,"ä¸Ģäºº":1598,"Ġé»":1599,"ãĥĬãĥ¼":1600,"åĲĽãģ¯":1601,"ãĤĴåıĸãĤĬ":1602,"ç¤¾":1603,"éĢĥãģĴ":1604,"ºĸåĤĻ":1605,"«Į":1606,"ĭķ":1607,"įãģĦãģ¦":1608,"ãģ«ãģĹãģŁ":1609,"ãģ¨ãĤĵãģ©":1610,"ãģĮãģĤãģªãģŁ":1611,"ãĤīãĤĮ":1612,"Ġç§ģãģ«ãģ¯":1613,"ãģıãĤĭ":1614,"ä»¶":1615,"ãĥĪãĥªãĥĥãĤ¯":1616,"Ġç¢ºãģĭ":1617,"ãģ®çµ":1618,"ĠåĲĽãģĮ":1619,"Ġä»Ĭå¤ľ":1620,"Ġãģªãģľãģ§ãģĹãĤĩãģĨ":1621,"æķ°":1622,"ãģ®åĲįåīįãģ¯":1623,"ç½ª":1624,"è¨ĪçĶ»":1625,"ãģ®ãģ§ãģĻ":1626,"ãģ«ãģ¡":1627,"ĠåĨ":1628,"ãĤĴåĩº":1629,"ãĥĪãĥ©":1630,"ãģ«åı":1631,"ãģ«åĲ":1632,"ĠãģĵãĤĵ":1633,"å¤ļãģı":1634,"ĠãģĬé¡ĺãģĦ":1635,"ãĥ¡ãĥªãĤ«":1636,"ãĥįãĤ¹":1637,"ĠãĥĩãĤ£":1638,"ãģ®åıĭäºº":1639,"éĩįè¦ģ":1640,"æĦŁãģĺ":1641,"ãģĶãģĸãģĦãģ¾ãģĹãģŁ":1642,"çĤ¹":1643,"¬ĳ":1644,"åĸ":1645,"Ĥ²":1646,"Įåħ¨":1647,"ĴãģĦ":1648,"ãģ¬":1649,"Ġåħ":1650,"ãģ£ãģ¦ãģªãģĦ":1651,"ãģ®åīį":1652,"ĠæĢ":1653,"ãĤ¤ãĤ¹":1654,"ãĤ¤ãĥĪ":1655,"è¡Ģ":1656,"ãģ©ãĤĵãģª":1657,"è¡ĮãģĭãģªãģĦ":1658,"ãĥ¬ãĥ³":1659,"ãģĮåĲĽ":1660,"ãģĵãģ¨ãģĮãģªãģĦ":1661,"ãĥģãĤ§":1662,"ãģ¨ãģĦãģĨãģĵãģ¨":1663,"æĸ¹ãģĮãģĦãģĦ":1664,"éłŃ":1665,"å¯¾":1666,"ĠãģĻãģ¹ãģ¦":1667,"èŃ·":1668,"ĠãĤĦãģģ":1669,"Ĳ½ãģ¡":1670,"æ¥":1671,"ķ°":1672,"Ľŀ":1673,"ãĤĴä¿¡ãģĺ":1674,"ãĤĭãģ®ãģĭ":1675,"ãĤīãģªãģĭãģ£ãģŁ":1676,"ãģįãģŁãģĦ":1677,"ĠãģĤãģªãģŁãģ¯ç":1678,"ãģ«å¸°":1679,"ãĥķãĤ§":1680,"ãĥĹãĥŃ":1681,"ç´Ļ":1682,"ãĤ¬ãĥ¼":1683,"Ġãĥŀãĥŀ":1684,"çĻ½":1685,"ãģķãĤĮãģ¦ãģĦãĤĭ":1686,"æĽ¸":1687,"ĦŁãģĺ":1688,"Ķ¯ä¸Ģ":1689,"ĤãĤıãĤĬ":1690,"åľ¨":1691,"ãģ«ãģ¡ãģ¯":1692,"ç«ĭ":1693,"èĩ":1694,"ĠãĤĪ":1695,"ãģ«ãģ¨ãģ£ãģ¦":1696,"ãģĮå½¼":1697,"Ġç§ģãĤĤ":1698,"Ġãĥ¡":1699,"ãģ®åĳ":1700,"ãģ®å°ĳ":1701,"ãĤ¯ãĤ¿ãĥ¼":1702,"ãĤģãģŁ":1703,"ãĥ©ãĥ¼":1704,"å¤ī":1705,"Ġçķª":1706,"ãĤĴçĲĨè§£":1707,"æľī":1708,"æľĽ":1709,"ãģĦãģĨæĦıåĳ³":1710,"éłĺ":1711,"å¯Ł":1712,"å¿ħè¦ģãģĮãģĤãĤĬãģ¾ãģĻ":1713,"Ġãģķãģ¦":1714,"ãģ«æĿ¥ãģŁ":1715,"ãĤĴæ®ºãģĻ":1716,"åįļå£«":1717,"ī²":1718,"ĺĺ":1719,"ãģĹãĤĪãģĨãģ¨":1720,"ãģĽãģ¦ãģıãĤĮ":1721,"ãĥ¬ãĤ¹":1722,"åĪĨãģĭãĤīãģªãģĦ":1723,"ãĤ«ãĥ¼":1724,"ãģłãģĳãģ§ãģĻ":1725,"ĠãģĦãģĦãģĭ":1726,"Ġãģ©ãģĨãģĹãģ¦":1727,"Ġä¿ºãģ¯":1728,"ãģļãģ£ãģ¨":1729,"ãĤĴçŁ¥ãģ£ãģ¦ãģĦãĤĭ":1730,"ãĤĴå¤±":1731,"¥ãģĦ":1732,"º§":1733,"åł±":1734,"æ´":1735,"ļåĪĨ":1736,"Ľä¸ĭ":1737,"ãģĭãĤĭ":1738,"ãģªãģĦãģ®":1739,"ãģ¾ãģı":1740,"ãĤ¤ãĥī":1741,"ãĥĪãĥ«":1742,"æĢĸ":1743,"ä¸Ģçķª":1744,"ãģ¨æĢĿãģ£ãģ¦ãģŁ":1745,"ãģ¾ãģĹãģŁãģĭ":1746,"ãĥĳãĥ¼ãĥĪ":1747,"åĳ½":1748,"ãĥ¥ãĥ¼ãĥ":1749,"åĩºãģĻ":1750,"ãĤ½ãĥ³":1751,"çĲĨè§£":1752,"ãĥ´ãĤ£":1753,"ãģ®åĲįåīį":1754,"è«ĸ":1755,"¼ķãģį":1756,"Ġ<":1757,"Ĭ¯":1758,"ãģ®ãĤ¢":1759,"ãĤĴéĢ£ãĤĮãģ¦":1760,"åĪ©":1761,"è©¦":1762,"ĠãģĬãģĦ":1763,"ãģĤãĤĬãģ¾ãģĻãģĭ":1764,"å¼µ":1765,"å¼ķ":1766,"ãĥĨãĤ£ãĥ³":1767,"ĠãĥĢãĥ¡":1768,"Ġå®Ł":1769,"¯èĥ½æĢ§":1770,"ĬĢè¡Į":1771,"ĠãĤĪãģĹ":1772,"</":1773,"¿ĳ":1774,"å°ĳãģĹ":1775,"æĪ¦":1776,"ç¶ļ":1777,"èĸ¬":1778,"ĺ²":1779,"ãģ«ãģ¯æ":1780,"ãģ£ãģ¡":1781,"ãĤĮãģ¾ãģĽãĤĵ":1782,"ãģªãģĦãģ¨":1783,"ãģ£ãģŁãģ®ãģĭ":1784,"ãĥ¼ãĥķ":1785,"ãģįãģ¦":1786,"ãģįãģ¾ãģĻ":1787,"ãģ®åį":1788,"ĠæĦĽ":1789,"ãģĹãģ¦ãĤĭãģ®ãģĭ":1790,"æľĿ":1791,"æĸĻ":1792,"è»¢":1793,"ãģĦãģıãģ¤ãģĭ":1794,"ĠãģŁãģ¶ãĤĵ":1795,"±éĻº":1796,"æİ":1797,"Ġ8":1798,"ãĤ¼":1799,"ãĥĺ":1800,"ãģ«ãģĦãģŁ":1801,"ãģ«è©±":1802,"ãĥ¼ãĤ¤":1803,"Ġå¥":1804,"ãģ®åķıé¡Į":1805,"ãĤĴåĬ©ãģĳ":1806,"ãĥ«ãĥī":1807,"ãģ®æĻĤ":1808,"è¡Įãģĳ":1809,"è¡Įæ©Ł":1810,"ãģ¨æĢĿãģ£ãģŁ":1811,"å®¢":1812,"ãĤ¿ãĥ³":1813,"ãģ¯ç§ģãģŁãģ¡":1814,"ãģ¯å½¼ãĤī":1815,"æĸŃ":1816,"ĠãģªãĤĵãģ¦":1817,"Ġä»ĬæĹ¥":1818,"ãģ«ãģ¤ãģĦãģ¦ãģ¯":1819,"å½¼å¥³ãģ¯":1820,"ãģĵãĤĮãĤī":1821,"ãģ¹ãģįãģł":1822,"Ġãĥīãĥ«":1823,"å¸¸":1824,"æĬŀ":1825,"é£Łãģ¹":1826,"éģ¸æĬŀ":1827,"ĠãĤ¸ãĥ£ãĥĥãĤ¯":1828,"ĠãģĵãĤĵãģ«ãģ¡ãģ¯":1829,"åİ»":1830,"æļ":1831,"ī©":1832,"ãģ®ãģŃ":1833,"ãģŁãģı":1834,"ãĤĴæĬ":1835,"ĠãĤ°":1836,"ãģĹãģŁãģıãģªãģĦ":1837,"ãĥ©ãĤ¹":1838,"ãģ®æĹ¥":1839,"å½¼ãģĮ":1840,"è¨ĢãĤı":1841,"ãĤ¢ãĥĥãĥĹ":1842,"ãĤĦãĤĭ":1843,"ãĥŃãĥ¼":1844,"ãĥķãĥªãĥ¼":1845,"èª°ãģł":1846,"å¾Ĺ":1847,"ç§ģãģ¯ãģĤãģªãģŁ":1848,"éĽ£":1849,"Ġä»Ĭãģ¯":1850,"éĻį":1851,"ãģķãģĽãĤĭ":1852,"èµ·ãģĵ":1853,"ãĤĭãģĵãģ¨ãģĮãģ§ãģįãĤĭ":1854,"è«ĩ":1855,"åĭĻæīĢ":1856,"ãĥ¼ãĥĨãĤ£ãĥ¼":1857,"æ¥Ń":1858,"°¡":1859,"±Ĥ":1860,"ĠãģŁãģł":1861,"Ľãģ¿":1862,"Ġå¥³":1863,"ãģ£ãģ¦ãģĦãģªãģĦ":1864,"ãģĵãģ¨ãģ«ãģªãĤĭ":1865,"ãĤĪãģĨãģª":1866,"ãģ§ãģįãģ¾ãģĽãĤĵ":1867,"ãģ®ãĥĲ":1868,"ãģ©ãģĨãĤĦãģ£ãģ¦":1869,"åħĪ":1870,"ä¸ĬãģĴ":1871,"Ġèª°ãģĮ":1872,"ħ¨éĥ¨":1873,"ãģ¨ãģĹãģ¦ãĤĤ":1874,"ç§»åĭķ":1875,"çµ±éłĺ":1876,"³ãģĹ":1877,"¼·":1878,"æĤªãģĦ":1879,"Ġ.":1880,"ãģ®ãĤ¹":1881,"ãģ®ãģĬ":1882,"ãģ«éģķ":1883,"ãģĹãģ¾ãģĽãĤĵ":1884,"Ġå®¶":1885,"ãģ¾ãģŁ":1886,"ĠãĥĹ":1887,"ĠãĤ¿":1888,"Ġæĸ":1889,"ãĤĴåĳ¼":1890,"Ġç§ģãģ¯ç":1891,"Ġãģĵãģĵãģ«":1892,"ãģĿãĤĮãģĮ":1893,"å¤±":1894,"ãĤĦãĤĬ":1895,"Ġãģ©ãģĵ":1896,"åı·":1897,"ä¼ļç¤¾":1898,"Ġæľ¬å½ĵãģ«":1899,"ãĤ±ãĥĥãĥĪ":1900,"åŃĲä¾Ľ":1901,"Ġ30":1902,"ãĤĴæ®ºãģĹãģŁ":1903,"æĻ©":1904,"è¿ĳ":1905,"ãģ»ãģ¨ãĤĵãģ©":1906,"æĮģãģ¡":1907,"ãĤ¶ãĥ¼":1908,"ĠãģĤãĤĬãģĮãģ¨ãģĨãģĶãģĸãģĦãģ¾ãģĹãģŁ":1909,"Ķ¯æīķ":1910,"ãĤĴæľĽ":1911,"°¡åįĺ":1912,"²¾":1913,"Ġãģ¯":1914,"ĠéĢ±éĸĵ":1915,"Ĺè«ĩ":1916,"ĿãģĦ":1917,"ãģĦãģ¤ãĤĤ":1918,"ãĥ¼ãĤĵ":1919,"äºī":1920,"ãĥĥãĥĳ":1921,"ãĥĥãĥĦ":1922,"ãģ®åħ":1923,"ĠæŃ":1924,"è¨Ń":1925,"ãĥªãĤ¹ãĥĪ":1926,"ãģ¯ä½ķãĤĤ":1927,"Ġæľ¬":1928,"Ġãģ©ãģĨãģĦãģĨæĦıåĳ³":1929,"ãĤ¡ãĥ«ãĥĪ":1930,"ãģ¯æľ¬å½ĵãģ«":1931,"ãģ®å¤ľ":1932,"ãģ»ãģ©":1933,"ç½®":1934,"ãĥ¼ãĥĦãĤ¡ãĥ«ãĥĪ":1935,"ãĥ¼ãĥŀãĥ¼":1936,"¦ĸ":1937,"Ĥ·":1938,"Ħª":1939,"ĻçľŁ":1940,"ãģªãģĵãģ¨":1941,"Ġãĥ¯":1942,"Ġãĥĺ":1943,"ãĤĴæĽ¸":1944,"ãģ®å¤§":1945,"ĠãģĿãĤĮãģ¯ç§ģ":1946,"ãģ®æĻĤéĸĵ":1947,"è¦ĭãģ¦":1948,"ãģĦãģŁãģ®":1949,"ãĥ¬ãĥ¼":1950,"ãģĮæŃ»":1951,"ãĤĴçĽ":1952,"å¼ı":1953,"Ġãģ¾ãģŁ":1954,"ãģªãģıãģ¨ãĤĤ":1955,"Ġç§ģãģ¯å½¼å¥³":1956,"®ĭå¿µ":1957,"ãĥ¼ãĥªãĥ¼":1958,"ĠãĤĤãģ¡ãĤįãĤĵãģł":1959,"åĢ¤":1960,"ãĤĴæīĭãģ«åħ¥ãĤĮãģŁ":1961,"ãĤĴè²·":1962,"é¨ĵ":1963,"ãģ«éģķãģĦãģªãģĦ":1964,"æĪ»":1965,"ãģĹãģĭãģ£ãģŁ":1966,"Ġå¾ħ":1967,"ãĤīãģĭ":1968,"Ġãĥ«":1969,"ä¸¡":1970,"ãģĹãģ¦ãģªãģĦ":1971,"ãģķãģĪ":1972,"ãģĻãĤĭãģ¤ãĤĤãĤĬ":1973,"ĠãģĤãģªãģŁãģ¯æ":1974,"çĶ³ãģĹ":1975,"èªŃ":1976,"åĪĳ":1977,"è¦ĭãģŁ":1978,"Ġä½ķãģĮãģĤãģ£ãģŁ":1979,"ãĤĩãģĨ":1980,"ãĥĸãĥ©":1981,"ãģĵãģ¨ãģĮãģ§ãģįãģ¾ãģĻ":1982,"ĠãģĦãģ¤":1983,"ãĤ»ãĤ¹":1984,"Ġãĥķãĥ©ãĥ³ãĤ¯":1985,"ãĤĴè¦ĭãģ¤ãģĳãģŁ":1986,"ãģĻãģĲãģ«":1987,"ĠæĺİæĹ¥":1988,"ãĤĴèģŀãģĦãģŁ":1989,"¹¸ãģĽ":1990,"é£Ľãģ°":1991,"ãģ®å¥³æĢ§":1992,"Ġé»Ļ":1993,"å©":1994,"æĪĲ":1995,"Ġ7":1996,"ĭéģĶ":1997,"ãģĦãģªãģĭãģ£ãģŁ":1998,"ãģ®ãģĤãĤĭ":1999,"ãģ®ãģ¨ãģĵãĤį":2000,"ãģ¦ãģıãģłãģķãģĦ":2001,"ãĤĴé":2002,"ãģĹãģı":2003,"ãĥ³ãģķãĤĵ":2004,"ãĤĴæ°Ĺ":2005,"ãĤĴæıĲ":2006,"Ġå½¼ãģ¯ç":2007,"Ġç§ģãģ¯ãģŁãģł":2008,"è¨³":2009,"ãģ«å¤":2010,"ãģĭãĤīåĩº":2011,"è¨ĢãĤıãģªãģĦ":2012,"éģł":2013,"ãģĦãģ¦ãģĦãĤĭ":2014,"ãĤ¸ãĥįãĤ¹":2015,"æľŁ":2016,"ãĥĨãĥ«":2017,"ãĤ¦ãĤ©":2018,"ĠãģĤãģĤãģĿãģĨãģł":2019,"å¼·":2020,"ĠãģĦãģĦãĤıãģŃ":2021,"æĽľ":2022,"ãģ®æľĢ":2023,"èĪ¹":2024,"æŁ»":2025,"ä¾¡åĢ¤":2026,"ãģŁãģıãģķãĤĵ":2027,"ªģ":2028,"æĪĳãĢħ":2029,"ç©º":2030,"Īåĳ³":2031,"ĭĿ":2032,"Ľ½":2033,"ãģŁãģıãģªãģĦ":2034,"ãģĹãģ¾":2035,"ãģłãģĮ":2036,"ãģĻãĤĮãģ°":2037,"ç§ģãģ¯æ":2038,"ãģĨãģ¾ãģı":2039,"ĠãĥĶ":2040,"ĠãĥĿ":2041,"äºĪ":2042,"ãĤĴæĭ":2043,"ãĤĴæĴĥ":2044,"ãĤĴæŃ¢":2045,"ãģĳãĤĭ":2046,"ãģĻãĤĭãģ®ãģĭ":2047,"çĶº":2048,"ãģ®æģ¯åŃĲ":2049,"éĢ²":2050,"ãģ§ãģ¯ãģªãģı":2051,"ãģ«ãģªãģ£ãģŁ":2052,"ãģ«ãģªãģ£ãģ¦ãģĦãĤĭ":2053,"Ġãģ©ãĤĵãģª":2054,"ãĤ¦ãĥĪ":2055,"ãĥ¥ãĥ¼":2056,"ãĥĵãĥĥãĥī":2057,"Ġãģªãģľãģł":2058,"æķĻ":2059,"Ġãĥĳãĥĳ":2060,"æĬľ":2061,"ĦŁè¬Ŀ":2062,"Ń£ãģĹãģĦ":2063,"ãģ®è©±ãĤĴ":2064,"ãģ®ä¸Ĭãģ«":2065,"¹¸éģĭ":2066,"ĠçŁ¥ãģ£ãģ¦ãĤĭãĤĪ":2067,"ç´ĦæĿŁ":2068,"ãģ®æĸ¹æ³ķ":2069,"ãģ¯ãģ©ãģĵãģł":2070,"ĠçķªçĽ®":2071,"¤ãģĦ":2072,"å¦":2073,"æ²":2074,"èģ":2075,"Ġ9":2076,"ĩ¦":2077,"įģåĪĨ":2078,"ĲĮãģĺ":2079,"ãģİ":2080,"ãģ«ãģĭ":2081,"ãģ«ä¹Ĺ":2082,"ãĤĴãģ¤ãģĳ":2083,"ãĤĴè¦ļãģĪãģ¦":2084,"ãģĹãģªãģĭãģ£ãģŁ":2085,"ãģĭãĤĤ":2086,"ãĤĮãģıãĤīãģĦ":2087,"Ġç§ģãĤĴ":2088,"ãģĹãģ¦ãģŁ":2089,"ĠãĤ±":2090,"ĠãĤ»":2091,"ãģĹãģŁãģ®ãģĭ":2092,"ĠãģĿãĤĮãģ¯ç":2093,"ãĥ©ãĥł":2094,"ãģĬé¡ĺãģĦ":2095,"éĢŁ":2096,"ãĥŃãĥ³":2097,"ãģĮæĿ¥":2098,"ãģ®ãĥģ":2099,"ãģ°ãĤīãģı":2100,"ãĤĴçµ":2101,"ĠãģĿãģĨãģłãģŃ":2102,"èĢħãģł":2103,"ãģĹãģªãģĦãģ§":2104,"ãĥ©ãĥ³ãĤ¹":2105,"ľŁå®Ł":2106,"ãĤĴçŁ¥ãĤīãģªãģĦ":2107,"Ġå¤ļåĪĨ":2108,"ãģ¯æľ¬å½ĵ":2109,"ãĥ¼ãĥĸãĥ«":2110,"ãĤĴæīķ":2111,"ãĥ´ãĤ¡ãĥ³":2112,"ãĤĩãģĨãģ©":2113,"00":2114,"çĹ":2115,"é¦¬é¹¿":2116,"ĠçĶ·":2117,"Ĳæ":2118,"ãĤĴé£²":2119,"ãģ§ãģĹãĤĩ":2120,"ãģ®å¨ĺ":2121,"ãģ¯åı":2122,"Ġæīĭ":2123,"Ġæ¬¡":2124,"ãĤĴå¿ħè¦ģ":2125,"ãĤĴå§ĭ":2126,"ãĤ¤ãĥł":2127,"ãĤıãģŃ":2128,"ãĥ«ãĥ¼":2129,"éĸī":2130,"ĠèŃ¦":2131,"ãģ®ãĥĩ":2132,"ãģ¯ä½ķãģ§ãģĻãģĭ":2133,"çµĮ":2134,"éĻ¢":2135,"æķĻãģĪãģ¦ãģıãĤĮ":2136,"ãĥ©ãĥ³ãĥī":2137,"æŃ¢":2138,"ãĤĴæĮģãģ£ãģ¦ãģĦãģŁ":2139,"éĿŀ":2140,"ãĤĴå¾ħ":2141,"åģ´":2142,"ãĤĴåĪĩ":2143,"æ¯įãģķãĤĵ":2144,"ĠãĥĢãĥ¡ãĤĪ":2145,"åĻ":2146,"åŁ":2147,"åŃĺ":2148,"è¶³":2149,"éŁ³":2150,"ī¹":2151,"Ķ¿":2152,"ãģĦãĤĦ":2153,"ãģªãģĹ":2154,"ãģ«éĽ»è©±":2155,"ãĤĴãģıãĤĮ":2156,"ãģĮä½ķ":2157,"ç§ģãģ¯ç":2158,"ãĥ¼ãĥĬ":2159,"ãĥ¼ãĥĲ":2160,"ãĤĴæĦŁãģĺ":2161,"ĠãģĤãĤĭ":2162,"è¦ĸ":2163,"ãģ©ãģĵãģ«ãģĦãĤĭ":2164,"åĪ¤":2165,"ãģ¯æĺ":2166,"ãģ«æīĭ":2167,"ãĤĴç½®":2168,"ãģ«ãģªãĤĬ":2169,"ãģ«ãģªãĤĬãģ¾ãģĻ":2170,"ãģ¯çĦ¡":2171,"ãģ®ãģŁãĤģãģ«å":2172,"ãģ®è²":2173,"ãĥ¥ãĥ¼ãĤ¹":2174,"è¡Įãģıãģ®":2175,"ãĥŁãĥ¼":2176,"èµ°":2177,"ãģĭãĤĤãģĹãĤĮãģ¾ãģĽãĤĵ":2178,"åł´åĲĪ":2179,"è¦ªåĪĩ":2180,"ãĤĴæķĻãģĪãģ¦ãģıãĤĮ":2181,"ĠæľĢåĪĿ":2182,"Ġãģ¡ãĤĩãģ£ãģ¨å¾ħ":2183,"èŃ¦å®ĺ":2184,"ĠéĽ»è©±":2185,"¨å¤ľ":2186,"¬¬":2187,"ç¨®":2188,"èį":2189,"éĬĥ":2190,"Ġä»ķäºĭ":2191,"ĠéģķãģĨ":2192,"ģĭ":2193,"ĩĥ":2194,"Ī¥":2195,"ļĨ":2196,"ãĤĴéĸĭ":2197,"ĠãģĮ":2198,"ç§ģãģ«ãģ¯":2199,"ãģĵãĤĵãģª":2200,"ãĤīãĤĮãģŁ":2201,"ãĤĴå¿ĺ":2202,"ãģĽãģĦ":2203,"ĠãģĤãģªãģŁãģ¯å":2204,"å¥³ãģ®åŃĲ":2205,"ãĥīãĤ¢":2206,"ãĥķãĤ©":2207,"ãģªãĤīãģªãģĭãģ£ãģŁ":2208,"ãģ®çĽ®":2209,"ãĥŀãĥŀ":2210,"ĠéĿ":2211,"ãģ®è»Ĭ":2212,"åı£":2213,"ĠæľĪ":2214,"ãĤªãĥ³":2215,"®ºäºº":2216,"ãģĶãĤģãĤĵãģªãģķãģĦ":2217,"å£Ĭ":2218,"ãĥĻãĥ«":2219,"å¯Ĩ":2220,"ãģ¯æľĢ":2221,"ĠãĤĤãģĨä¸Ģåº¦":2222,"ä¿¡ãģĺãĤīãĤĮãģªãģĦ":2223,"ç¤º":2224,"ãģ®ä¸Ģéĥ¨":2225,"è£ħ":2226,"ĠæĪĳãĢħãģ¯":2227,"åĨħ":2228,"Ġæľ¬å½ĵãģĭ":2229,"ãģ¡ãĤĥãĤĵ":2230,"ãĥķãĥ¬ãĥ³ãĥī":2231,"ãĤĦãĤĬæĸ¹":2232,"Ġé»ĻãĤĮ":2233,"©ãģı":2234,"¬ī":2235,"¶æľĪ":2236,"æ°ĳ":2237,"çĹħ":2238,"çĦ¡":2239,"çģ«":2240,"çİĭ":2241,"ç¾©":2242,"è¼":2243,"èĤ":2244,"èħ":2245,"ĠD":2246,"ŃãģĦ":2247,"ãģ®ä¸ĭ":2248,"ãģªãĤĵãģł":2249,"ãģ«ãģĬ":2250,"ãģ«ä½ķãģĭ":2251,"ãģ£ãģ":2252,"ĠåŃĲä¾Ľ":2253,"ãĥ³ãĥĩãĤ£":2254,"ãģ®å®":2255,"ãĤ¯ãĥª":2256,"ãĤıãĤĪ":2257,"Ġä½ķãģł":2258,"å®³":2259,"ãģ®ãĥŀ":2260,"ãĤĮãģ¦ãĤĭ":2261,"ãĥĢãĥł":2262,"ãĤ±ãĥ¼":2263,"éģĶãģ¯":2264,"è³ª":2265,"ĠãģĻãģĲ":2266,"ãĤĴè¦ĭãģ¤ãģĳãĤĭ":2267,"ç¤¼":2268,"ãĤĴå¤ī":2269,"ãĤ¸ãĥ§ãĥ³":2270,"ãĤĴè¿½":2271,"ãģĮèµ·ãģĵ":2272,"¾İãģĹãģĦ":2273,"æħĭ":2274,"è¨ĺæĨ":2275,"èª¬æĺİ":2276,"è¨ĺæĨ¶":2277,"³ªåķı":2278,"»Ĵ":2279,"æı":2280,"éŃ":2281,"ĠA":2282,"Ġä¸Ń":2283,"ģ¥":2284,"ãģªãĤĬãģ¾ãģĽãĤĵ":2285,"ãĤĴéĢģ":2286,"ç§ĺ":2287,"ãģĨãģ¨":2288,"Ġãĥ¢":2289,"äº¤":2290,"ĠãģĿãģĵ":2291,"ãĥ¼ãĥĵ":2292,"ãĥ¼ãĥŃ":2293,"äººçĶŁ":2294,"ãĥĪãĥ¬":2295,"çŁ¥ãģ£ãģ¦ãģĦãģ¾ãģĻ":2296,"ãģĦãģĦãĤĪ":2297,"éĢĢ":2298,"ãĥ¬ãĤ¤ãĥ³":2299,"ãģ®çĬ":2300,"ãģ®ãĥĿ":2301,"ãģĮãģĤãĤĭãģ®ãģĭ":2302,"ãĥŀãĥ¼":2303,"ãģłãģĳãģ§":2304,"ãģ¿ãĤĵãģª":2305,"ãĤµãĥĸ":2306,"ãģĵãĤĮãģ¯":2307,"ãĥĢãĥ¼":2308,"ãģĶãģĦ":2309,"ī¯ãģĦ":2310,"ãĥľãĥĸ":2311,"Ġãģ¤ãģ®":2312,"éģĭè»¢":2313,"ãĤ¯ãĤ½éĩİéĥİ":2314,"æĥ³":2315,"ãĤĴè¿½ãģĦ":2316,"éĻĲãĤĬ":2317,"å©¦":2318,"µģ":2319,"¼Ķ":2320,"æ¯":2321,"çľł":2322,"éĺ²":2323,"ĠS":2324,"Ġéĩĳ":2325,"ĸĳ":2326,"ãģŁãĤī":2327,"ãĤĭãģ¤ãĤĤãĤĬ":2328,"ãģ§åĥ":2329,"ç§ģãģ®å":2330,"ãģĤãģĴ":2331,"ãĥ³ãĥĦ":2332,"ãĤĴå¼ķãģį":2333,"ä»²":2334,"äººãĢħ":2335,"ãģ¡ãĤĩãģĨãģ©":2336,"ĠãģĿãĤĮãĤĴ":2337,"è¡ĵ":2338,"èªĵ":2339,"è¨ĢãģĦãģŁãģĦ":2340,"ãģ¯æ°Ĺ":2341,"Ġä½ķãĤĤ":2342,"ãĤ·ãĥ³":2343,"å®¤":2344,"ãģ®ãĥĹ":2345,"ãģ®ãĥľ":2346,"ãģĹãģ¦ãĤĭãĤĵãģł":2347,"ãĤ°ãĥĬ":2348,"æľį":2349,"ĩºæĿ¥":2350,"ãģ¯ãģĦãģªãģĦ":2351,"ãĤŃãĥ³ãĤ°":2352,"Ġãģ§ãģį":2353,"é¡Ķ":2354,"é¡ŀ":2355,"éĻ¤":2356,"å¼¾":2357,"ãģ«æĿ¥ãģ¦":2358,"ãģĶãģĸãģĦãģ¾ãģĻ":2359,"ĠãģªãĤĵãģ¦ãģĵãģ¨ãģł":2360,"åĻ¨":2361,"¥Ī":2362,"±ļ":2363,"³¨":2364,"¸¡":2365,"»º":2366,"æ±º":2367,"ç©":2368,"çį":2369,"īåħ¨":2370,"ãģ®ãĤ«":2371,"ãģ®ãĤ³":2372,"ãģ«ãģĿãĤĮ":2373,"Ġãģĺ":2374,"ãģĹãĤį":2375,"ãģĹãģ¾ãģĹãĤĩãģĨ":2376,"ãģĭãĤı":2377,"ãģĮè¦ĭ":2378,"ãģĮå¤§":2379,"Ġç§ģãģĮæ":2380,"ĠãĥĬ":2381,"ãĥ¼ãĥ©":2382,"ãĥĥãĤŃãĥ¼":2383,"ãĤ¯ãĥŃ":2384,"ãĤ¤ãĥªãĥ¼":2385,"ãģ«åº§":2386,"è¡Ĺ":2387,"ãĤ¢ãĥ«":2388,"Ġä½ķãģªãģ®":2389,"ãģ®çĤ":2390,"ä»Ĭãģ¯":2391,"ãĤĴç¢º":2392,"æľ¬å½ĵãģ«":2393,"ĠéĻ":2394,"ãĤ¦ãĤ¹":2395,"ãģĪãģ¦ãģıãĤĮ":2396,"ãģĿãģĨãģĺãĤĥãģªãģĦ":2397,"ãģĹãģ¾ãģĻãģĭ":2398,"ãģªãģĳãĤĮãģ°ãģªãĤīãģªãģĭãģ£ãģŁ":2399,"ãĤ¨ãĥ«":2400,"ãĥ©ãĥ³ãĤ«":2401,"ãģĵãĤĮãĤĴ":2402,"ãĤĴãģĻãĤĭãģ®":2403,"æŃ³":2404,"å¿ħè¦ģãģ¯ãģªãģĦ":2405,"ãĥ¼ãĤ¹ãĥĨãĤ£ãĥ³":2406,"èģŀãģĦãģŁ":2407,"ãģ«è¡Įãģ£ãģŁ":2408,"ä¹±":2409,"è¿Ķ":2410,"éķ·ãģĦ":2411,"åĤ·":2412,"ãĤĴæķĳ":2413,"Ġ100":2414,"ãģĮæľĢ":2415,"ŃĶãģĪ":2416,"ãĤĴåĲ¸":2417,"çĬ¶":2418,"ãģ®éĥ¨å±ĭ":2419,"ãĤĴå¿ħè¦ģãģ¨":2420,"¡Ī":2421,"¥½ãģį":2422,"´łæĻ´ãĤīãģĹãģĦ":2423,"¿ãĤĵãģª":2424,"åĶ¯ä¸Ģ":2425,"æ£":2426,"æ°´":2427,"ç®":2428,"éĮ":2429,"ĠT":2430,"ĬåĪĨ":2431,"ĭãģŃ":2432,"ãĤĭãĤĪ":2433,"Ġãģ¿ãĤĵãģª":2434,"ãģªãģĦãģ§":2435,"ãĥ³ãĥĸ":2436,"Ġç§ģãģ®å":2437,"ãģıãģªãĤĭ":2438,"äºĴãģĦ":2439,"ãĤĴæ¶Ī":2440,"ãģĿãģĵãģ«ãģĦãĤĭ":2441,"ãĤ¤ãĥĦ":2442,"äººãģĮ":2443,"ãģ¡ãĤĩãģ£ãģ¨":2444,"ãģĻãĤĭãģ¨":2445,"è¡¨":2446,"ãģ®æ¯į":2447,"çŁ¥ãĤĬãģŁãģĦ":2448,"ãĤ¢ãĥ¡ãĥªãĤ«":2449,"å¤¢":2450,"ãĤ·ãĤ¢":2451,"äºĭãĤĴ":2452,"ãģ®ãĥĨ":2453,"ãģ¯çµ":2454,"ĠãģĵãĤĮãģĮ":2455,"ãģĿãģĨãģ¨":2456,"æĸĩ":2457,"ãģłãģ£ãģŁãģ®":2458,"ãĤºãĥŃ":2459,"Ń¦æł¡":2460,"çķĻ":2461,"Ġãģ¤ãģ¾ãĤĬ":2462,"ħ¨ãģı":2463,"èģŀãģĵ":2464,"éļł":2465,"ĠãĥķãĤ¡":2466,"ãģ¨æĢĿãģĦãģ¾ãģĻãģĭ":2467,"®ĭãĤĬ":2468,"ãĤĭãģĵãģ¨ãģĮãģ§ãģįãģ¾ãģĻ":2469,"Ġä¸Ģä½ĵ":2470,"æľĢå¾Į":2471,"ĠãĤªãĥ¼":2472,"ĠãĥªãĥĥãĤ¯":2473,"åĵģ":2474,"ĠæľĢå¾Į":2475,"åĥı":2476,"ãĤĴå®Ī":2477,"¨©åĪ©":2478,"ãģ£ãģ¡ãģł":2479,"¬īãģĹãģĦ":2480,"¬ä»»":2481,"¹ãģį":2482,"å¹³":2483,"çĴ":2484,"ĠC":2485,"ĭ¬":2486,"ãĤĴéĢļ":2487,"ãģĭä½ķãģĭ":2488,"Ġå°ĳ":2489,"Ġå¾Į":2490,"ĠåĽŀ":2491,"ãĥ³ãģ¯":2492,"ãģ£ãģ¦ãģĬ":2493,"ãĥ¼ãĥģ":2494,"ãĤĴæĦıåĳ³":2495,"ĠãĤ¬":2496,"ĠæŃ»":2497,"ãĥªãĥ³ãĤ°":2498,"åĪ»":2499,"è¨Ģãģ£ãģ¦ãĤĭ":2500,"éģĬ":2501,"ãģ§ãģįãģ¦":2502,"ãģ¨æĢĿãģ£ãģ¦ãĤĭ":2503,"ãĥ¬ãĥĥ":2504,"éĸĵãģ«":2505,"æľ¬å½ĵ":2506,"ãģ®ãģŁãĤģãģ«æ":2507,"Ġå½¼å¥³ãģ¯ç§ģ":2508,"ãģ¿ãģŁãģĦ":2509,"ä¼ļãģĦ":2510,"çµĤãĤı":2511,"ãģĹãģªãģĦãģ¨":2512,"ĠãĤĤãģ£ãģ¨":2513,"ãģ®ãĤĤãģ®ãģł":2514,"ãĥ¼ãĥĸãĥ³":2515,"ãĤ²ãĥ¼ãĥł":2516,"ĠãģĨãĥ¼ãĤĵ":2517,"ãĤĴæĢĿãģĦ":2518,"æ´»":2519,"ãĤĴçĽĹ":2520,"ãĤµãĥĸãĥ©ãĥ³ãĤ«":2521,"ĠãģĺãĤĥ":2522,"¢¨":2523,"£Ľ":2524,"å°ı":2525,"çĲ":2526,"çı¾":2527,"ĠM":2528,"Ġãģ®":2529,"Ġè¡Įãģĭ":2530,"ĦæĿŁ":2531,"Ī¹":2532,"ĸ²":2533,"ãģ«éĸ¢":2534,"ãĤĴè©±":2535,"Ġãģ»":2536,"ãģĻãģ¹ãģį":2537,"ĠåĢ":2538,"Ġå¿ĺ":2539,"ä½Ļ":2540,"ãĤĬãģ«":2541,"ãģ®åľ°":2542,"Ġå½¼ãģ®":2543,"ãĤ¤ãĥŃ":2544,"ãģ§ãģĻãģŃ":2545,"ãģ¯æ±ºãģĹãģ¦":2546,"è¡Įãģ£ãģ¦":2547,"è¡Įãģ£ãģŁ":2548,"ãĤ¢ãĤ¦ãĥĪ":2549,"ãģĬçĪ¶ãģķãĤĵ":2550,"ãĥŃãĥ¼ãĥ«":2551,"ãĤĴçĿĢ":2552,"ãĤĴè¦ĭãĤĭ":2553,"Ġéł":2554,"ãĥĳãĥ¼ãĥĨãĤ£ãĥ¼":2555,"ãģ®é¡":2556,"ãĤĴæĮģãģ¤":2557,"æĸ°ãģĹãģĦ":2558,"ãĤŃãĤ¹":2559,"éĻĽä¸ĭ":2560,"ãģªãģĳãĤĮãģ°ãģªãĤĬãģ¾ãģĽãĤĵ":2561,"ãĤ±ãĥĦ":2562,"å£°":2563,"éļĬ":2564,"ãģ«ä¼ļãģĨ":2565,"ãĥķãĤ£ãĤ¹":2566,"ĠãĤ¦ãĤ£":2567,"Ġãģ¨ãģ¦ãĤĤ":2568,"ãģĮå¿ħè¦ģãģł":2569,"äºĮåº¦":2570,"ãĤĴæĦĽãģĹãģ¦ãĤĭ":2571,"Ġè¦ĭãģ¦":2572,"ãĤĴä¸İãģĪãĤĭ":2573,"ãģĤãģ¾ãĤĬãģ«ãĤĤ":2574,"ãģ«å¯¾ãģĻãĤĭ":2575,"Ġå¤§ä¸Īå¤«ãģĭ":2576,"Ĳ½ãģ¡çĿĢ":2577,"ĺĺãĤĴ":2578,"²¾ç¥ŀ":2579,"çĲĥ":2580,"£Ĭ":2581,"®æ":2582,"¯æĦĽ":2583,"¸Ĭ":2584,"ºĢ":2585,"å¬īãģĹãģĦ":2586,"æ¡Ī":2587,"ç¬ĳ":2588,"Ġè©±":2589,"ĠãģŃ":2590,"ãģ§ç§ģ":2591,"ãĥ³ãĤ¸":2592,"Ġç§ģãģĮå":2593,"ä½į":2594,"ãģ®åĨ":2595,"ãģ¯åħ":2596,"ĠæŃ£":2597,"ãģĳãģªãģĦ":2598,"ãĤĴåĤ·":2599,"ãģĻãĤĭãģª":2600,"ãģĻãĤĭãģŁãĤģãģ«":2601,"ĠãģĤãģªãģŁãģ¨":2602,"çŁ³":2603,"éģ©":2604,"ĠçĪ¶":2605,"Ġä½ķãģĮ":2606,"ãģŁãģ¡ãģ¯":2607,"ãĥ¬ãĥĵ":2608,"ãĥŃãĥĥãĤ¯":2609,"ãĥŃãĥ¼ãĥ³":2610,"ãģ®ãĥĵ":2611,"éĩı":2612,"ãĥĨãĥ³":2613,"ĠãģĬéĩĳ":2614,"ĠãģĬçĪ¶ãģķãĤĵ":2615,"Ġå½¼ãģ¯ãģĤãģªãģŁ":2616,"æĸ°":2617,"ãģ¿ãģ¾ãģĽãĤĵ":2618,"çŁ¥ãģ£ãģ¦ãĤĭãģ®":2619,"ãĤµãĥ³":2620,"çµĦ":2621,"ãģ¨è¨Ģãģ£ãģ¦ãĤĭ":2622,"çļĦãģ«":2623,"ä¿¡çĶ¨":2624,"æ³ģ":2625,"æĺŁ":2626,"ãĥĶãĥ³":2627,"ãģ§ãģĹãĤĩãģĨãģĭ":2628,"ãĥ©ãĤ¤ãĤ¢ãĥ³":2629,"æľĢãĤĤ":2630,"è²·":2631,"Ī¦äºī":2632,"Ġæķ°":2633,"ĠãĤŃãĥ£":2634,"ãģ«å¯¾ãģĹãģ¦":2635,"è·¡":2636,"Ġç¢ºãģĭãģ«":2637,"ãģ®ãģ§ãģĻãģĮ":2638,"ãģ®å°ĳå¹´":2639,"¤ãģ¡ãĤĥãĤĵ":2640,"¥¿":2641,"¶Ļ":2642,"··":2643,"»èĢħ":2644,"å§":2645,"åĴ":2646,"ĠãĤĪãģı":2647,"Ħļ":2648,"ĮçĴ":2649,"İŁ":2650,"ãģ®ãģĽãģĦ":2651,"ãģªãĤĤãģ®":2652,"ãģ«éĢ£ãĤĮãģ¦":2653,"ãĤĴãģĹãģ¦ãĤĭ":2654,"ãĤĴè¨±":2655,"ãģĹãģ¿":2656,"ãģĹãģ°ãĤīãģı":2657,"ãģ£ãģ¦ãģĦãģ¾ãģĹãģŁ":2658,"ãģįãģ¾ãģĹãģŁ":2659,"ãģ¯åį":2660,"Ġå½¼ãģ«":2661,"ãģĹãģŁãģĵãģ¨":2662,"ãĤĴå½¼":2663,"Ġç§ģãģ¯èĩªåĪĨ":2664,"ãģĻãĤĭãĤĪ":2665,"ãĤģãĤį":2666,"ãģ¯æĪĳãĢħ":2667,"ãģ«æľ":2668,"ãģ«æ°Ĺ":2669,"ãģ§ãģįãģ¾ãģĻ":2670,"èª°ãģ§ãģĻãģĭ":2671,"ãģ®ãĥ¡":2672,"ãĤ°ãĥŃ":2673,"ãĥĹãĥ©ãĤ¤":2674,"Ġéķ·":2675,"Ġå½¼å¥³ãģĮ":2676,"åĲĳ":2677,"å½¢":2678,"ãĥĵãĤ¸ãĥįãĤ¹":2679,"ãĤµãĤ¤":2680,"éĽĩ":2681,"çī¹":2682,"çµ¶":2683,"ç·´":2684,"ä¿¡éł¼":2685,"ãĤ¤ãĥ³ãĥĪ":2686,"å¼Ł":2687,"ãĥĨãĤ£ãĥ¼ãĥĸãĥ³":2688,"ãĤ¬ãĥ¼ãĥ«":2689,"ãģ«èģŀ":2690,"ãĥĶãĥ¼ãĥ«":2691,"æŃ©":2692,"ãģ«æĿ¥ãĤĭ":2693,"ãĤĴåıĸãĤĭ":2694,"ãĥ¢ãĥ¼ãĥĦãĤ¡ãĥ«ãĥĪ":2695,"è³ĩ":2696,"ãĤ®ãĥ£":2697,"ĭĤãģ£ãģ¦ãĤĭ":2698,"éĸĵéģķãģĦ":2699,"ĠãĤ¸ãĥ§ãĥ³":2700,"ç¢ºä¿¡":2701,"ãģ®éłŃ":2702,"ãģ²ãģ©":2703,"ãĤĴæıĲä¾Ľ":2704,"¯æĦĽãģĦ":2705,"ĮçĴ§":2706,"¨ãĥ¼ãĤ¯":2707,"½ª":2708,"½ĵ":2709,"æŀ":2710,"çł´":2711,"çĪĨ":2712,"é©ļ":2713,"éĬĢè¡Į":2714,"ĠF":2715,"ĠãĢį":2716,"ķĻ":2717,"ãĤĨ":2718,"ãģ®ãĤĦãĤĬæĸ¹":2719,"ãģ¯æĢĿ":2720,"ãĤĴãĤĦ":2721,"ãģĹãģıãģªãģĦ":2722,"ãģ£ãģı":2723,"Ġåħ¨ãģ¦":2724,"ãĤĵãģĺãĤĥãģªãģĦ":2725,"Ġãĥł":2726,"ĠãĤ²":2727,"ãĤĴå«Į":2728,"ãĤıãģĭãģ£ãģ¦ãĤĭ":2729,"Ġç§ģãģ¯æ":2730,"ãģ¡ãĤī":2731,"ãĥ«ãĤº":2732,"ãĥ«ãĥİ":2733,"ãģĤãģªãģŁãģ¨":2734,"ĠãģĤãģªãģŁãģĮæ":2735,"çĶ£":2736,"è¨Ģãģ£ãģ¦":2737,"çŁ¥ãĤīãģªãģĭãģ£ãģŁ":2738,"è¦ĭãģ¤ãģĳ":2739,"ãģĿãĤĮãģ«ãģ¤ãģĦãģ¦":2740,"ãĥ¬ãĥĥãĥĪ":2741,"ãģĺãĤĥãģªãģĭãģ£ãģŁ":2742,"ãģ¯ãģĦãģ¤":2743,"ĠãģĵãĤĮãģ¯ä½ķãģł":2744,"ãģªãģĭãģ£ãģŁãģ®":2745,"ãģĹãģ¦ãģĦãĤĭãģ®ãģĭ":2746,"çĶ·ãģł":2747,"åıĭäºº":2748,"ãĥ¡ãĥ©":2749,"ãģ¨ãģĦãģĨãģĵãģ¨ãĤĴ":2750,"æķµ":2751,"ãģ®ä¸Ńãģ«":2752,"å¤§ä¸Īå¤«":2753,"å¤§ãģįãģª":2754,"åħ¨éĥ¨":2755,"ãģķãĤĮãģ¦ãĤĭ":2756,"ãģ«è¡Įãģ£ãģ¦":2757,"ãģ®å¤«":2758,"ãģ«ä¼ļãģ£ãģŁ":2759,"ãĤ¯ãĤ½ãĥ³ãģķãĤĵ":2760,"ãģ®æľ¬":2761,"Ġèª°ãģĭãģĮ":2762,"ãĤĴæįķãģ¾ãģĪãģŁ":2763,"ãģĻãģİãĤĭ":2764,"Įåħ¨ãģ«":2765,"¿ĳãģı":2766,"çĶ³ãģĹè¨³":2767,"ãģĹãģ¾ãģ£ãģŁ":2768,"ãģ«ãģĭãģı":2769,"ç§ĺå¯Ĩ":2770,"ä»²éĸĵ":2771,"çįĦ":2772,"£Ľè¡Įæ©Ł":2773,"äºĮåº¦ãģ¨":2774,"¨æĹ¥":2775,"åĦª":2776,"æĶ¾":2777,"çĨ":2778,"èĬ":2779,"èī²":2780,"éŃĶ":2781,"Ġä¸ĸçķĮ":2782,"Ħå¼Ł":2783,"ĬĽ":2784,"įµ":2785,"ķé£Ł":2786,"Ļº":2787,"ŀ¬":2788,"ãģĦãģ¤":2789,"ãģ®è¨ĢãģĨ":2790,"ãģ¯ãĤĪãģĨ":2791,"ãģªãĤĬ":2792,"ãģĮä½ķãĤĴ":2793,"ãģĮãģ§ãģįãĤĭ":2794,"ĠåĬ©ãģĳ":2795,"ãģ¾ãĤĮ":2796,"ãģ£ãģ¦ãģįãģŁ":2797,"ãģ£ãģŁãĤĮ":2798,"ãĤ¹ãĤ¯":2799,"ãĤ¹ãĤ³":2800,"ãĥ¼ãĥ¬":2801,"ãĥ¼ãĥĩ":2802,"ãĤĴæĶ¾":2803,"ĠãĤ½":2804,"ĠæĤª":2805,"ãĤ¯ãĥĪ":2806,"ãĤıãĤĮãģŁ":2807,"Ġç§ģãģ¯ãģĿ":2808,"ãĥ«ãĥķ":2809,"ĠãģĿãĤĮãģ«":2810,"å¥´":2811,"éĸ£":2812,"ĠçĽ®":2813,"Ġä½ķãģłãģ¨":2814,"ãģ«æĦŁè¬Ŀ":2815,"ä¿®":2816,"äºĭãģ¯":2817,"ãģĮæĤªãģĦ":2818,"ä»Ĭå¤ľ":2819,"ãģĮãģĤãĤĭãģ®":2820,"ãģĹãģ¦ãģĦãĤĭãģ®":2821,"åı¯èĥ½æĢ§":2822,"å½¹":2823,"ãģĵãģ¨ãģĮãģ§ãģįãģŁ":2824,"ãģ«åħ¥ãĤĭ":2825,"èĢĥãģĪãĤĭ":2826,"ãģ«ç«ĭ":2827,"åħ¨ãģ¦":2828,"èģŀãģĦãģ¦":2829,"è³ªåķı":2830,"ĠãĤ¯ãĤ·":2831,"ãģ®åŃĲä¾Ľ":2832,"ãĤ¸ãĥ£ãĥ¼":2833,"ãĥ¼ãĥªãĥ³":2834,"äºĮäºº":2835,"ĠæķĻãģĪãģ¦ãģıãĤĮ":2836,"ãĤĴå¾ĹãĤĭ":2837,"ãģ¨åĲĮãģĺãĤĪãģĨãģ«":2838,"Ġä¸ĩãĥīãĥ«":2839,"è·¯":2840,"ĠåĨĹè«ĩ":2841,"ãĥģãĤ§ãĥĥãĤ¯":2842,"éĻįãĤĬ":2843,"ĠãģĤãģĤãģĿãģĨãģłãģª":2844,"£ģ":2845,"½¢":2846,"æĤ":2847,"æºĸåĤĻ":2848,"é¦ĸ":2849,"ĠB":2850,"ãģ®ãģªãģĦ":2851,"ãģ¯ãģĦãģĦ":2852,"ãģ¯ãĤĤãģĨ":2853,"ãĤĴè¨ĢãģĨ":2854,"ãĤĴéĽ¢":2855,"ãģĹãģĭ":2856,"ãģ¨çµĲå©ļ":2857,"ãģĵãģ®å":2858,"Ġå¿ĥéħį":2859,"Ġç§ģãģ«ãģ¯å":2860,"Ġãĥ¶æľĪ":2861,"äºĨ":2862,"ãĥ¼ãĥĴ":2863,"ãĤĴæİ":2864,"ãĤĴæ®ĭ":2865,"ãģĿãĤīãģı":2866,"ãģ¯å®¶":2867,"ãĤ¤ãĥ¤":2868,"Ġç§ģãģ¯ãģĤãģªãģŁãģĮ":2869,"è¨ĵ":2870,"ĠãģĿãĤĮãģĮç§ģ":2871,"ãģ«åĪ":2872,"Ġãģĵãģ£ãģ¡ãģł":2873,"ãģ®æŃ»":2874,"å½¼ãģ«":2875,"ãģĭãĤīæĿ¥":2876,"ãĥīãĤ¥":2877,"ãģĬäºĴãģĦ":2878,"ĠãģĿãģĨãģªãģ®":2879,"ãĥķãĥĪ":2880,"ä»ĬæĹ¥":2881,"ĩºãģ¦":2882,"Ġ15":2883,"ĠéĬĥ":2884,"ãģ®éļ":2885,"ãģ®éĿ":2886,"ĠãģĦãģĦãģ®ãĤĪ":2887,"åħĥ":2888,"ãģ¯ä½ķãģĭ":2889,"é¡ĺ":2890,"çĶŁæ´»":2891,"ãĤĤãģĨä¸Ģåº¦":2892,"éĻ¸":2893,"ç·ļ":2894,"çĽ¸":2895,"æĺłçĶ»":2896,"ãĥĶãĥ¼":2897,"ãģ«ç½®":2898,"ãĥ¯ãĥ¼":2899,"ãģ¯æľ¬":2900,"èŃĺ":2901,"Ġä¸Ģäºº":2902,"Ġ50":2903,"ãĤĴå¾ĹãģŁ":2904,"ĠèģŀãģĦãģ¦ãģıãĤĮ":2905,"ãģ¨åĳ¼ãģ°":2906,"æĭł":2907,"ĤãĤıãĤĬãģł":2908,"ãĥ¥ãĥ¼ãĥ¨ãĥ¼ãĤ¯":2909,"å®¢æ§ĺ":2910,"æĽľæĹ¥":2911,"ãĤĴãģ¤ãģĳãģ¦":2912,"ãĤ°ãĥĬãĥ³":2913,"ĠãģŃãģĪ":2914,"ãĤĴåĤ·ãģ¤ãģĳ":2915,"°ĭãģŃ":2916,"±ħ":2917,"æ¨":2918,"æ®":2919,"æ¶Ī":2920,"ĠK":2921,"ĠP":2922,"İĩ":2923,"ķãģĴ":2924,"ãģ®ãĤ¨":2925,"ãģ®ãģĻãģ¹ãģ¦":2926,"ãģŁãģ®ãģĭ":2927,"ãģ«ç§ģ":2928,"ãĤĴãģĹ":2929,"ãĤĴãģĹãģ¦ãģĦãģ¾ãģĻ":2930,"ãĤĭãĤĵãģł":2931,"ãģĮãģĻãĤĭ":2932,"ç§ĳ":2933,"ãģĻãģ®":2934,"ãĥ¼ãĤ¿":2935,"Ġåķıé¡Į":2936,"ãĥ³ãĥĹ":2937,"Ġãĥ´":2938,"Ġãĥļ":2939,"ãĤĴæ¸¡":2940,"ãģ¯åĪĨ":2941,"ĠæĤªãģĦ":2942,"ĠæŃ¢":2943,"ãĤĴåħ":2944,"äººãģ§ãģĻ":2945,"Ġç§ģãģ¯ãģĿãģĨ":2946,"æĢ¥":2947,"æĢĴ":2948,"ĠãģĿãĤĮãģ¯ä½ķãģł":2949,"è¦ĭãģĽ":2950,"ãĤĪãģĨãģł":2951,"ãĤĦãģĻ":2952,"éĢ®æ":2953,"èĢ³":2954,"ĠãģĬãģ¯ãĤĪãģĨ":2955,"ãĤĮãģ¦ãģĦãģ¾ãģĻ":2956,"ãĤĴèĦ":2957,"å¾Ĵ":2958,"ãģ®éĽ":2959,"ãĥ¼ãĥ«ãĥī":2960,"ãĤŃãĥ³":2961,"ãĤªãĥ¼":2962,"Ġãģ©ãģĨãģŀ":2963,"ãģ«åħ¥ãĤīãģªãģĦ":2964,"çĻ½ãģĦ":2965,"ľŁå¾ħ":2966,"ãģ«ãģĦãĤĭãģ®":2967,"ĠãģĻãģĶãģĦ":2968,"ĠãĥĳãĥĪãĥªãĥĥãĤ¯":2969,"ãĤ·ãĥ§ãĥ¼":2970,"ĠãĤ¦ãĤ©":2971,"ãģ®ä¸Ģäºº":2972,"åĲįåīį":2973,"ãģ¨ãģ¯æĢĿãĤıãģªãģĦ":2974,"ãģ«åĲĳ":2975,"éĩįè¦ģãģª":2976,"Ġå®ŁéļĽ":2977,"Ġãģ©ãģĨãģĦãģĨæĦıåĳ³ãģ§ãģĻãģĭ":2978,"ãģ§åĥįãģĦãģ¦":2979,"ĠãĤªãĥ¼ãĤ±ãĥ¼":2980,"åĴĮ":2981,"ãĥ¼ãĥĴãĥ¼":2982,"éĢ®æįķ":2983,"®´":2984,"¶Ń":2985,"ç«":2986,"èĦ":2987,"ĠG":2988,"ĠI":2989,"Ġä¸į":2990,"Ġèª¿":2991,"ģèŃ·":2992,"ĺłçĶ»":2993,"ãģ¥":2994,"ãĤ¾":2995,"ãģªãĤĪ":2996,"ãĤĴãģĭ":2997,"ãģ¨ãģĭ":2998,"ãģ¨ãģĹãģŁãĤī":2999,"ãĤĮãģĦ":3000,"ãģ§å½¼":3001,"ç§Ĵ":3002,"ãģĨãģ®":3003,"ãģªãģĦãģ®ãģĭ":3004,"Ġå°ĳãģĹ":3005,"ãģ¾ãĤĮãģŁ":3006,"ãĤĤãĤī":3007,"ãĤīãĤĮãģ¦ãģĦãĤĭ":3008,"ãĤ¹ãĥĳ":3009,"ãĤ¤ãĥĸ":3010,"Ġç§ģãģ¯ãģĵ":3011,"ĠãģĤãģªãģŁãģ¯å½¼":3012,"åĪ¶":3013,"çŁ¥ãģ£ãģ¦ãģŁ":3014,"çŁ¥ãĤīãģĽ":3015,"ãĤĪãģĨãģªãĤī":3016,"Ġä½ķãģ®è©±ãĤĴ":3017,"ãĤ·ãĤ§":3018,"ãĥ¬ãĥ¼ãĥĪ":3019,"ãĥŃãĤ·ãĥ¼":3020,"ãĥķãĥ©ãĥ³ãĤ¯":3021,"ãĥķãĥ©ãĥ³ãĤ¹":3022,"ãģĺãĤĥãģªãģĦãģĭ":3023,"Ġè²":3024,"ãĤĴçł´":3025,"ãģĹãģ¦ãĤĭãĤı":3026,"ãģ§ãģ¯ãģªãģĭãģ£ãģŁ":3027,"ãĤ«ãĤµãĥĸãĥ©ãĥ³ãĤ«":3028,"ãģĮåı":3029,"ãĥĨãĤ¹ãĥĪ":3030,"ĠãģĵãĤĮãģ¯ç§ģ":3031,"ãģ®èĭ":3032,"ãĤĤãģĹãĤĮãģªãģĦ":3033,"ãĤŃãĥ¥":3034,"ãĤĭãģ®ãĤĪ":3035,"ä¸ĬãģĮ":3036,"åĩºãģĹãģŁ":3037,"ĠãģĦãģ¤ãĤĤ":3038,"çĽĹ":3039,"ãģ«åħ¥ãĤĮ":3040,"æķĻãģĪãģ¦":3041,"ç§ģãģŁãģ¡ãģĮ":3042,"åįģåĪĨ":3043,"å¤§ãģª":3044,"ãĤ»ãĥĥãĤ¯ãĤ¹":3045,"ãĥ³ãĥĪãĥ³":3046,"ãĥ³ãĥīãĥ¼ãĥ«":3047,"ãĥįãĥ«":3048,"Ġå¤ī":3049,"Ġå¤ĸ":3050,"å®ŁéļĽ":3051,"ãģ«ä¼ļãģĦ":3052,"ĠãĤ³ãĥ¼ãĥ«":3053,"ãģ®åł´åĲĪ":3054,"åŃ¦æł¡":3055,"ł±åĳĬ":3056,"ãģ¯æŃ»ãĤĵãģł":3057,"ãĥ»ãĥ»ãĥ»":3058,"è¨¼æĭł":3059,"Ġç´łæĻ´ãĤīãģĹãģĦ":3060,"Ġãĥģãĥ£":3061,"ãĤĤãģĦãģĦãģ§ãģĻãģĭ":3062,"ãģ®å°ĳå¥³":3063,"ãĥ³ãĥĸãĥªãĥ¼":3064,"¹ãģįé£Ľãģ°":3065,"ãģ²ãģ©ãģĦ":3066,"ãģ£ãģıãĤĬ":3067,"è¨ĵç·´":3068,"¶ŃæĮģ":3069,"!!":3070,"¤ľ":3071,"ªæ":3072,"·±":3073,"Ġè¦ļãģĪãģ¦":3074,"ĥįãģĦãģ¦":3075,"ĩį":3076,"ĸå¼ķ":3077,"ĽãĤĢ":3078,"ŁãĤĬ":3079,"ãĥĮ":3080,"ãģ®ãĥĪ":3081,"ãģ®ãģıãĤīãģĦ":3082,"ãģ®éĸ¢ä¿Ĥ":3083,"ãģ¯ãģļ":3084,"ãģ¯ãģ¾ãģł":3085,"ãĤĴãģĹãģŁãģĦ":3086,"ç§ģãĤĴ":3087,"Ġåīį":3088,"ãĤĪãģŃ":3089,"ãĥ¼ãĥĢ":3090,"ãĥ¼ãĥĭ":3091,"ãĥĥãĤ»":3092,"ãģ®å°ıãģķãģª":3093,"è¦ı":3094,"ãģĹãģŁãĤĵãģł":3095,"ä»ĭ":3096,"ãģ§ãģĻãģĮ":3097,"ãĤıãģĭ":3098,"äººãģĭ":3099,"Ġç§ģãģ¯ãģĿãĤĮãĤĴ":3100,"ãģĽãģªãģĦ":3101,"ãģĻãĤĭãĤı":3102,"ĠãģĤãģªãģŁãģ¯ä½ķ":3103,"å¥´ãĤī":3104,"èªī":3105,"Ġãģĵãģ®æ":3106,"ãģ®æ¨©åĪ©":3107,"ãģĭãĤīãģł":3108,"ãģĭãĤīãģ§ãģĻ":3109,"è¨ĢãģĦ":3110,"è¡Įåĭķ":3111,"ãģĿãĤĮãĤĴå":3112,"Ġä½ķãģ¦":3113,"ãģĬåīįãģ¯":3114,"Ġè»Ĭ":3115,"ãģ®ãĥĸ":3116,"ãģ«ãģªãģ£ãģ¦ãĤĭ":3117,"ä¸Ńãģ§":3118,"ãģ¯å½¼ãģĮ":3119,"åħ¬":3120,"ãģ¿çī©":3121,"ãĥĲãĤ¹":3122,"ãģ¯ä½ķãĤĤãģªãģĦ":3123,"éĽĨ":3124,"æ°ĹåĪĨ":3125,"ãģ«ãģ¤ãģĦãģ¦è©±":3126,"ãĤ¹ãĥĪãĥ³":3127,"®ºãģķãĤĮãģŁ":3128,"çļĦãģ«ãģ¯":3129,"ãĥŁãĤ»ãĤ¹":3130,"ãĥ¼ãĥ³ãĤº":3131,"ãģ«è¿":3132,"ãģķãģĽãģ¦ãģıãĤĮ":3133,"åĬł":3134,"ãģĭãĤĤãģĹãĤĮãģªãģĦãģĮ":3135,"ãģ®ãĤĪãģĨãģ«æ":3136,"ĠãģĻãģ¿ãģ¾ãģĽãĤĵ":3137,"æľĢåĪĿ":3138,"ä¼ĿãģĪãģ¦ãģıãĤĮ":3139,"ãĥģãĥ£ãĥ³ãĤ¹":3140,"å·ŀ":3141,"éł¼ãĤĵãģł":3142,"èŃ¦å¯Ł":3143,"éĢļãĤĬãģł":3144,"ä»ĺãģĳ":3145,"ãĤĴæĢĸ":3146,"èĭ±":3147,"ãģ®éłĥ":3148,"Ńĺåľ¨":3149,"Ġå¥´ãĤī":3150,"ªģçĦ¶":3151,"ãĥ¼ãĥĵãĤ¹":3152,"ãĤĴç¢ºèªį":3153,"··ä¹±":3154,"ģèŃ·å£«":3155,"¢ãģĦ":3156,"°¸":3157,"·±ãģĦ":3158,"¾ĵ":3159,"¿Ĵ":3160,"åŃ":3161,"æ»":3162,"æ±Ĥ":3163,"é§":3164,"ĥ³":3165,"ãĤĴè¦ļ":3166,"ãģĮãģĭ":3167,"ãģĮãģĤãĤĬ":3168,"ãĤĮãģłãģĳ":3169,"ãģªãģĦãĤı":3170,"Ġå¹¸éģĭ":3171,"ãĥ³ãĤ¿":3172,"Ġç§ģãģ®çĪ¶":3173,"ãģıãģ¤ãģĭ":3174,"ĠãĥĴ":3175,"ãĤĴæ®´":3176,"ãģ®åĪ":3177,"ãĤ¤ãĥĹ":3178,"ä»¤":3179,"ãģĪãģ¾ãģĻ":3180,"äººãģŁãģ¡":3181,"Ġç§ģãģ¯ãĤĤãģĨ":3182,"ãģĻãĤĭãģ®ãģ¯":3183,"ãģĤãģªãģŁãĤĴ":3184,"ĠãģĤãģªãģŁãģ®æ":3185,"çŁ¥ãģ£ãģ¦ãģĦãģŁ":3186,"ãģĦãģĦãģĭ":3187,"Ġä½ķãĤĤãģªãģĦ":3188,"ãģ§ãģįãģ¾ãģĻãģĭ":3189,"ãģĬãĤĬ":3190,"äºĭä»¶":3191,"èª°ãģĮ":3192,"ãģ®ãĥļ":3193,"ãĤĴçĬ¯":3194,"ãĤ°ãĥ©":3195,"ĠãģĵãĤĮãģ¯æ":3196,"ĠåĲĽãģ¯æ":3197,"ãĥĳãĥ³":3198,"ãģĿãģĨãģ§ãģĻ":3199,"ãģĿãģĨæĢĿãģĨ":3200,"åı¯":3201,"åıĭ":3202,"ãĥĵãĥ³":3203,"æĻĤãģ«":3204,"ĲĨçĶ±":3205,"åº«":3206,"ãģĵãģ¨ãģ¯ãģ§ãģįãģ¾ãģĽãĤĵ":3207,"ä¾ĭ":3208,"ãĥŁãĥ¥":3209,"ãĥŁãĤ¹ãĤ¿ãĥ¼":3210,"æķħ":3211,"ç´ł":3212,"ç´łæĻ´ãĤīãģĹãģĦ":3213,"ãĤ¬ãĥ³":3214,"ãĤ»ãĥĥãĥĪ":3215,"åº¦ãĤĤ":3216,"ãĥĻãĤ¹":3217,"ãĥĻãĥĥãĥī":3218,"ãĥ³ãĥĪãĥŃãĥ¼ãĥ«":3219,"ĠãģķãĤĪãģĨãģªãĤī":3220,"èµ·ãģį":3221,"ãĥ¯ãĥ¼ãĥī":3222,"ãģŁãģłãģ®":3223,"å±Ģ":3224,"ĠãĥķãĤ£":3225,"Ĺħè¡Į":3226,"éĿĻ":3227,"åĢĻ":3228,"èĪĪåĳ³":3229,"ãĤīãģĽãĤĭ":3230,"ãģ©ãģĵãģ«ãģĤãĤĭ":3231,"ĠçµĲå©ļ":3232,"Ġãĥľãĥĸ":3233,"ĠèģŀãģĦãģ¦":3234,"ãĤ¥ãĥ³ãĥĸãĥªãĥ¼":3235,"åīĩ":3236,"ĠãģıãģĿãģ£ãģŁãĤĮ":3237,"ä¸Ģäººãģ§":3238,"éĽ£ãģĹãģĦ":3239,"ãģĭãĤīåĩºãģ¦":3240,"èĪ¹éķ·":3241,"ãĤĴæŃ¢ãĤģ":3242,"æĬľãģĳ":3243,"ĠèŃ¦å¯Ł":3244,"æ£Ĵ":3245,"Ġè¡ĮãģĭãģĽãģ¦ãģıãĤĮ":3246,"±¡":3247,"åĩ¦":3248,"æ¬²":3249,"æ¬¡":3250,"æģĲ":3251,"æ¨©":3252,"èĲ½":3253,"éº":3254,"ĠO":3255,"ĠãĤĴ":3256,"ĠãĢģ":3257,"Ĩį":3258,"ĵį":3259,"Ľ²":3260,"Łº":3261,"łĶ":3262,"ãģ®ãģ«":3263,"ãģ¯ãģĹãģªãģĦ":3264,"ãģ¯ãģ¨ãģ¦ãĤĤ":3265,"ãģĭãĤĮ":3266,"ãĢģãĢĮ":3267,"Ġåĭķ":3268,"ãĤĤãģł":3269,"ãĤīãģ«":3270,"ä½Ĳ":3271,"Ġãĥ¤":3272,"ĠãĤ´":3273,"ãĤ¯ãĥ¬":3274,"ãĤ¯ãĤ·ãĥ§ãĥ³":3275,"ãĤĴåį":3276,"ãĤĴå£²":3277,"ãĤ¤ãĤ¢":3278,"ãģĻãĤĭãģŁãĤģ":3279,"ãģĤãģªãģŁãģ¯ç§ģ":3280,"ãģ«åĢ":3281,"è¡Ľ":3282,"ĠãģĵãĤĵãģª":3283,"ãĤ¢ãĤ¤":3284,"ãĤ¢ãĥªãĥ¼":3285,"è©ķ":3286,"ãĤ¸ãĥ¼":3287,"å®ī":3288,"ãģ®çī©":3289,"ãģĮæ°Ĺ":3290,"ãģĮæĪ»ãģ£ãģ¦":3291,"ãģĺãĤĥãģªãģĦãģ®ãģĭ":3292,"ãģ®ãĥĻ":3293,"ãĤĴç¶ŃæĮģ":3294,"ãĤ«ãĥ¼ãĥī":3295,"Ġãģ©ãĤĮãģıãĤīãģĦ":3296,"ĠãģĬæ¯įãģķãĤĵ":3297,"ãĤĮãģ¦ãģĦãģŁ":3298,"Ġ12":3299,"ãģ®éĬĥ":3300,"ãģ®éŁ³":3301,"ãģ®èĥ":3302,"ãģ®èħ":3303,"ãĤ³ãĥ¼ãĥĪ":3304,"Ġç§ģãģŁãģ¡ãģĮ":3305,"ãĤµãĥ¼ãĥĵãĤ¹":3306,"Ġå½¼ãĤīãģĮ":3307,"Ġå½¼ãĤīãģ¯ç§ģ":3308,"ãĤªãĤ«":3309,"ãĤªãĥķãĤ£ãĤ¹":3310,"ãĤĵãģ§ãģĦãģ¾ãģĻ":3311,"ãĤ¨ãĥ´ãĤ¡ãĥ³":3312,"ĪĳåĭĻæīĢ":3313,"å¤§çµ±éłĺ":3314,"Ġä¿ºãģĮ":3315,"Ġãģ¾ãģļ":3316,"ãĥľãĥ¼ãĥ«":3317,"ãĤĴæĮģãģ£ãģ¦ãģĦãģ¾ãģĻ":3318,"ãģ¯ãģ©ãģĨãģ§ãģĻãģĭ":3319,"è¦ªæĦĽ":3320,"åħ¨ä½ĵ":3321,"ãģ®ãģĵãģ¨ãģł":3322,"ãĥ¢ãĥ³":3323,"ĠãĤĤãģĨä¸Ģãģ¤":3324,"ĹħéĻ¢":3325,"å¸«":3326,"ĠãģĪãģ£":3327,"ãĥĽãĥ¼ãĥŀãĥ¼":3328,"ä»¥æĿ¥":3329,"ä»¥å¤ĸ":3330,"ãĥªãĤ¢ãĥł":3331,"æł¼":3332,"ãĤĴèģŀãģĦãģ¦":3333,"ãģĿãĤĵãģªãģĵãģ¨ãĤĴ":3334,"ĠãĤ·ãĥ£":3335,"ãĤĴæīĭãģ«åħ¥ãĤĮãĤĭ":3336,"çĬ¯":3337,"Ġç´ĦæĿŁ":3338,"ĠãĤıãģĭãģ£ãģŁ":3339,"ãģ®æīĭç´Ļ":3340,"ĠãģıãģĿãģ£":3341,"Ġåįĥ":3342,"ãĤīãĤĮãģªãģĭãģ£ãģŁ":3343,"ãĤĴå¤±ãģ£ãģŁ":3344,"Ĭ¯ç½ª":3345,"Ġæĸ°ãģĹãģĦ":3346,"ãĥĥãĥĳãĥ¼":3347,"è¨Ńå®ļ":3348,"Ġæľ¬æ°Ĺ":3349,"ä¸¡è¦ª":3350,"Ĳæ§ĭ":3351,"éĿŀå¸¸":3352,"Ġãģ¡ãĤĩãģ£ãģ¨å¾ħãģ¦":3353,"ĩºæĿ¥ãģªãģĦ":3354,"Ġå°ĳãģªãģıãģ¨ãĤĤ":3355,"ĺĺãĤĴãģ¤":3356,"Ġä½ķãģ®è©±ãĤĴãģĹãģ¦ãĤĭãģ®":3357,"è¦ªæĦĽãģªãĤĭ":3358,"in":3359,"st":3360,"£ı":3361,"£èĢħ":3362,"¤ĩ":3363,"³ķ":3364,"¸¸":3365,"å¨":3366,"å°ıãģķãģª":3367,"æ®ĭ":3368,"æģ¯åŃĲ":3369,"æĶ¿":3370,"çĸĳ":3371,"è¶":3372,"è¸Ĭ":3373,"é¤":3374,"Ġè¡Įãģı":3375,"Ġéģħ":3376,"Ĭł":3377,"ĲĮ":3378,"ĸãĤĬ":3379,"ãĥ¨":3380,"ãģ®ãĤ¿":3381,"ãģ¯ãģªãģĭãģ£ãģŁ":3382,"ãģªãĤĵãģ¦":3383,"ãĤĭãģªãĤī":3384,"ãĤĭãģŁãĤģ":3385,"ãģ§ç":3386,"ãģ§ä¼ļ":3387,"ãĥ¼ãĤµãĥ¼":3388,"Ġå¯":3389,"Ġç§ģãģ®äººçĶŁ":3390,"ä½ķãģĹãģ¦ãĤĭãģ®":3391,"ä½ķåº¦ãĤĤ":3392,"ãģ®å¼":3393,"ãģ®å¿ĥ":3394,"ãģ¯å°ĳãģĹ":3395,"Ġæ¯":3396,"Ġæ¯į":3397,"ĠæĶ¾":3398,"ãĤıãĤĮ":3399,"ãĤıãģĳ":3400,"ãĤıãģªãģĭãģ£ãģŁ":3401,"äººéĸĵ":3402,"å¥¥":3403,"æĢĿèŃ°":3404,"ãģĿãĤĮãĤī":3405,"å¤ļ":3406,"Ġä½ķãģĮèµ·":3407,"ãģĬãģĿãĤīãģı":3408,"ãģ¾ãģĽãĤĵãģĭ":3409,"ãĤ¸ãĥ¥":3410,"ãģ®çķª":3411,"Ġèĭ":3412,"Ġèī¯ãģĦ":3413,"ãĤĴç´":3414,"ãĤĴè¦ĭãĤį":3415,"ãģ«ãģªãģ£ãģ¦":3416,"ãģĮåħ¥":3417,"ãģĵãģ¨ãģĮãģĤãĤĬãģ¾ãģĻãģĭ":3418,"Ġéļ":3419,"ãĥĳãĥĪãĥªãĥĥãĤ¯":3420,"ãĤĴè§£":3421,"ãģ®é«":3422,"ãģĿãģĨãģłãģ£ãģŁ":3423,"ãĤ³ãĥ¼ãĥ«":3424,"ãĤ³ãĥ³ãĥĪãĥŃãĥ¼ãĥ«":3425,"åıİ":3426,"ãĥĲãĥ³":3427,"Ġä»ĬæľĿ":3428,"Ġå½¼ãĤīãģ¯å":3429,"ãģ¨è¨Ģãģ£ãģ¦ãģĦãĤĭ":3430,"è¡ĮãģıãĤı":3431,"¤§ä¸Īå¤«":3432,"ãĥŁãĤ¹":3433,"éģķãģĦ":3434,"ç´Ķ":3435,"ãĥĩãĤ£ãĥ¼":3436,"ãĤĴãģĻãĤĭãģ¤ãĤĤãĤĬ":3437,"Ġãĥŀãĥ³":3438,"ĠãĤ¢ãĥ¡ãĥªãĤ«":3439,"èĩªåĪĨèĩªèº«":3440,"ä»ĸãģ®":3441,"çĻ¾":3442,"å¯Ŀ":3443,"å¾Įãģ«":3444,"èģŀãģĦãģ¦ãģıãĤĮ":3445,"ĠãĤ¯ãĤ½":3446,"ãģ«ãģĻãĤĭãģª":3447,"ãĥĽãĥĨãĥ«":3448,"ĠåĪĨãģĭãģ£ãģ¦ãĤĭ":3449,"¥½ãģĹ":3450,"ãĤ¸ãĤ§ãĤ·ãĥ¼":3451,"ãĤĴæīĭä¼Ŀ":3452,"ĠãģłãģĮ":3453,"ãĥ¼ãĥªãĥĪãĥ«":3454,"æĥĳ":3455,"è¾ŀ":3456,"èª°ãģĭãģĮ":3457,"å°Ħ":3458,"ãģ§æŃ»":3459,"ãĤĴèªŃ":3460,"ãģĮå¥½ãģįãģ§ãģĻ":3461,"ĠãĥĨãĥĥãĥī":3462,"ãĤ³ãĥ³ãĥĶ":3463,"ãĤĴãģĹãģ¦ãģĦãĤĭãģ®":3464,"èŃ°è«ĸ":3465,"éģİãģİ":3466,"ãģ¯å¤§ä¸Īå¤«":3467,"ãģ®çĪ¶è¦ª":3468,"Ġãģ©ãģĵãģ«è¡Įãģıãģ®":3469,"«ĮãģĦ":3470,"ãĥ¼ãĤ¤ãĥķãĥ¬ãĥ³ãĥī":3471,"åħĪçĶŁ":3472,"Ġå¾ħãģ£ãģ¦ãģıãĤĮ":3473,"å¦Ļ":3474,"è¼ª":3475,"ç©¶":3476,"ãģ®çĤº":3477,"ãģĮæľĢåĪĿ":3478,"éĮ²":3479,"ãģ®åĨĻçľŁ":3480,"Ġéķ·ãģĦ":3481,"çĶ³ãģĹè¨³ãģĤãĤĬãģ¾ãģĽãĤĵ":3482,"ãĥ¼ãĥĢãĥ¼":3483,"ãĤĴæĢĸãģĮ":3484,"er":3485,"£°":3486,"¤º":3487,"¨ª":3488,"¸Ľ":3489,"¿ł":3490,"è§":3491,"èĮ":3492,"é¢¨":3493,"ĠL":3494,"Ġä¿¡ãģĺ":3495,"ĥį":3496,"Īå¥":3497,"ĪĪåĳ³":3498,"Į»èĢħ":3499,"ĲĪ":3500,"ĸ°ãģĹãģĦ":3501,"Ńãģĳ":3502,"ãģ¼":3503,"ãĥ¦":3504,"ãģ¯ãģĤãĤĬãģ¾ãģĻãģĭ":3505,"ãģ¦ãģĦãģŁ":3506,"ãģ«ãģĤãģªãģŁ":3507,"ãģ«ä½ķãĤĴ":3508,"ãģ«ä»»":3509,"ãĤĴãģ©ãģĨ":3510,"ãĤĴä¸ĭ":3511,"ãģĭãģªãģĳãĤĮãģ°ãģªãĤīãģªãģĦ":3512,"ãģ§ä½ķ":3513,"ãĥ¼ãĤ¹ãĥĪ":3514,"ãģĵãģĨ":3515,"Ġå·":3516,"Ġåľ°":3517,"ĠåĲį":3518,"Ġåħ¨éĥ¨":3519,"ĠåĲĮãģĺ":3520,"ãĤĤãģĤãĤĭ":3521,"ãĤĤãģ¡ãĤį":3522,"Ġãĥ¨":3523,"äº¡":3524,"ãĤ¹ãĥĶ":3525,"ãĤ¹ãĥļ":3526,"ãĥ¼ãĥĳ":3527,"ä½ķãģł":3528,"ãĤĴæ±Ĥ":3529,"ãģ®åģ":3530,"ãģ®å¦»":3531,"ĠæĿ¥":3532,"ãĤ¯ãĤ·ãĥ¼":3533,"ãĤĴåħ¥":3534,"ãĤĴåŃ¦":3535,"ãĤıãģĦ":3536,"ãĤıãģªãģĳãĤĮãģ°ãģªãĤīãģªãģĦ":3537,"ãĥ«ãĥ¼ãĥ«":3538,"ãĥªãĤ¨":3539,"ãĥªãĥĥãĥĹ":3540,"ãĥ©ãĤºãĥŃ":3541,"ãģ©ãĤĮãģıãĤīãģĦ":3542,"è¦ĭãģĪãģªãģĦ":3543,"Ġçī¹":3544,"ãģĬè©±":3545,"äºĭãģł":3546,"ãĤ¿ãĥ«":3547,"ãģ®ç¨®":3548,"åĪĨãģĭ":3549,"ĠèĲ½ãģ¡çĿĢ":3550,"ä»Ĭãģ¾ãģ§":3551,"ãĤĴç¤º":3552,"ãģ®èĩª":3553,"ãĤ³ãĤ¹":3554,"ãģ¿ãģ¾ãģĻ":3555,"åı¸":3556,"ãĥĲãĤ³":3557,"ãĥĵãĥ«":3558,"ĠãģĿãĤĮãģ¯ãģĻãģ¹ãģ¦":3559,"éĽ»":3560,"ãĥĭãĤ¢":3561,"èĩªçĶ±":3562,"æ°Ĺãģ«ãģĹãģªãģĦ":3563,"åº§":3564,"ãģ¨ãģĦãģĨãģ®ãģ¯":3565,"Ġèª°ãģł":3566,"ĠãģĦãģıãĤī":3567,"ãĤ¨ãĤ¹":3568,"ãĤ½ãĥĭãĥ¼":3569,"çī©ãģł":3570,"æķĹ":3571,"åįĥ":3572,"ãģ®äººãģĮ":3573,"å£²":3574,"ĠãĤ¢ãĥ³":3575,"Ġç§ģãģ¯å¤":3576,"ãĥľãĥ¼ãĥ³":3577,"Ġãģĵãģĵãģł":3578,"éĥ¨å±ĭ":3579,"ãĥ´ãĤ§":3580,"å±±":3581,"ĠãĤ¯ãĥªãĤ¹":3582,"å¸Ĥ":3583,"ãģ¦ãĤĭãģ®ãģĭ":3584,"Ġãģ¨ãģ«ãģĭãģı":3585,"å°ī":3586,"é£Ľãģ³":3587,"é£Ľè¡Įæ©Ł":3588,"¼ķãģ£":3589,"ãģ«å½¼å¥³":3590,"ãģ®å¥³ãģ®åŃĲ":3591,"çĬ¬":3592,"ãģ®éĥ¨åĪĨ":3593,"ĠãĥģãĤ§":3594,"ãĤĴãģĬé¡ĺãģĦ":3595,"ĠãĥĽãĥ¼ãĥŀãĥ¼":3596,"æĥħåł±":3597,"Ġç¢ºãģĭãģĭ":3598,"ãģ®åĳ½":3599,"ĠæĦĽãģĹãģ¦ãĤĭ":3600,"åł´åĲĪãģ¯":3601,"èįī":3602,"ĩĥãĤĦ":3603,"èħ¹":3604,"ĠéĻĽä¸ĭ":3605,"ãģ®é¡Ķ":3606,"Ġèª¿åŃĲ":3607,"ĥ³åĥı":3608,"łĶç©¶":3609,"Īå¥®":3610,"¨ãĤĬ":3611,"³ŀ":3612,"·ãģĦ":3613,"¹ä»ĭ":3614,"¾Ĺ":3615,"æİ¢":3616,"æĪ»ãģ£ãģ¦":3617,"æĮĩ":3618,"æ·±ãģĦ":3619,"é³":3620,"éĹ":3621,"é»Ĵ":3622,"Ġè¨Ģãģ£ãģŁ":3623,"ĠçŁ¥ãĤīãģªãģĦ":3624,"īĦ":3625,"įå¯¾":3626,"ĸľ":3627,"ãģ®ãģ¯ç":3628,"ãģ®è¨Ģèĳī":3629,"ãģ¯ãģĤãĤĭ":3630,"ãģŁãĤı":3631,"ãĤĴä¿Ŀ":3632,"ãĤĭãģŁãĤģãģ«":3633,"ãģĹãĤĪãģĨ":3634,"ãģ§ãģĤãĤĬ":3635,"ç§ģãĤĤ":3636,"ãĥ¼ãĤ·ãĥ§ãĥ³":3637,"Ġå¿ħè¦ģ":3638,"Ġç§ģéģĶ":3639,"ãģıãģ®":3640,"ä½İ":3641,"Ġãĥį":3642,"ĠãģĿãģĵãģ«":3643,"ãģ£ãģŁæĻĤ":3644,"ãĤĴæģĲ":3645,"ãģ®å°":3646,"ãģ¯å¿ħè¦ģ":3647,"Ġå½¼ãĤĴ":3648,"ãģķãģĭ":3649,"ãĤ¤ãĤ®":3650,"ãĤıãĤĮãĤĭ":3651,"Ġç§ģãģ¯ãģĦãģ¤ãĤĤ":3652,"ãĥ«ãĤ¤ãĤ¹":3653,"ãģĤãģªãģŁãģĮå":3654,"ãģĤãģªãģŁãģ®ãģŁãĤģãģ«":3655,"ãĥªãĥĨãĤ£":3656,"ĠãģĿãĤĮãģ¯ç§ģãģĮ":3657,"ãģ®æĮĩ":3658,"å½¼ãģ®":3659,"ãģ¯æŃ£":3660,"ãĥīãĥ©":3661,"Ġçģ«":3662,"ãĤįãģĨãģ¨":3663,"ãģ¨æĢĿãģ£ãģ¦ãģĦãģŁ":3664,"ãĤ¸ãĥİ":3665,"Ġèµ":3666,"ãģ®ãĥĢ":3667,"ãĤĴç¥Ī":3668,"ãĤ«ãĥ«":3669,"ãģĮåķıé¡Į":3670,"ãģłãģĳãģ©":3671,"Ġéħ":3672,"ãĥĳãĥ¯":3673,"ãģ®è³":3674,"ãģĿãģĨãģĻãĤĭ":3675,"åħī":3676,"ãģ¿ãĤĪãģĨ":3677,"åı²":3678,"ãĥĲãĥĥãĤ¯":3679,"ä¼ļèŃ°":3680,"ãģķãĤĵãģ¯":3681,"åĲĮ":3682,"å¿ľ":3683,"ĠãģĿãĤĮãģ¯ãģ¨ãģ¦ãĤĤ":3684,"ãĥĭãĥ¥ãĥ¼ãĤ¹":3685,"Ġä»ĬãģĻãģĲ":3686,"ãģĵãģ¨ãģĮãģ§ãģįãģªãģĦ":3687,"çµĲ":3688,"Ġãģ©ãģĨãģĭ":3689,"åĩºãģĹ":3690,"¤§ãģįãģª":3691,"ãģ®ãģ¯çŁ¥ãģ£ãģ¦ãĤĭ":3692,"æķ¬":3693,"ç´°":3694,"ãĤ»ãĥ³ãĥĪ":3695,"ãĥĩãĤ£ãĤ¯ãĤ½ãĥ³ãģķãĤĵ":3696,"ãĥĻãĤ¹ãĥĪ":3697,"ãĤĴæĮģãģ£ãģ¦ãģĦãģªãģĦ":3698,"ãģĹãģŁãģĦãģ®":3699,"éħĴ":3700,"ãĤĴåıĸå¾Ĺ":3701,"Ġå¤©":3702,"Ġå¤±":3703,"ä¸ĸè©±":3704,"ãģ®å¤ĸ":3705,"Ġå¤§çµ±éłĺ":3706,"ĠåĪĨãģĭãģ£ãģŁ":3707,"ĠãĤĦãģĤ":3708,"ãģ»ãģĨ":3709,"ç½²":3710,"è²´":3711,"ãĥªãĤ¢ãĥ³":3712,"ãģ®ä¸Ģãģ¤":3713,"ãģįãģªãģķãģĦ":3714,"æĹ©ãģı":3715,"Ġæ°ĹåĪĨ":3716,"Ġæ°Ĺãģ«ãģĹãģªãģĦ":3717,"ãģĮå¿ħè¦ģãģ§ãģĻ":3718,"ãĤĴèª¿":3719,"ĠãĤ¸ãĤ§ãĤ·ãĥ¼":3720,"ĠãĤ¸ãĤ§ãĥķãĥªãĥ¼":3721,"è¨¼æĺİ":3722,"èĭ¥ãģĦ":3723,"ãģĿãģĵãģ§":3724,"å°ĳå¥³":3725,"Ġå¤§ä¸Īå¤«ãĤĪ":3726,"å§ĭãĤģ":3727,"ĠãģĬé¡ĺãģĦãģł":3728,"åĸĦ":3729,"ãĤĴä¿¡ãģĺãģ¦":3730,"æĢĸãģĦ":3731,"ãģ®ãĤ¢ãĥĳãĥ¼ãĥĪ":3732,"æİ¥":3733,"ĠæŃ³":3734,"ĠãĥĺãĤ¤":3735,"ãģŁãģıãģķãĤĵãģĤãĤĭ":3736,"ãĤĴåĪĩãĤĬ":3737,"éŃļ":3738,"ãģ®çĬ¶":3739,"ãĤĴéĢļãģĹãģ¦":3740,"Ġå¿ĺãĤĮãģ¦":3741,"ãĤ®ãĥ£ãĥ³ãĤ°":3742,"ãģ¯æĢĿãģĦãģ¾ãģĽãĤĵ":3743,"çĨ±":3744,"ĠKI":3745,"åŃĹ":3746,"an":3747,"on":3748,"or":3749,"£ç":3750,"¥²":3751,"ªĵ":3752,"º¦":3753,"»èĸ¬":3754,"çħ":3755,"éŁ":3756,"Ġ'":3757,"ĠN":3758,"įľ":3759,"İãĤīãģĭ":3760,"Ľ°":3761,"Ľ´":3762,"ŀåľ¨":3763,"ãģµ":3764,"ãģĦãģ¯":3765,"ãģ®ãģĵãģ¨ãģ¯":3766,"ãģ®è¦ª":3767,"ãģ®èĢĥãģĪ":3768,"ãģ®ãĥķãĤ¡":3769,"ãģ¯ãģĿãĤĮ":3770,"ãģ¯ãģªãĤīãģªãģĦ":3771,"ãģªãģĵãģ¨ãĤĴ":3772,"ãģ¦ãģĦãģ¾ãģĻ":3773,"ãģĭãģ«":3774,"ãģĭãģł":3775,"ãģ¨ç§ģãģ¯":3776,"ãģĮãģĦãģŁ":3777,"ãģĮãģªãģĭãģ£ãģŁ":3778,"ãģĮãģĤãĤĬãģ¾ãģĽãĤĵ":3779,"ãģĮå½¼å¥³":3780,"ãģĮè¨Ģãģ£ãģŁ":3781,"ãģ§ãģªãģĦ":3782,"ãģĵãģ®æ":3783,"Ġå¼":3784,"Ġå°ıãģķãģª":3785,"Ġå¦»":3786,"ãģ¾ãĤĭ":3787,"ãģ¾ãģ§ãģ¯":3788,"ãģĵãģ¨ãģ«":3789,"ãģįãģĦ":3790,"ãģįãĤĥ":3791,"ãģįãĤĮãģĦ":3792,"ãĥĥãĤ¸":3793,"ãĤĴæľŁå¾ħ":3794,"ĠãĤ®":3795,"ĠãģĤãĤĮ":3796,"ãģ¯å¥½ãģį":3797,"ãģĹãģŁæĻĤ":3798,"ãģķãģªãģĦ":3799,"ĠæģĲ":3800,"ãĤĴå°":3801,"Ġç§ģãģ¯ãģĵãĤĮ":3802,"ãĥ«ãĤ¹":3803,"ãģĤãģªãģŁãģ®æ":3804,"ĠãģĿãĤĮãģ«ãģ¤ãģĦãģ¦":3805,"ĠãģĤãģªãģŁãĤĤ":3806,"å½¼ãĤĴ":3807,"è¨ĢãģĪ":3808,"éĸĢ":3809,"ãģĦãģĦãģ®ãģĭ":3810,"Ġç¬¬":3811,"ä¸ĢæĹ¥":3812,"ãĤįãģĹãģĦ":3813,"ãģ«æĮģ":3814,"ãģĬãģĨ":3815,"ãģ«ãģ¯ä½ķãĤĤ":3816,"å®¹":3817,"ãģĺãĤĥãģªãģĦãģ®":3818,"ãĥĨãĥ¬ãĥĵ":3819,"ãĥĹãĥ©":3820,"ãģ¯çļĨ":3821,"ĠãģĬãĤĦãģĻ":3822,"Ġ19":3823,"å¾ĭ":3824,"ãģ©ãģĨãģª":3825,"ãģ®è¿ĳãģı":3826,"ĠãģĦãģĦãģŃ":3827,"ãģ¿ãģ¾ãģĹãĤĩãģĨ":3828,"ä¼ļãģĪãģ¦":3829,"Ġç§ģãģŁãģ¡ãģ¯å":3830,"ãĤŃãĥªãĤ¹ãĥĪ":3831,"å¿ĺ":3832,"ĠãģĿãĤĮãģ¯ãģĦãģĦ":3833,"ãĥĭãĥĥãĤ¯":3834,"ãĤªãĥ¼ãĤ¹ãĥĨãĤ£ãĥ³":3835,"Ġãģ§ãĤĤç§ģãģ¯":3836,"ä¿ºãģ¯":3837,"ãĥ¡ãĥªãĥĥãĤ¯":3838,"åºĹ":3839,"Ġãģªãģľç§ģ":3840,"ãģ«ãģªãĤĭãģłãĤįãģĨ":3841,"çķ¥":3842,"ĠäººçĶŁ":3843,"ãĥĢãĥ³":3844,"åįĬ":3845,"Ġãģ¾ãģķãģĭ":3846,"ĠãģĤãģªãģŁãģĮç§ģ":3847,"ãģ«è²":3848,"åĽ²":3849,"èĩªåĪĨãģ®":3850,"ãĥıãĥĭãĥ¼":3851,"ľŁåľ°":3852,"ãĤĴçŁ¥ãģ£ãģ¦ãģĦãģ¾ãģĻ":3853,"®¶ãģ«å¸°":3854,"ãģĦãģ¾ãģĹãģŁãģĭ":3855,"éħĶ":3856,"å±Ī":3857,"ãģĤãģ£ãģŁãģ®ãģĭ":3858,"Ġãĥīãĥ³":3859,"ĠãĥķãĤ§":3860,"ãģķãĤĮãģ¦ãģĦãģ¾ãģĻ":3861,"å¤«äºº":3862,"ãĥĿãĥ¼ãĥ«":3863,"å¸ĥ":3864,"å¥½ãģįãģ§ãģĻ":3865,"ãģĹãģ¦ãģĦãģ¾ãģĻãģĭ":3866,"ãģ«ä¼ļãģĦãģŁãģĦ":3867,"ãģĹãģ¦ãģıãĤĮãģªãģĦãģĭ":3868,"ãĤ¸ãĤ§ãĤ¤ãĤ¯":3869,"ãģ®ãĤĤãģ®ãģ§ãģĻ":3870,"ãģ«è¡Įãģıãģ®":3871,"ãģ®äºĭä»¶":3872,"è²ł":3873,"Ġå¹´åīį":3874,"å¤ĸãģ«åĩº":3875,"ãģŁãģ®ãģŃ":3876,"åĢĴ":3877,"Ġæĺ¨å¤ľ":3878,"ãĥļãĥ©":3879,"é«ª":3880,"é«ĺãģĦ":3881,"ãģĮæľĽãģ¿":3882,"çķªåı·":3883,"å·¥":3884,"çĶŁãģįãģ¦ãĤĭ":3885,"çĤº":3886,"ıĲæ¡Ī":3887,"ãĤĴæīĵ":3888,"ãĤĴä¸İãģĪ":3889,"ãĤĴå®Ł":3890,"ãģ¯å¤§ãģįãģª":3891,"æ¸¬":3892,"ä½ıãĤĵãģ§":3893,"èĩĵ":3894,"å¤īãĤı":3895,"æļĩ":3896,"è¨ĢãĤıãģªãģĭãģ£ãģŁ":3897,"Ġå¥³ãģ®åŃĲ":3898,"ĠãĥĹãĥŃ":3899,"ä¸¡æĸ¹":3900,"è¨ĢãĤıãģªãģĦãģ§":3901,"æ²»":3902,"èģĸ":3903,"»ºçī©":3904,"ãģ®æ¯įè¦ª":3905,"ãĤĴæĦıåĳ³ãģĻãĤĭ":3906,"ãĤĴæĢĿãģĦåĩº":3907,"ŀ¬éĸĵ":3908,"æ®µ":3909,"ãĥĳãĥ¯ãĥ¼ãĤº":3910,"at":3911,"¡çĲĨ":3912,"£Ł":3913,"¥ª":3914,"©çĶ¨":3915,"®éĢļ":3916,"¯Ľ":3917,"²åł´":3918,"´åı²":3919,"»į":3920,"¼ãģĹ":3921,"½¹":3922,"å¦»":3923,"æ°ı":3924,"çľ":3925,"çŃ":3926,"èĻ":3927,"é»":3928,"é¦¬":3929,"ĠE":3930,"Ġs":3931,"Ġä¸Ģç·Ĵ":3932,"Ġç§Ĵ":3933,"ģ½":3934,"ĤåĬł":3935,"ħåĬĽ":3936,"īå¤§ãģª":3937,"Į¯":3938,"Ļ½":3939,"Ń©":3940,"ãģĦãģªãģı":3941,"ãģ¯ãģĻãģ¹ãģ¦":3942,"ãģªãģĮ":3943,"ãģŁãĤĵãģł":3944,"ãģ¦ãģĤãĤĬãģĮãģ¨ãģĨ":3945,"ãģ«ãģĦãģ¾ãģĻ":3946,"ãģ«ãģªãĤīãģªãģĦ":3947,"ãĤĴãģĹãģ¾ãģĻ":3948,"ãĤĴé£Łãģ¹":3949,"ãĤĭå¿ħè¦ģãģĮãģĤãĤĭ":3950,"ãģĮèī¯":3951,"ãģ£ãģį":3952,"ãģĨãģ¡":3953,"Ġåĳ":3954,"ãĥ³ãĥģ":3955,"ãģıãģ¦":3956,"ãģıãģĿ":3957,"ä¸ĩ":3958,"ãģĹãģ¦ãģĦãģ¾ãģĽãĤĵ":3959,"ãĤĪãģªãĤī":3960,"ãĤ¹ãĥĬ":3961,"ãģĵãģ¨ãĤĤ":3962,"ãĥ¼ãĥ´":3963,"ãģ®åĢ":3964,"ãģĳãģ¾ãģĽãĤĵ":3965,"ãĤĴå¿ĥéħį":3966,"ãĤ¤ãĥķ":3967,"ä»®":3968,"ãĥĪãĥŃ":3969,"ãģĻãĤĭãģłãĤįãģĨ":3970,"ãĥ«ãĥķãĤ£":3971,"ãģĤãģªãģŁãģ¯å":3972,"ãģĤãģªãģŁãģ®ç":3973,"ĠãģĤãģªãģŁãģĮå":3974,"èª¤":3975,"Ġãģĵãģ®çĶ·":3976,"ãģ®æĦıåĳ³":3977,"ãģĭãĤīãģ®":3978,"ãģĭãĤīãģªãģĭãģ£ãģŁ":3979,"çŁ¥ãĤĬ":3980,"ãģ¯æķ":3981,"ãģ¯æīĭ":3982,"ãģĿãĤĮãģ¯ç":3983,"ãĥīãĥ³":3984,"Ġç·":3985,"ĠçĦ¡":3986,"ãģ«æĬ":3987,"è©°":3988,"ãģ¨æĢĿãģ£ãģ¦ãģĦãĤĭ":3989,"èª°ãģ§ãĤĤ":3990,"èª°ãģ«ãĤĤ":3991,"ãģ®ç´":3992,"ãģĺãĤĥãģªãģĦãĤı":3993,"ãģ¯ç§ģãģ«":3994,"ãģĮãģĤãĤĭãĤĵãģł":3995,"ãĤĴè¦ĭãģ¦ãĤĭ":3996,"ãģ«ãģªãĤĬãģŁãģĦ":3997,"ãģ£ãģ¦ãģĦãĤĭãģ®ãģĭ":3998,"ãĥĹãĥĨãĥ³":3999,"ãĥĩãĤ¤":4000,"å¾¡":4001,"å¾©":4002,"ãģ®é»Ĵ":4003,"ãģ®èŃ¦":4004,"ãģ®èĪ¹":4005,"Ġå½¼ãģ¯ä½ķ":4006,"çĶ·æĢ§":4007,"åı«":4008,"ãĥ¥ãĥ¼ãĤ¿ãĥ¼":4009,"ãĥĵãĥĩ":4010,"ãĥĭãĥ¥ãĥ¼ãĥ¨ãĥ¼ãĤ¯":4011,"ãģĵãģ¨ãĤĴé¡ĺ":4012,"çµ¡":4013,"çµĲæ§ĭ":4014,"ãĤ¹ãĥĪãĥ©":4015,"ä¾µ":4016,"ä¾¿":4017,"ãģ®ãģ¯ãģĿãĤĮ":4018,"ãĥĬãĥ«ãĥī":4019,"ĠäººãĢħ":4020,"ãĥĢãĥ¡":4021,"ãģ®ä¸Ńãģ«ãģ¯":4022,"ãĥĩãĤ£ãĤ°ãĥĬãĥ³":4023,"åĽ³":4024,"ä»ĸãģ®äºº":4025,"ãģ«çĿĢ":4026,"è¨ĢãģĨãģ®":4027,"ãģ¶ãĤī":4028,"ĠãĥīãĤ¤ãĥĦ":4029,"ãģ¤ãĤĤãĤĬãģł":4030,"ãģķãĤĮãģ¦ãģĦãģªãģĦ":4031,"ãĥİãĥ¼":4032,"¥³æĢ§":4033,"Ġãĥĩãĥĵãĥ¼":4034,"ãģ§ãģĹãģŁãģĭ":4035,"æĽ¹":4036,"Ġç§ģãģ¯å½¼ãĤī":4037,"éĢ£çµ¡":4038,"ãĤĭãģĵãģ¨ãģĮãģ§ãģįãģªãģĦ":4039,"ãģĹãģ¦ãģıãĤĮãģŁ":4040,"ãģĹãģ¦ãģıãĤĮãĤĭ":4041,"ãģ®ãĤĪãģĨãģªãĤĤãģ®":4042,"ãģ®ãĤĪãģĨãģªãĤĤãģ®ãģ§ãģĻ":4043,"ãģ®ãĤĪãģĨãģªãĤĤãģ®ãģł":4044,"ĠãĥĢãĥ³ãĥĲãĥ¼":4045,"ĠãĤªãĥ¼ãĤ¹ãĥĨãĤ£ãĥ³":4046,"ãĤĴå¤ĸ":4047,"Ġå¹´éĸĵ":4048,"æłĦ":4049,"è£½":4050,"¶Īéĺ²":4051,"Ġåı¯æĦĽãģĦ":4052,"ãģ®æĸ°ãģĹãģĦ":4053,"ãģģãģģ":4054,"ä¿ĿèŃ·":4055,"ãģ¨ãģĵãĤįãģ§ãģĻ":4056,"ãĤĴæīĭãģ«åħ¥ãĤĮ":4057,"ãģłãģ¨æĢĿãģ£ãģŁ":4058,"ä»»åĭĻ":4059,"ãĤĴåıĹãģĳåıĸ":4060,"èĭ¦":4061,"ä¼ĳæļĩ":4062,"ãĤĴæİ¢ãģĹ":4063,"ãĤĴæįķãģ¾ãģĪãĤĭ":4064,"è¾¼ãĤĢ":4065,"ãģ®çµĲå©ļ":4066,"åĸ¶":4067,"è¡ĮãģĭãģªãģĦãģ¨":4068,"ãģ®åįĬåĪĨ":4069,"Ġå¥³æĢ§":4070,"Ġå®¶ãģ«å¸°":4071,"åĪĳäºĭ":4072,"ãģ«å¤ī":4073,"ãģĻãĤĮãģ°ãģĦãģĦ":4074,"ãģĨãģ¾ãģıãģĦ":4075,"ãģ®ãĥģãĥ£":4076,"èį·":4077,"èĤī":4078,"ãģ£ãģ±ãģĦ":4079,"ãĤĴå¤īãģĪãĤĭ":4080,"çŁ¥ãģ£ãģ¦ãģĦãģ¾ãģĻãģĭ":4081,"³¨æĦı":4082,"çĬ¶æ³ģ":4083,"å¬īãģĹãģĦãĤĪ":4084,"ãĥĹãĥ©ãĤ¤ãĤ¹":4085,"äºĮäººãģ¨ãĤĤ":4086,"æĤĶ":4087,"æ¨Ļ":4088,"ãģ«åĲĳãģĭ":4089,"ãĥĥãĤ»ãĥ¼ãĤ¸":4090,"ãĤªãĤ«ãĥŁ":4091,"å¥¥æ§ĺ":4092,"èĮ¶":4093,"±æľī":4094,"¸åĲĽ":4095,"¿Ļ":4096,"æµģ":4097,"ç¾İãģĹãģĦ":4098,"ç¿Ĵ":4099,"èĤ²":4100,"è±¡":4101,"éİ":4102,"Ġä¸Ĭ":4103,"Ġä¸ĭ":4104,"Ġä¿¡ãģĺãĤīãĤĮãģªãģĦ":4105,"Ģæľī":4106,"ĥæ°Ĺ":4107,"ĦĢ":4108,"īåĲį":4109,"Ķ»":4110,"ľ§":4111,"ŁéļĽ":4112,"łĤ":4113,"ŃĮ":4114,"ãģĦãģ£ãģ±ãģĦ":4115,"ãģªçĶ·":4116,"ãģªãģĵãģ¨ãģł":4117,"ãģŁãģĮ":4118,"ãĤĴç§ģ":4119,"ãĤĴçĶŁ":4120,"ãĤĴè©¦":4121,"ãĤĴãĥģãĤ§ãĥĥãĤ¯":4122,"Ġãģµ":4123,"ãģĭãģĹãģĦ":4124,"ãģĭãĤĮãģŁ":4125,"ãģĮãģ§ãģįãģ¦":4126,"ãģ£ãģĻãģĲ":4127,"ãģĻãģ§":4128,"ç§ģãģ¯å½¼":4129,"ĠåĮ":4130,"ãĤĤãģĤãĤĬãģĮãģ¨ãģĨ":4131,"ãģĤãģĤ":4132,"ãĥ³ãĥĢ":4133,"ãģ£ãģ¦ãģıãĤĭ":4134,"ãģ£ãģŁãĤī":4135,"ãĤ¹ãĤŃ":4136,"ãģįåİ»":4137,"è¦³":4138,"Ġæ®º":4139,"Ġæ®ĭãĤĬ":4140,"ãĤĴå£Ĭ":4141,"ãĤĴå¥ª":4142,"ãĤ¤ãĥ¬":4143,"äººãĤĤ":4144,"Ġç§ģãģ¯ä½ķãĤĤ":4145,"è¨ªåķı":4146,"ĠãģĿãĤĮãģ¯å½¼":4147,"ĠãģĿãĤĮãģ¨ãĤĤ":4148,"ĠãģĤãģªãģŁãģ®å":4149,"ãĤģãģ§":4150,"å¥ª":4151,"å¥ĩ":4152,"ãģ«å®":4153,"ãģ«åĲĽ":4154,"ãģ«åįģåĪĨ":4155,"ãĥ©ãĤ¤ãĥ³":4156,"ãģ©ãģ®ãģıãĤīãģĦ":4157,"ãģ®æ°Ĺ":4158,"ãĤ¢ãĥĳãĥ¼ãĥĪ":4159,"ãģĿãĤĮãģ¯å":4160,"å¤©":4161,"Ġçı¾":4162,"Ġä½ķãĤĴãģĹãģ¦ãģĦãĤĭãģ®":4163,"Ġä½ķãģĮæľĽãģ¿":4164,"ãĤĦãģ£ãģ¦ãĤĭ":4165,"ãĤįãģĨ":4166,"ãģ«æŃ»":4167,"ãģ«æģĭ":4168,"ãģ§ãģįãģªãģĭãģ£ãģŁ":4169,"ãģ¨æĢĿãģ£ãģ¦ãģĦãģ¾ãģĻ":4170,"ãĥ¬ãĥ¼ãĥ³":4171,"ãĥŃãĤ·ãĤ¢":4172,"äºĭæķħ":4173,"ãĤ¸ãĥ«":4174,"ãĥķãĥª":4175,"ãģ«ãģ¯ãģªãĤīãģªãģĦ":4176,"īįèĥ½":4177,"ãĤ¿ãĤ¦ãĥ³":4178,"ãģ®ç½ª":4179,"Ġè«":4180,"Ġè³ªåķı":4181,"ãĤĴçĻº":4182,"ãģĮãģĤãĤĭãģªãĤī":4183,"ãĤ«ãĤ¦":4184,"ãĤ«ãĥ¼ãĥĪ":4185,"ãĤ°ãĥ©ãĥł":4186,"æľ«":4187,"Ġãģ©ãģĵãģ«ãģĦãĤĭ":4188,"ãģ£ãģ¦ãģĦãĤĭãģ®":4189,"ãĥĩãĤ¢":4190,"ãĥĩãĥ¼ãĥĪ":4191,"ĠãģĵãĤĮãģ¯ç":4192,"ãĥĳãĥª":4193,"ãģ®éĬĢè¡Į":4194,"ãģ®é£Ľè¡Įæ©Ł":4195,"ãģ®è³ªåķı":4196,"ãĥĸãĥ©ãĤ¤ãĤ¢ãĥ³":4197,"ãģ¯ä½ķãģ§ãĤĤ":4198,"æĦļ":4199,"ãĤªãĥķ":4200,"ĠãģĦãģıãģ¤ãģĭ":4201,"ãģ«ãģªãĤĭãģ¨":4202,"ãģ«ãģªãĤĭãĤı":4203,"ä»ķäºĭãĤĴ":4204,"ãģ«åħ¥ãĤĬ":4205,"ãģ«åħ¥ãģ£ãģŁ":4206,"å½¼å¥³ãģĮ":4207,"Ġäººãģ¯":4208,"ãģłãĤįãģĨãģĭ":4209,"åĲĽãģĮ":4210,"ãĤ»ãĥ³":4211,"ãģ«èŃ¦":4212,"ãģĵãģĵãģ«æĿ¥":4213,"ãģĵãģĵãģ«æĿ¥ãģŁ":4214,"ĠãĥŀãĥĥãĥĪ":4215,"ĠãĤ¢ãĥ«":4216,"ãĥĶãĤ¢":4217,"ãĥĻãĤ¤":4218,"ãģ¨ãģĹãģ¦ãģĦãģŁ":4219,"ãĥ³ãĥīãĥ³":4220,"ĠãģķãĤĪãģªãĤī":4221,"ä½ķãĤĴãģĹãģŁ":4222,"ä½ķãĤĴãģĹãģ¦ãĤĭ":4223,"å±ħ":4224,"ãĥ¼ãĥłãĤº":4225,"ãĥĿãĥĥãĥĹ":4226,"ãģĮãģĤãĤĬãģ¾ãģĻãģĭ":4227,"ãģ®å¤¢":4228,"ä¸įæĢĿèŃ°":4229,"ãĤ·ãĥ§ãĥĥãĥĪ":4230,"è¿İ":4231,"ãģ©ãģĵãģĭ":4232,"ãĤ¸ãĤ§ãĤ¯ãĥĪ":4233,"ä¸İãģĪ":4234,"åĮ»":4235,"ä¸Ģåº¦ãĤĤ":4236,"ãĤĴçŁ¥ãģ£ãģ¦ãĤĭãģ®":4237,"ãģ£ãģ¦ãĤĭãģ®ãģŃ":4238,"ĠãĤĤãģĹãĤĤãģĹ":4239,"ãĤĴãģĹãģ¦ãģĦãģŁ":4240,"Ġä¸¡":4241,"Ġä»ĸãģ®":4242,"åĨĻçľŁ":4243,"ãģĮèµ·ãģį":4244,"Ġçµ¶":4245,"å·®":4246,"ĭĤãģ£ãģŁ":4247,"ĠãģĨãĤĵ":4248,"ãģĮå¥½ãģįãģł":4249,"ãģłãģ¨æĢĿãģ£ãģ¦ãģŁ":4250,"ãģ¯æŃ»ãĤĵãģ§ãĤĭ":4251,"ãģĹãģ¾ãģĹãģŁãģĭ":4252,"éģħãĤĮ":4253,"ä¸»ç¾©":4254,"ĠãĤıãģĭãĤīãģªãģĦ":4255,"çĽ´ãģ«":4256,"ãĤĴä½¿ãģ£ãģ¦":4257,"åī¤":4258,"ãģĭãĤĬãģ¾ãģĹãģŁ":4259,"å°ĳå¹´":4260,"ãĤĴåıĸãĤĬæĪ»":4261,"ãĥĪãĥ©ãĥĸãĥ«":4262,"ĠåħĪ":4263,"ãĤ¤ãĥĪãĥŀãĥ³":4264,"ãĤĴéĢ£ãĤĮãģ¦è¡Įãģı":4265,"ãģ®å¤§ãģįãģª":4266,"éģłãģı":4267,"ãĤĴæĴĥãģ£ãģŁ":4268,"ãĤĴå§ĭãĤģ":4269,"ãģ®ãĥĩãĤ£":4270,"çµĮé¨ĵ":4271,"éŁ³æ¥½":4272,"Ġãģ¡ãĤĩãģ£ãģ¨å¾ħãģ£ãģ¦":4273,"ãĤĴéĸĭãģĳ":4274,"Ġãĥ¢ãĥ¼ãĥĦãĤ¡ãĥ«ãĥĪ":4275,"éķ·ãģĦéĸĵ":4276,"ĭ¬èº«":4277,"ĠåĢĭäºº":4278,"ĠãĤ¯ãĤ·ãģł":4279,"ªæĪĳ":4280,"è¦ıåīĩ":4281,"°¸éģł":4282,"æģ¯åŃĲãĤĪ":4283,"ä½ķåº¦ãĤĤä½ķåº¦ãĤĤ":4284,"Ġéļİ":4285,"ãĤ³ãĥ³ãĥĶãĥ¥ãĥ¼ãĤ¿ãĥ¼":4286,"ĠæĦĽãģĹãģ¦ãĤĭãĤĪ":4287,"īĦéģĵ":4288,"ãģ»ãģĨãģĮãģĦãģĦ":4289,"Ġæ°Ĺãģ«ãģĹãģªãģĦãģ§":4290,"Ġå¿ĺãĤĮãģ¦ãģıãĤĮ":4291,"éŁ¿":4292,"ãģ£ãģįãĤĬ":4293,"Ġä½ķãģĮæľĽãģ¿ãģł":4294,"UM":4295,"le":4296,"£è¦ĸ":4297,"¦ģ":4298,"ªéĻ":4299,"¯Ŀ":4300,"°·":4301,"³£":4302,"µå£«":4303,"¸Ĥ":4304,"å»":4305,"å¹¸ãģĽ":4306,"ç¨":4307,"ç¯":4308,"ç¬¬":4309,"çİĩ":4310,"ĠH":4311,"ĠR":4312,"Ġe":4313,"Ġéģĵ":4314,"ĥħ":4315,"Ĩİ":4316,"ĮæľĽ":4317,"ı¡":4318,"Ľº":4319,"ĽãģĦ":4320,"Ŀ£":4321,"ĿãĤģãģ¦":4322,"ãģ®ãĥī":4323,"ãģ®è¡Ģ":4324,"ãģ¯çŁ¥ãģ£ãģ¦ãĤĭ":4325,"ãģ¯ãĤıãģĭãĤīãģªãģĦ":4326,"ãģ¯ãģ©ãģĵãģ«":4327,"ãģªãģįãĤĥ":4328,"ãģ«ãģĹãģ¦ãģĦãĤĭ":4329,"ãģ«ãģĹãģŁãģĦ":4330,"ãģ«ä½¿":4331,"ãģ«éĢģ":4332,"ãĤĴãĤĤ":4333,"ãĤĴãģ¤ãģĭ":4334,"ãĤĴéģ¸":4335,"ãĤĭãģĵãģ¨ãģ¯ãģ§ãģįãģªãģĦ":4336,"Ġãģį":4337,"ãģĭãģªãģĭãģ£ãģŁ":4338,"ãģ§ãģªãģĳãĤĮãģ°ãģªãĤīãģªãģĦ":4339,"ãģ§ä¸Ģçķª":4340,"ç§ģãģ¨":4341,"ç§ģãģ¯å½¼å¥³":4342,"Ġåº§":4343,"ĠåĪ¥":4344,"Ġåħ¨ãģı":4345,"Ġåº¦":4346,"ãĥ³ãĤº":4347,"ãĥ³ãĥªãĥ¼":4348,"ãģ£ãģ¦æ¬²ãģĹãģĦ":4349,"Ġç§ģãģ¨":4350,"Ġç§ģãģ®ãģŁãĤģãģ«":4351,"Ġãĥ»":4352,"ãģĹãģ¦ãģ¿":4353,"ãģĹãģ¦æ¬²ãģĹãģĦ":4354,"ãĤĬçī©":4355,"ãģ£ãģŁãĤĵãģł":4356,"ãĤ¹ãģł":4357,"ãĤ¹ãĥ¼ãĥĦ":4358,"ãĤ¹ãĥĨãĤ£ãĥ¼ãĥĸãĥ³":4359,"ãĥĥãĤ«":4360,"ãĥĥãĤ«ãĥ¼":4361,"ãģ®åĽ½":4362,"ãģ®åĬĽ":4363,"ãģ¯åħ¨ãģ¦":4364,"ãģķãĤī":4365,"Ġæ°´":4366,"ãĤ¯ãĥªãĤ¹":4367,"ãĤĴå±":4368,"ãĤĴåħ¨éĥ¨":4369,"ãģ§ãģĻãĤĪ":4370,"äººãģ¨":4371,"Ġç§ģãģ¯ä»Ĭ":4372,"Ġç§ģãģ¯ãģ¨ãģ¦ãĤĤ":4373,"ãģĽãĤį":4374,"ãģ¡ä¸ĬãģĮ":4375,"ãģĻãĤĭãģĵãģ¨ãģĮãģ§ãģįãģ¾ãģĻ":4376,"ãĥªãĥ«":4377,"ãĥªãĤ±":4378,"å¥½":4379,"ãĥ©ãĥ¡":4380,"ãģ©ãĤĮãģłãģĳ":4381,"åĪº":4382,"ãģ®æĦĽ":4383,"ãģ®æ©Ł":4384,"ãģ®æĦı":4385,"ãģ®æĺłçĶ»":4386,"å½¼ãģ¯æ":4387,"æĢĿãģĦ":4388,"è¨ĢãģĪãģªãģĦ":4389,"ãģ¯æŃ£ãģĹãģĦ":4390,"è¡ĮçĤº":4391,"ãĥīãĥŃãĤ·ãĥ¼":4392,"Ġçİĭ":4393,"ĠçļĨ":4394,"ãģĬãģı":4395,"ãģĬæ¯įãģķãĤĵ":4396,"ãģĦãģ¦ãĤĭ":4397,"éĢĶ":4398,"éĢł":4399,"èĢģ":4400,"Ġè¥¿":4401,"ãģ®ãĥĽ":4402,"ãģĮãģĤãĤĭãģ¨":4403,"ãĤĴè¦ĭãģ¦ãģĦãĤĭ":4404,"ĠãģĵãĤĮãĤĴ":4405,"ĠåĲĽãģ¯å":4406,"Ġé«":4407,"Ġé¦¬é¹¿":4408,"ãĤĴèĩª":4409,"è¦ģçĤ¹":4410,"è¦ģæ±Ĥ":4411,"ãģĹãģ¦ãģĦãĤĭãģ®ãģ¯":4412,"ãĤ³ãĤ¢":4413,"ãĤ³ãĥ¼ãĥī":4414,"ç§ģãģ¯ãģĿãĤĮ":4415,"åı¯èĥ½":4416,"Ġç§ģãģŁãģ¡ãģ¯æ":4417,"å¿«":4418,"ãĤĪãģĨãģ«è¦ĭãģĪãĤĭ":4419,"éĽĳ":4420,"ãģĵãģ¨ãĤĴçŁ¥ãģ£ãģ¦ãģĦãĤĭ":4421,"ãģ¨æĢĿãģĨãģĭ":4422,"çīĩ":4423,"çµ¦":4424,"Ġãģ©ãģĨæĢĿãģĨ":4425,"ãģ¨è¨Ģãģ£ãģ¦":4426,"ãĥ¼ãĥĪãĥĬãĥ¼":4427,"ãģĵãģ¨ãģ¯ãģĤãĤĬãģ¾ãģĽãĤĵ":4428,"ãĤ¨ãĥªãĥĥãĤ¯":4429,"ãģ«åħ¥ãĤĮãģŁ":4430,"ç´ļ":4431,"Ġäººãģ®":4432,"ãĥĢãĤ¦ãĥ³":4433,"ãĥĢãĥ¼ãĥªãĥ³":4434,"æĺ¥":4435,"åĲĽãģ®":4436,"ãģĶãģ¨":4437,"ãĥĩãĤ£ãĤ¢":4438,"Ġä¿ºãĤĤãģł":4439,"éłĨ":4440,"ãģ®äººãĢħ":4441,"åĽł":4442,"ãģķãģĽãģ¦":4443,"ãģļãģ«":4444,"å¯Ħ":4445,"åĬŁ":4446,"ãĤĴçŁ¥ãĤīãģªãģĭãģ£ãģŁ":4447,"éļİ":4448,"ãģ¤ãĤĤãĤĬãģ¯ãģªãģĦ":4449,"ãĥİãĥĥãĤ¯":4450,"ãģ«è¡Įãģįãģ¾ãģĻ":4451,"ä¹¾":4452,"ãĥ©ãĤ¤ãĥĪ":4453,"Ġä½ķãģĭåķıé¡Į":4454,"ä»¥åīį":4455,"æĬĢ":4456,"ãĤĭãģĭçŁ¥ãģ£ãģ¦ãĤĭ":4457,"Ġä¸Ģãģ¤":4458,"ãģ£ãģ¦ãģıãĤĮãģªãģĦãģĭ":4459,"ãĥķãĤ¡ãĥ¼":4460,"æĿ¯":4461,"è£ľ":4462,"Ġæĺ¨æĹ¥":4463,"Ġ40":4464,"ĠãĥĪãĥ©":4465,"ĠãĥĪãĥł":4466,"ãģĿãĤĵãģªãģ«":4467,"ãĤ¦ãĤ§ãĥ³":4468,"ãĤ¦ãĤ§ãĤ¤":4469,"æĹ©":4470,"æ©Łä¼ļ":4471,"çĻºè¦ĭ":4472,"èĳ¬":4473,"Ġä»ĸãģ«":4474,"ãĤĴè¿Ķ":4475,"ãģ«å½¼ãĤī":4476,"ãĤĴèª¬":4477,"Ġç¥ŀãĤĪ":4478,"è¨±åı¯":4479,"ãĤĴåĲ¹ãģįé£Ľãģ°":4480,"ãĥ»ãĥ»ãĥ»ãĥ»":4481,"æŃ»ãĤĵãģł":4482,"æŃ»ãģ¬":4483,"Ġãĥĸãĥ©ãĤ¤ãĤ¢ãĥ³":4484,"Ġãģĵãģĵãģ§ä½ķãģĹãģ¦ãĤĭãģ®":4485,"ãģķãĤĮãģ¾ãģĻ":4486,"ãĥ¬ãĤ¤ãĥĹ":4487,"ãĤĴåĪ©çĶ¨":4488,"ĠãĤıãģĭãĤĬãģ¾ãģĹãģŁ":4489,"ãĤĴä½¿çĶ¨":4490,"è»įæĽ¹":4491,"åī²":4492,"ä»£ãĤı":4493,"ãģıãģªãģ£ãģŁ":4494,"¹³åĴĮ":4495,"ĠãģĭãĤıãģĦ":4496,"ãĤ¦ãĤ£ãĥ¼ãĥ³":4497,"ãĤ¹ãĥĨãĥł":4498,"Ġä½ķãĤĴè¨Ģ":4499,"ĠæĢĸ":4500,"ãģĹãĤĪãģĨãģ¨ãģĹãģ¦ãģĦãĤĭ":4501,"Ġãģ©ãģĨãģĹãģ¦çŁ¥ãģ£ãģ¦ãĤĭãģ®":4502,"ãĥĳãĥ¼ãĥĪãĥĬãĥ¼":4503,"ãĤĴæĭ¾":4504,"éĢŁãģı":4505,"çĹĩ":4506,"åĪ¤æĸŃ":4507,"ģ¥ãģļ":4508,"ãĥ¼ãĥŃãĥĥãĥĳ":4509,"ãĥĪãĥ¬ãĥĻãĤ¹":4510,"éĢĢå±Ī":4511,"ãģ®çĬ¬":4512,"ãĤĴåĲ¸ãģĨ":4513,"Ġå¾Įãģ§":4514,"ä½Ļåľ°":4515,"ãĤ¬ãĥ¼ãĥ«ãĥķãĥ¬ãĥ³ãĥī":4516,"çĪĨå¼¾":4517,"ãĥ¼ãĥĩãĤ£":4518,"ãĥīãĤ¥ãĥ¼ãĥªãĥĪãĥ«":4519,"ãģ¯æľ¬çī©":4520,"ãĤĴè¦ļãģ¾ãģĻ":4521,"ãģ®çķªåı·":4522,"ãĤĤãģ¡ãĤįãĤĵ":4523,"ãĤĴãģĬé¡ĺãģĦãģĹãģ¾ãģĻ":4524,"ãĤ¤ãĤ®ãĥªãĤ¹":4525,"įľæŁ»":4526,"Ķ»æĴĥ":4527,"ªéĻ½":4528,"SS":4529,"¢çĻ½ãģĦ":4530,"¤į":4531,"§Ķ":4532,"©´":4533,"ª¨":4534,"®±":4535,"²å®¶":4536,"³å£«":4537,"´Ī":4538,"µ´":4539,"ºĥ":4540,"æģ¯":4541,"æĤ²":4542,"ç³":4543,"ç¹":4544,"çĹħæ°Ĺ":4545,"ç°¡åįĺ":4546,"ç¶Ļ":4547,"è¥¿":4548,"Ġ)":4549,"Ġä¿Ŀ":4550,"īķ":4551,"Ĭ±":4552,"Ĭæķ¬":4553,"ĭ¦":4554,"Įä¸Ń":4555,"Įé¨ĵ":4556,"İ¥":4557,"ĵè¿İ":4558,"ĸĦ":4559,"ĺç´Ķ":4560,"Ļ®éĢļ":4561,"ļĹ":4562,"ãģ®ãĤ·":4563,"ãģ®ãģ§ãģĻãģĭ":4564,"ãģ®ãģĬéĩĳ":4565,"ãģ®ä½Ļåľ°":4566,"ãģ«è¦ĭ":4567,"ãĤĴãģķãģĽ":4568,"ãĤĴãģĻãģ¹ãģ¦":4569,"ãĤĴéģĭ":4570,"ãĤĴèĢĥãģĪãģ¦":4571,"ãĤĴãģĭãģĳ":4572,"ãģĹãģķ":4573,"ãģĹãģªãģķãģĦ":4574,"ãģĭãģĦ":4575,"ãģĭçŁ¥ãĤīãģªãģĦ":4576,"ãģ¨ãģĬãĤĬ":4577,"ãģĮè¦ĭãģĪãĤĭ":4578,"ãģłãģ¨è¨Ģãģ£ãģŁ":4579,"ãģ§ãģĤãģªãģŁ":4580,"ãģ§ãģıãģłãģķãģĦ":4581,"ãģĵãģĿ":4582,"ãģĵãĤį":4583,"Ġåĩºãģ¦":4584,"ãģ¾ãģ¾":4585,"ãĤĤãģª":4586,"ãĤīãĤĮãģ¦":4587,"ãĥ³ãĤ¬ãĥ¼":4588,"ãģıãĤĭãģ®":4589,"ãĤĬè¿Ķ":4590,"ä½ķãģĮ":4591,"ãĤĴæ¼Ķ":4592,"ãģĿãģ®çĶ·":4593,"ãģ®åħ¨ãģ¦":4594,"ĠãģĤãģ¾ãĤĬ":4595,"Ġå½¼ãģ®åĲįåīįãģ¯":4596,"ãģķãģªãģĳãĤĮãģ°ãģªãĤīãģªãģĦ":4597,"ãĤ¯ãĤ¹":4598,"ãģĪãģ°":4599,"äººãģłãģ£ãģŁ":4600,"ãĥĪãĥ³":4601,"Ġç§ģãģ¯ãģ¡ãĤĩãģĨãģ©":4602,"ãģĻãĤĭå¿ħè¦ģãģĮãģĤãĤĭ":4603,"ãģĻãĤĭå¿ħè¦ģãģĮãģĤãĤĬãģ¾ãģĻ":4604,"ãĥ«ãĥ¼ãĥĹ":4605,"ãģĤãģªãģŁãģ®å":4606,"ĠãģĿãĤĮãģªãĤī":4607,"ĠãģĿãĤĮãģ¯åĲĽ":4608,"ĠãģĿãĤĮãģĮåĲĽ":4609,"ĠãģĿãĤĮãģ¯æľ¬å½ĵ":4610,"ãĤģãĤĵ":4611,"èªł":4612,"ãĥ©ãĥĥãĤ¯ãĤ¹":4613,"ãģ©ãģ¡ãĤī":4614,"Ġãģĵãģĵãģ«ãģĦãĤĭ":4615,"Ġãģĵãģ®åł´æīĢ":4616,"ãģ®æķ°":4617,"ãģ®æ¯Ľ":4618,"ãģ¯æ®ĭå¿µ":4619,"ãģĿãĤĮãģ§":4620,"ãĤĪãģĨãģĵãģĿ":4621,"Ġçī©":4622,"ãģŁãģ¡ãģĮ":4623,"ãģĦãģŁãģıãģªãģĦ":4624,"ãĤ·ãĥ³ãĥĪãĥ³":4625,"äºĭå®Ł":4626,"ãĥķãĥ«":4627,"ãĥķãĥªãĤ«":4628,"ãģ«ãģ¯è¡ĮãģĭãģªãģĦ":4629,"å®Ī":4630,"ãĤ¿ãĥªãĤ¢":4631,"ãģĮæĪĳãĢħ":4632,"ĠèĦ":4633,"ĠèĪ¹":4634,"ãģ®ãĥı":4635,"ãĤĴç«ĭ":4636,"ãĤĴçĩĥãĤĦ":4637,"ãģ«ãģªãģ£ãģ¦ãģĦãģ¾ãģĻ":4638,"ãĤ°ãĥ¬":4639,"ãģ¯ãģĦãģĳãģªãģĦ":4640,"ãĥĨãĥĥãĥī":4641,"ãĥĨãĥ¼ãĥĸãĥ«":4642,"ãĥĩãĥĵãĥ¼":4643,"Ġ11":4644,"ĠåĲĽãģ¯ç":4645,"Ġéįµ":4646,"Ġé£Ł":4647,"ãĤĴè¶":4648,"ä¸Ńãģ§ãģĻ":4649,"ãģ©ãģĨãģĻãĤĭ":4650,"ãĥ¼ãĥ«ãģ¯":4651,"ãĥ¼ãĥ«ãĤº":4652,"ãģ®èµ":4653,"ãģ®è¾":4654,"ãģ®è¶³":4655,"Ġå½¼å¥³ãģ¯æ":4656,"ãĤ³ãĥĥãĥĪ":4657,"ãģ¿ãĤį":4658,"ãĥĲãĤ«":4659,"ãĤĤãģĹãģªãģĦ":4660,"Ġãģ§ãģĻ":4661,"ãĥ¥ãĥ¼ãĥĪ":4662,"éĽĦ":4663,"æĻĤãģ¯":4664,"Ġä»Ĭåº¦":4665,"ãĤªãĥļãĥ©":4666,"Ġãģ©ãģĨãģł":4667,"Ń¦åĻ¨":4668,"ãĥĬãĥ«":4669,"åĭĿ":4670,"èµ¤ãģ¡ãĤĥãĤĵ":4671,"Ġç§ģãģĮãĤĦãģ£ãģŁ":4672,"æĺ¼":4673,"ãĥĥãĥĹãĥ«":4674,"ãģ§ãģ¯ãģªãģĦãģĭ":4675,"èĩªåĪĨãģ§":4676,"å½¼ãĤīãģ¯ç§ģ":4677,"ãĥıãĤ¤":4678,"ãĥıãĥ«":4679,"ãĥıãĤ¦ãĤ¹":4680,"Ġãģĵãģĵãģ§ãģ¯":4681,"æŃ¯":4682,"åĬ´":4683,"åĬ©ãģĳ":4684,"èµ·ãģįãģ¦":4685,"ãģ®çĶ·ãģ¯":4686,"ãģ¹ãģįãģłãģ¨æĢĿãģĨ":4687,"æīĭä¼Ŀ":4688,"ãģĮç§ģãģ«":4689,"ãģįãģŁãģ®ãģĭ":4690,"ĠãĤ¯ãĥ©":4691,"éĿ´":4692,"éģĭåĳ½":4693,"ãģ®å¤ļãģı":4694,"ĠãĥĩãĤ¤":4695,"Ġãĥĩãĥĵãĥĥãĥī":4696,"ĠãĥıãĤ¤":4697,"ãĤĭãģĵãģ¨ãģĮãģ§ãģįãģŁ":4698,"ĠãĥĢãĥ³":4699,"æľĢé«ĺ":4700,"ãĤ®ãĥ¼":4701,"å®¶æĹı":4702,"Ġ500":4703,"ãĤĴæķĻãģĪãģ¦":4704,"Ġãģ¨ãģĵãĤį":4705,"ãģ©ãģĵãģ«ãĤĤ":4706,"Ġæ°ĹãĤĴãģ¤ãģĳãģ¦":4707,"ãģĮå¿ħè¦ģãģªãģ®":4708,"ãĥªãĤ¹ãĤ¯":4709,"ãĤ¸ãĥ§ãĤ¨ãĥ«":4710,"èª°ãĤĤãģĦãģªãģĦ":4711,"ãĤĴèªį":4712,"ĠçŁ¥ãģ£ãģ¦ãĤĭãģłãĤį":4713,"Ġãĥ©ãĤºãĥŃ":4714,"ãĥ¼ãĥŀãĥ³":4715,"çĶŁãģįãģ¦ãģĦãĤĭ":4716,"å¿ĥéħį":4717,"åıĸãĤĬ":4718,"ä»ĺãģį":4719,"ĠãģĿãĤĵãģªãģĵãģ¨":4720,"åĵ¡ä¼ļ":4721,"ãĤĴãģĬæĮģãģ¡":4722,"è¡ĮãģĭãģªãģĳãĤĮãģ°ãģªãĤīãģªãģĦ":4723,"¶ļãģĳ":4724,"ĠãģĿãģĨãģĭãĤĤãģª":4725,"ãĤĴä½¿ãģĨ":4726,"ãģ®å¾ĮãĤį":4727,"ä¼ĳæĨ":4728,"åĪ¥ãģª":4729,"ãģ¨è¨ĢãģĨãģ®ãģĭ":4730,"ĠãĥĻãĥĥãĥī":4731,"ĠãĥŁãĤ¹":4732,"å°ĳãģªãģıãģ¨ãĤĤ":4733,"ä½ıãĤĵãģ§ãģĦãĤĭ":4734,"Ġç§ģãģ«ãģ¯ãĤıãģĭãĤīãģªãģĦ":4735,"èĩ´":4736,"ãģ®åĳ¨ãĤĬ":4737,"ãģįãģ¦ãĤĭãģ®":4738,"Ķ¯æīķãģĦ":4739,"ãĤĴæľĽãĤĵãģ§ãĤĭ":4740,"Ġãģ©ãģĨãģĦãģĨæĦıåĳ³ãģł":4741,"ãģĮæŃ»ãĤĵãģł":4742,"ãģĨãģ¾ãģıãģĦãģı":4743,"ãĤĴæŃ¢ãĤģãĤĭ":4744,"å¦¹":4745,"ãĤĴå§ĭãĤģãģŁ":4746,"ãģ¯æĺİæĹ¥":4747,"ãĤĴå¤īãģĪ":4748,"æıĽ":4749,"è¡¨ç¤º":4750,"èģŀãģĵãģĪãĤĭ":4751,"ãģ£ãģ¦ãģĬãģı":4752,"ĠéłŃ":4753,"ºĢè¶³":4754,"çµ¶å¯¾":4755,"æŀľ":4756,"ãĤĴèĦ±ãģĦ":4757,"ĠãģĻãģĶãģĦãģŃ":4758,"ãĤĴçł´å£Ĭ":4759,"çĶ³ãģĹè¨³ãģĤãĤĬãģ¾ãģĽãĤĵãģĮ":4760,"ãģįåİ»ãĤĬ":4761,"ĠãģĭãĤıãģĦãģĿãģĨ":4762,"Ġãģ¨ãģĵãĤįãģ§":4763,"ä¼ĳæĨ©":4764,"ER":4765,"it":4766,"¡å¸ĥ":4767,"¦¹":4768,"¬º":4769,"¬ł":4770,"®¡çĲĨ":4771,"³ç´°":4772,"µ®":4773,"¸ĮæľĽ":4774,"»ŀåľ¨":4775,"åĿ":4776,"åŀ":4777,"å¹¸":4778,"åĦĢ":4779,"æ¼":4780,"æ¿":4781,"ç¥":4782,"ç¸":4783,"çĮ":4784,"ç¢ºãģĭ":4785,"éĤª":4786,"Ġ%":4787,"Ġ(":4788,"ĠW":4789,"Ġd":4790,"Ġè¡Į":4791,"Ĥ©":4792,"ĩå®":4793,"Ĵ®":4794,"ĴåĲ":4795,"ĹæķĻ":4796,"ļ®":4797,"Ń°":4798,"ãģ®ãĤ¤":4799,"ãģ®ãĤ±ãĥĦ":4800,"ãģ«ãģĤãĤĬãģ¾ãģĻ":4801,"ãģ«ãģĿãĤĮãĤĴ":4802,"ãģ«ãĤŃãĤ¹":4803,"ãĤĴè¡Į":4804,"ãģĹãģĭãģªãģĦ":4805,"ãģĹãģªãģĳãĤĮãģ°ãģªãĤĬãģ¾ãģĽãĤĵ":4806,"ãģĭãģ®ãĤĪãģĨãģ«":4807,"ãģ¨ä¿¡ãģĺ":4808,"ãģĮãģĿãĤĮ":4809,"ãģ§ãģĦãģ£ãģ±ãģĦ":4810,"ãĥ¼ãĤ¶":4811,"ãĥ¼ãĤ«ãĥ¼":4812,"ãģĨãģĵãģ¨":4813,"ĠåĪ":4814,"ãģ¾ãģ£ãģŁ":4815,"ãģ¾ãģ£ãģĻãģĲ":4816,"ãģĤãĤĮãģ°":4817,"ãģ£ãģ¦ãģĦãģ¾ãģĽãĤĵ":4818,"Ġç§ģãģ®ç":4819,"Ġç§ģãģ®åĲįåīįãģ¯":4820,"ãģıãģªãģĭãģ£ãģŁ":4821,"Ġãĥİ":4822,"ãģĹãģ¦ãģĦãģ¾ãģĹãģŁ":4823,"ãĤĬãģ¾ãģĹãģŁ":4824,"ãģ£ãģŁãģĵãģ¨":4825,"ãĤ¹ãĤ«":4826,"ãĥ¼ãĥ¢":4827,"ãĥĥãĤµ":4828,"ãĥĥãĤŃãĥ³ãĤ°":4829,"ãģ®å½¼":4830,"ãģ®å°ı":4831,"ĠãģĤãģ®":4832,"ãģĦãĤĭãģ®":4833,"ĠæºĸåĤĻ":4834,"ãĤĴå°ĳãģĹ":4835,"ãĤ¤ãĥĥãĥģ":4836,"äººãģĮãģĦãĤĭ":4837,"æĢªæĪĳ":4838,"ãģĻãĤĭãĤĪãģĨ":4839,"ãĥªãĤª":4840,"ĠãģĤãģªãģŁãģ¯ãģĦãģ¤ãĤĤ":4841,"ãĤģãģªãģĦ":4842,"çĶĺ":4843,"ãģ«åį":4844,"ãģ«å±ħ":4845,"ãģ«å¾ĵ":4846,"è¡Ĩ":4847,"å½¼ãģ¯å":4848,"å½¼ãģ¯ç§ģ":4849,"å½¼ãģ¯ç":4850,"çŁŃãģĦ":4851,"çŁ¥ãĤĬãģ¾ãģĽãĤĵ":4852,"ãĥīãĥĭãĥ¼":4853,"å¤ķé£Ł":4854,"Ġç©º":4855,"Ġä½ķãģĮåķıé¡Į":4856,"ãģ«æ²":4857,"ãģ«æĶ¯æīķ":4858,"è©³ç´°":4859,"ãģ¾ãģĽãĤĵãģ§ãģĹãģŁ":4860,"å®īåħ¨":4861,"ãĤ¿ãĥĲãĤ³":4862,"ãģĮæķ":4863,"ãģĮæĮģ":4864,"ãģĮæŃ£":4865,"èĢĲ":4866,"Ġè³":4867,"Ġèµ·":4868,"ãģ®ãĥ¢":4869,"ãģ®ãĥ¯":4870,"ãģĹãģ¦ãĤĭãģ¨æĢĿãģĨ":4871,"ãģĮãģĤãĤĭãģĭãĤĤãģĹãĤĮãģªãģĦ":4872,"ãĤĴè¦ĭãģŁãģĦ":4873,"ãģ«ãģªãĤĭãģ®":4874,"ãĥĨãĥ¼ãĥĹ":4875,"ãĥŀãĤ¹":4876,"ãĥŀãĥĥãĥĪ":4877,"ãĥĩãĥ«":4878,"ãĥĩãĥªãĥĥãĤ¯":4879,"ãĥĩãĥĵãĥĥãĥī":4880,"ãģĵãģ¨ãģĮãģĤãĤĬãģ¾ãģĻ":4881,"ãĤĤãģ®ãģ¯":4882,"ãĤĤãģ®ãģ§ãģ¯ãģªãģĦ":4883,"Ġé£Ľè¡Įæ©Ł":4884,"ãĤ¦ãĥ³ãĥī":4885,"ä¸Ńãģł":4886,"ãĤĴæĮģãģ¡":4887,"ãģĿãģĨæĢĿ":4888,"Ġå½¼å¥³ãģ¯å":4889,"ãĤ³ãĥ¼ãĥĴãĥ¼":4890,"ç§ģãģ¯èĩªåĪĨ":4891,"ãĥĸãĥªãĥ³":4892,"åħ±":4893,"ãģłãģ£ãģŁãģ®ãģĭ":4894,"ãĤµãĥł":4895,"æĻĤãģ«ãģ¯":4896,"çī²":4897,"çīĽ":4898,"èĩªçĦ¶":4899,"ĲĨè«ĸ":4900,"ĠãģĤãģªãģŁãģ¯ãģ¨ãģ¦ãĤĤ":4901,"Ġãģ§ãĤĤãģŃ":4902,"ãģ¨è¨Ģãģ£ãģ¦ãģŁ":4903,"ãĥ¼ãĥĪãĥ«":4904,"ãĤĵãģ§ãģıãĤĮ":4905,"ãĤĵãģ§ãģĦãģªãģĦ":4906,"ãģ®ãģ¯ãģĤãģªãģŁ":4907,"ãĥĬãĥĥãĥĦ":4908,"ĠäººãģĮ":4909,"Ġäººéĸĵ":4910,"åį±éĻº":4911,"ãĤ¿ãĥ¼ãĥ³":4912,"ãģ¦ãĤĤãģĦãģĦ":4913,"ãĤ±ãĥ¼ãĤ¹":4914,"ãĤ±ãĥ³ãĥīãĥ¼ãĥ«":4915,"Ġãĥŀãĥ¼ãĤ¯":4916,"ĠãĤ¢ãĥªãĤ¹":4917,"Ġç§ģãģ¯åı":4918,"Ġç§ģãģ¯å°ĳãģĹ":4919,"ãĥľãĥ³":4920,"ä¸Ģç·Ĵãģ«":4921,"ãģ¯ãģ©ãģĨãĤĦãģ£ãģ¦":4922,"ãĥįãĥĥãĥĪ":4923,"ãģĹãģŁãģĦãģªãĤī":4924,"ãĥ¯ãĥ³":4925,"éħ·ãģĦ":4926,"ãĥ¢ãĥ³ãĥī":4927,"ĠãĥīãĤ¢":4928,"ãģ¨æĢĿãģĦãģ¾ãģĻãģĮ":4929,"ãĤĴæ®ºãģĿãģĨãģ¨":4930,"ĠãĤ¹ãĥĨãĤ£ãĥ¼ãĥĸãĥ³":4931,"è³Ľ":4932,"å¸°":4933,"ãĤĪãĤĬèī¯ãģĦ":4934,"æĽ´":4935,"ä¸įæĺİ":4936,"Ġãĥıãĥ¼":4937,"ãģ©ãģĵãģ§":4938,"Ġä¸Ģåº¦":4939,"ãĤ¯ãĤ½ãĥ³":4940,"¥½ãģĹãģĦ":4941,"éķ·ãģı":4942,"ĠãĤªãĥ¼ãĤ¯":4943,"å®¶ãģ«å¸°":4944,"ä¼ĿãģĪ":4945,"è²¬ä»»":4946,"ãĥ¼ãĥªãĥ³ãĤ°":4947,"ãģ®æľį":4948,"ãģ®æľĿ":4949,"ĠãĥŃãĥ¼ãĤº":4950,"ĠãĤ¦ãĤ§":4951,"åĪĿãĤģãģ¦":4952,"ãĥģãĥ£ãĥ¼ãĥī":4953,"è£ģ":4954,"ĠåıĭéģĶ":4955,"ãģĿãĤĵãģªãģĵãģ¨":4956,"å°»":4957,"Ġæ°Ĺãģ«åħ¥ãĤīãģªãģĦ":4958,"Ġå®ĮçĴ§":4959,"ĠãĤ·ãĤ§":4960,"ãĤ¸ãĥ§ãĥ¼ãĤ¸":4961,"Ġæľ¬å½ĵãģł":4962,"ãģĮå¥½ãģįãģłãģ£ãģŁ":4963,"ãĤĴæĦĽãģĹãģ¦ãģĦãĤĭ":4964,"ĠæĹ¥éĸĵ":4965,"ãģ®å®¶æĹı":4966,"ãģ¡ãĤĥãģı":4967,"åģµ":4968,"åł´æīĢãģł":4969,"çĦ¼":4970,"ãģ¯ãģĤãĤĬãģ¾ãģĽãĤĵãģ§ãģĹãģŁ":4971,"Ġèª°ãĤĤãģĮ":4972,"çĲĨçĶ±ãģł":4973,"ä¸»å¼µ":4974,"ãĥĥãĤ·ãĥ¥ãĥ¼":4975,"èĭ¥":4976,"é¨Ļ":4977,"çľŁå®Ł":4978,"ä¼ĳãģ¿":4979,"ãģ¨åĳ¼ãģ¶":4980,"ĠãģĿãģ®éĢļãĤĬãģł":4981,"Ġ200":4982,"ãģ®çµĤãĤıãĤĬ":4983,"ãĥĪãĥ©ãĥĥãĤ¯":4984,"éģ¸æĬŀãģ®ä½Ļåľ°":4985,"ãģªãģĵãģ¨ãģ«":4986,"ãĥĸãĥ©ãĥĥãĤ¯":4987,"ä¾¡åĢ¤ãģĮãģĤãĤĭ":4988,"ªģãģį":4989,"èģ·":4990,"ãĤĴè¦ļãģĪãģ¦ãĤĭ":4991,"ãĥ«ãĥ¼ãĤ¬ãĥ¼":4992,"éĸīãģĺ":4993,"ãĥ¼ãĥĲãĥ¼":4994,"èĤ¢":4995,"æ¯İ":4996,"ãģĤãģĴãĤĭ":4997,"èªĵãģĨ":4998,"Ġãģ§ãģįãĤĭ":4999,"ãģ®çĤ¹":5000,"ãĤĴæķĳãģ£ãģŁ":5001,"ç®Ĺ":5002,"ãĤĴæ¶ĪãģĻ":5003,"ĠãģĺãĤĥãģĤ":5004,"ãĤ¤ãĥŃãĥĥãĥĪ":5005,"¶Ļç¶ļ":5006,"Ħļãģĭãģª":5007,"İŁåĽł":5008,"ãģĹãģ°ãĤīãģıãģ®éĸĵ":5009,"ãĤĨãĤĭ":5010,"ĠãĤ²ãĤ¤ãĥªãĥ¼":5011,"æķµãģª":5012,"éĸ£å¤ĸ":5013,"ãĤ¤ãĥ¤ãĥ¼":5014,"ãģĭãĤīæĿ¥ãģŁ":5015,"Ġãĥ´ãĤ£":5016,"Ġç§ģãģ¯ãģĿãģĨãģ¯æĢĿãģĦãģ¾ãģĽãĤĵ":5017,"ĠãģĬãģ¯ãĤĪãģĨãģĶãģĸãģĦãģ¾ãģĻ":5018,"ãĤªãĥ¼ãĤ¦ãĤ§ãĥ³":5019,"è¨ĢãģĦè¨³":5020,"èĭ±èªŀ":5021,"Ġå¹¸éģĭãĤĴ":5022,"Ġè¡Įãģıãģŀ":5023,"è§¦":5024,"ĠãģĦãģıãĤīãģł":5025,"Ġèª¿åŃĲãģ¯ãģ©ãģĨãģł":5026,"éĹĩ":5027,"Ġå¤±ç¤¼":5028,"ĠKISS":5029,"ãĤĴå®Łè¡Į":5030,"éİĸ":5031,"ãĤģãģ§ãģ¨ãģĨ":5032,"Ġä¸¡æĸ¹":5033,"ãĥªãĤ±ãĥ¼ãĥ³":5034,"Ġä½ķãģĭåķıé¡Įãģ§ãĤĤ":5035,"ĩå®Ļ":5036,"ĴåĲ¦":5037,"AN":5038,"ar":5039,"po":5040,"ut":5041,"¤¾":5042,"¤å¥´ãĤī":5043,"¨ãģ¦":5044,"¨æ¸¬":5045,"±éŁ¿":5046,"´Ĺ":5047,"·çī©":5048,"¼»":5049,"¼¾":5050,"¾ŀ":5051,"å¢":5052,"å¹¸éģĭ":5053,"æ¼Ķ":5054,"çĭ":5055,"ç¾İ":5056,"çªģçĦ¶":5057,"èĲ½ãģ¡":5058,"éľ":5059,"é½¢":5060,"ĠJ":5061,"ĠãĤ¹ãĥĪ":5062,"Ġä»£":5063,"Ġä¼ļãģĪãģ¦":5064,"ģīå¤§ãģª":5065,"Ĥ£èĢħ":5066,"ħåŃĲ":5067,"ĩŃãģĦ":5068,"ī±":5069,"īå¼·":5070,"ĬæĢ¥":5071,"ĭèŃ·":5072,"į¨ãģ¦":5073,"į·çī©":5074,"ľæŃ¢":5075,"ŀľ":5076,"ãģ®ãĥª":5077,"ãģ®éĩĳ":5078,"ãģ®ä¸į":5079,"ãģ®éģĵ":5080,"ãģ®ãĤ¯ãĥ©":5081,"ãģ®ä¸ĸè©±":5082,"ãģ¯ãģĵãģĵ":5083,"ãģ¯èª°ãģł":5084,"ãģªãģ£ãģŁ":5085,"ãģŁãĤĮãģŁ":5086,"ãģŁãģ¶ãĤĵ":5087,"ãģ¦ãĤĭãģ®":5088,"ãģ«ãģªãģĦ":5089,"ãģ«æĢĿ":5090,"ãģ«ãģĹãģ¾ãģĻ":5091,"ãĤĴä¸ĬãģĴ":5092,"ãĤĴéģĭè»¢":5093,"ãģĭãĤĬãģ¾ãģĽãĤĵ":5094,"ãģ¨æ":5095,"ãģ¨ãģĦãģĦ":5096,"ãģ¨ãģ¯ä½ķ":5097,"ãģ¨ç¢ºä¿¡":5098,"ãģĮãģ§ãģį":5099,"ãģĮãģĦãģ¾ãģĻ":5100,"ãģĮãģĦãģªãģĦ":5101,"ãģĮç§ģãģŁãģ¡":5102,"ãģĮãĤĦãģ£ãģŁ":5103,"ãĤĮãĤĪ":5104,"ç§ģéģĶ":5105,"ç§ģãģ«ãģ¯å":5106,"ãĥ¼ãĥ¼":5107,"Ġåĩº":5108,"Ġå¿ĥ":5109,"Ġåĺĺ":5110,"ĠåŃ¦æł¡":5111,"ãĤīãģªãģĳãĤĮãģ°ãģªãĤīãģªãģĦ":5112,"ãĤīãģļ":5113,"ãģ£ãģ¦ãĤĤãģĦãģĦ":5114,"ä¸ī":5115,"ãģĹãģ¦ãģįãģŁ":5116,"ĠãģĿãģ®å¾Į":5117,"ãĤĬå½ĵ":5118,"ãĤ¹ãĥĹ":5119,"ãĤ¹ãĥĨãĤ£":5120,"ãĤ¹ãĤ±":5121,"ãĥĥãĥĶãĥ¼":5122,"ãĤĴæı":5123,"ãĤĴæĺ":5124,"ãģ®åĮ":5125,"Ġå½¼ãģĮå":5126,"Ġæģ¯åŃĲ":5127,"Ġæ®ĭå¿µ":5128,"ãĤĴåĭķ":5129,"ãĤĴåĽŀ":5130,"ãĤıãģĽ":5131,"ãĤıãģĭãĤĭ":5132,"ãĥĪãĥł":5133,"Ġç§ģãģ¯ä½ķ":5134,"è¨´":5135,"ãģĻãĤĭãģĭ":5136,"ãģĻãĤĭãģªãĤī":5137,"ãĥ«ãĤ¯":5138,"ĠãģĿãĤĮãĤī":5139,"ĠãģĿãĤĮãģ§ãĤĤ":5140,"ãģ«å°ĭãģŃ":5141,"ãģ©ãģ®ãĤĪãģĨãģ«":5142,"ãģ®æī":5143,"ãģ®æĤª":5144,"ãģ®æºĸåĤĻ":5145,"ãģĭãĤīéĢĥãģĴ":5146,"ãģĭãĤīæĬľãģĳ":5147,"è¨Ģãģ£ãģ¦ãģıãĤĮ":5148,"ãģĿãĤĮãģĭãĤī":5149,"ãģĿãĤĮãģłãģĳãģł":5150,"ĠçľŁå®Ł":5151,"ãģ«æ®ĭ":5152,"ãģ¨æĢĿãģ£ãģ¦ãĤĭãģ®ãģĭ":5153,"ãģĬå®¢æ§ĺ":5154,"ãĤ·ãĥĨãĤ£":5155,"ãĤ·ãĥ³ãĤ°":5156,"éĢĨ":5157,"ãĥŃãĥ¼ãĥī":5158,"äºĭæħĭ":5159,"ãĤ¸ãĤª":5160,"ãĥķãĥŃ":5161,"è©±ãģĹãģŁãģıãģªãģĦ":5162,"ãģŁãĤģãģ«ãģ¯":5163,"ãĤ¿ãĤ¤ãĥł":5164,"ãĤ¿ãĥ©ãĥ¡":5165,"èª°ãģªãģ®ãģĭ":5166,"ãģ®ç¾©":5167,"ãģ®çĲĨçĶ±":5168,"ãģĮæĴĥ":5169,"ãģĮæ¶Ī":5170,"ä¼¼":5171,"ãģĺãĤĥãģªãģĦãĤĪ":5172,"ãģ®ãĥĶ":5173,"ãģ®ãĥŁ":5174,"ãĤ«ãĥĲãĥ¼":5175,"ãģ«ãģªãģ£ãģ¦ãģĦãģŁ":5176,"ãģĮåį":5177,"ãĥĩãĥ¼ãĥ«":5178,"ãĥĩãĥ¥":5179,"ĠãģĬãģ£ãģ¨":5180,"Ġé£²":5181,"ãĤ¦ãĥł":5182,"ãģĪãģ¦ãģĦãĤĭ":5183,"ãĤĴè£ı":5184,"ãģ©ãģĨãģĹãģŁãģ®":5185,"ãģ¯å½¼ãĤĴ":5186,"ĠãģĦãģĦãģŀ":5187,"åħĦå¼Ł":5188,"åıį":5189,"åıĹãģĳ":5190,"åıĭéģĶ":5191,"ãĥģãĥ¼ãĥł":5192,"åĲ¸":5193,"çĶŁå¾Ĵ":5194,"ãĥĭãĥ³ãĤ°":5195,"ãģ¨æĢĿãģĨãģªãĤī":5196,"Ġä»ĬæĻ©":5197,"Ġæľį":5198,"çµĤ":5199,"çļĨ":5200,"ãĤĤãģĨä¸Ģãģ¤":5201,"ĠãģĤãģªãģŁãģ¯ãģĿãĤĮ":5202,"Ġãģ©ãģĨãĤĤãģĤãĤĬãģĮãģ¨ãģĨ":5203,"ãĥªãĥ¼ãĥ³":5204,"Ń¦è£ħ":5205,"ãĤĵãģ§ãģĦãģŁ":5206,"ãģĹãģªãģĦãģ®":5207,"ãĤ¨ãĤ¹ãĥĪ":5208,"ãģ«ãģªãĤĭãģ§ãģĹãĤĩãģĨ":5209,"ãĤ¤ãĥ³ãĥī":5210,"ãĤ¤ãĥ³ãĤ¿":5211,"åĭ¢":5212,"åĭĩ":5213,"çķ°":5214,"ãĥ¼ãĥīãĥ³":5215,"æ³¨":5216,"ãģ®ä¸Ńãģ«ãģĤãĤĭ":5217,"çĲĨãģł":5218,"Ġä¿ºéģĶ":5219,"ãģ«èĲ½ãģ¡":5220,"ãģ«èĪĪåĳ³":5221,"ãģ«èĭ¦":5222,"ĠãĥŀãĤ¤ãĥŃ":5223,"åĽº":5224,"ãĥľãĤ¹":5225,"ãģªãģ®ãĤĪ":5226,"ãģĤãģªãģŁãģĮç§ģ":5227,"æŃĮ":5228,"åĬ©":5229,"åĬ¹":5230,"å¾Įãģ§":5231,"ãģ¨ãģĹãģ¦ãģĦãģ¾ãģĻ":5232,"ãĤĴçŁ¥ãģ£ãģ¦ãģŁ":5233,"ãģ®ãģĵãģ¨ãģ§ãģĻ":5234,"éļľ":5235,"å½¼ãģ¯ãģĤãģªãģŁ":5236,"ãģĿãĤĮãĤĴä½ľ":5237,"è¨Ģãģ£ãģŁãģĭ":5238,"è¨Ģãģ£ãģŁãģĵãģ¨":5239,"Ġå¤ļãģı":5240,"ĠãĤ¹ãĤ³ãĥĥãĥĪ":5241,"ãģ«è¡ĮãģĭãģªãģĦ":5242,"ãģ«è¡ĮãģįãģŁãģĦ":5243,"ãĥĿãĥ«ãĥİ":5244,"ãģĮç§ģãĤĴ":5245,"è³¢ãģĦ":5246,"ĠãĤ¯ãĥ¬":5247,"ĠãĤ¯ãĥ¼ãĥ«":5248,"å¸¯":5249,"å¹´ãĤĤ":5250,"æĽ¿":5251,"ãģ®åı£":5252,"ãģ®åıĭéģĶ":5253,"Ġå¤§ãģįãģª":5254,"è¿·":5255,"ĠåĪĨãģĭãĤīãģªãģĦ":5256,"ãģĹãģ¦ãĤĭãģ®ãģŃ":5257,"ĦŁæĥħ":5258,"ãĤĴå¾Į":5259,"ãĤ¸ãĤ§ãĤ¤ãĥł":5260,"ãĥķãĤ£ãĥ¼":5261,"ãĤĴæīĭãģ«ãģĻãĤĭ":5262,"æĮģãģ£ãģ¦ãģĦãģªãģĦ":5263,"ãģ®äºĭãģł":5264,"ãģĬéĩĳãĤĴæīķ":5265,"åĪĩãĤĬ":5266,"åĪĩæīĭ":5267,"ãĥģãĥ£ãĥ³":5268,"è£ı":5269,"ãĤĴçŁ¥ãģ£ãģ¦ãĤĭãģ®ãģĭ":5270,"ĠãĤ¨ãĥ´ãĤ¡ãĥ³":5271,"ĠãĥĪãĤ¥ãĥ³ãĥĸãĥªãĥ¼":5272,"éĢ±æľ«":5273,"ãĤĴè¦ĭãģŁãģĵãģ¨ãģĮãģªãģĦ":5274,"ãģ«æĪ»ãģ£ãģ¦ãģįãģŁ":5275,"ãĤ·ãĥ£ãĥ¼":5276,"Ġä¸»":5277,"ãģĵãģĵãģ«ãģĤãĤĭ":5278,"ãĤĴä½ľãĤĭ":5279,"ãģ«å¯Ŀ":5280,"æĸ¹æ³ķãģł":5281,"ãģ«åĩºãģ¦":5282,"ĠãĤ¸ãĤ§ãĤ¤ãĤ¯":5283,"éĸĵéģķãģ£ãģ¦ãģĦãĤĭ":5284,"ĠãĥĨãĤ£":5285,"ãģ¯æŃ»ãģ¬":5286,"éĸĭãģĳ":5287,"ãĤŃãĥ£ãĥ³":5288,"ãĤŃãĥ£ãĥĹãĥĨãĥ³":5289,"ãĤĴåıĹãģĳãģŁ":5290,"Ġãĥĸãĥ©":5291,"ãĤĴæīĢæľī":5292,"ãģĵãģĵãģ«ãģĦãĤĭãģ®":5293,"ĠãĤĤãģ¡ãĤįãĤĵéģķãģĨ":5294,"éĸ¢ä¿ĤãģªãģĦ":5295,"Ġ60":5296,"éģİãģĶ":5297,"éģİåİ»":5298,"ĪĲéķ·":5299,"åī£":5300,"ãģ®å¾ĮãĤĴè¿½":5301,"ãģĭãĤĬãģ¾ãģĻãģĭ":5302,"ĠèĩªåĪĨèĩªèº«":5303,"æ¸¯":5304,"èª¿æŁ»":5305,"æŁĵ":5306,"ĠãģĭãĤī":5307,"ĠãģĭãģªãĤĬ":5308,"ãģ¨ãģįãģ«ãģ¯":5309,"Ġé»Ĵ":5310,"Ġä»Ĭå¤ľãģ¯":5311,"ãĤĴåĩºãģ¦":5312,"ãģ«åıĸãĤĬ":5313,"ãģ«åıĤåĬł":5314,"ãģ«åĲĮ":5315,"æĸ¹ãģĮãģĦãģĦãĤĪ":5316,"æľīåĲį":5317,"ãģĹãĤĪãģĨãģ¨ãģĹãģ¦ãĤĭ":5318,"ãĤĴå¤±ãģĨ":5319,"å¼ķãģį":5320,"ĠãĥĢãĥ¡ãģł":5321,"éģ¸æĬŀèĤ¢":5322,"ãĤĴåĳ¼ãģ¶":5323,"Ġãģ©ãģĵãģĭ":5324,"ãĤĴæĽ¸ãģı":5325,"ãģĮæŃ»ãģ¬":5326,"Ġå¾ħãģ¦":5327,"ãģ®æľĢåĪĿ":5328,"ĠãĥĿãĥ¼ãĥ«":5329,"äºĪå®ļ":5330,"ãģ®æĸ¹æ³ķãģ§":5331,"ĠãĤ±ãĥ³ãĥīãĥ¼ãĥ«":5332,"ãģĬé¡ĺãģĦãģĹãģ¾ãģĻ":5333,"åŃĺçŁ¥":5334,"ãģ®è²¬ä»»":5335,"è¦ªåĪĩãģ«":5336,"ĠéĿ¢çĻ½ãģĦ":5337,"éŃħåĬĽ":5338,"ãģ®ãĥĿãĤ¤ãĥ³ãĥĪ":5339,"è¨ĢãģĦãģŁãģĦãģĵãģ¨ãģĮãģĤãĤĭ":5340,"ãģ¯æ°Ĺãģ«ãģĹãģªãģĦ":5341,"ãģĭãĤıãģĦãģĦ":5342,"ãģ«éĸ¢ãģĻãĤĭ":5343,"Ġãģ»ãģ¨ãĤĵãģ©":5344,"éģ©åĪĩ":5345,"ãģ«æľĢ":5346,"é©ļãģı":5347,"éĸ£ä¸ĭ":5348,"ä¿®çĲĨ":5349,"ĠãĤ¯ãĤ·ãģ£":5350,"Ġç§ģãģ«ãģ¯åĩºæĿ¥ãģªãģĦ":5351,"ãģ«åĪ°":5352,"ãģ®éļ£":5353,"ç§ĳåĮ»":5354,"ãģ¯ãģļãģł":5355,"æ»ħ":5356,"éº»èĸ¬":5357,"ãĤĴåį±éĻº":5358,"Ġç´ĦæĿŁãģĻãĤĭ":5359,"³ķå¾ĭ":5360,"ãģ®é«ª":5361,"ĠèĲ½ãģ¡çĿĢãģĳ":5362,"é³´":5363,"ãģ®çĬ¶æ³ģ":5364,"ä¸ĢæĹ¥ä¸Ń":5365,"ãģªãģĮãĤī":5366,"ãĤĴèĩªåĪĨ":5367,"ĠãģĿãĤĮãģ¯æľ¬å½ĵãģł":5368,"åŀĭ":5369,"ãĤĬå½ĵãģ¦":5370,"un":5371,"¡Ķ":5372,"¨æĻ©":5373,"°çĦ¡":5374,"°ãĤĬè¿Ķ":5375,"µ°":5376,"¶çĦ¶":5377,"¸è¡ĵ":5378,"»çĶ¨":5379,"½°":5380,"¿ħ":5381,"åĩį":5382,"æ¶":5383,"ç²":5384,"çĸ²":5385,"ç²¾ç¥ŀ":5386,"Ġc":5387,"Ġãģ«":5388,"ĠçĶ³ãģĹè¨³ãģĤãĤĬãģ¾ãģĽãĤĵãģĮ":5389,"ĢãĤĮ":5390,"ģĭäºº":5391,"ĤãģĦ":5392,"Ħ¼":5393,"ĨçĹħ":5394,"ĩãĤĬ":5395,"īĩ":5396,"Ĭ¬":5397,"Ĭå¼µ":5398,"Ĭå¨":5399,"ĭīå¼·":5400,"İ³":5401,"Ĳº":5402,"Ĳĳ":5403,"ĹĽãģ¿":5404,"ļĸ":5405,"ãĥ¶æľĪ":5406,"ãģĦãģªãģĳãĤĮãģ°ãģªãĤīãģªãģĦ":5407,"ãģ®ãĥŃ":5408,"ãģ®ãģ¿":5409,"ãģ®çĶŁæ´»":5410,"ãģ¯ãģĿ":5411,"ãģ¯ä»Ĭ":5412,"ãģªãģ©":5413,"ãģŁãĤĬ":5414,"ãģŁãģĭãģ£ãģŁ":5415,"ãģŁãģ³":5416,"ãģ«ãģĹãģ¦ãĤĭ":5417,"ãģ«èĩªåĪĨ":5418,"ãĤĴéĻ¤":5419,"ãĤĭãģłãĤįãģĨ":5420,"ãĤĭãģ¾ãģ§":5421,"ãĤĭãģĵãģ¨ãģ¯ãģªãģĦ":5422,"ãģĭèĢħ":5423,"ãģ¨ãģĹãģŁ":5424,"ãģ¨ä¼ĿãģĪãģ¦ãģıãĤĮ":5425,"ãģĮä¿º":5426,"ãģĮãģ©ãģĵãģ«ãģĤãĤĭ":5427,"ãģĮãģŁãģıãģķãĤĵãģĤãĤĭ":5428,"ãģ§ãģĤ":5429,"ãģ§è©±":5430,"ãģ§ä½ķãĤĴ":5431,"ãģ§ãģªãģĹ":5432,"ãĥ¼ãĤ«":5433,"ãĥ¼ãĤ¶ãĥ¼":5434,"ãģĨãĥ¼ãĤĵ":5435,"ãģĵãģ®çĶ·":5436,"Ġå°":5437,"Ġå¨ĺ":5438,"Ġå½ĵ":5439,"ãģ¾ãģļ":5440,"ãĤĤãģ¡ãĤĥ":5441,"ãĤīãģĹãģĦ":5442,"ãĥ³ãĤ¬":5443,"ãģ£ãģ¦ãĤĤ":5444,"ãģ£ãģ¦ãģ¿":5445,"ãģ£ãģ¦ãģıãģłãģķãģĦ":5446,"ãģıãĤĭãģ¨":5447,"ä¸¸":5448,"ãģĹãģ¦ãĤĦãĤĭ":5449,"ãĤĬãģªãģķãģĦ":5450,"ãĤĪãģĭãģ£ãģŁ":5451,"ãĤ¹ãģ¯":5452,"ãĤ¹ãĥĿ":5453,"ãĤ¹ãĥ©ãĥ¼":5454,"ãģĵãģ¨ãĤĴæľĽ":5455,"ãĥ¼ãĥį":5456,"ãĥĥãĤ³":5457,"ãĥĥãĥģãĥ£":5458,"ãĥĥãĤ·ãĥ§ãĥ³":5459,"ä½ķãģ§ãĤĤ":5460,"ä½ķãģĮèµ·ãģĵ":5461,"ãĤĴæĮĩ":5462,"ãĤĴæ¥½ãģĹ":5463,"ãģĿãģ¤ãģĳ":5464,"ãģ®å½¢":5465,"Ġå½¼ãģ¯ç§ģãģĮ":5466,"ĠæĹ":5467,"ĠæĴĥ":5468,"Ġæ±ºãģĹãģ¦":5469,"ĠæĪ¦äºī":5470,"ãĤ¯ãĤ¿":5471,"ãĤĴå·":5472,"ãĤĴå¼·":5473,"ãĤıãģĭãģ£ãģŁ":5474,"ãĤıãģĽãģ¦":5475,"ãĥĪãĥª":5476,"ãĥĪãĤ¥ãĥ³ãĥĸãĥªãĥ¼":5477,"æĢª":5478,"æĢ¥ãģĦ":5479,"ãĥ«ãĥ¼ãĥł":5480,"ãģ¤ãģĦ":5481,"ãģ¤ãģį":5482,"ãģĤãģªãģŁãģĮæ":5483,"ãĥªãĥĲ":5484,"ĠãģĿãĤĮãģłãģĳãģł":5485,"ĠãģĤãģªãģŁãģ¯æľ¬å½ĵãģ«":5486,"ãĤģãģ¦ãģĦãĤĭ":5487,"ãĥ©ãĤ°":5488,"ãĥ©ãĥĥãĤŃãĥ¼":5489,"ãģĭãĤīéĽ¢":5490,"è¨ĢãģĦãģ¾ãģĻ":5491,"éģº":5492,"ãĤ¢ãĥī":5493,"Ġç¶Ļç¶ļ":5494,"ãĤĦãĤģ":5495,"ä¸Ģä½ĵ":5496,"ãģ«æĽ¸":5497,"ãģ«æ»ŀåľ¨":5498,"è©Ĳæ":5499,"ãģĦãģŁãģĭ":5500,"ãģ¨æĢĿãģĦãģ¾ãģĹãģŁ":5501,"ãģ¨æĢĿãģ£ãģ¦ãģĦãģ¾ãģĹãģŁ":5502,"ãĤ·ãĤ¹ãĥĨãĥł":5503,"ãĥ¬ãĥĥãĤ¯ãĤ¹":5504,"äºĭãģĮãģĤãĤĭ":5505,"ãĥķãĥ©ãĥ³":5506,"ãģ«ãģ¯ãģĦãģªãģĦ":5507,"ãĤ¿ãĥªãĥ¼":5508,"ãĤ¿ãĤ¤ãĥ³":5509,"ãģ®ç·":5510,"ãģ®çŀ¬éĸĵ":5511,"åĪĨãģĭãģ£ãģŁ":5512,"åĪĨãģĭãĤĭ":5513,"ãģĮæ®º":5514,"Ġèī¯":5515,"ãģ®ãĥĭ":5516,"ãģ®ãĥį":5517,"ä»ĬãģĻãģĲ":5518,"ãģ°ãģĤ":5519,"ãĤĴçĪĨ":5520,"ãĤĴçĦ¡":5521,"ãĤĴè¦ĭãģĽ":5522,"ãĥŀãĤ¤ãĥ«":5523,"ĠãģĬå®¢æ§ĺ":5524,"ĠãģĵãĤĮãģ¯å":5525,"ãģ¾ãģĹãģŁãģĮ":5526,"ĠåĲĽãģ¨":5527,"ãĤĤãģ®ãģłãģ£ãģŁ":5528,"æīĵ":5529,"ãĤĴèµ°":5530,"ãģ®éŃ":5531,"ãģ®èĦ":5532,"ãģĿãģĨè¨ĢãģĨ":5533,"Ġå½¼ãģ¯ãģĿãĤĮ":5534,"Ġå½¼ãģ¯ãģ¾ãģł":5535,"ç§ģãģ¯ãģĤãģªãģŁãģ«":5536,"åħ·":5537,"çĶ·ãģ¯":5538,"åı¤ãģĦ":5539,"ãĥĲãĥ¼ãĥĪ":5540,"ä¼ļè©±":5541,"Ġç§ģãģŁãģ¡ãģ®":5542,"ãĤŃãĤ·":5543,"ãĥģãĥ³":5544,"ãĥģãĥĥãĤ¯":5545,"ãģ¯ä½ķãģłãģ£ãģŁãģ®":5546,"çĶŁãģ¾ãĤĮ":5547,"ãĥĵãĤ¶":5548,"ĠãģĿãĤĮãģ¯èī¯ãģĦ":5549,"ãģ¤ãģĦãģ¦ãģĦãĤĭ":5550,"ãģĵãģ¨ãĤĴèĢĥãģĪãģ¦":5551,"Ġä»Ĭãģł":5552,"Ġå½¼ãĤīãģ¯æ":5553,"Ġå½¼ãĤīãģ¯ç":5554,"ĠæľĿ":5555,"èĩªæ®º":5556,"ĠãģĤãģªãģŁãģ¯èª°ãģ§ãģĻãģĭ":5557,"ãĤªãĥŁ":5558,"æ°Ĺãģ«åħ¥ãĤĬ":5559,"ãĥ¡ãĥ³ãĤ¿":5560,"åºľ":5561,"ãĤĵãģ§ãĤĤ":5562,"ãģ¨ãģĦãģĨåĲįåīį":5563,"åĩºãģ¦":5564,"åĩºçĻº":5565,"ĠãģªãģľãģªãĤī":5566,"ãĤ¨ãĤ¢":5567,"ãģ«ãģªãĤĭãģĭãĤĤãģĹãĤĮãģªãģĦ":5568,"ä»ķäºĭãĤĴãģĻãĤĭ":5569,"ç·ł":5570,"æķ£":5571,"æķĳ":5572,"å½¼å¥³ãģ«":5573,"æĸ¹ä¸įæĺİ":5574,"ãģĵãĤĮä»¥ä¸Ĭ":5575,"åį°":5576,"æīĢãģ§":5577,"Īĳäºĭ":5578,"ãĥĨãĤ£ãĥ¼":5579,"ãĥĨãĤ£ãĥ³ãĤ°":5580,"ãģ§ãĤĤãģªãģĦ":5581,"ãģ®ä¸Ńãģ§ãģ¯":5582,"çĲĨçļĦ":5583,"Ġç§ģãģĮãģĤãģªãģŁ":5584,"æĺĶ":5585,"æĺ¨å¤ľ":5586,"å¤§ãģįãģĦ":5587,"ãĤ¬ãĤ¹":5588,"éłĳ":5589,"ãģ«è³":5590,"ĠãĥŀãĤ¤ãĥ«":5591,"ĠãĤ¢ãĤ¢":5592,"ãĥĻãĤ¤ãĥĪãĥŀãĥ³":5593,"çĻ»":5594,"ãĤĴæĮģãģ£ãģ¦ãģĦãģ¾ãģĻãģĭ":5595,"ãģ¯ãģ©ãģĨãģĹãģŁãģ®":5596,"ãģĻãģ¹ãģ¦ãģ®":5597,"ãĥįãĥĥãĤµ":5598,"ãĤĴçŁ¥ãĤĬãģŁãģĦ":5599,"Ġãģķãģģ":5600,"ĠãģĦãĤĦãģĿãģĨãģĺãĤĥãģªãģĦ":5601,"åħ¨åĵ¡":5602,"ãģ®çĶ·ãģł":5603,"ĠãģĹãģ°ãĤīãģı":5604,"æĿ¥ãģ¦":5605,"ãģ¹ãģįãģłãģ£ãģŁ":5606,"ãģ¹ãģįãģĺãĤĥãģªãģĭãģ£ãģŁ":5607,"ãĤĴåıĸãģ£ãģ¦":5608,"æīĭãģ«åħ¥":5609,"Ġãĥķãĥ¬":5610,"ĠãĥķãĥŃ":5611,"ãĥĿãĤ¤ãĥ³ãĥĪ":5612,"ãģįãģŁãģıãģªãģĦ":5613,"Ġä½ķãģĭãģĤãģ£ãģŁãģ®ãģĭ":5614,"ä¸įåı¯èĥ½":5615,"ãģ®åı¯èĥ½æĢ§":5616,"å¾ħãģ¤":5617,"ãĤ¸ãĥ£ãĥł":5618,"ãĤĭãģĵãģ¨ãģĮãģ§ãģįãģªãģĭãģ£ãģŁ":5619,"è¿«":5620,"è¿½":5621,"è¿½ãģĦ":5622,"çĽ®ãĤĴè¦ļãģ¾ãģĻ":5623,"ĠãĤĦãĤģãĤį":5624,"ĠãĤĦãģ£ãģ¦ãģ¿":5625,"ãĤ¸ãĤ§ãĥķãĥªãĥ¼":5626,"ãĥķãĤ£ãĥ³":5627,"ãģ»ãģĹãģĦ":5628,"ãģ®äºĭåĭĻæīĢ":5629,"ãģ¦ãģĦãĤĭãģ®ãģĭ":5630,"èĢĥãģĪãģł":5631,"ĠãģĶãĤģãĤĵ":5632,"ãģĮãģĤãģ£ãģŁãģ®":5633,"ä¼Ŀçµ±":5634,"å¤ĸåĩº":5635,"Ķ¯éħį":5636,"æł¹":5637,"è¾±":5638,"ĠãĤ¤ãĥ´":5639,"ĠãĤ¤ãĤ¨ãĤ¹":5640,"ãģĮçĦ¡":5641,"Ġå½¼ãģ¯åĲĽ":5642,"è¦ļãģĪãģ¦ãĤĭ":5643,"èĪª":5644,"èĪĪå¥®":5645,"ãģ®ä¸Ĭãģ§":5646,"åĥ§":5647,"åĥį":5648,"ãĤ¦ãĤ§ãĥ«":5649,"å°Ĩ":5650,"å°İ":5651,"ãĤĦãģ£ãģŁãģ®":5652,"æĦŁè¬Ŀ":5653,"ãģłãĤĪãģŃ":5654,"ĠãĤ³ãĥ³ãĤ¯":5655,"ĠãĤ³ãĥ¼ãĥĴãĥ¼":5656,"ãģ«æĪ»ãģ£ãģ¦":5657,"ãĤ·ãĥ£ãĥ«":5658,"éĩİçĲĥ":5659,"Ġç§ģãģ¯ãģĿãĤĮãģ«ãģ¤ãģĦãģ¦":5660,"ãģĮæľĽãĤĢ":5661,"ãĤ¢ãĥ³ãĤ½ãĥĭãĥ¼":5662,"ĠãĤµãĤ¤":5663,"ãģ«ãĤĪãĤĭ":5664,"ãģ«ãĤĪãĤĭãģ¨":5665,"ãĤĴä½ľãģ£ãģŁ":5666,"ãģ«åĩºçĻº":5667,"ĠãģĨãģĿãģ¤ãģĳ":5668,"çĶŁãģįãģ¦":5669,"ãģ®ãģĵãģ¨ãĤĴè©±":5670,"ãģ¾ãģĹãĤĩãģĨãģĭ":5671,"è¨±ãģĹ":5672,"éĽ¢å©ļ":5673,"ãĤĴåıĹãģĳåħ¥":5674,"ãģĤãģªãģŁãģ«ãģ¨ãģ£ãģ¦":5675,"Ġèģŀãģĵ":5676,"éģħåĪ»":5677,"é£²ãģ¿çī©":5678,"ãģ®æĸ¹ãģĮ":5679,"Ġç´ł":5680,"è©±ãģĻãģ®":5681,"ãģĤãĤĬãģĮãģ¨ãģĨãģĶãģĸãģĦãģ¾ãģĻ":5682,"ĠéĽ»":5683,"æħ¢":5684,"ãĤ¹ãĤ¿ãĥ³":5685,"æ®ºäºº":5686,"ç§»æ°ĳ":5687,"éĿ¢çĻ½ãģĦ":5688,"æ¸¡":5689,"æ¸ī":5690,"è¨ĺéĮ²":5691,"æŃ£çĽ´":5692,"ãģ¨ãģ¯æĢĿãģĦãģ¾ãģĽãĤĵ":5693,"ãģ¨ãģ¯æĢĿãĤıãģªãģĭãģ£ãģŁ":5694,"ãģ¯å¤ĸ":5695,"ãģ£ãģ¦ãĤĭãģ®ãģĭãĤıãģĭãĤīãģªãģĦ":5696,"ĠåĨ·":5697,"ãģ®åīįãģ«":5698,"ķ°ãģªãĤĭ":5699,"çĲĨè§£ãģĹãģ¦ãģĦãĤĭ":5700,"ãĥĺãĥĥãĥī":5701,"ãĤĴæĬķãģĴ":5702,"ç§»åĭķãģĻãĤĭ":5703,"Ġæľ¬çī©":5704,"åĪĳåĭĻæīĢ":5705,"ãģ«å¤ļãģı":5706,"æľŁå¾ħ":5707,"äºĪç´Ħ":5708,"æĬľãģĦãģŁ":5709,"ãĤĴçµĤ":5710,"ãģĹãģªãģĦãģ§ãģıãģłãģķãģĦ":5711,"éĿŀéĽ£":5712,"Ķ¿æ²»":5713,"ĠãģĤãĤĭãģĦ":5714,"ãĤĴç½®ãģĦãģ¦":5715,"ãģ®ãģŁãĤģãģ«åĥįãģĦãģ¦":5716,"ãģĭãĤĤãģĹãĤĮãģ¾ãģĽãĤĵãģĮ":5717,"ĠéģķãģĨãĤĪ":5718,"çĹħéĻ¢":5719,"ãģ£ãģ±":5720,"³¨æĸĩ":5721,"ãģ¡ãĤĩãģ£ãģ¨ãģĹãģŁ":5722,"ãģ®ãĥĨãĥ¼ãĥĸãĥ«":5723,"ãĤ°ãĥŃãĥ¼ãĥĸ":5724,"ãģ«èģŀãģĦãģ¦":5725,"èĬ±":5726,"èĬ¸è¡ĵ":5727,"å¥´ãģł":5728,"æºĸåĤĻãģĮãģ§ãģįãģ¦":5729,"ãģ®éĿ´":5730,"ãģ¨åĳ¼ãģ°ãĤĮãĤĭ":5731,"ĠæŃ¢ãģ¾ãĤĮ":5732,"ãģ®åł´åĲĪãģ¯":5733,"åħ¬å¹³":5734,"é§Ħ":5735,"ä¾ĭãģĪãģ°":5736,"ĵįä½ľ":5737,"ãģ«åĢ¤":5738,"ãģ®éŁ³æ¥½":5739,"¤ĩéĽĳ":5740,"¸¸ãģ«":5741,"è¶Ĭ":5742,"Ġä½ķãģĮèµ·ãģįãģ¦ãĤĭãģ®":5743,"«ĮãģĦãģł":5744,"ãģ®çĤºãģ«":5745,"Ġä¿¡ãģĺãģ¦ãģıãĤĮ":5746,"ĠåĲįåīį":5747,"Ġè¨Ģãģ£ãģŁãģłãĤį":5748,"£çĿ£":5749,"ãģµãĤĬ":5750,"çŃĸ":5751,"ä»®å®ļ":5752,"ãģ®é»Ĵäºº":5753,"æłĦãģ§ãģĻ":5754,"Ġãģµãģĸ":5755,"ãģ«åįģåĪĨãģª":5756,"ãģ«èŃ¦åĳĬ":5757,"ãĥĻãĤ¤ãĥĵãĥ¼":5758,"ĥħåł±":5759,"ãĤĴèª¬æĺİ":5760,"įľæŁ»å®ĺ":5761,"ãĤĴè¶ħ":5762,"è£ģåĪ¤":5763,"ãģ¡ãĤĥãģıãģ¡ãĤĥ":5764,"Ĭå¨ł":5765,"è©Ĳæ¬º":5766,"ãĥ¡ãĥ³ãĤ¿ãĤ¤ãĥ³":5767,"ĠãĤ³ãĥ³ãĤ¯ãĥªãĥ³":5768,"ac":5769,"me":5770,"re":5771,"¡ä»¶":5772,"¡çĶ£":5773,"¤ħåŃĲ":5774,"¥ĩ":5775,"¦å®ļ":5776,"¦Ĭå¨ł":5777,"§ħ":5778,"§į":5779,"¨¼":5780,"©ĭ":5781,"¬å¼ı":5782,"®Ĳ":5783,"ºĹ":5784,"å¹":5785,"æ®ĭå¿µ":5786,"çĻĤ":5787,"çŃĶãģĪ":5788,"çĭ¬":5789,"è®Ĳ":5790,"Ġéģĭ":5791,"ĠéĢĥãģĴ":5792,"ħ¹":5793,"ħī":5794,"ħå½ĵ":5795,"Ĩħ":5796,"ĩ¸":5797,"ĪĮ":5798,"ĭĩ":5799,"ĭĺ":5800,"ĭåķı":5801,"Į¨":5802,"Įåĸ¶":5803,"ĸåŃ¦":5804,"Ĺè»Ĭ":5805,"ļãģ£ãģ¨":5806,"ãģĦãģıãĤī":5807,"ãģĦãģ¨ãģĵ":5808,"ãģ®ãĤ¬":5809,"ãģ®ä½ľ":5810,"ãģ®ä¸ĸçķĮ":5811,"ãģ®ãĥīãĤ¢":5812,"ãģ®ãģĨãģ¡":5813,"ãģ¯ãģ£ãģįãĤĬ":5814,"ãģªãģĵãģ¨ãģ§ãģĻ":5815,"ãģ«ãģĵ":5816,"ãģ«ãģĹãģ¦ãģıãĤĮ":5817,"ãģ«ãģĭãģĳ":5818,"ãĤĴãģ¨":5819,"ãĤĴãģĤ":5820,"ãĤĴä¸Ģ":5821,"ãĤĴä¼":5822,"ãĤĴãģĹãģªãģĦ":5823,"ãĤĴãĤĪãģı":5824,"ãĤĴéĸī":5825,"ãĤĴéĽĩ":5826,"ãĤĴãĥİãĥĥãĤ¯":5827,"Ġãģļãģ£ãģ¨":5828,"ãģĭãĤĮãĤĭ":5829,"ãģĭãģĴ":5830,"ãģĭè¦ĭãģ¦":5831,"ãģ£ãģĭãĤĬ":5832,"ãĤĮãģªãģĭãģ£ãģŁ":5833,"ãģĻãģĵãģ¨ãģĮãģ§ãģįãĤĭ":5834,"ãģĻãģĶãģĦ":5835,"ç§ģãģ®æ":5836,"ãģĨãĤĮ":5837,"ãģĵãģ®ä»ķäºĭ":5838,"ãģ¾ãģªãģĦ":5839,"ãĤīãĤĨãĤĭ":5840,"ãĥ³ãģ®":5841,"ãģıãģ§ãģªãģĹ":5842,"Ġãĥ¦":5843,"äºķ":5844,"ãĤĬãģł":5845,"ãģ£ãģŁãģĭ":5846,"ãĤĪãģĵ":5847,"ãģĵãģ¨ãģ¯ä½ķãĤĤãģªãģĦ":5848,"ãģįåĽŀ":5849,"ãĥĥãĥķ":5850,"ãĥĥãĤµãĥ¼":5851,"ãĤĴæįķ":5852,"ãĤĴæ³¨æĸĩ":5853,"ãģĿãģ®æ":5854,"ãģ®åĩº":5855,"ãģ®å¹´":5856,"ãģ®åĬ©ãģĳ":5857,"ãģ¯åĪ":5858,"ãģĹãģŁãģĮ":5859,"ãģĹãģŁãĤı":5860,"ãģķãĤĮãģªãģĦ":5861,"ãģķãģªãģĦãģ¨":5862,"ĠæĪ»":5863,"Ġæ¬²ãģĹãģĦ":5864,"ĠæĦıåĳ³":5865,"Ġæ·±":5866,"ãĤ¯ãĥĵ":5867,"ãĤĴåĢ":5868,"ãĤĴåĩ¦":5869,"ãĤĴåĨį":5870,"ãĤ¤ãĥ¯":5871,"ãĤ¤ãĥ´":5872,"ãĤıãĤĮãģ¦ãģĦãĤĭ":5873,"äººãģ«":5874,"äººãģĭãĤī":5875,"ãģĻãĤĭãģĵãģ¨ãģ¯ãģ§ãģįãģªãģĦ":5876,"ãĥ«ãĤ³":5877,"ãĥ«ãĤ¿ãĥ¼":5878,"ãģĤãģªãģŁãģ¯æ":5879,"ĠãģĿãĤĮãģ«ãģ¤ãģĦãģ¦ãģ¯":5880,"ĠãģĤãģªãģŁãģ¯å½¼å¥³":5881,"ĠãģĤãģªãģŁãģ®åĲįåīįãģ¯":5882,"ãĤģãģ¾ãģĻ":5883,"å¥ı":5884,"ãģ«å¤§":5885,"ãģ«åĬł":5886,"Ġãģĵãģ®å":5887,"ãģ®æŃ":5888,"è¨Ģãģ£ãģ¦ãģªãģĦ":5889,"çŁ¥ãĤĭ":5890,"çŁ¥ãĤī":5891,"çŁ¥ãģ£ãģ¦":5892,"è¦ĭãģĪãģŁ":5893,"ãģĦãģĦãģĵãģ¨ãģł":5894,"ĠçľŁ":5895,"ãĤĦãĤģãģ¦":5896,"ãģ«æķ":5897,"ãģ«æĺ":5898,"ãģ§ãģįãģŁ":5899,"ãģĬå°»":5900,"ãĥ¬ãĤ¼":5901,"ãĥķãĥ©":5902,"ãģ®çľŁ":5903,"ãģ®çĦ¡":5904,"ãģĮæīĭ":5905,"ãģĮæ¬²":5906,"ãģĮæŃ£ãģĹãģĦ":5907,"ãĤĵãģłãģ®":5908,"ãĤĵãģłãģ£ãģ¦":5909,"ãģ°ãĤĵ":5910,"ãĤĴçĽ®":5911,"ãģ§ãģ¯ãģĦ":5912,"ãĤ«ãĥĥãĥĪ":5913,"ãģ«ãģªãĤĮãĤĭ":5914,"éĩĪ":5915,"ãģ¯ãģĦãģĳãģ¾ãģĽãĤĵ":5916,"ãģĮåĩº":5917,"ãĥŀãĥ¼ãĤ¯":5918,"ãĥŀãĥĥãĤ¯ãĤ¹":5919,"ĠãģĬä¼ļãģĦ":5920,"ĠãģĵãĤĮãģ§":5921,"ĠãģĵãĤĮãģĮç§ģ":5922,"ãģłãģĳãĤĪ":5923,"ĠåĲĽãģŁãģ¡":5924,"ĠåĲĽãģ«ãģ¯":5925,"ãĤĴèĲ½":5926,"ä¸Ńãģ«":5927,"ä¸Ńãģ«åħ¥":5928,"ä¸Ńå°ī":5929,"å¾´":5930,"ãģ®é¦ĸ":5931,"ãģ®èī¯ãģĦ":5932,"Ġå½¼å¥³ãģ¯ç":5933,"Ġå½¼ãģ¯ãģ¨ãģ¦ãĤĤ":5934,"ç§ģãģ¯ãģĿãģĨ":5935,"çĶ·ãģ®åŃĲ":5936,"åı°":5937,"çŁ¥ãģ£ãģ¦ãĤĭãģ§ãģĹãĤĩ":5938,"ãĥĥãĥĪãģ¯":5939,"ĠãģĿãģĨãģłãĤį":5940,"ãĥģãĥ¥":5941,"ãĥģãĥ§":5942,"ãģ¯ä½ķãĤĴ":5943,"ãĤĮãģªãģĦãģ¨":5944,"å¿Ĺ":5945,"é¡į":5946,"ãĥĵãĥ¥ãĥ¼":5947,"ãĥĭãĥ¼ãĥ«":5948,"ä¸Ĭæīĭ":5949,"ãģĵãģ¨ãĤĴãģĹãģŁ":5950,"Ġä»Ĭãģ®ãģ¨ãģĵãĤį":5951,"°ĳãģªãģıãģ¨ãĤĤ":5952,"çµĤãĤıãĤĬ":5953,"çļĩ":5954,"èĢħãģ¯":5955,"èĢħãģĮ":5956,"ãĤªãĤªãĤ«ãĥŁ":5957,"Ġãģ§ãĤĤå½¼ãģ¯":5958,"Ġãģ§ãĤĤãģĤãģªãģŁãģ¯":5959,"Ġãģ§ãĤĤä»Ĭãģ¯":5960,"ãģ¨è¨ĢãģĦãģ¾ãģĻ":5961,"ãĥ¡ãĥ³ãĥĪ":5962,"ãĥ¡ãĤ¢ãĥªãĥ¼":5963,"ãĥ¡ãĥĥãĤ»ãĥ¼ãĤ¸":5964,"ä»ķä¸ĬãģĴ":5965,"ãĤĵãģ§ãģŁ":5966,"ãģĹãģªãģĦãģªãĤī":5967,"ãģ¨ãģĦãģĨæĦıåĳ³":5968,"åĩºæĿ¥":5969,"éĩĳæĮģãģ¡":5970,"éĩĳãĤĴæīķ":5971,"Ġãģªãģľç§ģãģĮ":5972,"ĠãģªãģľãģĿãĤĵãģªãģĵãģ¨ãĤĴ":5973,"ä¾Ŀ":5974,"ãģ®ãģ¯ãĤıãģĭãģ£ãģ¦ãĤĭ":5975,"ãģ®ãģŁãĤģãģ«ä½ķãģĭ":5976,"ãĤĴåı©":5977,"çī©ãģ¯":5978,"ĠãĤ¸ãĥ¼ãĥ³":5979,"å½¼å¥³ãĤĴ":5980,"å½¼å¥³ãģ¯å":5981,"èĢĥæħ":5982,"ãĥ©ãĥ³ãĥĪ":5983,"ãģĵãĤĮãģĮ":5984,"ç´¢":5985,"ãĥĢãĥ³ãĥĲãĥ¼":5986,"Ī¶å¾¡":5987,"ãĥĨãĤ£ãĥĸ":5988,"çĲĨçļĦãģª":5989,"Ġä¿ºéģĶãģ¯":5990,"ãģ«è¿ĳ":5991,"ĠãĤ¢ãĥĢãĥł":5992,"ãģķãģĽãģŁ":5993,"Ġç§ģãģ¯å®¶ãģ«å¸°":5994,"å½¼ãĤīãģĮ":5995,"Ġãģĵãģĵãģ¯":5996,"å¯©":5997,"å¿ħè¦ģãģ¯ãģĤãĤĬãģ¾ãģĽãĤĵ":5998,"ãĤĴæĮģãģ£ãģ¦ãģŁ":5999,"ãĤĴæĮģãģ£ãģ¦ãģįãģŁ":6000,"ãĤĴæĮģãģ£ãģ¦ãģĦãģ¾ãģĽãĤĵ":6001,"ãģĹãģŁãģĦãģ®ãģĭ":6002,"ãĤĴçŁ¥ãģ£ãģ¦ãģĦãģŁ":6003,"ĠãģĦãĤĦçµĲæ§ĭ":6004,"ãģ®çĶ·ãģĮ":6005,"ãģ®ãĤĪãģĨãģ«è¦ĭãģĪãĤĭ":6006,"èģŀãģįãģŁãģĦ":6007,"Ġç§ģãģ¯ãģĤãģªãģŁãĤĴ":6008,"ãĤĴåıĸãģ£ãģŁ":6009,"ãĥ¢ãĤ¢":6010,"ĠåĲĽãģ¯ãģĿãĤĮ":6011,"ĠãĥīãĥŃãĤ·ãĥ¼":6012,"Ġå¤¢":6013,"ãģ¤ãĤĤãĤĬãģ§ãģĻ":6014,"ĠãĤĤãģĨå°ĳãģĹ":6015,"ĠãĤ¹ãĥŃãĥ¼ãĥ³":6016,"¥³ãģ®åŃĲ":6017,"ãĥĿãĥ³ãĥī":6018,"ä½¿çĶ¨":6019,"è³Ńãģĳ":6020,"å¸Ń":6021,"ãģ¨ä¸Ģç·Ĵãģ«ãģĦãĤĭ":6022,"ãĥ©ãĤ¤ãĥĸ":6023,"ãģ®å¤©":6024,"ãĥĽãĥ¼ãĥ«":6025,"ãĥĽãĥ¼ãĥł":6026,"ä¸įå¹¸":6027,"èĥŀ":6028,"Ġãĥıãĥĭãĥ¼":6029,"ãĤĭãģĭãģ©ãģĨãģĭ":6030,"é£Łäºĭ":6031,"ãĤ¸ãĤ§ãĥ³ãĥĪ":6032,"æĮģãģ£ãģ¦ãĤĭ":6033,"ĠãģĤãģªãģŁãģ¯ç§ģãģŁãģ¡":6034,"±ºå®ļ":6035,"æĺİæĹ¥":6036,"ãģ§ãģ¯ãģĤãĤĬãģ¾ãģĽãĤĵãģĮ":6037,"ĠãĥŃãĥĥãĤ¯":6038,"ãĥķãĤ¡ãĥĥãĤ¯":6039,"ãĥķãĤ¡ãĤ¤ãĥ«":6040,"åĮ»èĢħ":6041,"ĠæĺłçĶ»":6042,"ãĤĴæķĻ":6043,"ãĤĴèģŀãģı":6044,"è¦ļãģĪãģ¦ãģĦãĤĭ":6045,"åľ°çįĦ":6046,"Ġ45":6047,"Ġåı¯èĥ½æĢ§":6048,"åĥįãģĦãģ¦":6049,"ãĤĴè¦ĭãģŁãĤı":6050,"ãĤ¦ãĤ§ãĤ¤ãĥī":6051,"Ġæ°Ĺãģ«ãģĻãĤĭãģª":6052,"ä¿Ŀè¨¼":6053,"ä¿ĿéĻº":6054,"ãĤĴè¦ĭãģ¦ãģıãģłãģķãģĦ":6055,"ãĤ¤ãĥ«ãĤµ":6056,"è¨Īç®Ĺ":6057,"Ġä»ĸãģ«ãģ¯":6058,"Ġä»ĸãģ«ãĤĤ":6059,"èª°ãĤĤãģĮ":6060,"åĨĹè«ĩ":6061,"ĠãĤ«ãĤ¸ãĥİ":6062,"ãģĮèµ·ãģįãģŁ":6063,"éĥ½":6064,"æĸ¹æ³ķãģ§":6065,"Ġç¥ŀãģ«æĦŁè¬Ŀ":6066,"ĠãĤ¸ãĤ§ãĤ¤":6067,"ĠãģĨãĤı":6068,"ãģłãģ¨æĢĿãģ£ãģ¦ãĤĭ":6069,"ãģłãģ¨æĢĿãĤıãģªãģĦ":6070,"Ġãĥ©ãĤ¤":6071,"çĶŁãģįæ®ĭ":6072,"åģ½":6073,"ıĲä¾Ľ":6074,"Ġç§ģãģ«ä½ķãĤĴ":6075,"ĠãĥĵãĤ¯ãĤ¿ãĥ¼":6076,"Ġãĥ¬ãĤ¤":6077,"ĠãĤıãģĭãģ£ãģ¦ãĤĭ":6078,"ç¢ºãģ«":6079,"ç¢ºãģ«ãģ¯":6080,"ç¢ºèªį":6081,"ãģĵãģ¨ãģĮãģĤãĤĭãģĭ":6082,"æ¬²ãģĹãģĦãģ®":6083,"Ī»ãģ£ãģ¦ãģıãĤĭ":6084,"ãģ¯å®Įåħ¨ãģ«":6085,"ĠæĻĤãĢħ":6086,"ãģ®ãĥĳãĥ¼ãĥĪãĥĬãĥ¼":6087,"æŃ£ãģĹãģĦ":6088,"åķıé¡ĮãģĮãģĤãĤĭ":6089,"ãĥ³ãĤ¯ãĤ¹":6090,"ãĤ¦ãĤ£ãĥ«":6091,"ãĤ¦ãĤ£ãĥªãĤ¢ãĥł":6092,"ãģ¨ãģįãģ¯":6093,"ãĤ¹ãĥĨãĥĥãĥĹ":6094,"Ġãĥĭãĥ¥ãĥ¼ãĤ¹":6095,"Ġãĥĭãĥ¥ãĥ¼ãĥ¨ãĥ¼ãĤ¯":6096,"£²æĺ¥":6097,"ãģ¯å¤ī":6098,"ĠåĨį":6099,"ĠãĥĩãĤ£ãĤ¯ãĤ½ãĥ³ãģķãĤĵ":6100,"æĦŁãģĺãģł":6101,"åĸľ":6102,"ãģ®åīįãģ§":6103,"ĠæĢ¥":6104,"ĠæĢĿãģĦ":6105,"ãĥĹãĥŃãĤ°ãĥ©ãĥł":6106,"Ġç§ģãĤĤãģĿãģĨæĢĿãģĨ":6107,"Ġãĥ¡ãĥªãĥĥãĤ¯":6108,"Ġãĥ¡ãĤ¢ãĥªãĥ¼":6109,"ãģ®åĳ³":6110,"åł±åĳĬ":6111,"ãĥ¥ãĥ¼ãĥ©":6112,"Ġå¥´":6113,"è¡ĮãģĳãģªãģĦ":6114,"ãĤĴæĬľ":6115,"ãĥķãĥªãĥ¼ãĤ¯":6116,"èµ·ãģĵãĤĭ":6117,"èµ·ãģĵãģ£ãģŁ":6118,"¼·çĽĹ":6119,"ãģĹãģ¾ãģĽãĤĵãģ§ãģĹãģŁ":6120,"Ġæĸ°":6121,"ãĤĴåĳ¼ãģ³":6122,"å¤±ç¤¼":6123,"ãģ®åħī":6124,"ãģĻãĤĭãģ¤ãĤĤãĤĬãģł":6125,"æĪĳãĢħãģ¯":6126,"ãĤĴæĭĴåĲ¦":6127,"ç´ĦæĿŁãģĹãģŁ":6128,"æ²¹":6129,"ãĤĴè¦ļãģĪãģ¦ãĤĭãģĭ":6130,"ĠãĤ»ãĥ³ãĥĪ":6131,"ãģ®ãĥģãĤ±ãĥĥãĥĪ":6132,"çĹĽ":6133,"ĠèŃ¦å®ĺ":6134,"åŁ·":6135,"åŁº":6136,"åŁŁ":6137,"ãģĮä½ķãģªãģ®ãģĭ":6138,"ãĤĴç½®ãģı":6139,"ãģ«ãģªãĤĬãģ¾ãģĹãģŁ":6140,"ĠéĿĻ":6141,"ãģ¯æľĢå¾Į":6142,"è£ħç½®":6143,"ãģ«ãģĬãģĦãģ¦":6144,"æıº":6145,"ĠãģĿãģĵãģł":6146,"ãĤ¯ãĤ½éĩİéĥİãģł":6147,"ãĤĴè¿½ãģĦãģĭãģĳ":6148,"ãĤĭãģ¤ãĤĤãĤĬãģ¯ãģªãģĦ":6149,"ãģ§åĥį":6150,"ãģ®ãĥĹãĥŃ":6151,"ãģ®ãĥľãĥ¼ãĤ¤ãĥķãĥ¬ãĥ³ãĥī":6152,"¥ĪãĤĬ":6153,"±ļãģĦ":6154,"ãĥ¼ãĥ©ãĥ¼":6155,"ãģ«åº§ãģ£ãģ¦":6156,"ç®±":6157,"å°ıåĥ§":6158,"Ġãģ»ãĤī":6159,"å£°ãģ§":6160,"ĠãĤ¦ãĤ£ãĥªãĤ¢ãĥł":6161,"ãĤĨãģ£ãģıãĤĬ":6162,"ä¿®æŃ£":6163,"ãģĵãģ®åĽ½":6164,"çĽ¸æ£Ĵ":6165,"ãĤĴåħ±æľī":6166,"å®ŁéļĽãģ«ãģ¯":6167,"ŁãĤĬãģĮãģĤãĤĭ":6168,"Ġä½ķãģ¦ãģĵãģ¨ãĤĴ":6169,"ãģĮãģĭãģĭãĤĭ":6170,"Ľ²ãģĮ":6171,"ãĤ¢ãĤ¤ãĥĩãĤ¢":6172,"ãĥ¨ãĥ¼ãĥŃãĥĥãĥĳ":6173,"Ġæ¯İ":6174,"ĠæĶ¾ãģĽ":6175,"ãĤıãģĳãģ§ãģ¯ãģªãģĦ":6176,"å¤ļãģĦ":6177,"ãĤĴç´¹ä»ĭ":6178,"Ġãĥŀãĥ³ãĤ¿ãĥ³":6179,"¿łå®Ł":6180,"ãģ®åģ´":6181,"ãĥªãĤ¨ãĥª":6182,"¼ķãģ£å¼µ":6183,"Ġèµ¤ãģ¡ãĤĥãĤĵ":6184,"ĠãĤ®ãĥ£":6185,"çķ¥å¥ª":6186,"ãĥĢãĥ¡ãģł":6187,"¶Īéĺ²å£«":6188,"Ġè«¸åĲĽ":6189,"ãĤ«ãĥ¼ãĥĪãĥ³":6190,"Ġãģ©ãģĵãģ«ãģĦãĤĭãģ®":6191,"Ġçµ¶å¯¾":6192,"ãģªãģįãĤĥãģªãĤīãģªãģĦ":6193,"ģ¥ãģļãģĭãģĹãģĦ":6194,"Ġåĩºãģ¦è¡Įãģĳ":6195,"Ġé£Łãģ¹":6196,"æīĭä¼ĿãģĦ":6197,"ãĤĴèĦ±ãģĦãģł":6198,"åĿĬ":6199,"Ġä½ķãģĮåķıé¡Įãģªãģ®":6200,"post":6201,"ãĤĴæıı":6202,"ãģ«åıĸãĤĬçµĦ":6203,"ãģ§ãģĤãĤĮ":6204,"ãģ£ãģ±ãĤī":6205,"ãĥ¬ãĤ¼ãĥ³ãĥĪ":6206,"èĢĥæħ®":6207,"LL":6208,"no":6209,"¡Ĺ":6210,"¢°":6211,"¢ĭ":6212,"¢ĵ":6213,"¢å©ļ":6214,"£è£ħ":6215,"¤ãĤĵ":6216,"¥æ£Ĵ":6217,"§¿":6218,"®ãģĹ":6219,"³¶":6220,"¶º":6221,"¹æ³ķ":6222,"ºĲ":6223,"»ĳ":6224,"½åŃĲ":6225,"¾¤":6226,"åľŁ":6227,"æĪ":6228,"æºĸ":6229,"æ¢°":6230,"è¸":6231,"èı":6232,"éĤ":6233,"éª¨":6234,"Ġè¦ª":6235,"ĠäºĨ":6236,"ĠäºĮäººãģ¨ãĤĤ":6237,"Ġä¾ĭãģĪãģ°":6238,"ģ´":6239,"ĥéĻ¤":6240,"ĦåĽ²":6241,"ħ£":6242,"ħĪ":6243,"Ĩ±":6244,"Īå¾Į":6245,"ĪĪå¥®":6246,"īå¦¹":6247,"Ĭķ":6248,"ĬçĻ½":6249,"ĭèĳ¬":6250,"Į«":6251,"Ĵæ¥Ń":6252,"ĻĽãģ¿":6253,"Ļèįī":6254,"ŀį":6255,"ãģĦãĤīãĤĮãģªãģĦ":6256,"ãģ®ãĤ¯":6257,"ãģ®ä»²éĸĵ":6258,"ãģ¯ãģĭ":6259,"ãģ¯ãģĤ":6260,"ãģ¯ãģĤãģªãģŁãģĮ":6261,"ãģ¯ãģĬåīį":6262,"ãģªåł´æīĢ":6263,"ãģ«è¨Ģãģ£ãģŁ":6264,"ãģ«ãģķãĤī":6265,"ãĤĴèĢĥãģĪ":6266,"ãĤĴä¿¡çĶ¨":6267,"ãģĹãĤĥ":6268,"ãģĹãģĻãģİ":6269,"ãģĭåĪĨãģĭãĤīãģªãģĦ":6270,"ãģ¨ç§ģ":6271,"ãģ¨å½¼":6272,"ãģ¨èĢĥãģĪãģ¦":6273,"ãģ¨è©±ãģĻ":6274,"ãģ¨ãģ®éĸĵ":6275,"ãģ¨ãģ«ãģĭãģı":6276,"ãģ¨ä»ĺãģį":6277,"ãģĮè¦ļ":6278,"ãģĮéĸĭ":6279,"ãģłãĤı":6280,"ãģłãģ¨æĢĿãģĦãģ¾ãģĻ":6281,"ãģ§ãģ¯å":6282,"ãģ§ãģĿãĤĮ":6283,"ãģ§ãģŃ":6284,"ãģ§å¾ħ":6285,"ãģ§ãģķãģĪ":6286,"ãģ§æľĢãĤĤ":6287,"ãģĻãģ¹ãģįãģł":6288,"ç§ģãģ¯å½¼ãĤī":6289,"ãĥ¼ãĤ¸ãĥ£ãĥ¼":6290,"ãģĨãĤĵ":6291,"ãģĵãģ£ãģŁ":6292,"Ġåħ¨":6293,"ãĤĤãģ®ãģĭ":6294,"ãģĤãĤīãĤĨãĤĭ":6295,"ãģ£ãģ¦è¨Ģãģ£ãģŁ":6296,"Ġç§ģãģ®åıĭäºº":6297,"ãģĹãģ¦ãģŁãģ®":6298,"ãģĹãģ¦ãĤĤãģĦãģĦãģ§ãģĻãģĭ":6299,"ĠãģĿãģ®çĶ·":6300,"ãģ£ãģŁãģ®ãĤĪ":6301,"ãĤĪãģĦ":6302,"ãĤ¹ãĥª":6303,"ãĤ¹ãĤŃãĥ¼":6304,"ãģĵãģ¨ãģ§ãģ¯ãģªãģĦ":6305,"ãģĵãģ¨ãģ«æ°Ĺ":6306,"ãĥ¼ãĥĻ":6307,"ãģįãģ£ãģ¨":6308,"ãĥĥãĤ±":6309,"ä½ķäººãģĭ":6310,"ãĤĴæ¬²":6311,"ãĤĴæŃ£":6312,"ãĤĴæ··ä¹±":6313,"ãĤĴæµ´":6314,"ãĤĴæĴ®":6315,"ãģ®åĶ¯ä¸Ģ":6316,"ĠãĤ¼":6317,"ĠãģĤãĤī":6318,"ãģ¯åĪ¥":6319,"Ġå½¼ãģ«ãģ¯":6320,"Ġå½¼ãģ¯å½¼å¥³":6321,"Ġæµ·":6322,"Ġæ®ºäºº":6323,"ãĤ¯ãĥªãĥ³":6324,"ãĤ¯ãĥªãĤ¢":6325,"ãĤĴå¼ķ":6326,"ãĤĴåħ¨ãģ¦":6327,"ãĤ¤ãĤ¨ãĤ¹":6328,"ä»°":6329,"ãĤıãģļ":6330,"ãĤıãģĽãĤĭ":6331,"ãģĪãģ¾ãģĻãģĭ":6332,"Ġç§ģãģ¯ä½ķãĤĴ":6333,"ãģĻãĤĭãĤĵãģł":6334,"ãģĻãĤĭåīįãģ«":6335,"ãĥ«ãĥł":6336,"ãģ¤ãģı":6337,"ãģ¤ãģĦãģŁ":6338,"ãģ¤ãģĭãĤīãģªãģĦ":6339,"ãģĤãģªãģŁãģ«æ":6340,"ãģĤãģªãģŁãģ«ãģ¯":6341,"ãģĤãģªãģŁãģ¯ç":6342,"ãĥªãĥķ":6343,"ãĥªãĤªãĥ³":6344,"ãĥªãĥĥãĤ¸":6345,"ãĥªãĥģãĥ£ãĥ¼ãĥī":6346,"ĠãģĿãĤĮãģ¨":6347,"ĠãģĿãĤĮãģł":6348,"ĠãģĿãĤĮãģĮå":6349,"ĠãģĤãģªãģŁãĤĴ":6350,"ĠãģĤãģªãģŁãģ®ãģŁãĤģãģ«":6351,"çĶĺãģĦ":6352,"ãģ«å¿":6353,"è¡£è£ħ":6354,"ãĥ©ãĥĩ":6355,"ãģ®æł":6356,"ãģĺãģķãĤĵ":6357,"çŁŃ":6358,"ãģĭãĤīå§ĭ":6359,"è¨Ģèªŀ":6360,"çŁ¥èŃĺ":6361,"è¦ĭãģĪ":6362,"ãģ¯æĻĤ":6363,"ãģ¯æĻĤéĸĵ":6364,"è¡Įãģį":6365,"ãĤ¢ãĥ³ãĥĪ":6366,"ãĤ¢ãĥ³ãĥī":6367,"ãĤ¢ãĥĢãĥł":6368,"ãĤ¢ãĥķãĥªãĤ«":6369,"ãģĿãĤĮãģ¯ç§ģ":6370,"ãģĿãĤĮä»¥ä¸Ĭ":6371,"ãģĦãģĦãĤı":6372,"ãĥīãĤ¯":6373,"ãĥīãĤ¤ãĥĦ":6374,"ĠçĽ":6375,"Ġç¢º":6376,"Ġçľł":6377,"Ġç°¡åįĺ":6378,"Ġä½ķãģ®ãģŁãĤģ":6379,"Ġä½ķãģĮèµ·ãģĵ":6380,"Ġä½ķäººãģĭ":6381,"ãĤĦãĤĬãģŁãģĦ":6382,"ä¸Ģãģ«":6383,"ä¸ĢæĿ¯":6384,"ãģ«æĸ":6385,"ãģĬãģĨãģ¨":6386,"ãģĬè¦ĭãģĽ":6387,"ãĥ¬ãĥĥãĥī":6388,"ãĥ¬ãĥ³ãĤ¹":6389,"ãĥ¬ãĥĻãĥ«":6390,"ãĥŃãĥ³ãĥīãĥ³":6391,"ãģªãĤīç§ģãģ¯":6392,"å®ħ":6393,"ãģ®çİĭ":6394,"åĪĨãģĭãģ£ãģ¦ãĤĭ":6395,"Ġè¿":6396,"Ġè¿ĳãģı":6397,"ĠèŃ°":6398,"ãģ®ãĥĬ":6399,"ãĤĴç©º":6400,"ãĤĴè¦ĭãĤĭãģ®":6401,"ãĤĴè¦ĭãģĽãģ¦":6402,"ãģĮåĩºãģ¦":6403,"ãģĮå¾Ĺ":6404,"ãĥŀãĤ¦":6405,"ãĥĹãĥªãĥ¼":6406,"ãĥĩãĥ³":6407,"ĠãģĬèĮ¶":6408,"ĠãģĬãĤģãģ§ãģ¨ãģĨ":6409,"Ġ17":6410,"Ġ18":6411,"ãģłãģĳãģĮ":6412,"ãģłãģĳãģĺãĤĥãģªãģĦ":6413,"ãģĵãģ¨ãģĮãģĤãĤĬãģ¾ãģĽãĤĵ":6414,"ĠåĲĽãģ®":6415,"ãĤĤãģ®ãģĮãģĤãĤĭ":6416,"ĠéŃ":6417,"Ġéĥ¨":6418,"ãĥĳãĤ¹":6419,"ãģĪãģ¦ãĤĭ":6420,"ãĤĴè¹´":6421,"è¦ģãĤĭ":6422,"ãģĹãģ¦ãģĦãĤĭãģĭ":6423,"ãģ©ãģĨãģł":6424,"ãģ®éķ·":6425,"ãĤĴæĮģãģ£ãģŁ":6426,"ãģ®ãģŁãĤģãģ®":6427,"ãģ®ãģŁãĤģãģł":6428,"ãģ®è£":6429,"ãģ®èĩŃãģĦ":6430,"ãĥĸãĥŃ":6431,"åħµ":6432,"åħĦ":6433,"ãĥĲãĥ«":6434,"ãĥĲãĥ¼ãĤ¹":6435,"ãĥĲãĥĥãĤ°":6436,"Ġç§ģãģŁãģ¡ãģ«ãģ¯":6437,"Ġç§ģãģŁãģ¡ãģ¯ç":6438,"ãĤŃãĥĥãĤ¯":6439,"Ġãģ§ãģ¯":6440,"ãģłãģ£ãģŁãģĮ":6441,"å¿Ļ":6442,"ĠãģªãĤĵãģłãģ£ãģ¦":6443,"ãĥĵãĥĥãĥģ":6444,"ãĥĵãĥĥãĤ°":6445,"ãĤµãĤ¤ãĥ³":6446,"ĠãģĿãĤĮãģ¯ãģĤãģªãģŁ":6447,"ãĤĪãģĨãģ«æĢĿ":6448,"ãĤĪãģĨãģ«éł¼ãĤĵãģł":6449,"éĽ²":6450,"ãģĵãģ¨ãĤĴçŁ¥ãģ£ãģ¦ãĤĭ":6451,"Ġä»Ĭãģ¾ãģ§":6452,"Ġä»ĬåĽŀ":6453,"çµĤãĤıãĤĬãģł":6454,"çļ®":6455,"èĢħãģ§ãģĻ":6456,"Ġãģ©ãģĨãģĦãģŁ":6457,"ä¿ºãģŁãģ¡":6458,"æ°ĹãĤĪ":6459,"è¡ĮãģıãĤĵãģł":6460,"ãģ«ãģ¤ãģĦãģ¦ä½ķãģĭ":6461,"ãĤ¹ãĥĪãģ¯":6462,"ãĥ¡ãĥ³":6463,"åº·":6464,"åĩºèº«":6465,"ãģĵãģ¨ãģ¯ãģĹãģªãģĦ":6466,"Ġèª°ãģ«ãĤĤ":6467,"ãĤ¨ãĥ¼":6468,"ãĤ¨ãĤ¤":6469,"ä»ķäºĭãĤĴãģĹãģŁ":6470,"Ĥªãģĭãģ£ãģŁ":6471,"ä¿¡ä»°":6472,"ãĤ¤ãĥ³ãĤ°":6473,"çī©äºĭ":6474,"æķ¢":6475,"æķ´":6476,"ĠãĤ¸ãĥ¼ãĤ¶":6477,"å½¼å¥³ãģ¯ç§ģ":6478,"Ġäººãģ§":6479,"ç§ģãģŁãģ¡ãģ®":6480,"Ī¶æľį":6481,"ãģ§ãĤĤãģĦãģĦ":6482,"ãģ®ä¸Ńãģ®":6483,"ãģ®ä¸Ńãģ«ãģĦãĤĭ":6484,"Ġç§ģãģĮä½ķãĤĴ":6485,"ãĤ¬ãĥ«":6486,"ãĤ»ãĤ¯ãĤ·ãĥ¼":6487,"åŃĲãģł":6488,"ãģ§ãģ¯ãģªãģĦãģ¨æĢĿãģĦãģ¾ãģĻ":6489,"ãĤĴãģĻãĤĭãģĭ":6490,"ĠãĤ¢ãĥ³ãĥĲãĥ¼":6491,"åĽ°":6492,"ãģķãģĽãģªãģĦ":6493,"ãģķãģĽãĤĪãģĨãģ¨":6494,"ãĥĶãĥ¼ãĤ¿ãĥ¼":6495,"ãĥĻãĥªãĥ¼":6496,"ãĥĻãĥ¼ãĥĪ":6497,"Ġç§ģãģ¯å®":6498,"Ġç§ģãģ¯å¤§":6499,"ãĥıãĥı":6500,"éģĶæĪĲ":6501,"Ġãģĵãģĵãģ«ãģ¯":6502,"¥ŀçµĮ":6503,"ãģıãģªãģĦãĤı":6504,"ãģ¯ãģ©ãģĨãģĻãĤĭ":6505,"ãģ¯ãģ©ãģĨãģłãģ£ãģŁ":6506,"ãģĹãģŁãģĦãģ¨æĢĿãģĦãģ¾ãģĻ":6507,"ãģĹãģŁãģĦãģ®ãģ§ãģĻãģĮ":6508,"ãģ®çĶ·æĢ§":6509,"æĿ¥ãģĦ":6510,"ãģ«æĿ¥ãģ¾ãģĹãģŁ":6511,"©ļç´Ħ":6512,"ãģ®ãĤĪãģĨãģł":6513,"èģŀãģĳ":6514,"ãģ®ãģĵãģ¨ãĤĴèģŀãģĦãģŁ":6515,"Ĳįèªī":6516,"éĢļå¸¸":6517,"ãģ¯æľīåĲį":6518,"ãģ£ãģ¦ãģĦãģ¾ãģĻãģĭ":6519,"ĠãĤĤãģĨãģĻãģĲ":6520,"ĠãĤ¹ãĤ«":6521,"ãĥĿãĤ¹ãĥĪ":6522,"ĠãģĵãĤĮãģ¯ãģ¨ãģ¦ãĤĤ":6523,"å¸Ŀ":6524,"éĿĴ":6525,"ä¹³":6526,"ãģ¨ä¸Ģç·Ĵãģ«å":6527,"ãģ¨ä¸Ģç·Ĵãģ«æ":6528,"Ġç§ģãģ¯å½¼ãģ«":6529,"ä¸įåħ¬å¹³":6530,"ãģ®åı¤ãģĦ":6531,"ãģ®åıĸå¼ķ":6532,"éĢ£ãĤĮ":6533,"ãģ³ãģŁ":6534,"å¾ħãģ£ãģ¦":6535,"Ġãĥıãĥ«":6536,"Ġãĥıãĥ¯ãĥ¼ãĥī":6537,"éĸ¢å¿ĥ":6538,"ä»¥åĨħ":6539,"Ġãĥĳãĥª":6540,"ãģ©ãģĵãģł":6541,"Ġä¸Ģçķª":6542,"ãĤ¸ãĤ§ãĥ¼ãĥłãĤº":6543,"ãģ®äºĭãģ¯":6544,"ĠãģĤãģªãģŁãģ¯ç§ģãģ«":6545,"ĠãģĪãģĪãģ§ãĤĤ":6546,"ãģ§ãģ¯ãģĤãĤĬãģ¾ãģĽãĤĵãģ§ãģĹãģŁ":6547,"ĠãģĤãĤĬãģĮãģ¨ãģĨãģĶãģĸãģĦãģ¾ãģĻ":6548,"ĠãĤ¦ãĤ¨ãĤ¹ãĥĪ":6549,"ãģĻãĤĭãģ®ãģĮ":6550,"ãģĬéĩĳãĤĴ":6551,"ãģ£ãģ¦ãģıãĤĮãĤĭ":6552,"ãĤĢãģĹãĤį":6553,"ãĥķãĤ¡ãĥ³":6554,"åĪĩãģ£ãģŁ":6555,"åĢĭ":6556,"è£Ĥ":6557,"Ġæĺİ":6558,"ãĥļãĥ³":6559,"ãĥ¼ãĤ¸ãĥ¼":6560,"èĢĥãģĪãģ¦ãģĦãĤĭ":6561,"èĢĥãģĪãģ¦ãģ¿":6562,"Ī¦ãģĨ":6563,"Ġåıĭäºº":6564,"ĠæľĢãĤĤ":6565,"ĠæľĢé«ĺ":6566,"ĠæľĢè¿ĳ":6567,"ãģ®ä¸Ĭãģ«ãģĤãĤĭ":6568,"èª°ãģĭãģ¨":6569,"æĻĤéĸĵãĤĴ":6570,"ãĤĴè¦ĭãģŁãģĭ":6571,"éĢĥãģĹãģŁ":6572,"ãĤĴãģĹãģ¦ãģĦãģªãģĦ":6573,"ãģ«æĪ»ãĤĭ":6574,"æĦĽãģĹãģ¦ãĤĭãĤı":6575,"ãģ§æ®ºãģķãĤĮãģŁ":6576,"ãĤ·ãĥ£ãĥ¯ãĥ¼":6577,"ĠãĤ·ãĥ¼ãĥ":6578,"ãģĮãģªãģĦãģ®":6579,"Ġç§ģãģ¯ãģĿãĤĮãģĮ":6580,"ãģĮæľ¬å½ĵãģ«":6581,"ãĤĴæĮģãģ£ãģ¦ãĤĭãģ®ãģĭ":6582,"ãĤ²ãĤ¤ãĥªãĥ¼":6583,"ãĤ¢ãĥ³ãĤ«":6584,"ĠãĤµãĥ³":6585,"ĠãĤµãĥł":6586,"åĨį":6587,"ãģķãĤĮãĤĭãģłãĤįãģĨ":6588,"ĠæķĻ":6589,"ĠçµĤãĤıãĤĬãģł":6590,"ä¹ĹãĤĬ":6591,"ĠãĥĲãĤ«":6592,"ç¥ŀçĪ¶":6593,"ãĥ¤ãĥ³ãĤ¬ãĥ¼":6594,"ãĥĴãĥ¥":6595,"ĠãģĨãģ¾ãģı":6596,"éĸĵéģķãģ£ãģ¦ãĤĭ":6597,"éĸĵéģķãģ£ãģ¦ãģĦãģŁ":6598,"ĠæĹ¥åīį":6599,"ãĤĴåıĹãģĳãĤĭ":6600,"ãĤ³ãĥ³ãĤ¯ãĥªãĥ³":6601,"ãģ¨åĲĮãģĺãĤĪãģĨ":6602,"ãģ¨åĲĮãģĺãģıãĤīãģĦ":6603,"İ»ãģ£ãģŁ":6604,"ãĤĴä¸İãģĪãģŁ":6605,"ãģķãĤĮãģ¾ãģĹãģŁ":6606,"ãĥ´ãĤ¡ãĥįãĥĥãĤµ":6607,"Ġãĥĵãĥ¼ãĥ«":6608,"ĠãĥĵãĥĥãĤ°":6609,"ä¸»äºº":6610,"ãģ¨ä¸Ģç·Ĵãģ«ãģĦãģ¾ãģĻ":6611,"ı¾éĩĳ":6612,"ı¾å®Ł":6613,"ĠãĤ¸ãĥ§ãĥ¼ãĤ¸":6614,"ĪĲåĬŁ":6615,"æ®ºãģĻ":6616,"æ¥½ãģĹãģĦ":6617,"ãģıãģªãĤĬãģ¾ãģĻ":6618,"ãĤĴæľĢ":6619,"ãĤ¯ãĥ©ãĥĥãĥĹ":6620,"ãģĭãģĳãĤĭ":6621,"ĠãĥĻãĥ«":6622,"ãģ¯å®Įåħ¨":6623,"ãģ¯å®ĮçĴ§":6624,"ĠæĻĤãģ«ãģ¯":6625,"ãģĻãģİãģ¾ãģĻ":6626,"å°ĳä½Ĳ":6627,"ĠãĥĭãĥĥãĤ¯":6628,"ãģĭçŁ¥ãģ£ãģ¦ãĤĭãģ§ãģĹãĤĩ":6629,"ãģ¯å¤ļãģı":6630,"ãģ¨è©±ãģĹãģŁãģĦ":6631,"ä½ıãĤĵãģ§ãĤĭ":6632,"ãĤĴåĩºãģĻ":6633,"ãģĹãĤĪãģĨãģ¨ãģĹãģŁ":6634,"æ´¾":6635,"æĢĸãģĮ":6636,"ãĤ¼ãĥ«":6637,"ãĤĴåĬ©ãģĳãģ¦ãģıãĤĮ":6638,"é£Łãģ¹çī©":6639,"æļĹ":6640,"ĠãĤ°ãĥ¬":6641,"ãģ®ãĤ¹ãĥ¼ãĥĦ":6642,"ãģ®ãģĬãģĭãģĴ":6643,"ĠãĥĹãĥ©ãĤ¤":6644,"å¤±æķĹ":6645,"è¿ĳãģı":6646,"ãĤĴæĽ¸ãģį":6647,"ãĥ¬ãĥ¼ãĤ¶ãĥ¼":6648,"ãĤĴè²·ãģĨ":6649,"Ġãĥ«ãĥ¼ãĤµãĥ¼":6650,"ãģĻãĤĭãģ¤ãĤĤãĤĬãģ¯ãģªãģĦ":6651,"Ġãĥķãĥ©ãĥ³ãĤ¯ãģ¯":6652,"ãĤ¦ãĤ©ãĥ¼ãĥªãĥ¼":6653,"å¼·ãģĦ":6654,"ĭĿãģ£ãģŁ":6655,"ĠãĥĶãĥ³":6656,"ãĤĴæĴĥãģ¤":6657,"æ²¢":6658,"èģ´":6659,"ãĤĴçµĤãĤı":6660,"ãĤĴæĦŁãģĺãĤĭ":6661,"ãģ©ãģĵãģ«ãģĦãĤĭãģ®":6662,"ãģ«æīĭç´Ļ":6663,"ãĤĴå¿ĺãĤĮãģªãģĦ":6664,"ãĥĻãĥ«ãĥªãĥ³":6665,"ĠåŃĲä¾Ľãģ®éłĥ":6666,"ãĤıãĤĪãģŃ":6667,"ãĤĴéĢģãĤĬ":6668,"äººçĶŁãģ§":6669,"æĥ³åĥı":6670,"ãģŁãĤīãĤģ":6671,"èªĵãģĦ":6672,"Ġä½ķãĤĤãģĭãĤĤ":6673,"»ºè¨Ń":6674,"ãģĮå¤§å¥½ãģį":6675,"ĠTUM":6676,"ĠãĤ¬ãĥ³ãĥĦ":6677,"ĠæŃ»ãĤĵãģł":6678,"éģĬãģ¶":6679,"ãĥ¬ãĥĥãĤ¿":6680,"ãģ®é¡ĺãģĦ":6681,"ä½įç½®":6682,"ãģ«éĢ£ãĤĮãģ¦è¡Įãģı":6683,"çī¹åĪ¥ãģª":6684,"ãģ®è¨ĢãģĨãģĵãģ¨":6685,"ĠåĬ©ãģĳãģ¦ãģıãĤĮ":6686,"ãģ«ç«ĭãģ¤":6687,"Ġå¿ĥéħįãģĹãģªãģĦãģ§":6688,"ãģ®éļİ":6689,"éĻ¸è»į":6690,"ĠæŃ¢ãĤģãĤį":6691,"Ġå®ŁéļĽãģ«ãģ¯":6692,"ç«¯":6693,"æķĻãģĪãģ¦ãģıãģłãģķãģĦ":6694,"åįģåĪĨãģł":6695,"Ġè¦ļãģĪãģ¦ãĤĭ":6696,"ä»¤å®ĺ":6697,"ãĤ»ãĥĥãĥĪãĤ¢ãĥĥãĥĹ":6698,"æģĲãĤįãģĹãģĦ":6699,"éºĹ":6700,"ĠOut":6701,"Łºæľ¬":6702,"ãģĭãĤĮæĹ©":6703,"ãģ®èħķ":6704,"Ĭ¯ç½ªèĢħ":6705,"ĠéģħåĪ»":6706,"ĲĮæĦı":6707,"Ġèĭ±":6708,"ãĤĴæĢĸãģĮãĤīãģĽ":6709,"ãĥ¼ãĥĳãĥ¼":6710,"ĠãĤ¢ãĥ³ãĤ½ãĥĭãĥ¼":6711,"æİ¢åģµ":6712,"ãģ®ãģ¯ç¢ºãģĭ":6713,"çħ§":6714,"ãģ®è¦ªåıĭ":6715,"ãģ¯å¥½ãģįãģĺãĤĥãģªãģĦ":6716,"çľģ":6717,"é»Ļ":6718,"ãĤ¹ãĥĬãĥĥãĥĹ":6719,"ãĥĪãĥŃãĤ¤ãĥĪ":6720,"ãĥĵãĥĩãĤª":6721,"ä¾µåħ¥":6722,"ãģĻãĤĮãģ°ãģĦãģĦãģ®":6723,"ãģĨãģ¾ãģıãģĦãģĭãģªãģĦ":6724,"å¥ĩå¿ĥ":6725,"ĭ¬èº«ãĥĳãĥ¼ãĥĨãĤ£ãĥ¼":6726,"ãĤĴãĤĤãģŁãĤī":6727,"ĠæĢĸãģĦ":6728,"§Ķåĵ¡ä¼ļ":6729,"´ĪãĤĬçī©":6730,"ç³»":6731,"ĸĦèī¯":6732,"ĠãĥĩãĤ¤ãĥĵãĥĥãĥī":6733,"µ®æ°Ĺ":6734,"ãĤĴå¾ĮæĤĶ":6735,"ãģ«åĲĮæĦı":6736,"å°Ĩè»į":6737,"ĠãģĬä¼ļãģĦãģ§ãģįãģ¦":6738,"ãĥ¥ãĥ¼ãĥ©ãĥ¼":6739,"¤ãĤĵåĿĬ":6740,"¶ºéºĹ":6741,"ĠäºĨè§£":6742,"ãģĨãĤĵãģĸ":6743,"ĠOutpost":6744,"*!":6745,"BI":6746,"EN":6747,"ic":6748,"ra":6749,"¢«":6750,"¥ĸ":6751,"¦ı":6752,"¦æĸĻ":6753,"ªå¤±":6754,"¯Ĵ":6755,"¯İæĹ¥":6756,"°èĥŀ":6757,"±ĭ":6758,"±Ĺ":6759,"²»":6760,"¶äºī":6761,"·Ŀ":6762,"¹çĸĳ":6763,"¹°ãĤĬè¿Ķ":6764,"»ãģį":6765,"½±éŁ¿":6766,"åĺ":6767,"å¨ĺ":6768,"åİŁ":6769,"å»ºçī©":6770,"æµ·":6771,"æĶ¯æīķ":6772,"æįľæŁ»å®ĺ":6773,"çĭĤãģ£ãģ¦ãĤĭ":6774,"éĬ":6775,"éīĦéģĵ":6776,"ĠU":6777,"ĠãĢĤ":6778,"ĠäºĮ":6779,"Ġè¡Ĺ":6780,"ĠçŁ³":6781,"ĠäºĮåº¦ãģ¨":6782,"ĠçŁ¥ãģ£ãģ¦ãģŁ":6783,"Ġè¦ªæĦĽãģªãĤĭ":6784,"Ġéĸ£ä¸ĭ":6785,"ĤéĸĢ":6786,"Ħæĥ³":6787,"ĩãĤĬãģ«":6788,"Ĭĩ":6789,"įå¿ľ":6790,"İéĩį":6791,"Ĳè»Ĭ":6792,"ĺèªŀ":6793,"ĽãĤĵãģł":6794,"Ľå¾ħ":6795,"ľĭèŃ·":6796,"Ńĵè¿İ":6797,"ãģĦãģĭ":6798,"ãģĦãģł":6799,"ãģĦãģ£ãģŁ":6800,"ãģĦãĤį":6801,"ãģ®ãĤ»":6802,"ãģ®ä»ĸ":6803,"ãģ®è¡Įåĭķ":6804,"ãģ®éģķãģĦ":6805,"ãģ¯ãģĵ":6806,"ãģ¯ãģĭãģªãĤĬ":6807,"ãģ¯ãģĹãģŁãģıãģªãģĦ":6808,"ãģªãĤĤãģ®ãģł":6809,"ãģŁãģ°":6810,"ãģ«ãģĤãģ£ãģŁ":6811,"ãģ«éł¼":6812,"ãģ«ç§»":6813,"ãĤĴãĥĹ":6814,"ãĤĴãĥĲ":6815,"ãĤĴè©±ãģĻ":6816,"ãĤĴä¼ĳ":6817,"ãĤĴãģ²":6818,"ãĤĴéĻį":6819,"ãĤĴéļł":6820,"ãĤĴéĢ®æįķ":6821,"ãĤĴè¨Ńå®ļ":6822,"ãĤĭåīįãģ«":6823,"ãģĹãģĮ":6824,"ãģĭãģĽ":6825,"ãģĭãģĽãĤĭ":6826,"ãģ¨æĪ¦":6827,"ãģ¨ãģ®éĸ¢ä¿Ĥ":6828,"ãģ¨åħ±":6829,"ãģĮãģĻ":6830,"ãģĮè¡Į":6831,"ãģĮè©±":6832,"ãģĮãģ§ãģĻãģĭ":6833,"ãģĮãģ¾ãģł":6834,"ãģĮèģŀãģĵ":6835,"ãģ£ãģĵ":6836,"ãģłãģ¨ãģĦãģĨãģĵãģ¨":6837,"ãĤĮãĤĭãģ®":6838,"ãģ§ãģ®":6839,"ç§°":6840,"ãģĻãģ¨":6841,"ãĥ¼ãģł":6842,"ãĥ¼ãĤŃ":6843,"ãģĨãģĵãģ¨ãģ«ãģªãĤĭ":6844,"ãģĵãģ®ãģĵãģ¨":6845,"ãģªãģĦãģłãĤįãģĨ":6846,"Ġåģ":6847,"ãĤīãĤĵ":6848,"ãģ£ãģ¦ãģĵãģ¨":6849,"ãģ£ãģ¦èª°":6850,"ãģ£ãģ¦ãģĹãģ¾ãģ£ãģŁ":6851,"Ġç§ģãģ®æ":6852,"Ġç§ģãģ®ãģĵãģ¨":6853,"Ġç§ģãģ¨ä¸Ģç·Ĵãģ«":6854,"Ġç§ģãģ®å¤«":6855,"ãģĹãģ¦ãĤĤ":6856,"äºĴ":6857,"ĠãģĿãģ®æ":6858,"ãĤĬåĽŀ":6859,"ãĥ¼ãĥľ":6860,"ãĥ¼ãĥŁ":6861,"ãĥĥãĤ¿":6862,"ãĥĥãĤ·ãĥ¼":6863,"ä½ķãģĮèµ·ãģį":6864,"ãĤĴæŃ»":6865,"ãĤĴæµģ":6866,"ãĤĴæ¨ª":6867,"ãĤĴæĥ³åĥı":6868,"ãĤĴæĮ¯":6869,"ãģ®åĸ":6870,"ãģ®åħ¥":6871,"ãģ®åħ¨":6872,"ãģ®åľŁåľ°":6873,"ĠãĤĨ":6874,"ĠãģĤãĥ¼":6875,"ãģ¯å¦»":6876,"ãģķãĤĴ":6877,"ãģķãģĪãģªãģĦ":6878,"Ġæİ":6879,"Ġæ¥½ãģĹãģĦ":6880,"ãĤ¯ãĤ¤":6881,"ãĤ¯ãĥ«":6882,"ãģĳãģŁ":6883,"ãĤĴåĽ°":6884,"ãĤĴåĪ¶å¾¡":6885,"äººãģĺãĤĥãģªãģĦ":6886,"äººæ°Ĺ":6887,"Ġç§ģãģ¯ãģĤ":6888,"Ġç§ģãģ¯ãģĵãģĵ":6889,"Ġç§ģãģ¯ãģ¾ãģł":6890,"Ġç§ģãģ¯ãģĵãģ®":6891,"Ġç§ģãģ¯ãģĵãģĵãģ§":6892,"Ġç§ģãģ¯ãģĿãģ®":6893,"Ġç§ģãģ¯çŁ¥ãĤīãģªãģĭãģ£ãģŁ":6894,"ãģĻãĤĭãģ«ãģ¯":6895,"ãģĻãĤĭãģĭãĤĤãģĹãĤĮãģªãģĦ":6896,"ãģĻãĤĭãģĵãģ¨ãģĮãģ§ãģįãĤĭ":6897,"ãģĻãĤĭãĤĪãģĨãģª":6898,"ĠãģĿãĤĮãģ«ãģ¯":6899,"ĠãģĤãģªãģŁãģ¯å½¼ãĤī":6900,"ãģ«å®¶":6901,"ãģ«åł±åĳĬ":6902,"ãĥ©ãĤ¯":6903,"ãĥ©ãĥĥãĥĪ":6904,"ãĥ©ãĤº":6905,"Ġãģĵãģ®ç":6906,"Ġãģĵãģ®äºº":6907,"ãģ®æ®ºäºº":6908,"ãģ®æķĻ":6909,"ãģ®æĶ¯æīķãģĦ":6910,"ãģ®ãģĭãĤıãģĭãĤīãģªãģĦ":6911,"è¨Ģãģ£ãģ¦ãģĦãĤĭ":6912,"è¨Ģåı":6913,"ãģ¯æĮģ":6914,"ãģĤãĤĭãģĦãģ¯":6915,"ãģĿãĤĮãģ¯æ":6916,"ãĥīãĥĥãĤ°":6917,"ĠçĪĨ":6918,"Ġç²¾ç¥ŀ":6919,"ĠçĽ´":6920,"ĠçĬ¬":6921,"Ġä½ķæĻĤ":6922,"ä¸Ģéĥ¨":6923,"ãĤįãĤĪ":6924,"ãģ«æ¸¡":6925,"è©©":6926,"ãģ§ãģįãĤĭãģ®":6927,"ãģĬãģĦ":6928,"ãģĬèħ¹":6929,"ĠãģĿãģĨæĢĿ":6930,"ĠãģĿãģĨæĢĿãģĨ":6931,"ĠãģĿãģĨãģ§ãģĻãģŃ":6932,"ãģĦãģ¦ãģĦãģŁ":6933,"ãĤ·ãĥĥãĥĹ":6934,"ãĤ·ãĤ¹ãĤ¿ãĥ¼":6935,"ãĥ¬ãĤ¯":6936,"ãĥ¬ãĥ«":6937,"ãĥ¬ãĤ¯ãĤ¿ãĥ¼":6938,"ãĥŃãĤ¹":6939,"ãĥŃãĥĥãĥĪ":6940,"ãĥŃãĥ¼ãĥĹ":6941,"ãĥŃãĤµãĥ³":6942,"ãĤ¸ãĥĥãĥĪ":6943,"è©±ãģĹãģ¦":6944,"ãģ«ãģ¯ãĤĤãģĨ":6945,"ãģ«ãģ¯ãģ¾ãģł":6946,"ãģ®ç¯":6947,"ãģ®çģ«":6948,"ãģ®çī¹":6949,"ãģ®ç®±":6950,"ä¼ģ":6951,"ãĥ£ãĥ³":6952,"Ġèĥ":6953,"Ġèĩ":6954,"ĠèĪĪåĳ³":6955,"ãģ°ãģĭãĤĬ":6956,"ãĤĴç¬ĳ":6957,"ãĤĴç¶ļãģĳ":6958,"ãĤĴçªģãģį":6959,"ãģĹãģ¦ãĤĭãģłãģĳãģł":6960,"ãĤ«ãĥĭ":6961,"ãĤ«ãĥ¼ãĥ³":6962,"ãĤ«ãĥ¡ãĥ©":6963,"ãĤ«ãĤ¸ãĥİ":6964,"ãĤĴè¦ĭãģŁãģ®":6965,"ãĤ°ãĥ¬ãĤ¤":6966,"ãĤ§ãĤ¹":6967,"Ġãģ©ãģ®ãģıãĤīãģĦ":6968,"ãģ¯ãģĦãģıãĤī":6969,"ãģĮåħ¨ãģ¦":6970,"ãģĮåŃĲä¾Ľ":6971,"ãģĮåŃĺåľ¨":6972,"ãĥŀãĤ¤":6973,"ãĥŀãĥ¼ãĥĪ":6974,"ãĥŀãĥĩãĤ£":6975,"ãĥŀãĥ¼ãĥķ":6976,"ãĥŀãĤ¶ãĥ¼":6977,"ãĥŀãĥĢãĥł":6978,"ãĥŀãĤ·ãĥ³":6979,"ãĥĹãĤ¹":6980,"ãĥĩãĤ¹":6981,"ãĥĩãĤ¤ãĥĸ":6982,"ãĥĩãĥĪãĥŃãĤ¤ãĥĪ":6983,"ĠãģĵãĤĮãģ¯åĲĽ":6984,"ĠãģĵãĤĮãģ¯ç§ģãģĮ":6985,"ãĤĮãģ¦ãĤĭãģ®":6986,"Ġ13":6987,"Ġ14":6988,"ĠåĲĽãģ«":6989,"ãĤĤãģ®éĸĵ":6990,"ãĤĤãģ®ãģ¯ä½ķãģ§ãĤĤ":6991,"ĠéĬĢè¡Į":6992,"ãĥĳãĤ¤ãĤ¯":6993,"ãĤĴè³":6994,"ãĤĴèµ·":6995,"ä¸Ńãģ«ãģĦãĤĭ":6996,"ãģĹãģ¦ãģĦãĤĭãģ¨":6997,"ãģ©ãģĨãģĹãģ¦":6998,"ãģ®éħ":6999,"ãģ®éĻ":7000,"ãĤĴæĮģãģŁ":7001,"ãģ®è»į":7002,"ãģ®èį·çī©":7003,"ãģĿãģĨãģ§ãģ¯ãģªãģĦ":7004,"Ġå½¼å¥³ãģ¯ä½ķ":7005,"ãĤ³ãĥĶãĥ¼":7006,"ç§ģãģ¯ä½ķ":7007,"ç§ģãģ¯ãģĤãģªãģŁãģĮ":7008,"ãĥĸãĥªãĥ¼":7009,"åħĲ":7010,"åı³":7011,"åĳĤ":7012,"ãĥłãĥĥãĤ·ãĥ¥ãĥ¼":7013,"çĶŁåĳ½":7014,"ãĥĵãĥĥãĥĪ":7015,"ãĤµãĥ«":7016,"éĽª":7017,"Ġ21":7018,"Ġ25":7019,"ãĥĭãĤ¹":7020,"ãĥĭãĥĥãĥĪ":7021,"ãĥĭãĥ£ãĥ³":7022,"ãĥĭãĤ§ãĤ¹":7023,"ãģ¨æĢĿãģĨãĤı":7024,"ãģĵãģ¨ãģĮãģ§ãģįãģªãģĭãģ£ãģŁ":7025,"ãģĵãģ¨ãģĮãģ§ãģįãģ¾ãģĻãģĭ":7026,"çµŀ":7027,"çļ¿":7028,"ãĤĤãģĨå°ĳãģĹ":7029,"ĠãģĤãģªãģŁãģ¯ãģĿ":7030,"ĠãģĤãģªãģŁãģ¯èĩªåĪĨ":7031,"èĢħãģ®":7032,"ãĤªãĤ¦":7033,"Ġãģ©ãģĨãĤĦ":7034,"Ġãģ©ãģĨãģłãģ£ãģŁ":7035,"æ°ĹãģĮ":7036,"æ°Ĺãģ§":7037,"æ°Ĺãģ¯ãģªãģĦ":7038,"ãĥ¡ãĥ¼ãĤ¸":7039,"åºŃ":7040,"é£¢":7041,"ãģ¨ãģĦãģĨãģĵãģ¨ãģ¯":7042,"ãĤĮãĤĭãģª":7043,"ãĥĬãĤ¤":7044,"ãĥĬãĤ¤ãĥķ":7045,"ãĥĬãĤ¿ãĥªãĥ¼":7046,"ãĥŁãĥ³":7047,"ãĥŁãĥ³ãĤ°":7048,"ãģ«åħ¥ãģ£ãģ¦":7049,"ãĥ©ãĥ³ãĥģ":7050,"ç´¹ä»ĭ":7051,"åįģ":7052,"åįĶ":7053,"Īĳæħ¢":7054,"Ġç§ģãģĮå½¼å¥³":7055,"ãģĶãĤīãĤĵ":7056,"ãĤ¬ãĥ©":7057,"ãĥĩãĤ£ãĤ¹":7058,"ãĥĩãĤ£ãĥĥãĤ¯":7059,"éłĥ":7060,"ĠãģĤãģªãģŁãģĮãģĦãĤĭ":7061,"ãĤĴãģĻãĤĭãģĵãģ¨":7062,"ãģĵãģĵãģĭãĤī":7063,"ãģĵãģĵãģ«æĿ¥ãĤĭ":7064,"ĠãĥŀãĤ¤ãĤ¯":7065,"ãģķãģĽãģŁãģĦ":7066,"ãģķãģĽãģ¦ãģıãģłãģķãģĦ":7067,"ãĥľãĥ¼":7068,"ãĥľãĥ¼ãĤ¤ãĥķãĥ¬ãĥ³ãĥī":7069,"ãĥıãĥ¼":7070,"ãĥıãĥ³":7071,"ãĥıãĥªãĤ±ãĥ¼ãĥ³":7072,"ĠãģĵãģĵãģĭãĤī":7073,"ĠãģĵãģĵãģĭãĤīåĩº":7074,"éĥ¨åĪĨ":7075,"Ġãģ¤çĽ®":7076,"Ġç§ģãģŁãģ¡ãģ¯ãģĿãĤĮ":7077,"å¯Ĥ":7078,"ĠãģĿãĤĮãģ§åħ¨éĥ¨":7079,"åĬ£":7080,"Ġ35":7081,"ãģ«æĿ¥ãģŁãģ®":7082,"ãĥ¯ãĥ¼ãĤ¯":7083,"ãģ®ãĤĪãģĨãģ«å":7084,"èģŀãģı":7085,"Ĳįåīį":7086,"ãģ«ãģĦãĤĭãģ®ãģĭ":7087,"Ġãĥīãĥĭãĥ¼":7088,"ĠãĥīãĤ¥":7089,"Ġå¤ľ":7090,"Ġå½¼ãĤīãģ¯ãģĤãģªãģŁ":7091,"ãģ§ãģįãĤĭãģłãģĳ":7092,"ãģªãģıãģ¦":7093,"ãģ«è¡Įãģį":7094,"ãģ«è¡ĮãģĭãģªãģĳãĤĮãģ°ãģªãĤīãģªãģĦ":7095,"çļĦãģªãĤĤãģ®ãģł":7096,"è³ĥ":7097,"ãģįãģŁãģ®":7098,"ĠãĤ¯ãĥ«ãĥ¼ãĤ¬ãĥ¼":7099,"ãģ«ãģĻãĤĭãģ®":7100,"ãģ«ãģĻãĤĭãģŁãĤģãģ«":7101,"éģĭãģĮãģĦãģĦ":7102,"ä¸ĸè¾ŀ":7103,"ãģ¨ãģ¯éģķãģĨ":7104,"ãģ¨ãģ¯éĻĲ":7105,"ãĤĴè¦ĭãģ¤ãģĳãģ¦":7106,"ãĤĴè¦ĭãģ¤ãģĳãĤĭãģ®":7107,"å¾ħãģ¡":7108,"ĠãĥĳãĤ¤ãĤ¯":7109,"æĬĹ":7110,"ĠåĪĨãģĭ":7111,"é£Łãģ¹ãģ¦":7112,"ãģ«ãģ¯åĲĽ":7113,"¥½ãģĹãģ¿":7114,"ãģ«è¡ĮãģıãĤı":7115,"ãģĦãģ¾ãģĽãĤĵãģ§ãģĹãģŁ":7116,"èĢĥãģĪãĤīãĤĮãģªãģĦ":7117,"©Łèĥ½":7118,"ä¼ĿãģĪãĤĭ":7119,"ä¼Ŀèª¬":7120,"ĠãĥŃãĥ³ãĤ°":7121,"ĠãĥŃãĥĭãĥ¼":7122,"ãģ£ãģ¦ãģıãĤĮãģŁ":7123,"è¾ĽãģĦ":7124,"ĠãĤ¤ãĥ¬ãĤ¤ãĥ³":7125,"ĠãĤ¤ãĤ¿ãĥªãĤ¢":7126,"ãģĮçĭĤ":7127,"ãģĮçľŁå®Ł":7128,"ãģłãģ¨çŁ¥ãģ£ãģ¦ãĤĭ":7129,"åĢĭäºº":7130,"è£ķ":7131,"Ġå½¼ãģ¯å¤§ä¸Īå¤«":7132,"ãĤĴæķ°":7133,"ĠãĤ¨ãĤ¤":7134,"ĠãĥĪãĤ¤ãĥ¬":7135,"Ġåı³":7136,"Ġåıĸå¼ķ":7137,"ĠãĤĤãģĹç§ģãģĮ":7138,"ĠãĤĤãģĹå½¼ãģĮ":7139,"ãĤ¦ãĤ§ãĤ¢":7140,"ãĤ¦ãĤ§ãĥ«ãĤº":7141,"å°ĭãģŃ":7142,"ãģ©ãģĵãģ«ãģĦãģŁ":7143,"éģĵè·¯":7144,"ä¿ĿåŃĺ":7145,"ä½ķãĤĤãģªãģĦ":7146,"ãģĵãģĵãģ«ãģĦãģŁ":7147,"ãģĵãģĵãģ«éĢ£ãĤĮãģ¦":7148,"ãģĮãģĦãĤĭãģ®":7149,"ĠãĤ«ãĤµãĥĸãĥ©ãĥ³ãĤ«":7150,"å·¡":7151,"ãģĭãģ£ãģ¦ãĤĭãģ®ãģĭ":7152,"Ġç¥ŀæ§ĺ":7153,"Ġãģ¡ãĤĩãģ£ãģ¨ãģĹãģŁ":7154,"éĸĵéģķãģ£ãģŁ":7155,"ĠãĥĨãĥĩãĤ£":7156,"ãĤŃãĥ£ãĥªãĤ¢":7157,"ãĤĴåĲ¹":7158,"ãĥ¼ãĥĨãĥ«":7159,"è¬Ģ":7160,"ãģ®å®¶ãģ«":7161,"è¨¼è¨Ģ":7162,"åıĸå¼ķ":7163,"Ġãĥĸãĥ«":7164,"Ġãĥľãĥ¼ãĥ³":7165,"ãĤĴæī±":7166,"é£²ãģ¿":7167,"ãĤĴä¸İãģĪãģ¦ãģıãĤĮ":7168,"ãģķãĤĮãĤĭãģ®":7169,"ãĤ´ãĥ³":7170,"ãĤ´ãĥŁ":7171,"ĠãĥĵãĤ¸ãĥįãĤ¹":7172,"ãģ®éĥ¨ä¸ĭ":7173,"ãĤĴè²¬":7174,"ãģ¨ä¸Ģç·Ĵãģ«ãģĦãģŁ":7175,"ãĤĴåĪº":7176,"è¡ĮãģĭãģĽ":7177,"ãĤĭãģĵãģ¨ãģ«ãģªãĤĭ":7178,"Ġãĥ¬ãĤ¤ãĥĹ":7179,"èªįãĤģ":7180,"ãĥĥãĥģãĥ³":7181,"ĠãģĤãģªãģŁãģ®ãģĬçĪ¶ãģķãĤĵ":7182,"ĠèĩªåĪĨãģĮä½ķãĤĴ":7183,"æ¥½ãģĹãģ¿":7184,"ãĤ¯ãĥ©ãĥĸ":7185,"æľ¬çī©":7186,"ãĤĴæİ¢ãģĻ":7187,"éĿ¢çĻ½":7188,"ãģ¸ãģ¨":7189,"ãģ¯å®īåħ¨":7190,"ãģ®ãĥĳãĥ³":7191,"ãģ®ãĥĳãĥ¼ãĥĨãĤ£ãĥ¼":7192,"ãģ®ãĥĳãĤ¤ãĥŃãĥĥãĥĪ":7193,"ãģ«ãģĹãģ¦ãĤĤ":7194,"ãģ¨ãģ¯æĢĿãģĪãģªãģĦ":7195,"¾ħãģ¤":7196,"ãģ¨ãģįãģ«":7197,"ãģĿãģĵãģ«ãģĦãģŁ":7198,"ãģĹãģŁãĤīãģĦãģĦãģ®ãģĭ":7199,"ãģ«ä½ķãģĮèµ·ãģĵ":7200,"ãģĮæ¬²ãģĹãģĦãģ®":7201,"ãģĮæ¬²ãģĹãģĦãģ®ãģĭ":7202,"Ġå½¼ãģ¯ç§ģãģŁãģ¡":7203,"Ġãģ©ãģĵãģ«ãģĦãģŁãģ®":7204,"ãģĻãĤĭãģĵãģ¨ãĤĤ":7205,"ĭķãģį":7206,"ãģ®çµĦ":7207,"ãģ®çµĮé¨ĵ":7208,"ĠãĥĩãĤ£ãĤ°ãĥĬãĥ³":7209,"éĩįè¦ģãģĺãĤĥãģªãģĦ":7210,"Ġåħī":7211,"ãĥĹãĥŃãĤ¸ãĤ§ãĤ¯ãĥĪ":7212,"ç«ĭãģ¡ä¸ĬãģĮ":7213,"èĩĨçĹħ":7214,"ãģ«ãģ¨ãģ£ãģ¦ãģ¯":7215,"ãģĭãĤĭãĤĪ":7216,"åĳ½ä»¤":7217,"çĲĨè§£ãģ§ãģįãģªãģĦ":7218,"ãĥĺãĥ«":7219,"ĠãģªãĤĵãģ¦ãģĵãģ£ãģŁ":7220,"æļ´":7221,"ãĤĴæĬ¼":7222,"ĠãģŁãģłãģ®":7223,"Ġå®¶æĹı":7224,"ãģ¾ãģŁãģ¯":7225,"Ġæĸĩ":7226,"ãģ®åħĦå¼Ł":7227,"Ġãĥ«ãĤ¤ãĤ¹":7228,"çĶ³ãģĹåĩº":7229,"èªŃãģ¿":7230,"Ġä½ķãģĮãģĤãģ£ãģŁãģ®":7231,"ãĤ¦ãĤ©ãĥ¬ãĤ¹":7232,"ĠãĥĶãĥ¼ãĥ«":7233,"ĠãĥĶãĥ¼ãĤ¿ãĥ¼":7234,"é¦¬é¹¿ãģª":7235,"Ĳæŀľ":7236,"ãĤĴé£²ãģ¿":7237,"ãĤĴå§ĭãĤģãĤĭ":7238,"ãģ®ãĥĩãĥ¼ãĤ¿":7239,"åŃĺåľ¨":7240,"ãģªãģĹãģ§":7241,"ãĤĴå¿ĺãĤĮãģ¦":7242,"ģ¥åº·":7243,"äº¤æ¸ī":7244,"ãĥ¼ãĥĵãĥ¼":7245,"ãĥŀãĥ¼ãĤ·ãĥ£ãĥ«":7246,"ãĤĴè¿½ãģĦåĩºãģĻ":7247,"æ¯Ľ":7248,"ç§ģãģ®å¿ĥ":7249,"ãģ®ãĤ³ãĥ¼ãĥī":7250,"ãģĮè¦ĭãģĪãģªãģĦ":7251,"ãģĮå¤§å¥½ãģįãģ§ãģĻ":7252,"ãĥ¼ãĥ©ãĥ³ãĥī":7253,"ãĤĴæķĳãģĨ":7254,"çĬ¶æħĭ":7255,"ãĤĴå¿ħè¦ģãģ¨ãģĹãģ¦ãĤĭ":7256,"åĶ¯ä¸Ģãģ®æĸ¹æ³ķ":7257,"çķĻãģ¾":7258,"ĠæľĢå¾Įãģ®":7259,"ãĤĴçĽĹãĤĵãģł":7260,"ãģ«éĸ¢ãģĹãģ¦":7261,"ĠåĢį":7262,"ä½ĻåĪĨ":7263,"ĠãĤ¦ãĤ£ãĥ«":7264,"ĠæŃ£çĽ´":7265,"è²·ãģĦ":7266,"Ġæķ°åĪĨ":7267,"ãģ®ãģĽãģĦãģ§":7268,"ãģ®ãĥ¡ãĥ³ãĥĲãĥ¼":7269,"çł´å£Ĭ":7270,"ĠFBI":7271,"ãĥ«ãĥİãĥ¼":7272,"ãĤ¹ãĤ³ãĥĥãĥĪ":7273,"ĠåĨĹè«ĩãģĺãĤĥãģªãģĦ":7274,"éĻįãĤĬãģ¦":7275,"ãĤĴéĽ¢ãĤĮãĤĭ":7276,"Ġå¿ĥéħįãģĻãĤĭãģª":7277,"ãĤĴæİĺ":7278,"ãĤĴæ®ĭãģĹãģ¦":7279,"ãģ®æŃ»ä½ĵ":7280,"ãĤĴèĦħ":7281,"ãģ®éĽ»è©±":7282,"èĦ³":7283,"ãĥķãĥ©ãĥ³ãĤ¹èªŀ":7284,"ãĤŃãĥ¥ãĥªãĥĨãĤ£":7285,"ªæµ·":7286,"ãģ«è¿·":7287,"æ¬²ãģĹãģıãģªãģĦ":7288,"ĵįç¸":7289,"Ġåĭķãģıãģª":7290,"ãĤĴå£²ãģ£ãģŁ":7291,"è©ķåĪ¤":7292,"ãģ®ãĥĻãĥĥãĥī":7293,"ãģ®èĥĮä¸Ń":7294,"ĺĺãĤĴãģ¤ãģĦãģŁ":7295,"å¨ģ":7296,"ãģªãĤĵãģ¦ä¿¡ãģĺãĤīãĤĮãģªãģĦ":7297,"ãģ®å¼ģèŃ·å£«":7298,"Ġæ¯İæĹ¥":7299,"ãĤĴè§£æ±º":7300,"ãģ§æŃ»ãĤĵãģł":7301,"å¦Ļãģª":7302,"ãģ«ä»»ãģĽ":7303,"ãģĵãģĨåģ´":7304,"ãĤĴæ±ĤãĤģãģ¦":7305,"ãģĬè©±ãģĹ":7306,"åı¸ä»¤å®ĺ":7307,"ãĥ´ãĤ§ãĥŃ":7308,"įå¯¾åģ´":7309,"ĸľãģ³":7310,"ãģŁãĤıãģĶãģ¨":7311,"ĠéħĶ":7312,"ãģ®è³ĩ":7313,"Ġå¤©æ°Ĺ":7314,"ãĤĴèª¿ãģ¹":7315,"İãĤīãģĭãģ«":7316,"ãģ©ãģĨãģªãĤĭãģĭ":7317,"éħĶãģ£ãģ±ãĤī":7318,"é«ªãģ®æ¯Ľ":7319,"ãģ®èŃ¦å®ĺ":7320,"åı«ãģ¶":7321,"ãģ¶ãĤīãģ¶ãĤī":7322,"ãģģãģģãģģãģģ":7323,"¿ĻãģĹãģĦ":7324,"ãĤ«ãĤ¦ãĥ³ãĥĪ":7325,"ãĤ«ãĤ¦ãĤ¬ãĥ¼ãĥ«":7326,"ãĤ»ãĥ³ãĤ¿ãĥ¼":7327,"ä¸»ç¾©èĢħ":7328,"Ġãģįãģ£ãģ¨":7329,"ãĤĴå±¥":7330,"Ġé«ĺ":7331,"ä»£ãĤıãĤĬãģ«":7332,"İ¥ç¶ļ":7333,"æĺ¼é£Ł":7334,"ãģįåİ»ãĤĬãģ«ãģĹãģŁ":7335,"Ġãĥıãĥ¼ãĤ·ãĥ¥":7336,"Ġãģ§ãģįãĤĭãģłãģĳ":7337,"Ġä¸¡æĸ¹ãģ¨ãĤĤ":7338,"¤¾ä¼ļ":7339,"å¢ĥ":7340,"Ġä¼ļãģĪãģ¦å¬īãģĹãģĦãĤĪ":7341,"ãģĭãĤīæĬľãģĳåĩºãģĻ":7342,"Ġé£²ãģ¿çī©":7343,"ãĤĴè£ıåĪĩãģ£ãģŁ":7344,"Ġãģ©ãģĨãĤĤãģĤãĤĬãģĮãģ¨ãģĨãģĶãģĸãģĦãģ¾ãģĹãģŁ":7345,"æ³¨æĦı":7346,"ãĤ¸ãĤ§ãĤ¤ãĥłãĤ¹":7347,"ãģ«åĪ°éģĶ":7348,"ãĤĴåį±éĻºãģ«ãģķãĤī":7349,"¿ħãģļ":7350,"æ¶²":7351,"Ĳºå¸¯":7352,"ãĤĴéĻ¤ãģĦãģ¦":7353,"ç·łå½¹":7354,"éłĳåĽº":7355,"ĠèģŀãģĵãģĪãģŁ":7356,"ãĤĪãģĵãģĽ":7357,"ãģ«è¿ĳãģ¥":7358,"ĠãģĨãĤıãĥ¼":7359,"ĠéĿĻãģĭãģ«":7360,"Ġç¢ºèªį":7361,"Ġãģ©ãģĨãģĦãģŁãģĹãģ¦":7362,"ĠãĤ¸ãĥ¼ãĤ¶ãĤ¹":7363,"¢«å®³":7364,"è¨ĢåıĬ":7365,"ĵįç¸¦":7366,"EL":7367,"al":7368,"ce":7369,"ch":7370,"lo":7371,"us":7372,"¡©":7373,"£Ĵ":7374,"¤æĸŃ":7375,"¥µ":7376,"¦Ħæĥ³":7377,"ªæĿ¥":7378,"«ãģ³":7379,"¬å¹³":7380,"®èº«":7381,"¯¾":7382,"±æķĹ":7383,"³Ĭ":7384,"´ç¿Ĵ":7385,"´åĬ©":7386,"¸©":7387,"º¶":7388,"ºº":7389,"»¢":7390,"¼±":7391,"¾Ĭ":7392,"å«":7393,"åĶ":7394,"æµ":7395,"æ½":7396,"æīį":7397,"æ®ĭãĤĬ":7398,"æ¨©åĪ©":7399,"æĹħè¡Į":7400,"æºĲ":7401,"çĭĤ":7402,"çŀ¬éĸĵ":7403,"ç¦ı":7404,"èĸ":7405,"éįµ":7406,"éı¡":7407,"Ġ#":7408,"ĠèĢĥãģĪ":7409,"Ġè¨ĪçĶ»":7410,"ĠãĤĪãģĨãģĵãģĿ":7411,"Ġéģ¸æĬŀãģ®ä½Ļåľ°":7412,"Ĥ¹":7413,"Ĥī":7414,"ĥķ":7415,"ĦĦ":7416,"Ĩ·":7417,"ĨĴ":7418,"ĨĿ":7419,"Ĩ±ãģĦ":7420,"ī£":7421,"īå":7422,"īĽ":7423,"īç½ª":7424,"īå¿«":7425,"ĬĿ":7426,"ĭãģĮ":7427,"ĭåº¦":7428,"İĦ":7429,"Ĳéĩĳ":7430,"ĳ½":7431,"ĵĢãĤĮ":7432,"ķĨ":7433,"ķçĶŁ":7434,"ĹĽ":7435,"Ļ¾":7436,"ļ´":7437,"Ľ³":7438,"ĿçŁ³":7439,"ãģĩ":7440,"ãģĦãĤĪ":7441,"ãģĦä¸ĬãģĴ":7442,"ãģ®ãģ©":7443,"ãģ®ãģ¯ç§ģ":7444,"ãģ®ãĤª":7445,"ãģ®ãĤ½":7446,"ãģ®ãĤ²":7447,"ãģ®ãĤ¹ãĤ¿":7448,"ãģ®ãĤªãĥķãĤ£ãĤ¹":7449,"ãģ¯ãģŃ":7450,"ãģ¯èĩªåĪĨ":7451,"ãģªãģ®ãģ¯":7452,"ãģ¦ãģ¦":7453,"ãģ«ãģĹ":7454,"ãģ«ä»ķ":7455,"ãģ«ãģĵãĤĮ":7456,"ãģ«ãģĹãģ¦ãģıãģłãģķãģĦ":7457,"ãģ«è¦ĭãģĪãĤĭ":7458,"ãģ«è¦ĭãģŁ":7459,"ãģ«éģİãģİ":7460,"ãĤĴãģĶ":7461,"ãĤĴãģ¨ãģ¦ãĤĤ":7462,"ãĤĴãģĹãģ¦ãģıãĤĮ":7463,"ãĤĴãģĹãģ¦ãĤĭãģ®":7464,"ãĤĴçĶŁãģį":7465,"ãĤĴéĢļãĤĬ":7466,"ãĤĴãģĤãĤĬãģĮãģ¨ãģĨ":7467,"ãĤĴé£Ľãģ°":7468,"ãĤĴãģĤãģĴ":7469,"ãĤĴãģķãģĽãģ¦ãģıãĤĮ":7470,"ãĤĴé£Łãģ¹ãģ¦":7471,"ãĤĭãĤĪãģĨ":7472,"ãĤĭãĤĪãģĨãģ«":7473,"ãĤĭãģĵãģ¨ãģ¯":7474,"ãĤĭãģ§ãģĹãĤĩãģĨ":7475,"ãĤĭãģ¹ãģį":7476,"ãģĹãģł":7477,"ãģĹãģĭãģĹ":7478,"ãģĭãĤĮãģ¦ãģĦãĤĭ":7479,"ãģĭãģĽãģ¦ãģıãĤĮ":7480,"ãģĭçŁ¥ãģ£ãģ¦ãģĦãģ¾ãģĻãģĭ":7481,"ãģ¨ãģĬ":7482,"ãģ¨çŁ¥ãģ£ãģ¦ãĤĭ":7483,"ãģ¨ãĥĲ":7484,"ãģ¨ä»ķäºĭ":7485,"ãģ¨ç§ģãģ¯å":7486,"ãģĮãģĵ":7487,"ãģĮä½ķãģĭ":7488,"ãģĮçµĤãĤı":7489,"ãģĮãģĤãĤĮãģ°":7490,"ãģ£é£Ľãģ°":7491,"ãģłãģ¨è¨ĢãģĨ":7492,"ãģłãģ¨ãģĦãģĨãģĵãģ¨ãĤĴ":7493,"ãģ§ãģıãĤĮ":7494,"ãģ§ä½ķãģĭ":7495,"ãģĻãģª":7496,"ãģĻãģĵãģ¨":7497,"ç§ģãģĮæ":7498,"ç§ģãģĮå":7499,"ãĥ¼ãĤ·ãĤ¢":7500,"ãĥ¼ãĤ¬ãĥ³":7501,"ãģĵãģ®åł´æīĢ":7502,"ãģªãģĦãĤĪ":7503,"Ġå°ı":7504,"Ġå¹³":7505,"ĠåĽ½":7506,"ĠåĪĳåĭĻæīĢ":7507,"Ġåĥķ":7508,"ãģ¾ãĤīãģªãģĦ":7509,"ãĤĤãģªãģı":7510,"ãĤīãĤĮãģ¦ãĤĭ":7511,"ãģĤãģ®":7512,"ãĥ³ãģł":7513,"Ġç§ģãĤĪ":7514,"Ġç§ģãģĭãĤī":7515,"Ġç§ģãģ«æ":7516,"Ġç§ģãĤĴè¦ĭãģ¦":7517,"Ġç§ģéģĶãģ¯":7518,"ãģıãĤĵãģł":7519,"ãģıãĤĭãĤı":7520,"ãģĹãģ¦ãģŁãģ®ãģŃ":7521,"ĠãģĿãģ®è©±":7522,"ĠãģĿãģ®åł´æīĢ":7523,"ãĤĬãģ¦":7524,"ãģ£ãģŁãģĮ":7525,"ãģ£ãģŁãģ®ãģ¯":7526,"ãģ£ãģŁå¾Į":7527,"ãĤ¹ãĤ¤ãĥĥãĥģ":7528,"ãģĵãģ¨ãģĺãĤĥãģªãģĦ":7529,"ãģĵãģ¨ãģ«ãģ¤ãģĦãģ¦":7530,"ãģįãģı":7531,"ãĥĥãĥĨ":7532,"ãĥĥãĤŃ":7533,"ãĥĥãĤ¿ãĥ¼":7534,"ãĤĴæĨİ":7535,"ãĤĴæį¨ãģ¦":7536,"ãģĿãģ®ãģĵãģ¨":7537,"ãģ®å¥":7538,"ãģ®å·":7539,"ãģ®åĪĨ":7540,"ãģ®å¼·":7541,"ãģ®åĤ·":7542,"ãģ®åĲĳ":7543,"ĠãģĤãģ¨":7544,"ĠãģĤãģ®çĶ·":7545,"ãģ¯åķıé¡Į":7546,"è¦§":7547,"ãģĹãģŁãģĭ":7548,"ãģĹãģŁãģĭãģ£ãģŁ":7549,"ãģĹãģŁçĶ·":7550,"Ġæł":7551,"ĠæĮģ":7552,"ĠæĤ²":7553,"Ġæ¥½ãģĹ":7554,"ãĤĴå¹¸ãģĽ":7555,"ãĤĴå¥½ãģį":7556,"ãĤĴå°ĭãģŃ":7557,"ãĤıãĤĮãģ¦":7558,"ãģĪãģ¨":7559,"ãģĪãģĪãģ¨":7560,"äººãģ¯ãģĦãģªãģĦ":7561,"Ġç§ģãģ¯ãĤ¢":7562,"Ġç§ģãģ¯ãģĹãģªãģĦ":7563,"Ġç§ģãģ¯ãģĵãĤĮãĤĴ":7564,"è¨ª":7565,"ãģĻãĤĭãģłãģĳãģł":7566,"ãģĻãĤĭãģĵãģ¨ãģ§ãģĻ":7567,"ãģĻãĤĭæĸ¹æ³ķ":7568,"ãģĻãĤĭå¿ħè¦ģãģ¯ãģªãģĦ":7569,"ãĥ«ãĥ¼ãĥĪ":7570,"ãĥ«ãĥľ":7571,"ãģĤãģªãģŁèĩªèº«":7572,"ãĥªãĥĥãĤ·ãĥ¥":7573,"ĠãģĿãĤĮãģ¯å½¼ãĤī":7574,"ĠãģĿãĤĮãģ¯æľ¬å½ĵãģ«":7575,"ãģ«åĪĨ":7576,"ãģ«åķıé¡Į":7577,"ãģ«å¤§ãģįãģª":7578,"èªķçĶŁ":7579,"ãĥ©ãĥĲ":7580,"ãĥ©ãĥ¼ãĥª":7581,"ãģ®æ¨":7582,"ãģ®æĭ":7583,"ãģ®æķ":7584,"ãģ®æĺ":7585,"ãģ®æĤªãģĦ":7586,"ãģ®æ°´":7587,"ãģĺãģ¦":7588,"ãģĭãĤīéĢĥ":7589,"ãģ£ãģ¦ãĤĭãĤĪ":7590,"ãģ£ãģ¦ãĤĭãģłãģĳãģł":7591,"è¦ĭãģŁãģĦ":7592,"è¡Įãģ£ãģŁãģ®":7593,"ãģĤãĤĭãģ®":7594,"ãģĤãĤĭç¨®":7595,"ãĤ¢ãĥ¼":7596,"ãĤ¢ãĤ¹":7597,"ãĤ¢ãĥĽ":7598,"ãģĿãĤĮãģ«":7599,"ãģĿãĤĮãģĮå":7600,"ãĥīãĤ¯ãĤ¿ãĥ¼":7601,"ãĥīãĥ¢ãĤ¢":7602,"Ġç«ĭ":7603,"ĠçĹħæ°Ĺ":7604,"Ġç¾İãģĹãģĦ":7605,"ĠçŃĶãģĪ":7606,"ĠçĻº":7607,"ĠçĹħéĻ¢":7608,"ĠçĻ½":7609,"Ġçķ°ãģªãĤĭ":7610,"ãĤįãģıãģ§ãģªãģĹ":7611,"ãģ«æĻĤéĸĵ":7612,"ãģ«æĤªãģĦ":7613,"ãģ«æ±º":7614,"ãģ¨æĢĿãģ£ãģ¦ãĤĭãģ®":7615,"ãģĬä¼ļãģĦ":7616,"ãĤ·ãĤ¹ãĤ¿":7617,"ãĥ¬ãĥ¼ãĤ¸":7618,"ãĥŃãĥĲ":7619,"ãĥŃãĥ¼ãĥ¬":7620,"ãĥŃãĥĩãĥªãĥĥãĤ¯":7621,"ãĤ¸ãĤ¢":7622,"ãĤ¸ãĤ¿ãĥ«":7623,"ãģ«ãģ¯ä½ķ":7624,"ãģªãĤīãģªãģľ":7625,"å®¿":7626,"å®Įåħ¨ãģ«":7627,"ãģŁãĤģãģ®":7628,"ãĤ¿ãĤ°":7629,"ãģ®çĽ":7630,"ãģ®ç¾İ":7631,"ãģ®çĲĨè«ĸ":7632,"Įģãģ£ãģ¦ãģĦãĤĭ":7633,"ä¼ı":7634,"Ġèĸ¬":7635,"Ġèī²":7636,"Ġè¿ĳ":7637,"Ġè»į":7638,"ä»ĬåĽŀ":7639,"ä»ĬæľĿ":7640,"ãĤĴç®¡çĲĨ":7641,"ãĤĴçĦ¼":7642,"ãĤĴç¨¼":7643,"ãĤĴç¹°ãĤĬè¿Ķ":7644,"ãģĹãģ¦ãĤĭãģ®ãĤĪ":7645,"ãģĮãģĤãĤĭãĤı":7646,"ãĤ«ãĥ¼ãĥ«":7647,"ãĤ«ãĥķãĤ§":7648,"éĩĺ":7649,"ãĤ°ãĥ«":7650,"ãĤ°ãĥ«ãĥ¼ãĥĹ":7651,"æľŃ":7652,"Ġãģ©ãģ¡ãĤī":7653,"Ġãģ©ãĤĮãģłãģĳ":7654,"ãģ¯ãģĦãģıãģ¤ãģĭ":7655,"ãģĮå°ĳãģĹ":7656,"ãĥĹãĥªãĥ³":7657,"ãĥĩãĥľ":7658,"ãģ¯ç¢ºãģĭ":7659,"ĠãģĬãĤĦ":7660,"ĠãģĬãģ°ãģĤ":7661,"ĠãģĵãĤĮä»¥ä¸Ĭ":7662,"Ġ16":7663,"ãģ¾ãģĹãģŁãģŃ":7664,"ĠåĲĽãģ¯å½¼":7665,"ĠéĤª":7666,"ĠéŁ³":7667,"æī±":7668,"ãĥĳãĥ©":7669,"ãģĪãģ¦ãģĦãģ¾ãģĻ":7670,"ãĤĴèģ´":7671,"å¾³":7672,"å¾ĵ":7673,"ãģ©ãģĨæĦŁãģĺ":7674,"ãģ®é¦¬é¹¿":7675,"ãĤĴæĮģãģ£ãģ¦ãĤĭãģ®":7676,"ãģ®èĬ±":7677,"ãģ®è´ĪãĤĬçī©":7678,"ãģĿãģĨãģª":7679,"ãģĿãģĨè¨Ģãģ£ãģŁ":7680,"ãģĿãģĨãģªãĤĭ":7681,"Ġå½¼ãģ¯èĩªåĪĨ":7682,"Ġå½¼ãģ¯ãģ©ãģĵãģ«ãģĦãĤĭ":7683,"æĸ½":7684,"ãĤ³ãĥ¼ãĤ¹":7685,"ãĤ³ãĥŃãĥ³":7686,"ç§ģãģ¯ãģĵãģ®":7687,"ãĥĸãĥ¬ãĤ¤ãĥ³":7688,"çĶ·ãģĮ":7689,"ãĥĲãĤ¤ãĤ¹":7690,"ãĥĥãĥĪãģĮ":7691,"ĠãģĿãģĨãģłãĤĪ":7692,"ãĥģãĥĥãĥĹ":7693,"ãģłãģ£ãģŁãĤı":7694,"ãĥłãģķãĤĵ":7695,"ãĤºãĥł":7696,"ãĥĵãĥ¼ãĥ«":7697,"ãĥĵãĤ¯ãĤ¿ãĥ¼":7698,"ãĤµãĥ¼ãĥĪ":7699,"ãĤµãĥ³ãĥī":7700,"ãĤµãĤ¤ãĤ¯":7701,"ĠãģĿãĤĮãģ¯ãģĤãģªãģŁãģĮ":7702,"éĽ·":7703,"æĻĤä»£":7704,"ä¸Ĭãģ®":7705,"ä¸Ĭãģ«":7706,"ãģ¨æĢĿãģĨãĤĪ":7707,"Ġä»Ĭãģ¯å":7708,"Ġä»ĬãģĻãģĲãģ«":7709,"Ġå½¼ãĤīãģ¯å½¼å¥³":7710,"ãģĵãģ¨ãģĮãģ§ãģįãĤĮãģ°":7711,"ãģĵãģ¨ãģĮãģ§ãģįãĤĭãģ®":7712,"èĩªåĭķ":7713,"ãģĹãģ¾ãģĻãģĮ":7714,"ł´å£Ĭ":7715,"ãĤĤãģĨä¸Ģ":7716,"ãĤĤãģĨä¸Ģäºº":7717,"Ġãģ§ãĤĤç§ģ":7718,"Ġãģ§ãĤĤå½¼":7719,"Ġãģ§ãĤĤãĤĤãģĹ":7720,"Ġãģ§ãĤĤãģªãģľ":7721,"Ġãģ©ãģĨãģ§ãĤĤãģĦãģĦ":7722,"ãģ¨è¨Ģãģ£ãģ¦ãģĦãģ¾ãģĻ":7723,"ãģ¨è¨Ģãģ£ãģ¦ãģĦãģŁ":7724,"ãģ¨è¨Ģãģ£ãģ¦ãģıãĤĮ":7725,"æ°ĹãĤĴãģ¤ãģĳãģ¦":7726,"è¡Įãģıãģ®ãģĭ":7727,"è¡Įãģıãģŀ":7728,"ãģ«ãģ¤ãģĦãģ¦ãģ®":7729,"æĹ¥ãģ«":7730,"ãĤĵãģ§ãĤĭãģ®":7731,"ãģĹãģªãģĦãģłãĤįãģĨ":7732,"ãģ¨ãģĦãģĨè¨Ģèĳī":7733,"åĩºãģķãĤĮãģŁ":7734,"Ġãģªãģľå½¼ãģ¯":7735,"Ġèª°ãģ§ãĤĤ":7736,"ãģĤãĤĬãģ¾ãģĽãĤĵãģ§ãģĹãģŁ":7737,"ãĤ¨ãĥ¬ãĥ¼ãĥ³":7738,"ãģ®ãģ¯éĽ£ãģĹãģĦ":7739,"ãģ«ãģªãĤĭãģª":7740,"ãĤĴåı°çĦ¡":7741,"ãĥĬãĤ¹":7742,"ãĤ¤ãĥ³ãĥĩãĤ£":7743,"çĽĬ":7744,"çĽ£è¦ĸ":7745,"çī©è³ĩ":7746,"éģķæ³ķ":7747,"ç´Ģ":7748,"å¼ģèŃ·å£«":7749,"ãĥ¼ãĥīãĤ³ãĤ¢":7750,"æ³£":7751,"ãģ§ãĤĤãģĤãĤĭ":7752,"æĺ¨æĹ¥":7753,"ãĤ±ãĥ«":7754,"ãĤ±ãĥ³ãĤ¸":7755,"åĲĽãģ¯æ":7756,"åĲĽãģ¯ç":7757,"å¤§ä½¿":7758,"ãĤ¬ãĤ¿":7759,"ãĤ»ãĥ«":7760,"Ġä¿ºãģ¯å":7761,"Ġä¿ºãģŁãģ¡":7762,"åŃĲãģ¯":7763,"ĠãģĤãģªãģŁãģĮä½ķãĤĴ":7764,"ãĤĴãģĻãĤĭãģ®ãģĭ":7765,"ãĤĴãģĻãĤĭãģĵãģ¨ãģĮãģ§ãģįãĤĭ":7766,"ä¸ĭãģ«":7767,"ãģ«è§£":7768,"ãģ®äººãģ¯":7769,"ãģ®äººéĸĵ":7770,"ĠãĤ¢ãĤ¤":7771,"ĠãĤ¢ãĥĥãĥĹãĥ«":7772,"ĠãĤ¢ãĥıãĥı":7773,"ãģķãģĽãģ¾ãģĻ":7774,"ä»ĸãģ«":7775,"ä»ĸãģ«ãĤĤ":7776,"ãĥĶãĥĥãĤ¯":7777,"ãĥĶãĤ¹ãĥĪ":7778,"¢ºä¿¡":7779,"ãĥľãĥ¼ãĥī":7780,"ãģªãģ®ãģ§":7781,"ãĥıãĥ¯ãĥ¼ãĥī":7782,"ãģļãĤĮ":7783,"ãĤĦãģ£ãģ¦ãģ¿":7784,"ãģĻãģ¹ãģ¦ãģĮ":7785,"ãģ«ç¥ŀ":7786,"ãģ«ç¸Ľ":7787,"ĠãģĿãģĨãģĺãĤĥãģªãģĦãģ®":7788,"ãģĹãģŁãģĦãĤĵãģł":7789,"¿ħè¦ģãģªãģĦ":7790,"æĿ¥ãģŁ":7791,"ãĥ¯ãĤ¤ãĥĪ":7792,"ľ°çįĦ":7793,"ãģ¹ãģįãģ§ãģ¯ãģªãģĦ":7794,"è¨ĢãģĨãĤĵãģł":7795,"Ġç§ģãģ¯ãģĤãģªãģŁãĤĴè¨±":7796,"å½¼ãģ¯ãģĿãĤĮ":7797,"è¦ļãĤģ":7798,"ãģ®ãĤĪãģŃ":7799,"è¨Ģãģ£ãģŁãĤĪãģĨãģ«":7800,"Ġå½¼å¥³ãģ¯ãģĤãģªãģŁ":7801,"Ġå½¼å¥³ãģ¯ãģ¨ãģ¦ãĤĤ":7802,"Ġå½¼å¥³ãģ¯ãģ©ãģĵãģł":7803,"Ġãĥīãĥ©":7804,"Ġå¤ķé£Ł":7805,"ãģ¤ãĤĤãĤĬãģłãģ£ãģŁ":7806,"ãģķãĤĮãģŁãģ®":7807,"èī¯ãģıãģªãģĦ":7808,"ãĤĴæ®ºãģĹ":7809,"ãĤĴæ®ºãģĹãģŁãģ®":7810,"ãģķãĤĮãģ¦ãģªãģĦ":7811,"ĠãĤ¹ãĥĨ":7812,"ĠãĤ¹ãĥĨãĤ£":7813,"ĠãĤ¹ãĤ¿ãĥ³":7814,"ãĥİãĥ«ãĤº":7815,"ãģ£ãģ¦ãģŁãģ®":7816,"çļĦãģªãĤĤãģ®ãģ§ãģĻ":7817,"ãģ¾ãģ§ãģ«":7818,"ãģ«ãģĻãĤĭãģĵãģ¨ãģ¯ãģ§ãģįãģªãģĦ":7819,"éģĭåĭķ":7820,"ãģ¨ä¸Ģç·Ĵãģ«è¡Įãģı":7821,"ãģ®å¤ī":7822,"å¹´ä¸Ĭ":7823,"Ġãĥĩãĥ©":7824,"ãģ¨ãģ¯è¨ĢãģĪ":7825,"ãģ¨ãģ¯è¨ĢãĤıãģªãģĭãģ£ãģŁ":7826,"æĽ²":7827,"ãĤĴè¦ĭãģ¤ãģĳãģŁãģ®":7828,"åĭķãģį":7829,"ãģĤãģªãģŁãģ¯ãģĿãĤĮ":7830,"éĸ¢ä¸İ":7831,"ãģ«ä¼ļãģĪãģ¦":7832,"Ġãĥĳãĥ¼ãĥĨãĤ£ãĥ¼":7833,"ĠåĪĨãģ§":7834,"ĠåĪĨãĤĭãģĭ":7835,"é£ŁæĸĻ":7836,"çĪ¶è¦ª":7837,"çĪ¶æ§ĺ":7838,"ĦŁè¦ļ":7839,"ãĤıãģªãģĦãģ¨":7840,"çĽ®ãģĮè¦ļ":7841,"ãĤ¸ãĤ§ãĥĥãĥĪ":7842,"ãģ¨è¨Ģãģ£ãģŁãģłãĤįãģĨ":7843,"ãĤ©ãĥ¼ãĥī":7844,"ãģ«è¡Įãģıãģĵãģ¨":7845,"ãģ®äºĭæķħ":7846,"ĠãĥĢãĥ¼ãĤ¯":7847,"èĢĥãģĪãģŁ":7848,"ãģ®åĲįèªī":7849,"ĠãģĤãģªãģŁãģ¯ç§ģãģ®":7850,"ĠãĤªãĤªãĤ«ãĥŁ":7851,"ãĥªãĥ³ãĤ¯":7852,"ãģĹãģŁãģ®ãģŃ":7853,"ãĤĴå¤¢":7854,"ãĤĴå¤±ãģĦ":7855,"«ĭåł´":7856,"è²§":7857,"Ġå¹´çĶŁ":7858,"ä¸İãģĪãĤĭ":7859,"ĠãĥŃãĤ¸ãĥ£ãĥ¼":7860,"ĠãĥŃãĥ³ãĥīãĥ³":7861,"ãģĬéĩĳãģĮ":7862,"ãĤĢãģ®":7863,"ãĤĢãģĵãģ¨":7864,"æĿ±":7865,"æĿ¡ä»¶":7866,"è¾²åł´":7867,"ĠãĥªãĥĩãĤ£ãĤ¢":7868,"Ġå½¼ãģ¯å®":7869,"Ġå½¼ãģ¯åħ":7870,"ä¸Ģåº¦ãģłãģĳ":7871,"ãģ®è©±ãģł":7872,"ĠãĤ¨ãĥ¬ãĥ¼ãĥ³":7873,"ãĤĴèģŀãģĦãģ¦ãģıãĤĮ":7874,"ãģĿãģĨãģłãģª":7875,"èĪ¬":7876,"Ġãģ¨ãģĦãģĨ":7877,"èī¯ãģĦãģĵãģ¨ãģł":7878,"Ġåı£":7879,"ãģ®æĸĩ":7880,"ãĥ¼ãĤºãĥĩãĥ¼ãĥ«":7881,"ãģĵãģ®éĩİéĥİ":7882,"ãĤĴãģĹãģ¦ãĤĤ":7883,"ãģ«æĪ»ãĤĬãģ¾ãģĻ":7884,"Ġå®Įåħ¨ãģ«":7885,"ĠãģĿãĤĮãģĮä½ķ":7886,"ãĤ·ãĥ£ãĥ³":7887,"ãĤ·ãĥ£ãĥĦ":7888,"ãģĮå¿ħè¦ģãĤĪ":7889,"ĠãĤ·ãĥ§":7890,"ãģĮãģªãģĦãĤĵãģł":7891,"ãģĮæľ¬å½ĵ":7892,"ãģ¨ãģĵãĤįãģ§":7893,"ãĤ²ãĥ³":7894,"ãĥ¼ãĥĹãĥ³":7895,"ãĤ¢ãĥ³ãĥĲãĥ¼":7896,"ç§ģãģ«è©±":7897,"ĠãĤ«ãĥ¼ãĥī":7898,"ãģĵãģĵãģ§ä½ķãĤĴ":7899,"ĠçµĲ":7900,"å·±":7901,"ãģ«å½¼ãģ¯":7902,"æĸ¹æ³ķãĤĴçŁ¥ãģ£ãģ¦ãĤĭ":7903,"ãģłãģ¨æĢĿãģĨãģĭ":7904,"ĠãĥĲãĥ³":7905,"ĠãĥĲãĤ¹":7906,"ç¥ŀæ§ĺ":7907,"ãĥ¤ãĤ¤ãĥ³":7908,"ĠçŁ¥ãģ£ãģ¦ãĤĭãģ®":7909,"ãģĮå¥½ãģįãģªãģ®":7910,"ãģĹãģ¦ãģĦãģŁãģ®ãģĭ":7911,"ĠãĥĨãĤ¹ãĥĪ":7912,"ĠãĥĨãĥ¬ãĥĵ":7913,"ãģ®ãģĵãģ¨ãĤĴèĢĥãģĪ":7914,"ãģ®ãģĵãģ¨ãĤĴèĢĥãģĪãģ¦":7915,"è¨±ãģĹãģ¦":7916,"ãĤŃãĥ£ãĥķãĥªãĥ¼":7917,"ãĤĴåĲ¦å®ļ":7918,"éĽ¢ãĤĮãģ¦":7919,"ãģ®å®¶ãģ§":7920,"ĠãģĿãĤĮãģ¯å®":7921,"ĠãĥĸãĥŃ":7922,"ĠãĥľãĤ¹":7923,"ä»ĺãģĳãĤĭ":7924,"ãĤ³ãĥ³ãĤµãĥ¼ãĥĪ":7925,"Ľ¸é¡ŀ":7926,"Ġç§ģãģ«ãģ¨ãģ£ãģ¦":7927,"ĠãģĬåīįãģ¯å":7928,"ãģ®æĸ¹åĲĳ":7929,"Ġç´Ħ":7930,"Ġãĥĵãĥ«":7931,"ãģ®éĥ¨ç½²":7932,"èŃ°ä¼ļ":7933,"è¡Įãģĭãģªãģĭãģ£ãģŁ":7934,"ãĤĴæĢĴ":7935,"ĠãĤ¸ãĥ§ãĤ¨ãĥ«":7936,"ãģ«å¯¾åĩ¦":7937,"ãĥĥãĥģãĤ§":7938,"ĠãģĤãģªãģŁãģ®ãģĬ":7939,"ãģ®éłĺ":7940,"é¨Ĵ":7941,"åľ§":7942,"æĤªãģª":7943,"ãĤĴæİ¢ãģĹãģ¦ãĤĭãģ®":7944,"æ¸Ī":7945,"ãĤĴæįķãģ¾ãģĪ":7946,"ĠæĻĤãģ«":7947,"èª¿ãģ¹ãģ¦":7948,"ĠãģĭæľĪ":7949,"ĠãĥĽãĥĨãĥ«":7950,"ĠãĥŁãĤ¹ãĤ¿ãĥ¼":7951,"è¾¼ãģ¾":7952,"è¾¼ãĤģ":7953,"è¾¼ãĤĵãģł":7954,"è¾¼ãģ¿":7955,"ãģĿãģĵãģ«è¡Įãģı":7956,"èª¬å¾Ĺ":7957,"ĠãģĵãĤĮãĤīãģ®":7958,"é«ĺãģı":7959,"ĠãģıãģĿãĥ¼":7960,"¾©è®Ĳ":7961,"Ġãĥĭãĥ¥ãĥ¼ãĥĪ":7962,"ãģĭçŁ¥ãģ£ãģ¦ãĤĭãģĭ":7963,"ãģĭçŁ¥ãģ£ãģ¦ãĤĭãģ®ãģĭ":7964,"ãģ¯å¤©":7965,"Ġä½ķãĤĴãģĹãģ¦ãĤĭãĤĵãģł":7966,"æĨİ":7967,"ä½ıæīĢ":7968,"ãĤīãĤĮãģ¾ãģĻ":7969,"Ġä»Ĭå¤ľãģł":7970,"ç½ªãĤĴçĬ¯":7971,"ĠåĨĻçľŁ":7972,"ãģ«åıĸ":7973,"ãģ«åıįå¯¾":7974,"ĠãģĵãĤĵãģ°ãĤĵ":7975,"ĠæĢ¥ãģĦ":7976,"æ¥µ":7977,"ãĥķãĤ§ãĤ¢":7978,"ãĥķãĤ§ãĥ©ãĥ¼ãĥª":7979,"ãĥĹãĥŃãĤ»ãĤ¹":7980,"èĩŃãģĦ":7981,"ãģ«ãģ¨ãģ£ãģ¦ãĤĤ":7982,"ī²ãĤĬå½ĵãģ¦":7983,"¥ãģĦçĶ·":7984,"ãģ®ãĤ¢ãĤ¤":7985,"è©¦åĲĪ":7986,"å¼µãĤĮ":7987,"Ġå®Łãģ¯":7988,"ç¶ļãģĳ":7989,"ãģ®åįµ":7990,"ãģ®åįĺèªŀ":7991,"ãĤ¼ãĥ«ãĤ¹":7992,"Ġä»ĬæĹ¥ãģ¯":7993,"ãĤĴæĬ±":7994,"ãĤĪãģĨãģªãĤĤãģ®ãģ§ãģĻ":7995,"Ġç§ģãģ¯çĹħæ°Ĺ":7996,"Ġãģĵãģĵãģ«ãģĤãĤĭ":7997,"ãģĿãĤĮãģĮä½ķ":7998,"Ġãģ©ãģĵãģ§":7999,"æĻ©ä¸Ń":8000,"ãĤĴæľĽãĤĵãģ§ãģĦãĤĭ":8001,"Ġãģ¯ãģģ":8002,"ĠéĢ±éĸĵåīį":8003,"è¨Ńè¨Ī":8004,"ãģªãģĵãģ¨ãģĺãĤĥãģªãģĦ":8005,"Ġãĥĺãĥ¬ãĥ³":8006,"Ġãĥĺãĥ³ãĥªãĥ¼":8007,"ãĤĴæĽ¸ãģĦãģŁ":8008,"èªŃãĤĵãģł":8009,"Ġä½ķãģĮãģĤãģ£ãģŁãĤĵãģł":8010,"ãĤĴè¦ĭãģ¤ãģĳãģŁãĤī":8011,"ĠæĺİæĹ¥ãģ®å¤ľ":8012,"ãĤĴæ°Ĺãģ«":8013,"ãĤĴæıĲæ¡Ī":8014,"å¼·ãģı":8015,"ä¾¡åĢ¤ãģ®ãģĤãĤĭ":8016,"ĭĿãģ¡":8017,"ĭĿãģ¤":8018,"éĢ²ãģĻãĤĭ":8019,"éĢ²æŃ©":8020,"ãĥ¥ãĥ¼ãĤ¿":8021,"æķĻä¼ļ":8022,"æķĻå¾Ĵ":8023,"ãģ«ä¹ĹãĤĮ":8024,"ãĤĴçµĮåĸ¶":8025,"Ġæ¬¡ãģ«":8026,"éĸīéİĸ":8027,"æķĻãģĪãģ¦ãģıãĤĮãģªãģĦãģĭ":8028,"ãĥ¼ãĥĲãĥ¼ãĥī":8029,"ĠãģĤãĤĭæĹ¥":8030,"ãģ¯çĦ¡çĲĨãģł":8031,"è¦ªåĪĩãģª":8032,"ãĤĴæķĻãģĪãģ¦ãģıãĤĮãģŁ":8033,"ãĤĴæķĻãģĪãģ¦ãģıãĤĮãĤĭ":8034,"ãĤĴéĸĭå§ĭ":8035,"è¼Ŀ":8036,"èħķ":8037,"ãģ®ä¸ĭãģ«":8038,"ĠåŃĲä¾ĽãģŁãģ¡":8039,"ãĤ¯ãĥªãĥķ":8040,"ãĤ¯ãĥªãĥ¼ãĥł":8041,"ãĤĴè¦ĭãģ¤ãģĳãĤĭãģŁãĤģãģ«":8042,"ãĤĴè¿½è·¡":8043,"ĠãģĿãģĵãģ§":8044,"ãĥ¼ãĥŃãĥ¼":8045,"ãĥĪãĥ¬ãĥĥãĥī":8046,"å©¦äºº":8047,"ĠSi":8048,"ãĤĭãģ¤ãĤĤãĤĬãģł":8049,"Ġãģ§ãģįãģªãģĦ":8050,"±ļãĤĮ":8051,"ãģĭãĤıãģĦ":8052,"ãĤ¯ãĥŃãĥ¯":8053,"ãģĮæľĢå¾Į":8054,"ãģªãģĦãģ§ãģıãĤĮ":8055,"ãģªãģĦãģ§ãģıãģłãģķãģĦ":8056,"ãģ¯çµĤãĤıãĤĬãģł":8057,"çķĻãģ¾ãĤĭ":8058,"ĠãĥķãĤ¡ãĥĥãĤ¯":8059,"Ġå¾ĮãĤį":8060,"éģĬãģ³":8061,"å°ıãģķãģĦ":8062,"ºĢæľĪ":8063,"å¬īãģĹãģĦãģ§ãģĻ":8064,"å¬īãģĹãģĦãĤı":8065,"Ġä½ķãģĮçŁ¥ãĤĬãģŁãģĦ":8066,"ãģ®ãĥĵãĥ¼ãĥĪ":8067,"æĸ°èģŀ":8068,"Ġç¢ºãģĭãģ«ãģĿãģĨãģł":8069,"å§¿":8070,"å§īå¦¹":8071,"ãģ¯åį±éĻº":8072,"ãģĹãģŁãģĵãģ¨ãģĺãĤĥãģªãģĦ":8073,"Ġéķ·ãģı":8074,"ãĤĴæıĲä¾ĽãģĻãĤĭ":8075,"çĪĨçĻº":8076,"ãģ¯æĢĿãĤıãģªãģĦ":8077,"ãĤĵãģĺãĤĥãģªãģĦãģ®":8078,"ãĤĴå«Įãģ£ãģ¦ãĤĭ":8079,"ãģ¡ãĤīãģ¯":8080,"çĶ³ãģĹè¨³ãģªãģĦ":8081,"ãģ®è¨ĢãģĨéĢļãĤĬãģł":8082,"ãĤĴæĶ¾ãģ£ãģ¦ãģĬ":8083,"ĠæĤªæ°Ĺãģ¯ãģªãģĦ":8084,"ãģ«æĦŁè¬ĿãģĹãģ¾ãģĻ":8085,"åı¯èĥ½æĢ§ãģĮãģĤãĤĭ":8086,"ĠåĨĹè«ĩãģłãĤį":8087,"æĤ£èĢħ":8088,"ãģ«ç½®ãģı":8089,"Ġä¸Ģäººãģ§":8090,"æĽľæĹ¥ãģ«":8091,"±ħåł´æīĢ":8092,"æ¶Īéĺ²":8093,"ç§ĳåŃ¦":8094,"Ġåķıé¡ĮãģĤãĤĬãģ¾ãģĽãĤĵ":8095,"ãĥ³ãĥĹãĤ½ãĥ³":8096,"Ġãĥ´ãĤ§":8097,"ãģ¯åĪĨãģĭãĤīãģªãģĦ":8098,"ãĤ¾ãĥ³":8099,"ãĤĤãĤīãģĨ":8100,"ãĤĤãĤīãģĦãģŁãģĦ":8101,"ãĤ¹ãĥĳãĤ¤":8102,"ãģĮåıĸ":8103,"ãĤŃãĥ¥ãĥªãĥ¼":8104,"åįģåĪĨãģª":8105,"Ġå¤ĸãģ«åĩº":8106,"ãģ«ä¼ļãģĦãģ«æĿ¥ãģŁ":8107,"!!!":8108,"¤ľç´¢":8109,"ãĥ¼ãĥĭãĥ³ãĤ°":8110,"ãĥĲãĤ¹ãĥģãĥ£ãĥ³":8111,"Ġå¥´ãĤīãģ¯":8112,"ãĥŁãĥ¥ãĥ©ãĥ¼":8113,"ç´łæķµãģª":8114,"åĢĻè£ľ":8115,"èĪĪåĳ³æ·±ãģĦ":8116,"æ¬²ãģĹãģĭãģ£ãģŁ":8117,"èĲ½ãģ¨":8118,"ãĤ¯ãĥ¬ãĥ¡ãĥ³ãĤ¿ãĤ¤ãĥ³":8119,"è¡ĽæĺŁ":8120,"ãģ®çī©èªŀ":8121,"Ġãģ¾ãģļç¬¬":8122,"ĠãĤıãģĭãģ£ãģŁãĤĪ":8123,"Ġæľ¬æ°ĹãģłãĤĪ":8124,"éĿŀå¸¸ãģ«":8125,"Ĭłçī²":8126,"ãģ®å¼Ł":8127,"Ġæ¯įãģķãĤĵ":8128,"ãĤıãĤĮãģ¾ãģĻ":8129,"çĻ¾ä¸ĩ":8130,"ãĤĴæīĭä¼Ŀãģ£ãģ¦ãģıãĤĮ":8131,"¿łèªł":8132,"è§Ĵ":8133,"ĠåĲįåīįãģ¯":8134,"ãĤĴåŃ¦ãģ¶":8135,"ãĤĴåŃ¦ãģ³":8136,"ãĤ¿ãĥ«ãĥĵãĥ¼":8137,"åĪĨãģĭãĤĭãģĭ":8138,"ãĤĴç¤ºãģĻ":8139,"ãģ®èĩªçĶ±":8140,"éĽ»æ°Ĺ":8141,"é³¥":8142,"Ġè¨Ģãģ£ãģŁãĤĪãģĨãģ«":8143,"ãĤĴæģĲãĤĮãģ¦":8144,"ãĤĴæģĲãĤĮãģ¦ãģĦãĤĭ":8145,"ãĥīãĥ©ãĥķãĥĪ":8146,"ãĤ«ãĥ«ãĥĵãĥ³":8147,"è²´éĩį":8148,"è²´æĹı":8149,"ãģ®çĬ¶æħĭ":8150,"¥²ãĤıãĤĮãģŁ":8151,"ĠãģĬãĤĦãģĻãģĬ":8152,"Ġ196":8153,"èģĸãģª":8154,"ãģĮèī¯ãģĭãģ£ãģŁ":8155,"Ġåĳ½":8156,"çŁ¥ãĤĬãģŁãģĮ":8157,"ãģ«æĬķãģĴ":8158,"ãģ«æĬ¼ãģĹ":8159,"ãģĵãģ¨ãĤĴé¡ĺãģ£ãģ¦ãģĦãģ¾ãģĻ":8160,"çµĲæ§ĭãģ§ãģĻ":8161,"ãĤ¹ãĥĪãĥ©ãĥĥãĤµãĥ¼":8162,"Ġåı¯æĦĽãģĦãĤıãģŃ":8163,"Ġå®¶ãģ«å¸°ãĤĮ":8164,"ãģ®ãĥģãĥ£ãĥ³ãĤ¹":8165,"ãģ«åĲĳãģĭãģ£ãģ¦ãģĦãĤĭ":8166,"ĠåĮĹ":8167,"ãĤ¹ãĤŃãĥĥãĥĳãĥ¼":8168,"ãģ®æ°ĹæĮģãģ¡":8169,"ĠãĤıãģĭãĤīãģªãģĦãĤı":8170,"¦ģæŃ¢":8171,"å»¶":8172,"æĢĿãģĦåĩº":8173,"éĢĶä¸Ńãģ§":8174,"Ġè¥¿åģ´":8175,"ãĥ»ãĥ»ãĥ»ãĥ»ãĥ»ãĥ»ãĥ»ãĥ»":8176,"Ġä½ķãĤĴè¨Ģãģ£ãģ¦ãĤĭãģ®ãģĭãĤıãģĭãĤīãģªãģĦ":8177,"ļĹéĹĩ":8178,"èªłå®Ł":8179,"ãģ©ãģ¡ãĤīãĤĤ":8180,"ãģ®è¾²åł´":8181,"ĠãģĭãĤıãģĦãģĿãģĨãģ«":8182,"æ¿Ģ":8183,"Ġè³¢ãģĦ":8184,"ĠãĤ¦ãĤ§ãĤ¤ãĥī":8185,"ãģ®æīĢ":8186,"ãģ®ç¾©åĭĻ":8187,"ãĤ¤ãĥ³ãĤ¿ãĥĵãĥ¥ãĥ¼":8188,"åĬ¹æŀľ":8189,"ļĸãģĭãģĦ":8190,"ĠãĤµãĤ¤ãĥ¢ãĥ³":8191,"ãģ«åĢ¤ãģĻãĤĭ":8192,"ĩ¸å¿µ":8193,"ãģĨãĤĮãģĹãģĦ":8194,"ãĤĴåĢŁãĤĬ":8195,"ãĤ¤ãĥ¯ãĤ¤ãĥ¤ãĥ¼":8196,"ĠãģĿãĤĮãģ«ãģ¤ãģĦãģ¦ãģ¯è©±ãģĹãģŁãģıãģªãģĦ":8197,"ãģĮæ¬²ãģĹãģĭãģ£ãģŁ":8198,"ãĤĴèĲ½ãģ¨":8199,"Ġç¥ŀãģ«æĦŁè¬Ŀãģł":8200,"£²æĺ¥å©¦":8201,"ĠæĢĿãģĦåĩº":8202,"åł±åĳĬæĽ¸":8203,"è¸ª":8204,"ãģ¯ãģĭãģĭãĤĬãģ¾ãģĽãĤĵ":8205,"ãģ¨ä»ĺãģįåĲĪ":8206,"ãĥĥãĤ±ãĥ¼ãĤ¸":8207,"ãĤĴæµ´ãģ³":8208,"©ļç´ĦèĢħ":8209,"ãĤ·ãĥ£ãĥ¯ãĥ¼ãĤĴæµ´ãģ³":8210,"ĠãĤ·ãĥ¼ãĥĥ":8211,"ĠãĥĻãĥ«ãĥªãĥ³":8212,"Łºæľ¬çļĦãģª":8213,"±ĭæł¹":8214,"ĠãĤĨãģ£ãģıãĤĬ":8215,"ãĥŃãĤµãĥ³ãĤ¼ãĥ«ãĤ¹":8216,"ä¼ģæ¥Ń":8217,"ãĤĴèµ·ãģĵ":8218,"ãĤ¹ãĤ³ãĥĥãĥĪãĥ©ãĥ³ãĥī":8219,"ãĥīãĥ¢ãĤ¢ãĤ¼ãĥ«":8220,"ãĤ·ãĤ¹ãĤ¿ãĥ³ãĥĪ":8221,"22":8222,"></":8223,"AC":8224,"ALL":8225,"BALL":8226,"MBALL":8227,"ST":8228,"ed":8229,"en":8230,"es":8231,"gg":8232,"om":8233,"op":8234,"£¨":8235,"£ãĤī":8236,"¥ãģķãĤĵ":8237,"¥èĢħ":8238,"§Ĵ":8239,"¨İ":8240,"ªå¯©":8241,"«¦":8242,"¬æĦı":8243,"®®":8244,"®éĿĻ":8245,"²©":8246,"²Ī":8247,"²åĲį":8248,"³ãĤĭ":8249,"´©":8250,"´æĹı":8251,"·åķı":8252,"¸ĩ":8253,"¹ĭãģĮ":8254,"ºŃ":8255,"º»èĸ¬":8256,"»ãĤĦ":8257,"¼åħ¥":8258,"½²åĲį":8259,"¾åĲĳ":8260,"¿«":8261,"¿Į":8262,"¿į":8263,"åĩ":8264,"åİ³":8265,"å³¶":8266,"æ¦":8267,"æĹħ":8268,"æ§ĭ":8269,"æ¤ľ":8270,"æ¤į":8271,"çĪ":8272,"çŃĶ":8273,"ç²¾":8274,"èĨ":8275,"èĶ":8276,"èĲ½ãģ¡çĿĢ":8277,"è¤ĩéĽĳ":8278,"é¼»":8279,"éī±":8280,"é®®":8281,"ĠY":8282,"Ġb":8283,"Ġf":8284,"Ġâ":8285,"Ġè¨ĢãģĨ":8286,"Ġä¹Ĺ":8287,"ĠéĢļãĤĬ":8288,"ĠèĢ³":8289,"Ġä¼ĳæĨ©":8290,"Ġéĸĭãģĳ":8291,"Ġä½¿çĶ¨":8292,"ĢĴ":8293,"ģĸ":8294,"ĥ½":8295,"ħéļľ":8296,"ħĻèįī":8297,"ĪĴ":8298,"īå¤§":8299,"ĬåŃĲ":8300,"Ĭéĩį":8301,"ĭ©":8302,"Įħ":8303,"ĮäºĨ":8304,"įå¾Ĺ":8305,"İãģĪ":8306,"İĥéĻ¤":8307,"ıĭäºº":8308,"Ĳå¾ħ":8309,"ĳãģĦ":8310,"Ķ¹":8311,"ĶãĤīãģĭ":8312,"ĸ°":8313,"ĸåĩº":8314,"Ĺ©":8315,"ĻçĲĨ":8316,"Ľĩ":8317,"Ŀ¡":8318,"Ŀ±":8319,"ŀŃ":8320,"łçī²":8321,"ãģĦãģĮ":8322,"ãģĦãģªãģĳãĤĮãģ°":8323,"ãģ®ãĥ¬":8324,"ãģ®ãģĵãģ¨ãģĮ":8325,"ãģ®éĢļãĤĬ":8326,"ãģ®è¨ĪçĶ»":8327,"ãģ®ãģ»ãģ¨ãĤĵãģ©":8328,"ãģ®ãĥªãĤ¹ãĥĪ":8329,"ãģ®ä¾¡åĢ¤":8330,"ãģ®ä¼ļèŃ°":8331,"ãģ¯äºº":8332,"ãģ¯ãĥ¬":8333,"ãģ¯ãģĿãĤĮãĤĴ":8334,"ãģ¯ãĤĪãģı":8335,"ãģ¯ãģ»ãģ¨ãĤĵãģ©":8336,"ãģ¯ãģ§ãģįãģ¦":8337,"ãģ¯ãģ©ãģĵãģ«ãģĤãĤĭ":8338,"ãģªãģªãģĦ":8339,"ãģŁãģĭ":8340,"ãģŁæĻĤ":8341,"ãģ¦ãģªãģĦ":8342,"ãģ¦å¬īãģĹãģĦãĤĪ":8343,"ãģ«ãģĦãģªãģĦ":8344,"ãģ«ãģŁãģĦ":8345,"ãģ«è¨ĢãģĨ":8346,"ãģ«éĬĥ":8347,"ãģ«èª¬æĺİ":8348,"ãģ«ä¼¼":8349,"ãĤĴè¨Ģãģ£ãģŁ":8350,"ãĤĴä¹Ĺ":8351,"ãĤĴãģĦãģıãģ¤ãģĭ":8352,"ãĤĴèĢĥãģĪãĤĭ":8353,"ãĤĴè©°":8354,"ãĤĴãĤ«ãĥĲãĥ¼":8355,"ãĤĴéĿŀéĽ£":8356,"ãĤĴéĢ£ãĤĮ":8357,"ãĤĴãĤĪãģĵãģĽ":8358,"ãĤĭãģĦ":8359,"ãĤĭæĻĤ":8360,"ãĤĭãģŀ":8361,"ãĤĭæĸ¹æ³ķ":8362,"ãģĹãĤĤ":8363,"ãģĹãĤģ":8364,"ãģĹãģıãģª":8365,"ãģĹãģªãģĳãĤĮãģ°ãģªãĤīãģªãģĭãģ£ãģŁ":8366,"ãĢĤãĢį":8367,"ãģĭãģĻ":8368,"ãģĭãĤĮãģ¦":8369,"ãģ¨ãģ®":8370,"ãģ¨ãģĻãĤĭ":8371,"ãģ¨ãģªãĤĭ":8372,"ãģ¨ãĤŃãĥ£":8373,"ãģĮè¡Įãģı":8374,"ãģĮãģ¨ãģ¦ãĤĤ":8375,"ãģĮå®¶":8376,"ãģĮèī¯ãģĦ":8377,"ãģĮãģĵãģ®":8378,"ãģĮãĤıãģĭ":8379,"ãģĮé«ĺãģĦ":8380,"ãģłãģŃ":8381,"ãģłãģŀ":8382,"ãģłãģ¨ãģĹãģ¦ãĤĤ":8383,"ãģ§ãģ¯æ":8384,"ãģ§åĲĽ":8385,"ãģ§å½¼ãĤī":8386,"ãģ§ãģĿãĤĮãĤĴ":8387,"ãģ§æľīåĲį":8388,"ãģĻãģ°":8389,"ç§ģãģ®ãģŁãĤģãģ«":8390,"ç§ģãģ®ä»ķäºĭ":8391,"ç§ģãģ®äººçĶŁ":8392,"ç§ģãģ®çĪ¶":8393,"ç§ģãģ®åıĭäºº":8394,"ãģĨãĤĪ":8395,"ãģĵãĤĵ":8396,"ãģĵãģ®ç":8397,"ãģĵãģĨãģ¨":8398,"ãģĵãģ®å°ĳå¥³":8399,"Ġåĸ":8400,"Ġå§ĭ":8401,"Ġå£°":8402,"Ġå¦¹":8403,"ãģ¾ãģķ":8404,"ãģ¾ãģ¿":8405,"ãģ¾ãģ¨ãĤĤ":8406,"ãĤīãĤĮãģ¦ãģĦãģŁ":8407,"ãĥ³ãĥĲ":8408,"ãĥ³ãĤŃ":8409,"ãĥ³ãĤŃãĥ¼":8410,"ãĥ³ãĥĢãĥ¼":8411,"Ġç§ģãĤĴå":8412,"Ġç§ģãģ®æģ¯åŃĲ":8413,"Ġç§ģãģ®æ¯į":8414,"ãģıãģĻ":8415,"ãģĹãģ¦ãĤĤãģĦãģĦ":8416,"ãģĹãģ¦ãģĦãģªãģĭãģ£ãģŁ":8417,"ĠãģĿãģ®æĻĤ":8418,"ãĤ¹ãĥŃãĥ¼ãĥ³":8419,"ãģĵãģ¨ãģ§":8420,"ãģĵãģ¨ãģķãģĪ":8421,"ãĥ¼ãĥĽ":8422,"ãģįãĤī":8423,"ãĥĥãĤº":8424,"ä½ķãģĮãģ§ãģįãĤĭ":8425,"ãĤĴæĶ¯æīķ":8426,"ãĤĴæŃ©":8427,"ãĤĴæĶ¯éħį":8428,"ãģ®å¸":8429,"ãģ®åĬ":8430,"ãģ®å¥½":8431,"ãģ®åł±":8432,"ãģ®åŃ¦æł¡":8433,"ĠãģĤãģ®å¥³":8434,"ãģ¯åħ¨":8435,"ãģ¯åħ¨éĥ¨":8436,"Ġå½¼ãģ¯ãģĦãģ¤ãĤĤ":8437,"Ġå½¼ãģ¨è©±":8438,"Ġå½¼ãģ¯æľĢ":8439,"Ġå½¼ãģ¯æŃ»ãĤĵãģł":8440,"ãģĹãģŁãģĵãģ¨ãĤĴ":8441,"ãģĹãģŁãģĵãģ¨ãģĮãģªãģĦ":8442,"ãģĹãģŁãģıãģªãģĭãģ£ãģŁ":8443,"ãģķãģ¾":8444,"ĠæĪ»ãģ£ãģ¦":8445,"ĠæĮĩ":8446,"ĠæĦŁè¬Ŀ":8447,"Ġæģĭ":8448,"ĠæŃ¦è£ħ":8449,"Ġæģ¥ãģļãģĭãģĹãģĦ":8450,"ãĤ¯ãĥĪãĥ«":8451,"ãĤĴåģ":8452,"ãĤĴåĳ":8453,"ãĤĴåİ»":8454,"ãĤĴå¼¾":8455,"ãĤ¤ãĤ«":8456,"ãĤ¤ãĤ¿ãĥªãĤ¢":8457,"ãĤıãģĸ":8458,"ãĤıãĤĮãģ¦ãģĦãģ¾ãģĻ":8459,"ãĤıãģĭãĤīãģªãģĭãģ£ãģŁ":8460,"ãģĪãģªãģĭãģ£ãģŁ":8461,"äººãģ®":8462,"äººãģ§":8463,"ãĥĪãĥ©ãĥ³":8464,"ãĥĪãĥªãĥĥãĥĹ":8465,"Ġç§ģãģ¯ä»ķäºĭ":8466,"Ġç§ģãģ¯ãģĿãģĨãģł":8467,"Ġç§ģãģ¯èª°ãĤĤ":8468,"Ġç§ģãģ¯è»Ĭ":8469,"Ġç§ģãģ¯ãģĤãģ¾ãĤĬ":8470,"Ġç§ģãģ¯æľ¬":8471,"Ġç§ģãģ¯ãģļãģ£ãģ¨":8472,"Ġç§ģãģ¯ãģĦãģıãģ¤ãģĭ":8473,"Ġç§ģãģ¯æľ¬å½ĵãģ«":8474,"Ġç§ģãģ¯ä»ĬæĹ¥":8475,"è¨Ĺ":8476,"Ġ!!!":8477,"ãģ¡ä¸ĬãģĴ":8478,"ãģ¡å¯Ħ":8479,"ãģĻãĤĭäºº":8480,"ãģĻãĤĭãĤĪãģĨãģ«":8481,"ãģĻãĤĭæĻĤ":8482,"ãģĻãĤĭãģĵãģ¨ãģ¯":8483,"ãģĻãĤĭãģ®ãĤĪ":8484,"ãģĻãĤĭæĻĤéĸĵ":8485,"ãĥ«ãģ¨":8486,"ãĥ«ãĥ³":8487,"ãģ¤ãģ¾ãĤĬ":8488,"ãģĤãģªãģŁãģ¯ç§ģãģĮ":8489,"ãģĤãģªãģŁãģ¯ç§ģãģŁãģ¡":8490,"ãĥªãĥł":8491,"ãĥªãĤ¶":8492,"ãĥªãĥĪãĥ«":8493,"ãĥªãĥ´ãĤ£":8494,"ĠãģĿãĤĮä»¥ä¸Ĭ":8495,"ĠãģĿãĤĮä»¥å¤ĸ":8496,"ĠãģĿãĤĮãģĮçľŁå®Ł":8497,"ĠãģĤãģªãģŁãģ«":8498,"ĠãģĤãģªãģŁãģ®ä»ķäºĭ":8499,"ĠãģĤãģªãģŁãģ®ãĤĪãģĨãģª":8500,"ĠãģĤãģªãģŁéģĶãģ¯":8501,"ãĤģãĤīãĤĮãģªãģĦ":8502,"ãģ«å±":8503,"ãģ«åĤ":8504,"ãģ«å°ĳãģĹ":8505,"ãģ«å£²":8506,"èªĮ":8507,"èªĺ":8508,"ãĥ©ãĥ«":8509,"Ġãģĵãģ®é£Ľè¡Įæ©Ł":8510,"ãģ®æ¨©":8511,"ãģ®æµ·":8512,"ãģ®æ³ķ":8513,"ãģ®æĶ»æĴĥ":8514,"ãģ®æĽ¸é¡ŀ":8515,"ãģĭãĤīéĽ»è©±":8516,"ãģĭãĤīå¤ĸ":8517,"æĢĿãģ£ãģ¦ãĤĭ":8518,"è¨Ģãģ£ãģ¦ãĤĭãģ®":8519,"è¦ĭãģĪãģ¾ãģĻ":8520,"ãģ¯æķ°":8521,"è¡Įãģįãģ¾ãģĻ":8522,"ãģĤãĤĭãģĭ":8523,"ãĤ¢ãĤ¯":8524,"ãĤ¢ãĥª":8525,"ãĤ¢ãĥªãĤ¹":8526,"ãģĿãĤĮãģĮç§ģ":8527,"ãģĿãĤĮãģłãģĳãģ§ãģĻ":8528,"ãĥīãĥ¬ãĤ¹":8529,"ãĥīãĥ¯ãĥ¼ãĥī":8530,"ãĥīãĥ©ãĤ¤ãĥĸ":8531,"ãĤĪãģĨãģ«æ":8532,"ãĤĪãģĨãģłãģª":8533,"å¤ª":8534,"Ġç¾İ":8535,"Ġç¬ĳ":8536,"Ġçĩĥ":8537,"Ġçĸ²":8538,"ĠçĲĨçĶ±":8539,"Ġç¶ļãģĳ":8540,"Ġä½ķãģ®ãģŁãĤģãģ«":8541,"Ġä½ķãģ§ãĤĤ":8542,"ãĤĦãĤĬãģ¾ãģĻ":8543,"ãĤĦãĤģãģŁ":8544,"ä¸Ģèĩ´":8545,"ãģ«æĤª":8546,"ãģ«æĦĽ":8547,"ãģ«æ¶Ī":8548,"ãģ«æ¨ª":8549,"ãģ«æŃ©":8550,"ãģ¨æĢĿãĤıãģªãģĦ":8551,"ãģĬãģį":8552,"ãģĦãģ¦ãĤĤ":8553,"éĢĻ":8554,"ãĥ¬ãĤ°":8555,"ãĥ¬ãĥĻ":8556,"ãĥ¬ãĤ¯ãĤ·ãĥ§ãĥ³":8557,"ãĥĥãĤ¯ãĤĴ":8558,"ãĥŃãĥĭ":8559,"ãĥŃãĥ¼ãĤº":8560,"ãĥŃãĤ¤ãĥī":8561,"ãĥŃãĥ¬ãĥĥãĤ¿":8562,"äºĭãģĮ":8563,"äºĭãĤĴãģĹãģŁ":8564,"äºĭåĭĻæīĢ":8565,"ãĤ¸ãĥł":8566,"ãĥķãĥĥãĤ¯":8567,"ãĥķãĥ©ãĤ¤":8568,"è©±ãģł":8569,"ãģ«ãģ¯ä½ķãģĭ":8570,"ãģ«ãģ¯ãģªãĤĬ":8571,"ãģ«ãģ¯è¦ĭãģĪãģªãģĦ":8572,"ãģ®çļĨ":8573,"ãģ®çłĶç©¶":8574,"ãģ®çĹĽãģ¿":8575,"ãģĮæĺ":8576,"ãģĮæ®ĭ":8577,"ãģĮæįķãģ¾":8578,"ãĤĵãģłãģ®ãģĭ":8579,"ãģ¯ç§ģãģ®":8580,"ãģ¯ç§ģãĤĴ":8581,"ãģ¯ç§ģãģ«ãģ¯":8582,"Ġè¾":8583,"ĠèĻ":8584,"Ġè±ļ":8585,"Ġèħ¹":8586,"ãģ®ãĥ´":8587,"ãģ°ãģĭ":8588,"ãĤĴçĸĳ":8589,"ãĤĴçłĶç©¶":8590,"ãģĮãģĤãĤĭãģ¨æĢĿãģĨ":8591,"ãĤ«ãĥĩ":8592,"ãĤĴè¦ĭãģ¦ãģıãĤĮ":8593,"ãĤĴè¦ĭãģ«è¡Įãģı":8594,"ãĤĴè¦ĭãģªãģķãģĦ":8595,"ãĤĴè¦ĭãĤĭãģĵãģ¨ãģĮãģ§ãģįãĤĭ":8596,"ãĤ°ãĥĥãĥī":8597,"ãģ¯ãģĦãĤīãģªãģĦ":8598,"ãģĮåĲ":8599,"ãĥŀãĤ°":8600,"ãĥĹãĥĪ":8601,"ãĥĹãĥª":8602,"ãĥĹãĤ·ãĥ§ãĥ³":8603,"ãĥĹãĥ¬ãĤ¹":8604,"ãĥĹãĥ¬ãĥ¼":8605,"ãĥĩãĥ¼":8606,"ãĥĩãĥ©":8607,"ãĥĩãĤª":8608,"ãģ¯ç´":8609,"ãģ¯ç°¡åįĺ":8610,"ĠãģĬãģĿãĤīãģı":8611,"ĠãģĬèħ¹":8612,"ĠãģĵãĤĮãģ§ãģĻ":8613,"ãģłãģĳãģ§ãģ¯ãģªãģĦ":8614,"ãģłãģĳãģ¾ãģĻãģĭ":8615,"ãģĵãģ¨ãģĮãģŁãģıãģķãĤĵãģĤãĤĭ":8616,"ĠåĲĽãģ®å":8617,"Ġé¦¬":8618,"Ġé¡Ķ":8619,"ãĥĳãĥ¼":8620,"ãģĪãģ¦ãģıãģłãģķãģĦ":8621,"ãĤĴèī¯":8622,"ãĤĴèº«":8623,"ãĤĴè¥²":8624,"ãĤĴè«¦":8625,"å¾ģ":8626,"ãģĹãģ¦ãģĦãĤĭãģĮ":8627,"ãģĹãģ¦ãģĦãĤĭãģĵãģ¨ãĤĴ":8628,"ãģĹãģ¦ãģĦãĤĭãģ¨æĢĿãģĨ":8629,"ãģ©ãģĨãģŀ":8630,"ãģ©ãģĨãģĻãĤĮãģ°":8631,"ãģ®é¢¨":8632,"ãģ®é§ħ":8633,"ãģ®è¿":8634,"ãģ®è¿ĳ":8635,"ãģ®è§Ĵ":8636,"Ġå½¼ãģ¯ãģĦãģĦ":8637,"Ġå½¼ãģ¯ãģ©ãĤĵãģª":8638,"ãĤ³ãĥŁ":8639,"ãĤ³ãĥ³ãĤ°":8640,"ãĤ³ãĥĥãĤ¯ãĤ¹":8641,"ç§ģãģ¯ãģĵ":8642,"ç§ģãģ¯ãĤĤãģĨ":8643,"ç§ģãģ¯ãģĿãĤĮãĤĴ":8644,"ç§ģãģ¯ãģ¾ãģł":8645,"ç§ģãģ¯ä½ķãĤĤ":8646,"ç§ģãģ¯ãģĤãģªãģŁãģ®":8647,"åħµå£«":8648,"çĶ·ãģĺãĤĥãģªãģĦ":8649,"åıĶ":8650,"çŁ¥ãģ£ãģ¦ãĤĭãģĭ":8651,"ãĥĲãĥ¬ãĥ¼":8652,"ä¼ļãģ£ãģŁ":8653,"ä¼ļåĲĪ":8654,"ãĥĥãĥĪãģ¨":8655,"ãĥĥãĥĪãģł":8656,"Ġç§ģãģŁãģ¡ãģ¯åı":8657,"Ġç§ģãģŁãģ¡ãģ¯çļĨ":8658,"ĠãģĿãģĨãģłãģ£ãģŁ":8659,"ãĥģãĥ¼ãĥķ":8660,"ãĥģãĤ±ãĥĥãĥĪ":8661,"åĲĲ":8662,"ãģłãģ£ãģŁãģ¨æĢĿãģĨ":8663,"ãĥłãĤº":8664,"ãĤºåĪĳäºĭ":8665,"ãĤºãĥľãĥ³":8666,"ãĤĭãģ®ãģĮ":8667,"æĦīå¿«":8668,"ãĥĵãĤ¹":8669,"ãĥĵãĥªãĥ¼":8670,"ãĥĵãĤ¦ãĤ¹":8671,"ãĤµãĤ®":8672,"ĠãģĿãĤĮãģ¯ãģŁãģł":8673,"ĠãģĿãĤĮãģ¯éĩįè¦ģãģĺãĤĥãģªãģĦ":8674,"ãĤĪãģĨãģ«ãģĹãģ¦ãģıãģłãģķãģĦ":8675,"æĻĤãĢħ":8676,"æĻĤè¨Ī":8677,"ãĥĭãĥ¼ãĤ¯":8678,"ãĥĭãĤ¬ãĥ¼":8679,"Ġä»ĬãģĭãĤī":8680,"Ġä»Ĭãģ¯ç":8681,"ãģĵãģ¨ãģĮãģ§ãģįãģ¾ãģĹãģŁ":8682,"°ĳå¥³":8683,"èĩªä¿¡":8684,"ĠãģĤãģªãģŁãģ¯ãģĿãģĨ":8685,"ãĤªãĥĸ":8686,"Ġãģ§ãĤĤåĲĽ":8687,"Ġãģ©ãģĨãģĹãģŁãģ®":8688,"ãģ¨è¨ĢãģĦãģ¾ãģĹãģŁ":8689,"ãĥªãĥ¼ãĤ¯":8690,"ä¿ºéģĶ":8691,"æ°Ĺãģ«":8692,"æ°Ĺãģ§ãģ¯ãģªãģĦ":8693,"æ°Ĺãģ«ãģĻãĤĭ":8694,"è¡Įãģıãģ¹ãģįãģłãģ¨æĢĿãģĨ":8695,"ãģ«ãģ¤ãģĦãģ¦ä½ķ":8696,"ãģ«ãģ¤ãģĦãģ¦ãģ¯ä½ķãĤĤ":8697,"ãĤ¹ãĥĪãĥª":8698,"ãĤ¹ãĥĪãĥ¼ãĥ³":8699,"ãĤ¹ãĥĪãĥ©ãĤ¤":8700,"ãĤ¹ãĥĪãĥ¼ãĤ«ãĥ¼":8701,"ãĥ¡ãĤ¤ãĥ³":8702,"éĻ¥":8703,"Ń¦ãĤĵãģł":8704,"ĠãģĤãģĤãĤıãģĭãģ£ãģ¦ãĤĭ":8705,"åºĥ":8706,"ãĤĵãģ§ãģĹãĤĩ":8707,"ãģĹãģªãģĦãģ®ãģĭ":8708,"ãģ¨ãģĦãģĨãģ¨":8709,"åĩºãģĹãģ¦":8710,"éĩĳãĤĴ":8711,"éĩĳåº«":8712,"Ġãģªãģľãģĭ":8713,"Ġèª°ãģĮæ":8714,"ĠãģĦãģļãĤĮ":8715,"ãģ®ãģ¯ãģªãģľ":8716,"ãģ®ãģ¯èª°ãģł":8717,"ãģ«ãģªãĤĭãģŀ":8718,"ãģ«ãģªãĤĭãģŁãĤģãģ«":8719,"ä»ķäºĭãĤĴãģĹãģ¦ãģĦãĤĭ":8720,"ĤªåĮĸ":8721,"æĢ§çļĦ":8722,"çī©ãģĮ":8723,"çī©ãģ§ãģĻ":8724,"çī©è³ª":8725,"ãĥŁãĥ¼ãĥ«":8726,"ãĥŁãĥį":8727,"ĠãĤ¸ãĥ¥":8728,"ĠãĤ¸ãĥł":8729,"ĠãĤ¸ãĥĭãĥ£ãĥ³":8730,"æĸ¹åĲĳ":8731,"ç´³å£«":8732,"Ġäººãģł":8733,"Ġäººãģ¨ãĤĤ":8734,"ãĥĢãĤ¤":8735,"ãĥĢãĥĸãĥªãĥ³":8736,"ç§ģãģŁãģ¡ãģ¯å":8737,"åį´":8738,"åįµ":8739,"åįĹ":8740,"æ³³":8741,"ãĥĨãĤ£ãĥĥãĤ¯":8742,"ãģĪãĤĭãģĭ":8743,"ãĤīãģªãģĦãģ¨":8744,"Ġç§ģãģĮçŁ¥ãģ£ãģ¦ãģĦãĤĭ":8745,"åĲĽãģ¯å":8746,"å¤§æĪ¦":8747,"ãĤ¬ãĤ¤":8748,"ãĤ¬ãĥ³ãĥĦ":8749,"ãĤ»ãĥ³ãĤ¹":8750,"Ġä¿ºãģŁãģ¡ãģ¯":8751,"Ġãģ¾ãģģ":8752,"ãĤĴãģĻãĤĭãģŁãĤģãģ«":8753,"ī¯å¤§çµ±éłĺ":8754,"ãģ«èī¯ãģĦ":8755,"ãģĵãģĵãģ«ãģ¯":8756,"ãģĵãģĵãģ«æĿ¥ãģ¦":8757,"Ġãĥŀãĥ¼":8758,"ĠãĥŀãĥĥãĤ¯ãĤ¹":8759,"Ġãĥŀãĥ¼ãĥĨãĤ£":8760,"ãģķãģĽãĤĭãģĵãģ¨":8761,"ãģłãģĳãģłãĤĪ":8762,"ãģĴãģ¦ãĤĭ":8763,"ãĥĶãĥ³ãĤ°":8764,"ãĥĶãĥ³ãĤ¯":8765,"ãĥĻãĥ³":8766,"Ġç§ģãģ¯å¤§ä¸Īå¤«":8767,"Ġç§ģãģ¯å¥³æĢ§":8768,"ãĥıãĥ³ãĤ°":8769,"Ġç§ģãģŁãģ¡ãģ¯ãģ¿ãĤĵãģª":8770,"ĠãģĿãĤĮãģ§å½¼":8771,"ãĤĴæĮģãģ£ãģ¦ãģªãģĦ":8772,"ãĤĴæĮģãģ£ãģ¦ãģĦãģ¦":8773,"ãĤĴæĮģãģ£ãģ¦ãģıãĤĭ":8774,"ãĤĦãģ£ãģ¦ãģıãĤĮ":8775,"å¾ĮãĤį":8776,"ãģ¯ãģ©ãģĨãģªãģ®":8777,"ãģ¯ãģ©ãģĨæĢĿãģĨ":8778,"ãģ«çĦ¡":8779,"ãģ«çģ«":8780,"ãģ«ç©´":8781,"åł´ãģ§":8782,"ä½ľãģ£ãģŁ":8783,"ĠãģĿãģĨãģĺãĤĥãģªãģĦãģ¨æĢĿãģĨ":8784,"ãĤĴçŁ¥ãģ£ãģ¦":8785,"åħ¨ãģı":8786,"ãģ«æĿ¥ãģ¦ãģıãĤĮ":8787,"ãĥ¯ãĤ¤":8788,"è¨ĢãģĨãĤĪãģĨãģ«":8789,"ãģ®ãģĵãģ¨ãģ§":8790,"ãģ®ãģĵãģ¨ãĤĴå¿ĥéħį":8791,"Ġç§ģãģ¯ãģĤãģªãģŁãģ®":8792,"Ġç§ģãģ¯ãģĤãģªãģŁãģ«":8793,"Ġç§ģãģ¯ãģĤãģªãģŁãģ¨":8794,"éļ£":8795,"å½¼ãģ¯ãģĿãĤĮãĤĴ":8796,"å±¤":8797,"ãģ«ãģĦãĤĭãĤı":8798,"ĠãĥīãĥĬãĥ«ãĥī":8799,"æīĭéħį":8800,"æīĭãģ«åħ¥ãĤĭ":8801,"è§£æ±º":8802,"èī¯ãģı":8803,"èī¯ãģĭãģ£ãģŁ":8804,"ãĤĴæ®ºãģĽ":8805,"ãģķãĤĮãģ¦ãģĦãģŁ":8806,"ãģķãĤĮãģ¦ãģĦãģ¾ãģĽãĤĵ":8807,"ĠãĤ¹ãĥĳ":8808,"ĠãĤ¹ãĥļ":8809,"ãĥİãĥª":8810,"ãĥİãĥķãĤ¡":8811,"ãģ§ãģįãĤĭãģ®ãģĭ":8812,"ãģ§ãģįãĤĭãģĵãģ¨ãģ¯ä½ķãĤĤãģªãģĦ":8813,"ä½¿ãģĨ":8814,"è³¢":8815,"ĠãĤ¯ãĥ©ãĤ¹":8816,"å¸½åŃĲ":8817,"éģĭãģĮèī¯ãģĭãģ£ãģŁ":8818,"ä¸ĸç´Ģ":8819,"Ġä½ķãģĭè¨Ģãģ£ãģŁãģĭ":8820,"ãĤĪãĤĬå¤ļãģı":8821,"ãģ®å¤±":8822,"å¹´ãģ¯":8823,"ĠãģĪãģĩ":8824,"Ġãĥĩãĥ¥":8825,"ãĥĽãĥĥãĥĪ":8826,"ãĥĽãĥ¼ãĤ¹":8827,"æĽ²å®¶":8828,"ãģ®åı³":8829,"ä½ĵéĩį":8830,"èĥĮ":8831,"Ġãĥıãĥ³":8832,"Ġãĥıãĥ¼ãĥī":8833,"ĠãĥıãĥŃãĥ¼":8834,"éĸ¢ãĤı":8835,"ãĤ·ãĥ§ãĥĥãĥĹ":8836,"æĬķ":8837,"ç§ģãģĮãģĿãĤĮ":8838,"ĠåĪĨãģĭãĤĭãĤĪ":8839,"ãģ©ãģĵãģĭãĤī":8840,"ãģ©ãģĵãģ§ãģĻãģĭ":8841,"ãģ©ãģĵãģ¸":8842,"ãĤ¯ãĤ½ãģł":8843,"ĠãĤĦãĤģãģ¦":8844,"ãĤ¸ãĤ§ãĤ¤":8845,"ãĥķãĤ£ãĤ¢":8846,"ãĥķãĤ£ãĥĥãĥĪ":8847,"æĮģãģ£ãģ¦ãģªãģĦ":8848,"éķ·å®ĺ":8849,"ãĥĲãĥ¼ãĤ°":8850,"ĠãģĤãģªãģŁãģ¯ç§ģãĤĴçŁ¥ãĤīãģªãģĦ":8851,"æľĢå¤§":8852,"±ºæĸŃ":8853,"ãģ¦ãĤĭãĤĵãģł":8854,"ĠãģĶåŃĺçŁ¥":8855,"ãĥªãĥ³ãĤ«ãĥ¼ãĥ³":8856,"ĠãģĪãģĪãĤĤãģ¡ãĤįãĤĵ":8857,"ãĤ·ãĥ¥ãĥ¼ãĤº":8858,"è²¡çĶ£":8859,"ĠãģłãģĮåĲĽ":8860,"Ġå¹´ãģł":8861,"Ġå¹´å¾Į":8862,"Ġå¹´åīįãģ«":8863,"ãģ®æľ¨":8864,"ĠãĥŃãĤ·ãĤ¢":8865,"ĠãĤ¦ãĤ½":8866,"ĠãĤ¦ãĤ¦ãĥ³":8867,"éħįç½®":8868,"ãĥªãĤ¢ãĤ¹":8869,"ãģ£ãģ¦ãģıãĤĮãģ¦ãģĤãĤĬãģĮãģ¨ãģĨ":8870,"ãĥķãĤ¡ãĤ¤":8871,"ĠãĥªãĥªãĤ¢ãĥ³":8872,"Ġãĥªãĥ©ãĥĥãĤ¯ãĤ¹":8873,"ĠãĤ¤ãĥ«":8874,"ĠãĤ¤ãĤ§":8875,"ĠãĤ¤ãĥģ":8876,"ãģĮç©º":8877,"ĠãģĿãģĹãģ¦å½¼ãģ¯":8878,"ãĥģãĥ£ãĥĥãĤ¯":8879,"ãĥģãĥ£ãĥ¼ãĥ«ãĤº":8880,"åĮº":8881,"ãģ®ä¸Ģèĩ´":8882,"ä¸ĸçķĮå¤§æĪ¦":8883,"è«¸åĲĽ":8884,"Ġå½¼ãģ¯å¤":8885,"ĠæĺĶ":8886,"ãĤĴçŁ¥ãģ£ãģ¦ãĤĭãģłãĤį":8887,"ãĤĴèģŀãģįãģŁãģĦ":8888,"ãĥļãĤ¹":8889,"èĪŀ":8890,"ĠãĥĪãĤ¥":8891,"Ġåı°":8892,"åĥļ":8893,"ãĥ¼ãĤºãĥ³":8894,"æĻĤéĸĵãģł":8895,"ĠãĤĤãģĹå½¼":8896,"ãĤ¦ãĤ§ãĤ¶ãĥ¼":8897,"ĠæĪĳãĢħãģ«ãģ¯":8898,"ãģ©ãģĵãģ«ãģ§ãĤĤ":8899,"éĢĥãģĮ":8900,"æĦŁæĥħ":8901,"Ġç§ģãģ®è¦ªæĦĽãģªãĤĭ":8902,"Ġæ°Ĺä»ĺ":8903,"åĬĽãģ®ãģĤãĤĭ":8904,"ãģłãĤĪãģª":8905,"ĠãĤ³ãĥ¼ãĥĪ":8906,"ãģ«æĪ»ãĤĭãģ®":8907,"ãĤ·ãĥ£ãĥ¼ãĤ¯":8908,"ĦıåĽ³":8909,"ãĤ¸ãĥ§ãĥ¼ãĤ¤":8910,"Ġãģ¡ãĤĩãģĨãģ©":8911,"é£Ľè¡Į":8912,"ãĤĴæĮģãģ£ãģ¦ãĤĭãģ¨æĢĿãģĨ":8913,"åĭĻåĵ¡":8914,"Ġãģĵãģ®ä»¶":8915,"Ġãģĵãģ®è¡Ĺ":8916,"äºĮãģ¤":8917,"ĠèĩªçĶ±":8918,"¼ķçĶ¨":8919,"ãĤĭãģ¨ãģį":8920,"Ķ¾çģ«":8921,"ĠãĤ«ãĥ«":8922,"å·Ŀ":8923,"ç¥ŀãĤĪ":8924,"Ġç¥ŀãĢħ":8925,"Ġãģ¡ãĤĩãģ£ãģ¨å¤±ç¤¼":8926,"ãĥĴãĥĥãĥĪ":8927,"ãĥĴãĤ®":8928,"ãģłãģ¨æĢĿãģ£ãģ¦ãģĦãģ¾ãģĻ":8929,"Ġãĥ©ãĥ³ãĥĩãĤ£":8930,"éģ¸æīĭ":8931,"åĳ¼åĲ¸":8932,"ŃĶæ³ķ":8933,"ĠãĥĨãĥ¼ãĥĹ":8934,"ãĥŀãĥ³ãĤ¿ãĥ³":8935,"ãĤĴåĲĳ":8936,"ĠæĹ¥ãģ«":8937,"ãĤĴåıĹãģĳãģ¦ãģĦãĤĭ":8938,"Ġãĥĸãĥ«ãĥ¼":8939,"¬¡ãģ®":8940,"éģħãģĦ":8941,"Ġè¦ĭãģ¤ãģĳ":8942,"ĠãĤŃãĤ¹":8943,"ãģķãĤĮãģªãģĭãģ£ãģŁ":8944,"çĲĨçĶ±ãģ¯":8945,"çĲĨçĶ±ãģ§ãģĻ":8946,"ãģ®äººçĶŁãģ¯":8947,"ãĤĪãĤĬãĤĤå¤ļãģı":8948,"ãĤĪãĤĬãĤĤãģļãģ£ãģ¨":8949,"ãĤ´ãĥ¼ãĥīãĥ³":8950,"èŃ°åĵ¡":8951,"çĿĢéĻ¸":8952,"Ġãĥģãĥ¼ãĥķ":8953,"ĠãģĿãĤĵãģªãģ«":8954,"åħ¥ãģ£ãģ¦":8955,"åĽ½äºº":8956,"æħİéĩį":8957,"ãģĵãģ¨ãģĮãģĤãĤĭãģ®":8958,"äººãģ¯èª°ãģ§ãĤĤ":8959,"ĠèĩªåĪĨãģ§":8960,"åľĴ":8961,"ä¼ĳæģ¯":8962,"ĠãģĿãĤĮãģ¯æ®ĭå¿µ":8963,"æĤªæĦŁ":8964,"ãĤĴæİ¢ãģĹãģ¦ãĤĭ":8965,"ãģ¯ãģ©ãģĵãģ§ãģĻãģĭ":8966,"ãģ¯å®ŁéļĽ":8967,"ĠãģĭãĤĤãģĹãĤĮãģªãģĦ":8968,"ĳ¼ãģ³":8969,"ĠãĥŁãĤ»ãĤ¹":8970,"ãģĭãģ©ãģĨãģĭãģ¯ãĤıãģĭãĤīãģªãģĦ":8971,"ãģ«ä½ķãģĮãģĤãģ£ãģŁ":8972,"ĠåįģåĪĨ":8973,"Ġåį±éĻº":8974,"ãĥĸãĥ«ãĥ¼":8975,"ãĥĸãĥ«ãĥ¼ãĥł":8976,"Ġä½ķãĤĴãģĹãģŁãģ®":8977,"æĭ¶":8978,"Ġå½¼ãģ¯æ±ºãģĹãģ¦":8979,"ãĥĪãĥ©ãĥĻãĥ«":8980,"ãģ«åĲĪ":8981,"ĠãģĬé¡ĺãģĦãģłãģĭãĤī":8982,"åĸªå¤±":8983,"Įåħ¨ãģª":8984,"ĠæĢĴ":8985,"ãģ©ãĤĵãģªãĤĤãģ®ãģĭ":8986,"ãĥ¬ãĥ³ãĤ¸":8987,"ãĥ¬ãĥ³ãĤ¿ãĤ¤ãĥ³":8988,"ãĥģãĤ§ãĤ¹":8989,"ĠãĥŀãĥŀãģĮ":8990,"ç«ĭãģ¦":8991,"ãģĮå½¼ãģ«":8992,"å¤īãģª":8993,"ãĤĴçĲĨè§£ãģĹãģ¦ãģĦãģªãģĦ":8994,"ãĤĴæ®ºãģĻãģ®":8995,"ãĤĴæ®ºãģĻãģ®ãĤĪ":8996,"ĺĺãģ¤ãģį":8997,"Ġãģ©ãģĨãģĹãģ¦ãģĿãĤĵãģª":8998,"æ´Ĺ":8999,"ä¸ĢçķªãģĦãģĦ":9000,"ãĥ´ãĤ£ãĥ«":9001,"è©¦é¨ĵ":9002,"æĪ¦äºī":9003,"ç¶ļãģį":9004,"æİ¨":9005,"æİĽ":9006,"ãĤ¼ãĥŃ":9007,"ãģ«ãģĦãģŁãģ®ãģĭ":9008,"ãģ«è©±ãģĹãģŁ":9009,"Ġå¥ĩ":9010,"ãģ®åķıé¡Įãģł":9011,"ãģ®æĻĤä»£":9012,"ãģ¯ç§ģãģŁãģ¡ãģĮ":9013,"ãģ¹ãģįãģłãģ¨æĢĿãģĦãģ¾ãģĻ":9014,"ĠãĤ°ãĥ©":9015,"è¨ĢãĤıãģªãģĳãĤĮãģ°ãģªãĤīãģªãģĦ":9016,"Ġä»Ĭãģ¯ãĥĢãĥ¡ãģł":9017,"èµ·ãģĵãĤĬãģ¾ãģĽãĤĵ":9018,"ãģĵãģ¨ãģ«ãģªãĤĭãģ§ãģĹãĤĩãģĨ":9019,"ãģ§ãģįãģ¾ãģĽãĤĵãģ§ãģĹãģŁ":9020,"ãģ®ãĥĲãĥĥãĤ°":9021,"ĠãĤ¿ãĤ¤":9022,"ĠãĤ¿ãĤ¤ãĥł":9023,"°¡åįĺãģ§ãģĻ":9024,"ĠéĢ±éĸĵãģł":9025,"ĠæŃ¤å¥´ãĤī":9026,"ãģ®æĻĤéĸĵãģł":9027,"è¦ĭãģ¦ãģĦãģªãģĦ":9028,"ãģķãģĪãĤĤ":9029,"è¦ĭãģŁãģĵãģ¨ãģĮãģªãģĦ":9030,"ãĥĸãĥ©ãĤ¦ãĥ³":9031,"æĪĲåĬŁ":9032,"ãģĹãģıãģªãĤĭ":9033,"ãĤĴæ°Ĺãģ«ãģĻãĤĭ":9034,"æľŁéĸĵ":9035,"å¼·çĽĹ":9036,"ãģ®æľĢå¾Į":9037,"ãģĹãģ¾ãģĨ":9038,"ãĤĴæĴĥãģ¡":9039,"ç´ĦæĿŁãģĻãĤĭ":9040,"ĠçķªçĽ®ãģ®ãĥĵãĥ¼ãĥĪ":9041,"Ġ90":9042,"ãĤĴãģ¤ãģĳãĤį":9043,"ãĤĴè¦ļãģĪãģ¦ãģĦãģ¾ãģĻ":9044,"ĠãģĿãĤĮãģ¯ç´łæĻ´ãĤīãģĹãģĦ":9045,"ãģĮæĿ¥ãĤĭ":9046,"ãģĮæĿ¥ãĤĭãģ®":9047,"ãģ®ãĥģãĤ§":9048,"ľŁå®ŁãĤĴè©±":9049,"ãĤĴæīķãģĨ":9050,"çĹĽãģ¿":9051,"é¦¬é¹¿ãģł":9052,"ãģ¯åıĸå¼ķ":9053,"Ġæīĭä¼Ŀ":9054,"ãĥ«ãĥ¼ãĤµãĥ¼":9055,"ãģ®ãĥĩãĥ¼ãĥĪ":9056,"æŃ¢ãĤģ":9057,"ãĤĴå¾ħãģ¡":9058,"ãĤĴå¾ħãģ£ãģ¦ãĤĭ":9059,"ãĤĴå¾ħãģ£ãģ¦ãģĦãĤĭ":9060,"ãĤĴå¾ħãģ£ãģ¦ãģĦãģŁ":9061,"ãģªãģĹãģ§ãģ¯":9062,"ãĥ¼ãĥĬãĥ³":9063,"ĠãģĤãĤĭãģĦãģ¯":9064,"ãģ¯æĺłçĶ»":9065,"ãģ¯æĺ¨å¤ľ":9066,"åł´åĲĪãģ«ãģ¯":9067,"èŃ¦å®ĺãģĺãĤĥãģªãģĦ":9068,"ĠéĽ»è©±ãģĻãĤĭãĤĪ":9069,"ģĭãģ«èĲ½ãģ¡":9070,"ãģĵãĤĵãģªæĦŁãģĺ":9071,"åı£ãĥĵãĤ¶":9072,"Ġä½ķãģłãģ£ãģ¦":9073,"ĠãģĻãģĲãģ«":9074,"è¨ĺæĨ¶åĸªå¤±":9075,"ãĥ¬ãĤ¤ãĥ³ãĤº":9076,"éģĭè»¢æīĭ":9077,"ãĤĴè¿½ãģĦåĩº":9078,"æ¯Ĵ":9079,"æľįãĤĴçĿĢ":9080,"ãģ®ãĤ«ãĤ¦":9081,"ãģ®ãĤ«ãĥ¼ãĥī":9082,"ãģĹãģ¾ãģĹãĤĩãģĨãģĭ":9083,"ĠãĥĬãĤªãĥŁ":9084,"æŃ³ãģªãģ®":9085,"èģŀãģĦãģŁãģĵãģ¨ãģĮãģªãģĦ":9086,"ç®¡":9087,"éĮĨ":9088,"ãĤĴæ¶ĪãģĹãģ¦":9089,"ãģ®ãĥĨãĤ¹ãĥĪ":9090,"ãģ¯çµĲå©ļ":9091,"ãģĿãģĨãģ¨ãģĹãģŁ":9092,"èģŀãģĵãģĪãģªãģĦ":9093,"ĠãĥķãĤ¡ãĤ¤ãĤ¢":9094,"ĠCB":9095,"ãĤĴéĢļéģİ":9096,"ãģ£ãģ¦ãģĬãĤĬ":9097,"ãĤĴæĦıåĳ³ãģĻãĤĭãģ®ãģĭ":9098,"ãĤĴæĢĿãģĦåĩºãģĻ":9099,"çı¾éĩĳ":9100,"çı¾å®Ł":9101,"Ġãģ»ãģ£ãģ¨":9102,"ä½Ļè£ķ":9103,"ãģ®åľ°åŁŁ":9104,"è¡Įãģ£ãģ¦ãģıãģłãģķãģĦ":9105,"è¡Įãģ£ãģ¦ãĤĤãģĦãģĦ":9106,"Ġéłĳ":9107,"Ġè¦ĭãģ¦ãģ¿ãĤį":9108,"£ĬãĤĮãģŁ":9109,"ãĥ³ãĤ¸ãĥ³":9110,"ãģ®ãĥĵãĤ¸ãĥįãĤ¹":9111,"Ġæķ°æĹ¥":9112,"ãģ®å°ĳå¹´ãģŁãģ¡":9113,"ĠãĤĪãģıåĪĨãģĭãĤīãģªãģĦ":9114,"ĠãĤĪãģıèģŀãģĳ":9115,"Ħļãģĭ":9116,"ãģ®ãģĽãģĦãģł":9117,"ãģ®ãģĽãģĦãģĺãĤĥãģªãģĦ":9118,"ãĤĴè¨±ãģĹãģ¦ãģıãĤĮ":9119,"ãĤĴå½¼ãĤī":9120,"ãĥĹãĥ©ãĤ¤ãĤº":9121,"ãĤµãĤ¤ãĥĢãĥ¼":9122,"è³ĩéĩĳ":9123,"æŀĲ":9124,"Ġç§ģãģ¯æ±ºãģĹãģ¦":9125,"å¤§ä¸Īå¤«ãĤĪ":9126,"ŀ¬éĸĵãģ«":9127,"ãģ®è¨ĢãģĨãģ¨ãģĬãĤĬ":9128,"é¦ĸåĪĳ":9129,"ãĤĴè¨ĢãģĨãģ¨":9130,"ãģĹãģĭãģĦãģªãģĦ":9131,"ãĤĴæ®ĭãģĹãģŁ":9132,"ãģ¯å®¶æĹı":9133,"ãģ®éĿ¢":9134,"İĩçĽ´ãģ«":9135,"Ġãĥļãĥĭãĥ¼":9136,"ãĤĴæ¸¡ãģĻ":9137,"ãģ¯åĪĨãģĭ":9138,"æĢĴãĤĬ":9139,"ãģ§åĥįãģĦãģ¦ãģĦãĤĭ":9140,"ãģ§åĥįãģĦãģ¦ãģĦãģ¾ãģĻ":9141,"ç«¶äºī":9142,"èĦħ":9143,"ãĤ¾ãĥ«":9144,"ãĤĴãģĭãģ¶":9145,"ãĤĤãĤīãģ£ãģŁ":9146,"åĪ¶å¾¡":9147,"Ġè²¡å¸ĥ":9148,"ãģ®èĭ¦":9149,"æķĻãģĪãģ¦ãģĤãģĴãĤĭ":9150,"ãĥįãĥ«ãĤ®ãĥ¼":9151,"å®ŁéļĽãģ«":9152,"ł±åĳĬæĽ¸":9153,"Ġãĥģãĥ£ãĥ¼ãĥªãĥ¼":9154,"ãģ£ãģıãĤĬè¿Ķ":9155,"·±åĪ»":9156,"ãĥĮãĥĭãĤ§ãĤ¹":9157,"ãģ®éĸ¢ä¿ĤãĤĤãģªãģĦ":9158,"Ġåīįãģ«ãĤĤ":9159,"ãĥ¼ãĥĭãĥ¼":9160,"éĽĨä¸Ń":9161,"ãģ«è¿½ãģĦ":9162,"éł¼ãĤĵãģłãģ®":9163,"èĭ±éĽĦ":9164,"é§ħ":9165,"ãĤĴæ®´ãģ£ãģŁ":9166,"ãĥŁãĥ¥ãĥĭ":9167,"ĠçµĲå©ļå¼ı":9168,"æ¬¡ä¸ĸçķĮå¤§æĪ¦":9169,"ãģ«åĢŁãĤĬãģĮãģĤãĤĭ":9170,"ĠãģĵãĤĵãģªäºĭ":9171,"è©ķä¾¡":9172,"è©ķèŃ°ä¼ļ":9173,"ãģ®èħ¸":9174,"ĠãĤ·ãĥ£ãĥ¯ãĥ¼":9175,"Ġåįĥãĥīãĥ«":9176,"Ġæľ¬æ°ĹãĤĪ":9177,"ĺĺãĤĴãģ¤ãģı":9178,"è¶ħ":9179,"é¤¨":9180,"å¤ļãģĻãģİãĤĭ":9181,"Ġãĥŀãĥ³ãĥ¬ãĤ¤":9182,"æĥĳæĺŁ":9183,"ãģ§æŃ»ãģ¬":9184,"Ġéķ·ãģĦéĸĵ":9185,"é¢¨åĳĤ":9186,"Ġåľ°çĲĥ":9187,"ãĤ¹ãĥĶãĥ¼ãĥī":9188,"ãĤĴæ±ĤãĤģ":9189,"ĠãĤ¯ãĥªãĤ¹ãĥĨãĥ³":9190,"¼ķãģ£è¶Ĭ":9191,"Ġèª¿åŃĲãģ¯ãģ©ãģĨ":9192,"¾ĹãģŁ":9193,"éĹĺ":9194,"ãģ¯å¿ħè¦ģãģªãģĦ":9195,"Ġéħį":9196,"Ġãģ©ãģĨãģĭãģĹãģŁãģ®":9197,"ãĤĴåıĸå¾ĹãģĹãģ¾ãģĻ":9198,"ĠKIMBALL":9199,"çħĻ":9200,"ãģ®ãĥķãĤ¡ãĤ¤ãĥ«":9201,"ĠãģĤãĤĮãģ¯":9202,"ĠãģĤãĤĮãģ¯ä½ķãģłãģ£ãģŁãģ®":9203,"ĠæģĲãĤįãģĹãģĦ":9204,"å®¹æīĢ":9205,"ãĥ¡ãĥªãĥĥãĤ¯ãģķãĤĵ":9206,"ãģ«è²¬ä»»":9207,"å¤ĸãģ«åĩºãģ¦":9208,"èª¤è§£":9209,"ãĥĩãĤ¤ãĥĵãĥĥãĥī":9210,"ĠãĥīãĤ¤ãĥĦèªŀ":9211,"ãĤĴæīĭãģ«åħ¥ãĤĮãģ¾ãģĻ":9212,"èĭ¦çĹĽ":9213,"Ġä¸ĭãģĮ":9214,"ľ§åĬĽ":9215,"łĤæ¼":9216,"ãĥ³ãĥĢãĥ«":9217,"è¦³å®¢":9218,"ãĤĴçĻºè¦ĭ":9219,"æĦļãģĭèĢħ":9220,"ĠåĢĭäººçļĦãģª":9221,"°¸éģłãģ«":9222,"ä½ķåº¦ãĤĤä½ķåº¦ãĤĤä½ķåº¦ãĤĤä½ķåº¦ãĤĤ":9223,"Ľºå®ļ":9224,"Ġåħ¨ãģıãģĿãģĨãģĺãĤĥãģªãģĦ":9225,"ãģ®æĦıè¦ĭ":9226,"Ġé«ª":9227,"çµ¦æĸĻ":9228,"ç´ļãģ®é»Ĵäºº":9229,"éļİæ®µ":9230,"æĬĢè¡ĵ":9231,"Ġæĺ¨æĹ¥ãģ®å¤ľ":9232,"ä»£ãĤıãĤĬ":9233,"ç¹Ķ":9234,"ç¶ĻãģĮ":9235,"ãģ®ãĤ·ãĥ¼ãĥ³":9236,"ĠèĦ±":9237,"ĠèĪ¹éķ·":9238,"ãģ®èµ¤ãģ¡ãĤĥãĤĵ":9239,"Ġãģ§ãģĻãģĭãĤī":9240,"åĭĿåĪ©":9241,"ãĤĴèªįèŃĺ":9242,"ĠãģĭãĤıãģĦãģĿãģĨãģª":9243,"æ¿¯":9244,"ç¢ºãģĭãģ«":9245,"éĤªéŃĶ":9246,"Ġdun":9247,"ãģĮæķĻãģĪãģ¦ãģıãĤĮ":9248,"èĢĲãģĪ":9249,"ãģ®ãĥ¯ãĥ¼ãĥł":9250,"ãĤĴæĮģãģ¡ä¸ĬãģĴ":9251,"åį±éĻºãģł":9252,"éĸīãģĺè¾¼ãĤģ":9253,"å¹¸éģĭãĤĴç¥Ī":9254,"çĭ¼":9255,"èĲ½ãģ¡ãģŁ":9256,"éľĬ":9257,"ãģ¨ãģĦãģĦãģĳãģ©":9258,"åĭĩæķ¢":9259,"ãģ«èĭ¦åĬ´":9260,"éļľå®³":9261,"ĠãĤ¹ãĤ³ãĥĥãĥĪãĥ©ãĥ³ãĥī":9262,"ãģ«è¡ĮãģĭãģªãģĦãģ¨":9263,"ĠãĥĨãĤ£ãĥ¼ãĤºãĥĩãĥ¼ãĥ«":9264,"éģ©åĪĩãģª":9265,"ãĤĴèĩªåĪĨãģ§":9266,"ãģŁãģ³ãģ«":9267,"ãĥ¼ãĤ«ãĤ¹":9268,"ĠæĴĥãģ¦":9269,"ãĤıãģĽãģ¦ãģıãģłãģķãģĦ":9270,"ãģĮæ®ºãģķãĤĮãĤĭ":9271,"ãģ®ãĥĭãĥ¥ãĥ¼ãĤ¹":9272,"ãĤĴçĪĨçł´":9273,"ãģ®éŃĤ":9274,"ãģ®èĦ³":9275,"ãĤŃãĤ·ãĤ³":9276,"åį°è±¡":9277,"çĻ»éĮ²":9278,"èĪªç©º":9279,"ãĤĴåıĹãģĳåħ¥ãĤĮãĤĭ":9280,"Ġç´łæķµ":9281,"æŃ£çĽ´ãģª":9282,"Ġãģµãģĸãģĭãģ£ãģ¦ãĤĭãģ®ãģĭ":9283,"¥ĩè·¡":9284,"Į¨æĭ¶":9285,"ãĤĴåĩ¦çĲĨ":9286,"çŁ¥ãĤīãģ¬":9287,"ãĤĴçĽ®æĴĥ":9288,"ãģ§ãģ¯ãģĦãģĳãģ¾ãģĽãĤĵ":9289,"ĠãĤ¸ãĤ§ãĤ¤ãĤ½ãĥ³":9290,"ĠæĢ¥ãģĴ":9291,"Ġãĥ¡ãĥªãĥĥãĤ¯ãģķãĤĵ":9292,"ŀįè³ĩ":9293,"ãĤĴæ¬²ãģĹãģĮ":9294,"ãĤĴæ··ä¹±ãģķãģĽ":9295,"å¿ĻãģĹãģĦ":9296,"ãĤĪãģĨãģ«æĢĿãģĪãĤĭ":9297,"ĠæķĻä¼ļ":9298,"ãĥĴãĥ¥ãĥ¼ãĤ¤":9299,"æļĹéĹĩ":9300,"Ġèĭ±èªŀ":9301,"ãĤĴãĤĤãģŁãĤīãģĻ":9302,"ç³»ãĤ¢ãĥ¡ãĥªãĤ«":9303,"¥ĸçĪ¶":9304,"éĬĺ":9305,"ãĥ¼ãĥŁãĥ³ãĤ°":9306,"ãģ¯ãģĦãģıãĤīãģ§ãģĻãģĭ":9307,"ãģ®éħį":9308,"ãģ®è»įéļĬ":9309,"ĠãĥīãĤ¥ãĥ¼ãĥªãĥĪãĥ«":9310,"å·¡æŁ»":9311,"æ½Ķ":9312,"èĸ¦":9313,"īå¦¬":9314,"èªķçĶŁæĹ¥":9315,"ãĤ¤ãĥ³ãĥĩãĤ£ãĤ¢ãĥ³":9316,"ĠãĤ¢ãĥĥãĥĹãĥ«ãĤ¸ãĥ£ãĥĥãĤ¯":9317,"ãĥ¯ãĤ¤ãĥĪãĥıãĤ¦ãĤ¹":9318,"Ġç§ģãģ¯ãģĤãģªãģŁãĤĴè¨±ãģĻ":9319,"Ġéķ·ãģıãģ¯ãģĭãģĭãĤĬãģ¾ãģĽãĤĵ":9320,"Ġãģ¾ãģļç¬¬ä¸Ģãģ«":9321,"®éĿĻåī¤":9322,"çĪµ":9323,"èĨļ":9324,"ãģĵãĤĵãģ«ãģ¡ãģ¯":9325,"ãģ¾ãģ¿ãĤĮ":9326,"ãģ«ãģ¯ãģªãĤĬãģŁãģıãģªãģĦ":9327,"ãĤ«ãĥĩãĥŁãĥ¼":9328,"ãĤĴèī¯ãģı":9329,"łĤæ¼ł":9330,"Ġdunno":9331,"ĠãĥĨãĤ£ãĥ¼ãĤºãĥĩãĥ¼ãĥ«ãģķãĤĵ":9332,"AT":9333,"HO":9334,"NA":9335,"OD":9336,"SE":9337,"av":9338,"el":9339,"is":9340,"ur":9341,"£®":9342,"£åĳ³":9343,"§åĺ":9344,"§Ĳè»Ĭ":9345,"¨çī©":9346,"¨å®³":9347,"¨ãĤĬãģ«":9348,"©į":9349,"ªåĬĽ":9350,"ªäº¡":9351,"«ãģ¶":9352,"¬¢":9353,"¬¦":9354,"¬çī©":9355,"°çĿĢ":9356,"±ª":9357,"±éĢļ":9358,"²¸":9359,"²ãģ©":9360,"²åŃ¦":9361,"²å¾Ĺ":9362,"³åĦª":9363,"³¥æ£Ĵ":9364,"µæĬĹ":9365,"¸ãģ°":9366,"½ľ":9367,"½ãģı":9368,"¾®":9369,"åľŁåľ°":9370,"å¬¢":9371,"æĲ":9372,"æįķãģ¾":9373,"æıĲæ¡Ī":9374,"æŃ¦åĻ¨":9375,"æģĭäºº":9376,"æĵįä½ľ":9377,"çĩ":9378,"çı":9379,"çĺ":9380,"ç¥ĪãĤĬ":9381,"ç£¨":9382,"éĭ":9383,"Ġ0":9384,"Ġ:":9385,"Ġ=":9386,"ĠX":9387,"Ġ_":9388,"Ġãģ¯æ":9389,"ĠãģªãĤī":9390,"ĠçĶŁ":9391,"Ġè¡Ģ":9392,"Ġè¡ĮãģĭãģªãģĦ":9393,"Ġè¡Įãģĳ":9394,"Ġä¼ļç¤¾":9395,"ĠçĶº":9396,"ĠéĸĵéģķãģĦ":9397,"Ġin":9398,"Ġè¨ĢãģĦãģŁãģĦãģĵãģ¨ãģĮãģĤãĤĭ":9399,"Ġä¿¡ä»°":9400,"ģ©":9401,"ģãĥ£":9402,"ģåį°":9403,"ģãģ¡ãĤĥãģıãģ¡ãĤĥ":9404,"ĤãģĹãģĦ":9405,"Ĥå¿µ":9406,"Ĥçħ§":9407,"Ħè³":9408,"Ħèī²":9409,"ħãģĦ":9410,"ħéĥ":9411,"ĨĹè«ĩ":9412,"ĨåĢĻ":9413,"Īª":9414,"Īè¾±":9415,"Īªæµ·":9416,"īãģª":9417,"Ĭå¤ĸ":9418,"Į»":9419,"Į¿":9420,"Įĳ":9421,"ĮæĪĲ":9422,"įĽ":9423,"į²å¾Ĺ":9424,"İçĻ½":9425,"İ¨æ¸¬":9426,"ı´åĬ©":9427,"ĳç´Ħ":9428,"ĳåĬ£":9429,"ĵģ":9430,"Ķåĵ¡ä¼ļ":9431,"ĸĩ":9432,"ĸŃ":9433,"ĸç·łå½¹":9434,"Ĺ©ãģı":9435,"ĺæ³ķ":9436,"ĻĴ":9437,"ĻèĻ":9438,"ļãģķ":9439,"ľģ":9440,"ľĩ":9441,"Łĭèĳ¬":9442,"ł²":9443,"ãģĦãĤı":9444,"ãģĦãĤĮãģ°":9445,"ãģ®è¦ĭ":9446,"ãģ®ãģ¯æ":9447,"ãģ®ãģĦãģĦ":9448,"ãģ®ãĤŃ":9449,"ãģ®ãĤµ":9450,"ãģ®ãģĶ":9451,"ãģ®ãģ»":9452,"ãģ®ä¸»":9453,"ãģ®ãģ²":9454,"ãģ®çĶº":9455,"ãģ®éĢŁ":9456,"ãģ®ãĤŃãĤ¹":9457,"ãģ®ãģ¾ãģ¾":9458,"ãģ®éģĭåĳ½":9459,"ãģ®ãģµãĤĬ":9460,"ãģ®ä»£ãĤıãĤĬ":9461,"ãģ¯ãĤ¹":9462,"ãģ¯ãģĿãģĨ":9463,"ãģ¯ãĥĲ":9464,"ãģ¯ãģĵãĤĮ":9465,"ãģ¯èī¯ãģĦ":9466,"ãģ¯ãģĵãģĵãģ«":9467,"ãģ¯ãģĤãģ¾ãĤĬ":9468,"ãģ¯ãĤĤãģ£ãģ¨":9469,"ãģ¯ä¸Ģãģ¤":9470,"ãģ¯ãģ©ãĤĵãģª":9471,"ãģ¯ãģĻãģĲãģ«":9472,"ãģ¯ãģ©ãģĵãģ«ãģĦãĤĭ":9473,"ãģ¯ãģ¿ãĤĵãģª":9474,"ãģ¯ãģįãĤĮãģĦ":9475,"ãģ¯ãģĵãģĵãģ«ãģĤãĤĭ":9476,"ãģªçĶ·ãģł":9477,"ãģ«ãĥĳ":9478,"ãģ«çĽ´":9479,"ãģ«éģ©":9480,"ãģ«ä¼ĿãģĪãģ¦ãģıãĤĮ":9481,"ãģ«éĢ£çµ¡":9482,"ãģ«ä½ıãĤĵãģ§ãģĦãĤĭ":9483,"ãģ«ä¾µåħ¥":9484,"ãĤĴãģ¯":9485,"ãĤĴä½ķ":9486,"ãĤĴãģĿ":9487,"ãĤĴãģĹãģªãģĳãĤĮãģ°ãģªãĤīãģªãģĦ":9488,"ãĤĴãģ©ãģĨãĤĦãģ£ãģ¦":9489,"ãĤĴãģŁãģıãģķãĤĵ":9490,"ãĤĴãĤªãĥ³":9491,"ãĤĴè¨ĵç·´":9492,"ãĤĴè¨¼æĺİ":9493,"ãĤĴèĢĥæħ®":9494,"ãĤĴéģĶæĪĲ":9495,"ãĤĴãĤ»ãĥĥãĥĪãĤ¢ãĥĥãĥĹ":9496,"ãĤĴè¨ª":9497,"ãĤĭãģĭãĤĤãģĹãĤĮãģªãģĦ":9498,"ãĤĭå¿ħè¦ģãģĮãģĤãĤĬãģ¾ãģĻ":9499,"Ġãģ²ãģ©":9500,"ãģĹãĤī":9501,"ãģĹãĤĵãģł":9502,"ãģĹãģıãģłãģķãģĦ":9503,"ãģĹå±ĭ":9504,"ãģĭãģı":9505,"ãģĭãĤĴçŁ¥":9506,"ãģĭçŁ¥ãģ£ãģ¦ãģĦãģŁ":9507,"ãģ¨ãģ®å":9508,"ãģ¨ãģ¤":9509,"ãģ¨ãģĹãģ¦ãģĦãĤĭ":9510,"ãģ¨å¤§":9511,"ãģ¨ãģ¯ä½ķãģł":9512,"ãģ¨éĸ¢ä¿Ĥ":9513,"ãģ¨ç§ģãģ¯ãģĤãģªãģŁ":9514,"ãģ¨æĤªãģĦ":9515,"ãģ¨åŃĲä¾Ľ":9516,"ãģ¨èģŀãģĦãģ¦":9517,"ãģ¨ä»®å®ļ":9518,"ãģ¨çķ¥å¥ª":9519,"ãģĮè":9520,"ãģĮä»Ĭ":9521,"ãģĮãĥŀ":9522,"ãģĮãģ¤ãģĦãģ¦":9523,"ãģĮãģĻãģ¹ãģ¦":9524,"ãģĮãĤıãģĭãĤīãģªãģĦ":9525,"ãģĮä¸į":9526,"ãģĮãĤĪãģı":9527,"ãģĮãģĵãģĵãģ«ãģĦãĤĭ":9528,"ãģĮãģĭãĤĬ":9529,"ãģĮãĤĤãģ£ãģ¨":9530,"ãģĮãģĦãģıãģ¤ãģĭ":9531,"ãģĮéĻį":9532,"ãģĮãģ©ãģĵãģ«ãģĦãĤĭ":9533,"ãģĮè²·":9534,"ãģĮé³´":9535,"ãģ£ãģĭ":9536,"ãģłãģ¨ãģĦãģĨ":9537,"ãģłãģ¨ãģ¯":9538,"ãģłãģ¨ãģ¯æĢĿãĤıãģªãģĦ":9539,"ãĤĮãģ«":9540,"ãĤĮãĤį":9541,"ãĤĮæĽ¿":9542,"ãģ§ãģĦãģıãģ¤ãģĭ":9543,"ç§ĭ":9544,"ãģĻãģĻ":9545,"ç§ģãģ«æ":9546,"ç§ģãģ¯åĲĽ":9547,"ç§ģãģ¨ä¸Ģç·Ĵãģ«":9548,"ãĥ¼ãĤŃãĥ¼":9549,"ãģĨãģĭ":9550,"ãģĨãģ®ãģĭ":9551,"ãģĵãģĦ":9552,"ãģĵãģ®åķıé¡Į":9553,"Ġåħ¥":9554,"ĠåŃ¦":9555,"Ġå¼ķãģį":9556,"Ġå¼·":9557,"ĠåĦª":9558,"Ġå¹¸ãģĽ":9559,"ĠåĦĦ":9560,"ãĤĤãģĦãģªãģĦ":9561,"ãĤĤãģĤãĤĬãģ¾ãģĻ":9562,"ãĤĤãģĿãģĨãģłãģ£ãģŁ":9563,"ãģĤãĤĵãģª":9564,"ãģ£ãģ¦ä½ķãģł":9565,"ãģ£ãģ¦ãģ¯ãģĦãģĳãģ¾ãģĽãĤĵ":9566,"Ġç§ģãģ¨ä¸Ģç·Ĵ":9567,"Ġç§ģãģ®ä»ķäºĭ":9568,"Ġç§ģãĤĴä¿¡ãģĺãģ¦":9569,"ãĤĵãģ®å":9570,"ãĤĵãģ§ãģĻ":9571,"ãĤĵãģ§ãģ¯":9572,"ãĤĵãģ§ãģįãģŁ":9573,"ĠãĥĦ":9574,"ãģĹãģ¦ãģªãģĦãģ®":9575,"ĠãģĿãĤĬ":9576,"ĠãģĿãģ®ç":9577,"ĠãģĿãģ®éĸĵ":9578,"ãĤĬæĬ":9579,"ãģ£ãģŁãģłãģĳãģł":9580,"ãĤĪãģª":9581,"ãĤĪãĥĳãĥĳ":9582,"ãĤ¹ãĥ³":9583,"ãĤ¹ãĥł":9584,"ãĤ¹ãĥ¼ãĥĹ":9585,"ãģĵãģ¨ãģĭ":9586,"ãģĵãģ¨ãĤĴæ":9587,"ãģĵãģ¨ãģ«ãģªãĤĬãģ¾ãģĻ":9588,"ãģĵãģ¨ãĤĴç¥Ī":9589,"ãĥ¼ãĥ¡":9590,"ãĥ¼ãĥİ":9591,"ãģįãģķ":9592,"ãģįãģ¦ãģıãĤĮ":9593,"ãĥĥãĥĨãĤ£":9594,"ãĥĥãĤŃãĥ³":9595,"ãĤĴæĳ":9596,"ãĤĴæ¸Ľ":9597,"ãĤĴæĤ©":9598,"ãĤĴæĵįç¸¦":9599,"ãģĿãģ®ä»ķäºĭ":9600,"ãģĿãģ®æĻĤ":9601,"ãģĿãģ®éĥ¨åĪĨ":9602,"ãģ®åĩ¦":9603,"ãģ®åİŁ":9604,"ãģ®åŃĺåľ¨":9605,"ãģ®å»ºçī©":9606,"ãģ®å¹³åĴĮ":9607,"ãģ®å¦¹":9608,"ãģ®å¸ĮæľĽ":9609,"ãģ®åİŁåĽł":9610,"ãģ®å¢ĵ":9611,"ãģ®åĭķãģį":9612,"ĠãĤģãģ¡ãĤĥãģıãģ¡ãĤĥ":9613,"ĠãģĤãģ£":9614,"ĠãģĤãģĿãģĵ":9615,"ãģ¯å°":9616,"ãģ¯å·":9617,"ãģ¯åľ°":9618,"ãģ¯å¿ĥéħį":9619,"ãģ¯åĲĮãģĺ":9620,"ãģ¯åĲĪ":9621,"Ġå½¼ãģ¨":9622,"è¦Ĩ":9623,"ãģĹãģŁãĤĬ":9624,"ãģĹãģŁãģĭãĤĤãģĹãĤĮãģªãģĦ":9625,"ãģĹãģŁãģĵãģ¨ãģł":9626,"ãģķãĤĵãģł":9627,"ãģķãĤīãģ«":9628,"Ġæ¸":9629,"Ġæİ¢":9630,"ĠæĦŁãģĺ":9631,"Ġæ··ä¹±":9632,"Ġæ¶Īéĺ²":9633,"Ġæ³¨æĦı":9634,"ĠæĦļãģĭãģª":9635,"Ġæ´Ĺ":9636,"ĠæĿ±":9637,"ãĤ¯ãĥ¼ãĥ«":9638,"ãĤ¯ãĤµ":9639,"ãĤ¯ãĥĢ":9640,"ãĤ¯ãĥ©ãĤ¤":9641,"ãĤ¯ãĥ¬ãĤ¤":9642,"ãĤ¯ãĥŃãĥ³":9643,"ãĤ¯ãĥ«ãĥ¼":9644,"ãĤ¯ãĥĭãĥĥãĤ¯":9645,"ãĤ¯ãĥ«ãĥ¼ãĤ¬ãĥ¼":9646,"ãģĳãģ¦":9647,"ãĤĴåĻ":9648,"ãĤĴåīį":9649,"ãĤĴåĪĨ":9650,"ãĤĴåĹħ":9651,"ãĤĴå½ĵ":9652,"ãĤĴåĪĳåĭĻæīĢ":9653,"ãĤĴå§Ķ":9654,"ãĤĴåĨĴ":9655,"ãĤ¤ãĥģ":9656,"ãĤ¤ãĤ¹ãĥĪ":9657,"ãĤ¤ãĥİ":9658,"ãĤ¤ãĥ¼ãĥĸãĥ«":9659,"ãĤıãģĦãģĦ":9660,"ãģĪãģŁãģ®":9661,"äººãĤĴ":9662,"äººãģ§ãģĻãģĭ":9663,"äººç¨®":9664,"ãĥĪãĥŁãĥ¼":9665,"ãĥĪãĥªãĥ³ãĤ°":9666,"Ġç§ģãģ¯ä¸Ģ":9667,"Ġç§ģãģ¯ãģĻãģ¹ãģ¦":9668,"Ġç§ģãģ¯ãģĿãģĵ":9669,"Ġç§ģãģ¯ãĥīãĤ¢":9670,"Ġç§ģãģ¯æľ¬å½ĵ":9671,"Ġç§ģãģ¯è¡ĮãģıãĤı":9672,"Ġç§ģãģ¯æ°Ĺãģ«ãģĹãģªãģĦ":9673,"Ġç§ģãģ¯è¡ĮãģĭãģªãģĳãĤĮãģ°ãģªãĤīãģªãģĦ":9674,"Ġç§ģãģ¯ãģ©ãģĵãģ§ãģĻãģĭ":9675,"ãģ¡ãĤĵ":9676,"ãģ¡ãĤīãģĭ":9677,"ãģĻãĤĭãģĵãģ¨ãģĮãģ§ãģįãģŁ":9678,"ãĥ«ãĥĲ":9679,"ãĥ«ãĥĦ":9680,"ãģ¤ãģ¶":9681,"ãģĤãģªãģŁãĤĤ":9682,"ãģĤãģªãģŁãĤĴæĦĽ":9683,"ãģĤãģªãģŁãģ®å®¶":9684,"ãģĤãģªãģŁãģ®äººçĶŁ":9685,"ãĥªãĤ¸":9686,"ãĥªãĥĥãĥĪ":9687,"ãĥªãĤµ":9688,"ãĥªãĤ·ãĥ£":9689,"ãĥªãĤ³ãĥ³":9690,"ãĥªãĥķãĥĪ":9691,"ãĥªãĥ©ãĥĥãĤ¯ãĤ¹":9692,"ãĥªãĥĹãĥªãĥ¼":9693,"ĠãģĿãĤĮãģ¯ä½ķ":9694,"ĠãģĿãĤĮãģ¯ãģĦãģ¤ãĤĤ":9695,"ĠãģĿãĤĮãģłãģĳãģ§ãģĻ":9696,"ĠãģĤãģªãģŁèĩªèº«":9697,"ĠãģĤãģªãģŁãģ®å¨ĺ":9698,"ĠãģĤãģªãģŁãģ¯å¤§ä¸Īå¤«":9699,"ĠãģĤãģªãģŁãģ«ä¼ļãģĦãģŁãģĦ":9700,"ãĤģãģ£ãģŁ":9701,"ãĤģãĤĪ":9702,"ãģ«å°":9703,"ãģ«å·":9704,"ãģ«å¿ĥéħį":9705,"ãģ«å¼ķãģį":9706,"ãģ«å¹¸ãģĽ":9707,"ãģ«åĥįãģĦãģ¦":9708,"ãģ«å½¹":9709,"ãģ«åĽº":9710,"ãģ«å½±éŁ¿":9711,"ãģ«åľ°çįĦ":9712,"èª²":9713,"ãĥ©ãĤ¸":9714,"ãģ©ãģį":9715,"Ġãģĵãģ®åŃĲ":9716,"Ġãģĵãģ®ä»ķäºĭ":9717,"Ġãģĵãģ£ãģ¡":9718,"Ġãģĵãģ®ç¨®":9719,"åĪ°çĿĢ":9720,"ãģ®æĿ":9721,"ãģ®æĪ¦äºī":9722,"ãģ®æŃĮ":9723,"ãģ®æĤ£èĢħ":9724,"ãģ®æĦŁæĥħ":9725,"å½¼ãģĭãĤī":9726,"å½¼ãģ¯å½¼":9727,"ãģĺãģŁ":9728,"ãģ®ãģĭãĤĤ":9729,"ãģ®ãģĭåĪĨãģĭãĤīãģªãģĦ":9730,"ãģ®ãģĭãĤĤãģĹãĤĮãģªãģĦ":9731,"ãģĭãĤīç§ģ":9732,"ãģĭãĤīä½ķãģĭ":9733,"æĢĿãģ£ãģŁ":9734,"çŁ¥ãĤĭå¿ħè¦ģãģĮãģĤãĤĭ":9735,"çŁ¥ãģ£ãģ¦ãģĬãģı":9736,"è¦ĭéĢĥ":9737,"ãģ¯æĤªãģĦ":9738,"ãģ¯æ®ºäºº":9739,"è¡ĮãģįãģŁãģĦ":9740,"è¡Įæĸ¹ä¸įæĺİ":9741,"ãĤ£ãĥ³":9742,"ãģĿãĤĮèĩª":9743,"ãģĿãĤĮãĤĴè¦ĭãģŁ":9744,"ãģĦãģĦãģª":9745,"ãģĦãģĦåŃĲ":9746,"ãĥīãĥ¼ãĥĹ":9747,"ãĥīãĥ¬ãĥĥ":9748,"å¤ļåĪĨ":9749,"å¤ªéĻ½":9750,"ĠçĭĤ":9751,"Ġç¨®":9752,"Ġç½ª":9753,"Ġçªĵ":9754,"ĠçĲĨè«ĸ":9755,"Ġç¶ºéºĹ":9756,"ĠçĨ±ãģĦ":9757,"Ġä½ķãĤĴçŁ¥ãģ£ãģ¦ãĤĭ":9758,"Ġä½ķãĤĴãģĹãģŁ":9759,"Ġä½ķäººãģł":9760,"Ġä½ķãģ¨è¨Ģãģ£ãģ¦":9761,"Ġä½ķæŃ³ãģªãģ®":9762,"ãĤĦãĤĮ":9763,"ä¸ĢèĪ¬":9764,"ãĤįãģĹãģı":9765,"ãģ«æĪĳãĢħ":9766,"ãģ«æķ°":9767,"ãģ«æºĢè¶³":9768,"ãģ«æİĥéĻ¤":9769,"ãģĦãģŁãģĮ":9770,"ãģĦãģŁãģ®ãģĭ":9771,"ãģ¨æĢĿãģ£ãģ¦ãĤĭãģ®ãģŃ":9772,"ä¿³åĦª":9773,"ãģĬãģĭãģĹ":9774,"ãģĬãģĭãģĹãģĦ":9775,"ãģĬè¨±ãģĹ":9776,"ãģĬä¸ĸè¾ŀ":9777,"ĠãģĿãģĨãģĭãĤĤãģĹãĤĮãģªãģĦ":9778,"ãģĦãģ¦ãģĦ":9779,"ãģĦãģ¦ãģªãģĦ":9780,"ãģĦãģ¦ãģĦãģ¾ãģĻ":9781,"ãĤ·ãĥĥãĤ¯":9782,"ãĤ·ãĥĬ":9783,"ãĥ¬ãĥŀ":9784,"ãĥ¬ãĤ¨":9785,"ãĥ¬ãĥ¼ãĤ¿ãĥ¼":9786,"ãĥĥãĤ¯ãĥªãĥ³":9787,"ãĥŃãĤ°":9788,"ãĥŃãĤ³":9789,"ãĥŃãĥĥãĥĹ":9790,"ãĥŃãĥ³ãĤ°":9791,"ãĥŃãĥĭãĥ¼":9792,"ãĥŃãĥŀãĥ³":9793,"ãĥŃãĥĥãĤ³":9794,"äºĭãĤĴãģĻãĤĭ":9795,"äºĭæ¥Ń":9796,"ãĤ¸ãĥŁãĥ¼":9797,"è©±ãģĹãģŁ":9798,"ãģ«ãģ¯ãģª":9799,"ãģ«ãģ¯ãģ©ãĤĵãģª":9800,"ãģ«ãģ¯ãģĦãĤīãĤĮãģªãģĦ":9801,"å®ĮçĴ§":9802,"ãģĤãĤĬãģ¾ãģĹãģŁ":9803,"ãĤ¿ãĥł":9804,"ãĤ¿ãĤ¤ãĥĹ":9805,"èª°ãģ¨ãĤĤ":9806,"ãģ®çĹ":9807,"ãģ®ç¥ŀ":9808,"ãģ®çĻº":9809,"ãģ®çĬ¯ç½ª":9810,"ãģ®ç³ŀ":9811,"ãģ®ç©´":9812,"ãģ®ç¤¾ä¼ļ":9813,"åĪĨãģĭãĤīãģªãģĭãģ£ãģŁ":9814,"ãģĮæİ¢":9815,"ãģĮæģĭ":9816,"ãĤĵãģłãģĮ":9817,"Įģãģ£ãģ¦ãĤĭ":9818,"Ġè¬":9819,"Ġè£ı":9820,"ĠèĪĮ":9821,"ãģ®ãĥ¦":9822,"ãģ®ãĥĴ":9823,"ä»Ĭãģ¯æ":9824,"ãĤĴç¶ļ":9825,"ãĤĴç¿Ĵ":9826,"ãĤĴçīĩ":9827,"ãĤĴçĬłçī²":9828,"ãĤĴçį²å¾Ĺ":9829,"ãģĹãģ¦ãĤĭãģĭ":9830,"ãĤ«ãĥ³":9831,"ãĤ«ãĤ¦ãĥ³":9832,"ãĤĴè¦ĭãģ¾ãģĹãģŁ":9833,"ãĤĴè¦ĭéĢĥ":9834,"ãĤĴè¦ĭãģĽãĤĭ":9835,"ãģ«ãģªãģ£ãģ¦ãģĦãģªãģĦ":9836,"ãĤ°ãĥ©ãĥ³ãĥĪ":9837,"æľ¨":9838,"ãģŃãģĺ":9839,"ãģ£ãģ¦ãģĦãĤĭãģĭ":9840,"ãģĮåħ":9841,"ãģĮå¾ħ":9842,"ãģĮåĩºæĿ¥":9843,"ãģĮåİŁåĽł":9844,"ãĥŀãĥĪ":9845,"ãĥŀãĥ«":9846,"ãĥŀãĤ¤ãĤ¯":9847,"ãĥŀãĥīãĥ¢ãĤ¢ãĤ¼ãĥ«":9848,"ãĥĹãĥ«":9849,"ãĥĹãĥ¬ãĤ¤":9850,"ãĥĩãĥĥãĥī":9851,"ãĥĩãĤ¿ãĥ©ãĥ¡":9852,"ãģ¯ç¥ŀ":9853,"ãģ¯çĹħæ°Ĺ":9854,"ãģ¯çī©":9855,"ĠãģĬãģĬ":9856,"ĠãģĵãĤĮãģĮæ":9857,"ĠãģĵãĤĮãģĮå":9858,"ĠãģĵãĤĮãģ¾ãģ§":9859,"ãģłãģĳãģłãģ£ãģŁ":9860,"ãģłãģĳãģ§ãģ¯ãģĤãĤĬãģ¾ãģĽãĤĵ":9861,"ĠåĲĽãģĮå":9862,"ĠåĲĽãģ¯ä½ķ":9863,"ĠåĲĽãģ®ä»ķäºĭ":9864,"ãĤĤãģ®ãģ§ãģĹãģŁ":9865,"ãĤĤãģ®ãģ§ãģ¯ãģĤãĤĬãģ¾ãģĽãĤĵ":9866,"Ġé©ļ":9867,"Ġé¢¨":9868,"ĠéīĦéģĵ":9869,"ãĤ¦ãĥ«":9870,"ãĤ¦ãĥŀ":9871,"ãĤ¦ãĤ¬ãĥ«":9872,"ãģĪãģ¦ãģĹãģ¾ãģ£ãģŁ":9873,"ãĤĴè£":9874,"ãĤĴèĤ²":9875,"ãĤĴè¾ŀ":9876,"ä¸Ńãģłãģ£ãģŁ":9877,"ãģĹãģ¦ãģĦãĤĭãģ®ãģ§":9878,"ãģ©ãģĨãģĹãģŁ":9879,"ãģ©ãģĨãģªãĤĭ":9880,"ãģ®éĤª":9881,"ãģ®éįµ":9882,"ãĥ¼ãĥ«å¤«äºº":9883,"ãģ®ãģŁãĤģãģ®ãĤĤãģ®":9884,"ãģ®èĸ¬":9885,"ãģ®èĪĮ":9886,"ãģ®è·Ŀ":9887,"ãģĿãģĨãģ§ãģªãģĦ":9888,"ãģĿãģĨãģ«ãģªãģĦ":9889,"Ġå½¼å¥³ãģ®":9890,"Ġå½¼å¥³ãģ«ãģ¯":9891,"Ġå½¼å¥³ãģ®åĲįåīįãģ¯":9892,"Ġå½¼å¥³ãģĮæĪ»ãģ£ãģ¦":9893,"Ġå½¼ãģ¯ä»Ĭ":9894,"Ġå½¼ãģ¯ãģĤãģªãģŁãģĮ":9895,"Ġå½¼ãģ¯ä½ķãĤĴ":9896,"Ġå½¼ãģ¯ãģĿãĤĮãĤĴ":9897,"ãĤ³ãĥĸ":9898,"ãĤ³ãĥł":9899,"ç§ģãģ¯ä»Ĭ":9900,"ç§ģãģ¯ãģ¨ãģ¦ãĤĤ":9901,"ç§ģãģ¯ãģ¡ãĤĩãģĨãģ©":9902,"ãĥĸãĥĥãĤ¯":9903,"ãĥĸãĥ¼ãĥĦ":9904,"ãģ¿åĩºãģĻ":9905,"åıĹ":9906,"çŁ¥ãģ£ãģ¦ãĤĭãĤı":9907,"çŁ¥ãģ£ãģ¦ãĤĭãģ®ãģĭ":9908,"çŁ¥ãģ£ãģ¦ãĤĭãģłãĤį":9909,"ãĥĲãĤ¤ãĥ«":9910,"ãĥĲãĥ¼ãĥĬ":9911,"ãĥĲãĤ¸ãĥ«":9912,"ä¼ļãģĪãĤĭ":9913,"ãĤĤãģĹãģªãģĭãģ£ãģŁ":9914,"ĠãģĿãģĨãģłãģ¨æĢĿãģĨ":9915,"ãĤŃãĤ¢":9916,"ãĤŃãĥĥãĥĳãĥ¼":9917,"ãĤĮãģŁãģĦ":9918,"ãĥģãĥ¼ãĤº":9919,"ãĥģãĥ¥ãĥ¼":9920,"Ġãģ§ãģŁãĤīãĤģ":9921,"ãģłãģ£ãģŁãģ«éģķãģĦãģªãģĦ":9922,"ãģ¯ä½ķæĻĤ":9923,"ãĥłãģ¯":9924,"ĠãģªãĤĵãģ§":9925,"ãĤĭãģ®ãĤĴ":9926,"ãĥĵãĤ¢":9927,"ãĤµãĤ¤ãĥī":9928,"ãĤµãĥªãĤ¨ãĥª":9929,"ĠãģĿãĤĮãģ¯ãģŁãģłãģ®":9930,"ãĤĪãģĨãģ«ãģĹãģ¾ãģĻ":9931,"ãĥĭãĥ¥ãĥ¼":9932,"ãĥĭãĥ¥ãĥ¼ãĥĪ":9933,"ãģĵãģ¨ãĤĴçŁ¥ãģ£ãģ¦ãģĦãģ¾ãģĻ":9934,"ãģĵãģ¨ãĤĴçŁ¥ãģ£ãģ¦ãģĦãģŁ":9935,"Ġä»Ĭãģ®":9936,"Ġå½¼ãĤīãģĮå":9937,"Ġå½¼ãĤīãģ¯å½¼":9938,"Ġå½¼ãĤīãģ¯ç§ģãģŁãģ¡":9939,"Ġå½¼ãĤīãģ¯æĪĳãĢħ":9940,"Ġå½¼ãĤīãģ¯å½¼ãĤĴ":9941,"ãģĵãģ¨ãģĮãģ§ãģįãĤĭãģ¨":9942,"ãģĦãģªãģĦãģ¨":9943,"°ĳå¹´":9944,"Ġæľ¨":9945,"èĩªå·±":9946,"ãģĹãģ¾ãģĻãĤĪ":9947,"ł´æīĢ":9948,"ãĤĤãģĨäºĮåº¦ãģ¨":9949,"ĠãģĤãģªãģŁãģ¯ä»ķäºĭ":9950,"ĠãģĤãģªãģŁãģ¯ãģ¾ãģł":9951,"ĠãģĤãģªãģŁãģ¯èī¯ãģĦ":9952,"ãĤªãĥ¼ãĥĹãĥ³":9953,"Ġãģ§ãĤĤä»Ĭ":9954,"Ġãģ§ãĤĤãģĤãģªãģŁãģĮ":9955,"Ġãģ§ãĤĤå½¼ãĤīãģ¯":9956,"Ġãģ§ãĤĤãģ©ãģĨãĤĦãģ£ãģ¦":9957,"Ġãģ©ãģĨãģĻãĤĭãģ®":9958,"ãģ¨è¨Ģãģ£ãģ¦ãĤĭãģ®ãģĭ":9959,"ãģ¨è¨ĢãĤıãģªãģĳãĤĮãģ°ãģªãĤīãģªãģĦ":9960,"ãĥªãĥ¼ãĤ¹":9961,"æ°ĹãģĮãģĻãĤĭ":9962,"è¡Įãģıãģĭ":9963,"ãĥ¡ãĥ¢":9964,"ãĥ¡ãĥ³ãĤ¹":9965,"ãĥ¡ãĤ¤ãĥī":9966,"ãĥ¡ãĤŃãĤ·ãĤ³":9967,"ĠãģĤãģĤãģıãģĿ":9968,"ãĤĵãģ§ãģªãģĦ":9969,"ãģĹãģªãģĦãĤı":9970,"é£¼":9971,"åĩºãģĹãģ¾ãģĻ":9972,"éĩĳãĤĴå¼ķ":9973,"ĠãģªãģľãģĿãĤĵãģª":9974,"Ġãģªãģľç§ģãģ«":9975,"çļĦãģ§":9976,"ĠãģĦãģ¤ãģĭ":9977,"ãĤ¨ãĥ³":9978,"ãĤ¨ãĥĥãĥĪ":9979,"ãģ«ãģªãĤĭãģ¹ãģį":9980,"ãģ«ãģªãĤĭãģ¾ãģ§":9981,"ãģ®ãģŁãĤģãģ«ãģĵãģĵãģ«ãģĦãĤĭ":9982,"ä»ķäºĭãģĮãģĤãĤĭ":9983,"ä»ķäºĭãĤĴãģĹãģ¦ãĤĭ":9984,"ç·ĬæĢ¥":9985,"ç·Ĭå¼µ":9986,"ãĥĬãĥĢ":9987,"ä¿¡èĢħ":9988,"ķıæĦŁ":9989,"çĽ£çĿ£":9990,"æĢ§æĦĽ":9991,"æĢ§æł¼":9992,"çī©åľĴ":9993,"ãĥŁãĥĭ":9994,"ãĥŁãĥ«ãĤ¯":9995,"ãĥŁãĥłãĤº":9996,"ãģ«åħ¥ãĤĮãĤĭ":9997,"ĠãĤ¸ãĥ«":9998,"éģķåıį":9999,"ãĥ©ãĥ³ãĥĩãĤ£":10000,"æĸ¹ãģ§ãģĻ":10001,"ãģĵãĤĮãģ¯ç§ģ":10002,"ãģĵãĤĮãģ¾ãģ§":10003,"Ġäººãģ®çĶ·":10004,"å¼±":10005,"ãĥĢãĥ³ãĤ¹":10006,"ç§ģãģŁãģ¡ãģ«":10007,"ç§ģãģŁãģ¡ãģĮå":10008,"ç§ģãģŁãģ¡ãģ¯å½¼":10009,"åį±":10010,"åį¿":10011,"æīĢæľī":10012,"ãĢįãĢĤ":10013,"Ī¶è¦ª":10014,"ãĥĨãĤ£ãĥ«":10015,"ãģĪãĤĭãģ¨":10016,"èµ¤":10017,"èµ¤ãģĦ":10018,"ãģ®ä¸Ńãģł":10019,"ãģ®ä¸Ńãģ§æ":10020,"çĲĨåŃ¦":10021,"çĲĨè«ĸ":10022,"çĲĨçļĦãģ«":10023,"Ġç§ģãģĮä½ķ":10024,"æĺĵ":10025,"æĺ¨æĻ©":10026,"ãĤ±ãĤ¤ãĥªãĥ¼":10027,"ãĤ±ãĤ¹ãĥ©ãĥ¼":10028,"åĲĽãģ«è©±":10029,"å¤§ä½Ĳ":10030,"ãĤ¬ãĥį":10031,"ãĤ¬ãĥ«ãĥī":10032,"ãĤ¬ãĥĨãĤ£ãĥĸ":10033,"ãĤ»ãĥ©ãĥ¼":10034,"ãĤ»ãĤ¯ãĤ·ãĥ§ãĥ³":10035,"ãĥĩãĤ£ãĥİ":10036,"ãĥĩãĤ£ãĤ¯ãĤ½ãĥ³":10037,"ãĥĩãĤ£ãĥ¼ãĥ©ãĥ¼":10038,"Ġä¿ºãģ®":10039,"Ġä¿ºãģ¯æ":10040,"éłħ":10041,"ĠãģĤãģªãģŁãģĮç§ģãģ«":10042,"ĠãģĤãģªãģŁãģĮãģĿãģĨè¨ĢãģĨ":10043,"ãģ§ãģ¯ãģªãģĦãģ¨":10044,"ãĤĴãģĻãĤĭãģ®ãģ¯":10045,"ãĤĴãģĻãĤĭãģĵãģ¨ãģĮãģ§ãģįãģ¾ãģĻ":10046,"ä¸ĭãģķãģĦ":10047,"ä¸ĭå®¤":10048,"ãģ«è»Ĭ":10049,"ãģ«è¶³":10050,"ãģ®äººãģŁãģ¡":10051,"å£ģ":10052,"ĠãĥŀãĤ¤ãĥ³":10053,"ĠãĤ¢ãĥ©":10054,"ĠãĤ¢ãĥī":10055,"ä»ĸãģ«ä½ķ":10056,"ãģĴãģªãģĦ":10057,"ãĥĻãĤ¢":10058,"Ġç§ģãģ¯åħ¨ãģ¦":10059,"ãĥľãĥĥãĥĪ":10060,"ãĥľãĥ¼ãĤ¤":10061,"ãĥľãĤ¿ãĥ³":10062,"ãĥľãĤ¹ãĥĪãĥ³":10063,"ãģªãģ®ãģŃ":10064,"å½¼ãĤīãģĮä½ķãĤĴ":10065,"ãĥıãĥ³ãĤ¯":10066,"ãĥıãĥ¼ãĥīãĤ³ãĤ¢":10067,"Ġãģĵãģĵãģ«æĿ¥ãģ¦":10068,"Ġãģĵãģĵãģ«å±ħ":10069,"éĥ¨éĸĢ":10070,"æŃ´åı²":10071,"ãģļãĤī":10072,"å¿ħè¦ģãģĮãģĤãģ£ãģŁ":10073,"è»½":10074,"ĠãģĿãĤĮãģ§ä½ķ":10075,"ãģĻãģ¹ãģ¦ãģ§ãģĻ":10076,"ãģĻãģ¹ãģ¦ãģ®æ¨©åĪ©":10077,"ãģ«çŃĶ":10078,"ãģ«ç©º":10079,"ãģ«çŃĶãģĪ":10080,"ãģ«ç¹ĭãģĮ":10081,"¬²æľĽ":10082,"ä½ľå®¶":10083,"ãĥįãĤº":10084,"ãĥįãĥ¼ãĤ¸ãĥ£ãĥ¼":10085,"®¶æĹı":10086,"ĠãģĦãĤĦå½¼ãģ¯":10087,"æĿ¥ãģªãģķãģĦ":10088,"ãĥ¯ãĥ¼ãĥł":10089,"ãĥ¯ãĤ·ãĥ³ãĥĪãĥ³":10090,"ãĥ´ãĤ©":10091,"ãģ¹ãģįãĤĪ":10092,"ãģ¹ãģįãģĺãĤĥãģªãģĦ":10093,"ãģ®ãĤĪãģĨãģ«èģŀãģĵãģĪãĤĭ":10094,"éħ¸":10095,"è¨ĢãģĨãģĵãģ¨":10096,"è¨ĢãģĨãģ¨ãģĬãĤĬ":10097,"èģŀãģĭãģªãģĦ":10098,"èģŀãģĦãģ¦ãģĦãĤĭ":10099,"ãĥ¼ãĤ¯ãĤ¹":10100,"Ġç§ģãģ¯ãģĤãģªãģŁãĤĴåĬ©ãģĳ":10101,"éļĶ":10102,"éĢļéģİ":10103,"å±ķ":10104,"ãĥ¢ãĤ°ãĥ©":10105,"ãĥ¢ãĥĩãĥ«":10106,"ãģĤãģ£ãģŁãģ®":10107,"è¦ļãģĪ":10108,"ĠãĥīãĤ¯ãĤ¿ãĥ¼":10109,"Ġå¤ªéĻ½":10110,"æīĭç´Ļ":10111,"æĦıèŃĺ":10112,"ĠãĥķãĤ©":10113,"ĠãĤĤãģĨä¸Ģäºº":10114,"ĠãĤĤãģĨè¡ĮãģĭãģªãģĦãģ¨":10115,"ãģ§ãģįãģªãģĦãģ®":10116,"ãģ§ãģįãģªãģĦãĤı":10117,"ãĤĴæ®ºãģĹãģ¦ãģªãģĦ":10118,"å¤«äººãģ¯":10119,"Ġå½¼ãĤīãģ¯ãģĤãģªãģŁãĤĴ":10120,"ĠãĤ¹ãĥ©":10121,"ĠãĤ¹ãĥĶ":10122,"ĠãĤ¹ãĥ¯":10123,"ĠãĤ¹ãĤ¦ãĤ§":10124,"ãĥİãĥŁ":10125,"ãģ§ãģįãĤĭãĤĪãģĨãģ«":10126,"ãģªãģıãģª":10127,"ãģ«è¡Įãģĳ":10128,"ãģ«è¡ĮãģįãģªãģķãģĦ":10129,"ãĥĿãĤ¸":10130,"ãĥĿãĥ¼ãĥĪ":10131,"ãĥĿãĤ±ãĥĥãĥĪ":10132,"ãĥĿãĥ¼ãĤ¶ãĥ¼":10133,"ä½¿ãģ£ãģŁ":10134,"ä½¿åĳ½":10135,"ĠãĤ¯ãĥŃ":10136,"éĿ©":10137,"ä¹ħ":10138,"å¹´ãĤĤãģ®éĸĵ":10139,"ãģ¨ãģ¯éĸ¢ä¿Ĥ":10140,"ãĥĽãĥ¼":10141,"ãĥĽãĥ¡":10142,"ãĥĽãĥ¼ãĥ³":10143,"ãĥĽãĥ¼ãĤ¯":10144,"ãĥĽãĥ¼ãĥ«ãĥī":10145,"ãģ«ãĤĤãģ£ãģ¨":10146,"ä¸įæŃ£":10147,"ä¸įå®ī":10148,"ãģ®åı¯æĦĽãģĦ":10149,"ãĤĴè¦ĭãģ¤ãģĳãģ¾ãģĹãģŁ":10150,"ãĤĴè¦ĭãģ¤ãģĳãĤīãĤĮãģªãģĭãģ£ãģŁ":10151,"å¾ħãģ¦":10152,"ãģ¯ãģªãģĦãģ®ãģĭ":10153,"ä½ĵãģ¯":10154,"ä½ĵãģĮ":10155,"åĭķä½ľ":10156,"èĥ¸":10157,"Ġãĥıãĥ¼ãĥĩãĤ£":10158,"ĠãĥıãĥªãĤ±ãĥ¼ãĥ³":10159,"ãģ«ä¼ļãģĬãģĨ":10160,"ç§ģãģĮãģĤãģªãģŁ":10161,"ç§ģãģĮå½¼":10162,"Ġä¸Ģéĥ¨":10163,"åĲĪè¡Ĩ":10164,"ãĤ·ãĥ¼ãĤº":10165,"ĦŁéĬĺ":10166,"ãģ«ãģ¯åħ¥":10167,"ãģ«ãģ¯åįģåĪĨ":10168,"ãģ®ä»ķäºĭãģł":10169,"ĠãĤĦãģ£ãģŁãģ®ãģĭ":10170,"ãĥķãĤ£ãĥ¼ãĥ«ãĥī":10171,"ãĥķãĤ£ãĥ«ãĥł":10172,"ãģ¨è¨Ģãģ£ãģŁãĤı":10173,"ãģ¨è¨Ģãģ£ãģŁãĤıãģŃ":10174,"Ń£çĽ´":10175,"ãģĦãģ¾ãģĽãĤĵãģĭ":10176,"ĠãĥĢãĥ¼ãĥªãĥ³":10177,"èĢĥãģĪãĤį":10178,"æľĢæĤª":10179,"æľĢåĸĦ":10180,"ĠãģĦãģĦãģĪãģ§ãĤĤ":10181,"ĠãĤªãĤ¦":10182,"éĽ»è©±ãĤĴ":10183,"éĽ»è©±ãģĹãģ¦":10184,"¯įè¦ª":10185,"ãĤ¶ãĤ¤ãĥ³":10186,"ãĥĥãĤ¯ãĤ¹ãĥŁãĤ¹":10187,"å®¶ãģł":10188,"ãĤ·ãĥ¥ãĤ¿":10189,"è²»":10190,"Ġå¹´ãģ«":10191,"ãģ®æľ¬å½ĵ":10192,"ĠãĥŃãĥĬãĥ«ãĥī":10193,"åĤ¾åĲĳ":10194,"ãģĻãĤĭãģ®ãģ¯æ":10195,"ãĥªãĤ¢ãĥ«":10196,"¾ĮãĤį":10197,"ãĥ³ãĤ¹ãĥŃãĥ¼":10198,"èĥ½åĬĽ":10199,"Ġãĥªãĥ³":10200,"ĠãĥªãĤµ":10201,"ĠãĥªãĥĥãĤŃãĥ¼":10202,"ĠãĤ¤ãĤ«":10203,"ĠãĤ¤ãĥ³ãĥĩãĤ£":10204,"ĠãĤ¤ãĥ³ãĤ¿":10205,"ĠãĤ¤ãĥ©ãĤ¯":10206,"ãĤīãĤĮãģªãģĦãģ®ãģĭ":10207,"åĪĩãĤĮ":10208,"ãģĮç¥ŀ":10209,"ãģĮçľŁ":10210,"ãģĮçĭĤãģ£ãģŁ":10211,"ĠãģĿãģĹãģ¦ç§ģ":10212,"ãģŁãģ®ãģ¯åĲĽ":10213,"ãģłãģ¨ãģĹãģŁãĤī":10214,"çŁ¥ãĤīãģªãģĦãģĮ":10215,"çŁ¥ãĤīãģªãģĦãĤı":10216,"ãĥģãĥ£ãĥ¼":10217,"ãĥģãĥ£ãĥĥãĥĪ":10218,"ãĥģãĥ£ãĥ¼ãĥªãĥ¼":10219,"åĮħ":10220,"åĮĹ":10221,"ãģ®ä¸Ģäººãģł":10222,"èº«ãģ§ãģĻ":10223,"Ġå½¼ãģ¯åį":10224,"ĠæĺİãĤīãģĭãģ«":10225,"ãģ®è©±ãĤĴèģŀãģĦãģŁ":10226,"è¦ļãģĪãģ¦ãģĦãģªãģĦ":10227,"ãĥ¼ãĤ¸ãĥ§":10228,"ĠãĥĪãĥ¬":10229,"ĠãĥĪãĥŁãĥ¼":10230,"ĠãĥĪãĥªãĥĥãĥĹ":10231,"ĠãĥĪãĥ«ãĤ³":10232,"èĢĥãģĪãģ¦ãĤĭ":10233,"èĢĥãģĪãģ¦ãģĦãģ¾ãģĻ":10234,"èĢĥãģĪãģ¦ãĤĭãģ®":10235,"ãģĮãģĦãģĦãģ®ãģĭ":10236,"Ġåı¤ãģĦ":10237,"ĠæľĢæĤª":10238,"ãģ®ä¸Ĭåı¸":10239,"ãģ®æĸ°":10240,"æĻĤéĸĵãģĮãģĤãĤĭ":10241,"æĻĤéĸĵãĤĴãģıãĤĮ":10242,"ãģĿãĤĵãģªãģĵãģ¨ãģ¯":10243,"å°Ĭæķ¬":10244,"ãĤīãģĽãģ¦":10245,"ãĤīãģĽãģªãģĦ":10246,"ãĤīãģĽãģ¦ãģıãĤĮ":10247,"éĢĥèµ°":10248,"ãĤĴãģĹãģ¦ãģŁ":10249,"ãĤĴãģĹãģ¦ãģĦãģ¾ãģĹãģŁ":10250,"ãĤĬãģŁãģĦãģ®":10251,"ĠãĤ³ãĥ³":10252,"ãģ«æĪ»ãĤĮ":10253,"æĦĽãģĹãģ¦ãĤĭ":10254,"ãģ§æĴĥ":10255,"ãģ§æįķãģ¾":10256,"Ġå®īåħ¨":10257,"Ġå®ĹæķĻ":10258,"ãĤĪãģıãĤĦãģ£ãģŁ":10259,"ĠãģĿãĤĮãģĮä½ķãģĭ":10260,"ãĤ·ãĥ£ãĥĥãĥĪ":10261,"ãĤ·ãĥ£ãĥ¼ãĥĹ":10262,"ãĤ·ãĥ£ãĥ³ãĤ¯ãĤ¹":10263,"ãģĮå¿ħè¦ģãģªãĤĵãģł":10264,"Ħıè¦ĭ":10265,"ĠãĤ·ãĥ¼":10266,"ãĤĪãģĨãģ¨ãģĹãģŁ":10267,"ãĤ¸ãĥ§ãĥ¼":10268,"ãĤ¸ãĥ§ãĥ¼ãĤ¯":10269,"ãĤĴè¦ĭãģ¦ãģįãģŁ":10270,"ãĤ¤ãĥ«ãĤº":10271,"ãĤ¤ãĥ«ãĥ©ãĥ³ãĥī":10272,"ãģĮæľĽ":10273,"çĻºä½ľ":10274,"ãģ¨ãģĵãĤįãģł":10275,"ãĤ²ãĤ¤":10276,"ãĥ¼ãĥĹãĥ«":10277,"ä½ķãĤĤçŁ¥ãĤĬãģ¾ãģĽãĤĵ":10278,"ãģ¯åĲĽãģ«":10279,"äºĮéĩį":10280,"ĠãĤµãĥ³ãĥĩãĤ£":10281,"ĠãĤµãĥ³ãĥĹãĤ½ãĥ³":10282,"ĠèĩªçĻ½":10283,"ç§ģãģ«çŁ¥ãĤīãģĽ":10284,"ãģĵãģĵãģ«ãģĦãģ¦":10285,"ĠãĤ«ãĥĥãĥĪ":10286,"ĠãĤ«ãĥ¡ãĥ©":10287,"ãģ®ä¸Ńãģ§æľĢãĤĤ":10288,"ãĤĴä½ľãĤįãģĨãģ¨":10289,"ĠçµĮ":10290,"ĠçµĤãĤı":10291,"éĢģãĤĬ":10292,"Ġèª°ãģĭãģĮç§ģ":10293,"éĥĬå¤ĸ":10294,"æĸ¹æ³ķãģĮãģĤãĤĭ":10295,"ãĤĬãģ¾ãģĽãĤĵãģĭ":10296,"ãģ«åĩºãģĭãģĳ":10297,"ĭĤãģ£ãģ¦ãģĦãĤĭ":10298,"ãĤĴèªĵ":10299,"ãĤĴèªĺ":10300,"ãĤĴèªĩãĤĬãģ«":10301,"ãĥ¤ãģ¯":10302,"ãĤģãĤĭãģĵãģ¨":10303,"ĠãĤ¸ãĤ§ãĥ¼ãĥłãĤº":10304,"ãĤĴå¾ĹãĤĭãģĵãģ¨ãģĮãģ§ãģįãģ¾ãģĻ":10305,"ĠçŁ¥ãģ£ãģ¦ãĤĭãĤı":10306,"ãĥĴãĥł":10307,"ãĥĴãĥ¼ãĥŃãĥ¼":10308,"ãģĮå¥½ãģįãģª":10309,"ãģĮå¥½ãģįãģªãĤĵãģł":10310,"ãģłãģ¨æĢĿãģ£ãģ¦ãģĦãĤĭ":10311,"ãģłãģ¨æĢĿãģ£ãģ¦ãĤĭãģ®":10312,"Ġãĥ©ãĤº":10313,"çĶŁãģįçī©":10314,"æĦıåĳ³ãģĮãģªãģĦ":10315,"ãĥŀãĥ³ãģ¯":10316,"ãĥŀãĥ³ãĥĢ":10317,"éĸĭå§ĭ":10318,"éł¼ãģ¾ãĤĮãģŁ":10319,"ãĤĴåĲ«":10320,"åĽŀãĤĤ":10321,"èŃ¦åĳĬ":10322,"ĠãģĿãĤĮãģ¯åħ":10323,"ĠãģĿãĤĮãģ¯åķıé¡Į":10324,"åıĸãĤĭ":10325,"ĠãĥľãĤ¹ãĥĪãĥ³":10326,"Ġèģŀãģĳ":10327,"ĠèģŀãģĦãģŁ":10328,"ãĤ³ãĥ³ãĥĿãĥ¼ãĤ¶ãĥ¼":10329,"åĤĻåĵ¡":10330,"Ġç§ģãģ«ä½ķãģĭ":10331,"ĠãĤŃãĥĨãĤ£":10332,"ĠãĤŃãĥªãĤ¹ãĥĪ":10333,"é£²ãĤĢ":10334,"ĠæĻĤéĸĵãģ¯":10335,"ĠæĻĤéĸĵå¾Įãģ«":10336,"ãģĬåīįãģł":10337,"Ġèª°ãĤĤçŁ¥ãĤīãģªãģĦ":10338,"çĲĨçĶ±ãģ§":10339,"ĠãģķãģĤè¡Įãģĳ":10340,"ãĥ´ãĤ¡ãĥ¬ãĥ³ãĤ¹":10341,"ãĤ´ãĥł":10342,"ĠãĥĵãĤ¢ãĥ³ãĤ«":10343,"ĠéĽ¨":10344,"ĠéĽ¢å©ļ":10345,"çĿĢãģı":10346,"ĠãģĿãĤĵãģªãģĵãģ¨ãģ¯ãģĹãģªãģĦ":10347,"ãĤĴè²¸":10348,"ãĤĴãģĬè¦ĭãģĽ":10349,"Ġãĥ¬ãĥĥãĥī":10350,"ĠãĤ¸ãĥ§ãĥ¼ãĤ¤":10351,"ãģ®åł´æīĢãģ§":10352,"ãģ®éĸĵãģ«":10353,"èªįãĤģãĤĭ":10354,"è»įéļĬ":10355,"ãĤīãĤĮãĤĭãģĭ":10356,"ãĤĤãģ£ãģ¨èī¯ãģĦ":10357,"ãĤ¯ãĥ©ãĥĵãĤ¦ãĤ¹":10358,"ŃĲä¾Ľãģ®éłĥ":10359,"ãģ¨ãģĦãģĨãģĵãģ¨ãģ§ãģĻãģŃ":10360,"ĠãģĿãĤĮãģ¯æĪĳãĢħ":10361,"ĠãģĿãĤĮãģ¯æŃ£ãģĹãģĦ":10362,"¹³æ°ĹãĤĪ":10363,"æĤªå¤¢":10364,"ãģĭãģĳãģ¦":10365,"ãģ¨åĳ¼ãĤĵãģ§":10366,"ãģ¨åĳ¼ãģ³":10367,"Ġä¸ĩäºº":10368,"Ġä¸ĩãĥķãĥ©ãĥ³":10369,"Ġä¸ĩãĥĿãĥ³ãĥī":10370,"æ¸©":10371,"ãģ¸ãģ®æ":10372,"ĠãĥĻãĥ³":10373,"ĠãĥĻãĤ¤":10374,"ĠãĥĻãĤ¤ãĥĪãĥŀãĥ³":10375,"ãģ®ãĥĳãĥĥãĤ±ãĥ¼ãĤ¸":10376,"åķıé¡Įãģł":10377,"æŁĦ":10378,"æ¯įæ§ĺ":10379,"ĠãĥĽãĥ¯ãĤ¤ãĥĪãĥıãĤ¦ãĤ¹":10380,"å¥³æĢ§ãģł":10381,"ä¾¡æł¼":10382,"ĬĢè¡ĵ":10383,"ĠãĥŁãĥ¥ãĥ¼ãĥ©ãĥ¼":10384,"ãģĵãģ¨ãģ¯ãģªãģĦãģłãĤįãģĨ":10385,"ãģĭãģ©ãģĨãģĭãģ¯":10386,"ãģĿãģ®è¨Ģèĳī":10387,"ãģĿãģĵãģ«ãģĤãĤĭ":10388,"åįĺç´Ķ":10389,"éĢ±éĸĵãĤĤ":10390,"é«ĺæł¡":10391,"ĠåįĬåĪĨ":10392,"ãĥ³ãĥĲãĥ¼ãĤ¬ãĥ¼":10393,"ĠãĥĭãĤ¬ãĥ¼":10394,"ãģĹãģ¦ãģĦãģªãģĦãģ®":10395,"ãģ¯å¤¢":10396,"Ġãģ©ãģĵãģ«ãĤĤ":10397,"å§ĭãĤģãģŁ":10398,"ãģłãģĭãĤīãģł":10399,"Ġå½¼ãģ¯æĺ":10400,"ç¤¾ä¼ļ":10401,"ãĤīãĤĮãģ¾ãģĻãģĭ":10402,"Ġç§ģãģ«ãģ¯ãģĿãĤĮãģĮ":10403,"æķ°æĸĻ":10404,"è¨ĪçĶ»ãģĹãģŁ":10405,"ãĤĴåĩºãģĹãģ¦":10406,"ãģ®åıĭäººãģł":10407,"Ġåħ¬":10408,"Ġåħĥæ°Ĺ":10409,"ãĤ¤ãĤ¹ãĤŃãĥ¼":10410,"ãģ¨ãģĦãģĨãģĵãģ¨ãģ«ãģªãĤĭ":10411,"ĠãģĻãģ¹ãģ¦ãģ®æ¨©åĪ©":10412,"ķ°å¸¸":10413,"Ľŀå¾©":10414,"ãĤĴä¿¡ãģĺãģ¦ãģıãĤĮ":10415,"ĠãģĤãģªãģŁãģ¯ç´łæĻ´ãĤīãģĹãģĦ":10416,"ĠãģĤãģªãģŁãģ¯çĭĤãģ£ãģ¦ãģĦãĤĭ":10417,"Ġãĥŀãĥŀãģ¨":10418,"æĽ¸ãģį":10419,"ãģ«ãģ¨ãģ£ãģ¦ãģ¨ãģ¦ãĤĤ":10420,"ãģĮå½¼ãĤĴ":10421,"Ġãĥ¡ãĥĥãĥĦ":10422,"Ġãĥ¡ãĥ¼ãĥĪãĥ«":10423,"å¤īåĮĸ":10424,"ãĤĴçĲĨè§£ãģĻãĤĭ":10425,"åįļå£«ãģ¯":10426,"ãĤĴå¤±æľĽ":10427,"ãĥ¥ãĥ¼ãĥĲ":10428,"ãĥ¥ãĥ¼ãĥģãĥ£":10429,"Ĭ¯äºº":10430,"ãĤĴéĢ£ãĤĮãģ¦ãģıãĤĭ":10431,"è©¦ãģĹãģ¦ãģ¿":10432,"å¼µãĤĬ":10433,"Ġå®ŁãĤĴè¨ĢãģĨãģ¨":10434,"ĺ²ãģĲ":10435,"ãĥ¼ãĥķãĤ¡":10436,"ãģ®åįĪå¾Į":10437,"ĠæĦĽãģĹãģ¦ãĤĭãĤı":10438,"æľĿé£Ł":10439,"æĸĻçĲĨ":10440,"æİ¨æ¸¬":10441,"ãĥĺãĥ¬ãĥ³":10442,"ãĥĺãĥ³ãĥªãĥ¼":10443,"Ġå¥½ãģį":10444,"éģ¸æĬŀãģĹãģŁ":10445,"ãĤĴæĬ¼ãģĹ":10446,"ĠãĤ°ãĥŃ":10447,"ãĥ©ãĤ¹ãĥģãĥĥãĤ¯":10448,"ãĥŃãĥ¼ãĤ¼":10449,"ãĥŃãĥ¼ãĤ¬ãĥ³":10450,"Ġä»Ĭãģ¯ãģ¾ãģł":10451,"ãģĵãģ¨ãģ«ãģªãĤĭãģłãĤįãģĨ":10452,"ãģ®ãĥĲãĥ¼":10453,"åħĪãģ«":10454,"ãģ®ãģĬçĪ¶ãģķãĤĵ":10455,"ãģ®ãģĬæ°Ĺãģ«åħ¥ãĤĬ":10456,"ãĤĴåĳ¼ãģ¹":10457,"Ġç§ģãģ¯çľł":10458,"Ġæľ¬å½ĵãģ«ãģĶãĤģãĤĵãģªãģķãģĦ":10459,"ãģ®åħĪ":10460,"ĠæŃ©":10461,"ĠæŃĮ":10462,"ãģ¯ä½ķãĤĤçŁ¥ãĤīãģªãģĦ":10463,"Ġãĥ¯ãĥ¼ãĥł":10464,"Ġãĥ¯ãĤ·ãĥ³ãĥĪãĥ³":10465,"ãģ®å¤§ãģįãģķ":10466,"ãĥ¬ãĥ¼ãĤ·ãĥ§ãĥ³":10467,"ãģĮæŃ»ãĤĵãģ§ãĤĭ":10468,"ãĤĴçĽ£è¦ĸ":10469,"Ġç§ģãģ¯å½¼å¥³ãģ«":10470,"Ġå¾ħãģ£ãģ¦":10471,"Ġãĥ«ãĥİãĥ¼":10472,"ãģĹãģ¦ãģªãģĦãĤı":10473,"ãģĻãĤĭãģ¤ãĤĤãĤĬãģ§ãģĻ":10474,"Ġä½ķãģĮãģĤãģ£ãģŁãģ®ãģĭ":10475,"ãĥĸãĥ©ãĥĥãĤ¯ãĤ¹ãĥŁãĤ¹":10476,"ĠãģĦãģ¤ãģĭãĤī":10477,"ĠæĺİæĹ¥ãģ¯":10478,"æĪĲãģĻãĤĭ":10479,"æĪĲéķ·":10480,"ãĤĴéĤª":10481,"ãĤĴéĺ²ãģĲ":10482,"å¼·åĪ¶":10483,"æĽľãģ®å¤ľ":10484,"ç§ģãģ¯æĿ¥":10485,"ĠãĥĿãĥ«ãĥİ":10486,"äºĪåĤĻ":10487,"ãģ«ä¹ĹãĤĬ":10488,"ãĤĴè¦ļãģĪãģ¦ãģĦãĤĭ":10489,"Ġç§ģãĤĴä¿¡çĶ¨":10490,"ĠãĤ»ãĥĥãĤ¯ãĤ¹":10491,"ĠãģĿãĤĮãģ¯çľŁå®Ł":10492,"ãģĮæĿ¥ãģŁ":10493,"ãĤĴçµĮé¨ĵ":10494,"ãĤĴçŁ¥ãĤīãģªãģĦãģ®ãģĭ":10495,"é¦¬é¹¿ãģĺãĤĥãģªãģĦ":10496,"ĠçĶ·ãģł":10497,"ĠçĶ·æĢ§":10498,"ãĤĴé£²ãĤĢ":10499,"ĠæīĭéģħãĤĮ":10500,"Ġæ¬¡ãģ®":10501,"éĻ¢èŃ°åĵ¡":10502,"éŁ³ãģĮ":10503,"ç§ģãģ¯çĹħæ°Ĺ":10504,"ãĥ¼ãĥĬãĥĥãĥĦ":10505,"ãĤĴæĦŁãģĺãģŁ":10506,"ãģ¯æĺİãĤīãģĭ":10507,"ãģ«æīĭéħį":10508,"ãĤĴç½®ãģįåİ»ãĤĬãģ«ãģĹãģŁ":10509,"ãģ®è²¡å¸ĥ":10510,"ĠæľĢåĪĿãģ®":10511,"ĠæľĢåĪĿãģ¯":10512,"ç¨®é¡ŀ":10513,"ãĤĴå¿ĺãĤĮãĤĭãģª":10514,"ãĥķãĤ©ãĥ¼ãĥī":10515,"ãĥķãĤ©ãĥ¼ãĤ¹":10516,"ãĥķãĤ©ãĥ¼ãĥł":10517,"ĠéĿŀ":10518,"æ°ĳåľ°":10519,"ç¾©åĭĻ":10520,"èħĲ":10521,"ĠDNA":10522,"ãģ®ä¸ĭãģ§":10523,"ãģ«ãģĬãģĳãĤĭ":10524,"ãģ£ãģ½ãģĦ":10525,"ĠåŃĲä¾ĽéģĶ":10526,"ãģ®å®Ł":10527,"ãĤ¯ãĥªãĥĥãĥĹ":10528,"æħĭåº¦":10529,"éŃĤ":10530,"Ġä¸Ńæµģ":10531,"Ġä¸Ńãģ«åħ¥ãģ£ãģ¦":10532,"ģ¥ãĤĴãģĭ":10533,"äº¤å·®":10534,"äº¤æıĽ":10535,"ãĥ¼ãĥŃãĤª":10536,"ãĥĪãĥ¬ãĥ¼ãĥĢãĥ¼":10537,"ãģ®ãĥĿãĤ¹ãĥĪ":10538,"ãģłãģĳãģ§ãģªãģı":10539,"ãĤĴè¿½ãģĦæīķ":10540,"µģãĤĮ":10541,"¼ĶæĬĢ":10542,"æ¯İæĹ¥":10543,"éĺ²è¡Ľ":10544,"Ġéĩĳåº«":10545,"ãģĤãģĴãĤĭãĤı":10546,"ãĤĴå¼ķãģįãģļ":10547,"äººãĢħãģĮ":10548,"æ±ºãĤģ":10549,"ãģĭãĤıãĤīãģļ":10550,"Ġç§ģãģĮæĮģ":10551,"ãĤ¯ãĥŃãĥĹãĤ¹":10552,"ĠéĻį":10553,"æŃ³ãģ®æĻĤ":10554,"ãĤĴå¿ħè¦ģãģ¨ãģĹãģ¦ãģĦãĤĭ":10555,"ãĤĴå¿ħè¦ģãģ¨ãģĹãģªãģĦ":10556,"éĮł":10557,"Ġç§ģãģ®å¿ĥ":10558,"äºĭãĤĴãģĹãģªãģĦ":10559,"ãģ®ãĥĨãĥ¼ãĥŀ":10560,"ĠãĥķãĤ¡ãĤ¤ãĥ«":10561,"®ĭãĤĬãģ®äººçĶŁ":10562,"Ġä¸Ģä½ĵä½ķ":10563,"æľĢå¾Įãģ«":10564,"Ġå°ĳå¹´":10565,"è¨Ģãģ£ãģ¦ãĤĭãĤĵãģł":10566,"ä¼ļãģĦãģ¾ãģĹãĤĩãģĨ":10567,"çµĤãĤıãģ£ãģ¦ãģªãģĦ":10568,"ãĤĴçĽĹãĤĢ":10569,"ĠãģĺãĤĥãģªãģľ":10570,"ĠãģĺãĤĥä½ķãģł":10571,"ĠMI":10572,"Ġè¡ĮãģĭãģĽãģ¦":10573,"ĠåĢĭ":10574,"ãĤĴçĿĢãģ¦":10575,"Ġéł¼":10576,"ãģ«ä¼ļãģĨãģĵãģ¨":10577,"ºĢãģŁ":10578,"ç¬ĳãģĹãģĦ":10579,"Ġè©±ãģĮãģĤãĤĭ":10580,"Ġç§ģãģĮå¿ĥéħį":10581,"ãģ¯åħĪ":10582,"ĠçĪ¶ãģ¯":10583,"ĠçĪ¶è¦ª":10584,"æĸ°é®®":10585,"ãĥĶãĥ³ãĤ«ãĥ¼ãĥĪãĥ³":10586,"ĠãĤŃãĥ£ãĥĹãĥĨãĥ³":10587,"ãģ®å°ĳå¹´éģĶ":10588,"å§Ķåĵ¡ä¼ļ":10589,"ĠãĤĪãģıãĤĦãģ£ãģŁ":10590,"ãĤĴå½¼ãģ«":10591,"ãĤĴå½¼å¥³":10592,"ãģ®ãĥ¡ãĥ¢":10593,"ãĥĹãĥ©ãĤ¤ãĥĻãĥ¼ãĥĪ":10594,"çµ¶æľĽ":10595,"éĸĵéģķãģĦãģł":10596,"½ĵçĦ¶":10597,"æŀ¶":10598,"é©ļãģĦãģŁ":10599,"ãĤĴãĤĦãĤģ":10600,"ĠãĥłãĥĥãĤ·ãĥ¥ãĥ¼":10601,"ĠãĤ²ãĥ¼ãĥł":10602,"è¦ĭãģ¤ãģĳãģŁ":10603,"çĨŁ":10604,"èĬĿ":10605,"éŃĶå¥³":10606,"ãģĦãģ¤ãģ§ãĤĤ":10607,"ĠåĬ©ãģĳãģ¦":10608,"ãĥ¼ãĥ¬ãĥĥãĥĪ":10609,"ãĥ¼ãĥĩãĥ³":10610,"ãĤĴæĶ¾ãģĽ":10611,"ãģ«ç«ĭãģ¡":10612,"ĠåĨĹè«ĩãģłãĤĪ":10613,"éĻįãĤĬãĤĭ":10614,"ãĤĴè¨ĢãģĨãģª":10615,"ãĤĴæİĴ":10616,"ãģ¯å®¶ãģ«å¸°":10617,"Ġç§ģãģ¯ãģĤãģªãģŁãģĮå¥½ãģįãģ§ãģĻ":10618,"ãģ«åĪĩãĤĬ":10619,"ãģ¯æľ¬çī©ãģł":10620,"Ġä¸Ģäººãģ®çĶ·":10621,"ãģ¨åĳ¼ãģ°ãĤĮãģ¦ãĤĭ":10622,"ãĤĴãģĹãĤĪãģĨ":10623,"ãĥ³ãĥĹãĤŃãĥ³":10624,"Ġãĥ´ãĤ¡":10625,"ãĤĴæ¸¡ãģĽ":10626,"ãģ®éĽĨ":10627,"ãģ«åĲĳãģĭãģ£ãģ¦ãĤĭ":10628,"éĢ®æįķãģķãĤĮãģŁ":10629,"Ġä¸įæĢĿèŃ°":10630,"ãĤ¾ãĥ¼ãĥ³":10631,"ãĤ·ãĤ§ãĥ¼ãĥī":10632,"ãģ®èĭ±":10633,"Ġå¤īãģª":10634,"Ġè¦ļãģĪãģ¦ãĤĭãĤı":10635,"ãģ¯ãģļãģłãģ£ãģŁ":10636,"Ġåīįãģ«":10637,"Ġä½ķãģ¦ãģĵãģ¨ãģł":10638,"åħ¬å¼ı":10639,"ãģ®ãĤĪãģĨãģ«æĦŁãģĺ":10640,"ĠãģĻãģ¿ãģ¾ãģĽãĤĵãģĮ":10641,"æľĢåĪĿãģ¯":10642,"èĭ±åĽ½":10643,"°¸ä¹ħ":10644,"æ»ŀåľ¨":10645,"ĠãĥĴãĥ¥":10646,"ĠãĥĴãĥĥãĤ¯ãĤ¹":10647,"ãģ®åĪĩ":10648,"ä¾ĭå¤ĸ":10649,"èĪĪåĳ³ãģĮãģĤãĤĭ":10650,"ĠèģŀãģĦãģ¦ãĤĭãģĭ":10651,"ãģĭãĤīåĩºãģ¦è¡Įãģĳ":10652,"±¡å¾´":10653,"æģĲæĢĸ":10654,"ĠOK":10655,"Ĩįãģ³":10656,"Łºåľ°":10657,"ãģ®èĥĮ":10658,"ãĤªãĤ«ãĥ¡ãĥ©":10659,"ĠãĤ·ãĥ£ãĥĦ":10660,"ĠãĤıãģĭãģ£ãģŁãĤı":10661,"ĠãĤıãģĭãģ£ãģŁãģŀ":10662,"ĺĺãĤĴãģ¤ãģıãģª":10663,"æĶ¿å©¦":10664,"æĶ¿åºľ":10665,"Ġå¯Ŀ":10666,"Ġç§ģãģ®äººçĶŁãģ§":10667,"Ġä½ķãģĮèµ·ãģį":10668,"ãĤĴè§£æĶ¾":10669,"ãģ®é«ĺãģĦ":10670,"åıİå®¹æīĢ":10671,"å¯ĿãģŁ":10672,"Ġéķ·ãģĦæĻĤéĸĵ":10673,"ãģ«ä»»ãģĽãĤį":10674,"Ġå·¦":10675,"ãĤĤãģ¡ãĤįãĤĵãģł":10676,"ĠæĿ¥éĢ±":10677,"ãĤĴåħ¥ãĤĮãģŁ":10678,"ãĤĴåħ¥æīĭ":10679,"Ġçī¹ãģ«":10680,"ä»Ĭãģ¾ãģ§ãģ«":10681,"ãĥ´ãĤ§ãĥ³":10682,"ĠãĤ¯ãĥªãĤ¹ãĥŀãĤ¹":10683,"ĠãĥģãĤ§ãĤ³":10684,"æĪ»ãģ£ãģ¦ãģıãĤĭ":10685,"ãģ®ãģ¯ç°¡åįĺ":10686,"ãģ¯ãģĤãĤĭãģ®ãģĭ":10687,"ãĤĴä¿ĿæĮģ":10688,"ãĤĴä¿Ŀè¨¼":10689,"ãģĹãĤĪãģĨãģ¨ãģĹãģ¦ãģĦãģŁ":10690,"ä½İãģĦ":10691,"ãģ®å°»":10692,"ãģ®æĮĩç¤º":10693,"Ġèµ¤ãģĦ":10694,"åħīæłĦãģ§ãģĻ":10695,"ãĥĲãĥĥãĤ¯ãĤ¢ãĥĥãĥĹ":10696,"çµĲãģ³":10697,"ĠåĪĨãģĭãģ£ãģŁãģĭ":10698,"Ġæ°ĹåĪĨãģĮèī¯":10699,"Ľ´æİ¥":10700,"ãģ®ãĥķãĤ¡ãĥ³":10701,"Ġå¼¾":10702,"Ġå¼ģèŃ·å£«":10703,"ãĤĴæľŁå¾ħãģĹãģ¦ãĤĭãģ®":10704,"ãĤĴå°İ":10705,"ãģĦãģĦãģ®ãģĭãĤıãģĭãĤīãģªãģĦ":10706,"Ġç¬¬äºĮ":10707,"å¿ĺãĤĮãģŁ":10708,"ãĤĴæīĵãģ¡":10709,"ãĤĴæīĵãģ¤":10710,"å¤īãĤıãĤĭ":10711,"å¤īãĤıãĤīãģªãģĦ":10712,"ĠãĥĹãĥŃãĥł":10713,"ãĤĴæĢĿãģĦåĩºãģĽãģªãģĦ":10714,"é»ĴãģĦ":10715,"Ġç§Ĵãģ§":10716,"ãĤ¹ãĥĬãĥĥãĥķ":10717,"èª¤åĭķä½ľ":10718,"çŁ¥ãĤĬãģŁãģıãģªãģĦ":10719,"ãģ®ç´°èĥŀ":10720,"Ġå½¼ãģ¯ä½ķãģ¨":10721,"Ġå½¼ãģ¯ä½ķãģ¨è¨Ģãģ£ãģŁ":10722,"ä¾µçķ¥":10723,"ĠäººãĢħãģ¯":10724,"ãĤĴåıĹãģĳåıĸãģ£ãģŁ":10725,"ãģ«å¤īãĤı":10726,"ãģ«åĲĳãģĭãģ£ãģ¦":10727,"ĥæ°Ĺãģ§ãģĻ":10728,"ãĤĴçĶŁãģĭ":10729,"ãģĻãģ§ãģ«":10730,"ĠåĮĸåŃ¦":10731,"ãĥ³ãĥĢãĥ¼ãĥ©ãĥ³ãĥī":10732,"ãĤĴå£ĬãģĻ":10733,"ãĤĴå¥ªãģ£ãģŁ":10734,"ãģ«æŃ»ãĤĵãģł":10735,"ãģ«æģĭãĤĴãģĹãģ¦ãģĦãĤĭ":10736,"ãģĵãģĵãģ«æĿ¥ãģŁãģ®":10737,"ãĥĶãĤ¢ãĥİ":10738,"ãĥĿãĥĥãĥĹãĤ¹":10739,"ä¸įæĢĿèŃ°ãģ«æĢĿ":10740,"ãģ©ãģĵãģĭãģ§":10741,"Ġä»ĸãģ®èª°ãģĭ":10742,"Ġçµ¶æľĽ":10743,"å·®ãģĹ":10744,"å·®åĪ¥":10745,"ãĤĴåıĸãĤĬæĪ»ãģĻ":10746,"ĠåĢĭäººçļĦãģ«ãģ¯":10747,"les":10748,"å»·":10749,"ç¨¿":10750,"ç¯Ģ":10751,"ãģ¯ãģ©ãģĵãģ«ãģĦãģŁãģ®":10752,"ãģĹãģ¦ãģ¿ãģ¦ãģıãģłãģķãģĦ":10753,"ãģ®æ©Łæ¢°":10754,"ãģ®ãĥĽãĥĨãĥ«":10755,"Ġé¦¬é¹¿ãģªãģĵãģ¨ãĤĴ":10756,"ãĥĢãĤ¦ãĥ³ãĤ¿ãĤ¦ãĥ³":10757,"å¯ĦãĤĬ":10758,"éļİç´ļãģ®é»Ĵäºº":10759,"ä¹¾çĩ":10760,"åī²ãĤĬå½ĵãģ¦":10761,"¤įæ°ĳåľ°":10762,"ç³ĸ":10763,"ãĤĴãģķãģĽãģ¦ãģıãģłãģķãģĦ":10764,"ĠãģĤãģ¾ãĤĬãģ«ãĤĤ":10765,"Ġçī©äºĭ":10766,"ãĤĴç«ĭãģ¦":10767,"ãĥĨãĥ¼ãĥĸãĥ«ãģ®ä¸Ĭ":10768,"ãĥıãĥ«ãĥĲãĥ¼ãĤ¹":10769,"åĬ©ãģĳãģ¦ãģıãĤĮ":10770,"ĠãĤ¯ãĥ©ãĥĸ":10771,"ãģ©ãģĵãģ«ãĤĤè¡ĮãģĭãģªãģĦ":10772,"ãĤĴèªįãĤģ":10773,"ãĤĴçł´å£ĬãģĻãĤĭ":10774,"ļ®ãĤī":10775,"ãĤĴè¡ĮãģĨ":10776,"ãģ§ãģĦãģ£ãģ±ãģĦãģ§ãģĻ":10777,"ãģ¾ãģ£ãģŁãģı":10778,"ãģ®å°ıåĪĩæīĭ":10779,"æĢªæĪĳãĤĴãģĻãĤĭ":10780,"ãģ«æ²¿":10781,"ãģ«æ²Ī":10782,"ãĤ¿ãĥĲãĤ³ãĤĴåĲ¸":10783,"Ġèµ·ãģį":10784,"ĠãĥīãĤ¢ãĤĴéĸĭãģĳ":10785,"Ġãĥıãĥ¼ãĤ³ãĥ¼ãĥĪ":10786,"ĠãģĺãĤĥãģĤãģŃ":10787,"ãģ¨ç¢ºä¿¡ãģĹãģ¦ãĤĭ":10788,"ãĥ¼ãĥ¼ãĥ¼ãĥ¼":10789,"Ġå¿ĥèĩĵ":10790,"ãģ®åĮĤãģĦ":10791,"Ġæģ¯åŃĲãĤĪ":10792,"Ġæ®ĭå¿µãģªãģĮãĤī":10793,"çµĤçļĦãģ«ãģ¯":10794,"åĭĩæ°Ĺ":10795,"è¿·åŃĲ":10796,"ãĤĴæīĢæľīãģĹãģ¦ãĤĭ":10797,"ãģĮæŃ»ãģ¬ãģ®":10798,"éŃħåĬĽçļĦ":10799,"éŃħåĬĽçļĦãģª":10800,"¶çĦ¶ãģ®ä¸Ģèĩ´":10801,"ç²ī":10802,"Ġå½ĵãģ¦ãģ¦":10803,"ãĤ¹ãĥĿãĥ¼ãĥĦ":10804,"ãģ®å½¢ãģ§":10805,"ãĤĴå¼·ãģı":10806,"æĢªçī©":10807,"æĢ¥ãģĦãģ§":10808,"ãĥªãĥĲãĥĨãĤ£":10809,"ĠæľĿé£Ł":10810,"ãĤ¨ãĤ¢ãĥķãĤ©ãĥ¼ãĤ¹":10811,"è¿«ãģ£ãģŁ":10812,"ĠãģĶãĤģãĤĵãģŃ":10813,"ãģĮçĦ¡äºĭ":10814,"ãĤĴæĬķãģĴãģ¦":10815,"èĬ¸è¡ĵå®¶":10816,"æºĸåĤĻãģĮãģ§ãģįãģ¦ãģĦãģ¾ãģĻ":10817,"è£ģåĪ¤æīĢ":10818,"ãĤĴãģ¨ãģ£ãģ¦ãģĦãĤĭ":10819,"Ġãĥ¦ãĥĭãĥĥãĥĪ":10820,"ãģ®åĩºèº«ãģ§ãģĻ":10821,"ãģ®æŃ¯":10822,"ĠãģªãģľãģĿãĤĵãģªãģĵãģ¨ãĤĴè¨ĢãģĨãģ®":10823,"ĠãĤıãģĭãģ£ãģ¦ãĤĭãĤı":10824,"ãĤ¦ãĤ£ãĥ«ãĥĲãĥ¼":10825,"ãģ¯å¤īãĤı":10826,"åĸľãģ³":10827,"Ġæ¯İæĻ©":10828,"Ġçµ¶å¯¾ãģ«":10829,"Ġæ®ºäººçĬ¯":10830,"ãĤıãģļãģĭ":10831,"ãģ«å¿ľ":10832,"åħĦãģķãĤĵ":10833,"çļ®èĨļ":10834,"ĠãĤ¹ãĤ«ãĤ¤ãĥ¯ãĤ¤ãĥ¤ãĥ¼":10835,"å¸ĿåĽ½":10836,"ä¸įåħ¬å¹³ãģł":10837,"ãģ®ãģĬãģĭãģĴãģ§":10838,"ĠãĥĹãĥ©ãĤ¤ãĤ¹":10839,"ãĤĴæĽ¸ãģįçķĻ":10840,"ãĤĴçµĤãĤıãĤīãģĽ":10841,"ãģĭãĤĮæĹ©ãģĭãĤĮ":10842,"ĸĦèī¯ãģķ":10843,"ãģĨãĤĵãģĸãĤĬ":10844,"Ĭĩåł´":10845,"ãģĮèģŀãģĵãģĪãģŁ":10846,"ãģ®ç¯ĦåĽ²":10847,"ãģ®çī¹æ¨©":10848,"ãģ°ãģĭãĤĬãģ§ãģĻ":10849,"çµŀé¦ĸåĪĳ":10850,"ãģ¨ãģ¯éĻĲãĤīãģªãģĦ":10851,"ĠãĤ¨ãĤ¤ãĥŁãĥ¼":10852,"åĶ¯ä¸Ģãģ®æĸ¹æ³ķãģ¯":10853,"ä½ĻåĪĨãģª":10854,"ãĥ´ãĤ§ãĥŃãĥ¼ãĥĬ":10855,"Ġãĥıãĥ¼ãĤ·ãĥ¥åįļå£«":10856,"ãĤĴåį±éĻºãģ«ãģķãĤīãģĻ":10857,"¿ħãģļãģĹãĤĤ":10858,"ãģ®æ¨Ļ":10859,"ãĤ¢ãĤ¹ãĤ¬ãĥ«ãĥī":10860,"ãĥŃãĥĲãĤŃãĤ¢":10861,"ãĥŃãĥ¼ãĥ¬ãĥ³ãĤ¹":10862,"ä»ĬåĽŀãģ¯":10863,"ĠãģĬãģ°ãģĤãģ¡ãĤĥãĤĵ":10864,"ĠéŁ³æ¥½":10865,"ãĤ±ãĥ³ãĤ¸ãĥ³ãĥĪãĥ³":10866,"ãģ¨ãģ¯è¨ĢãģĪãģ¾ãģĽãĤĵ":10867,"é¨Ĵãģİ":10868,"æĨİãģĹãģ¿":10869,"ãģ®ãĤ¢ãĤ¤ãĥĩãĤ¢":10870,"ªå¯©åĵ¡":10871,"¿įèĢĲ":10872,"åĩ¡":10873,"ĥ½å¸Ĥ":10874,"Ŀ¡çľł":10875,"ãģĻãģ°ãĤīãģĹãģĦ":10876,"ĠãģĿãĤĮãģĮçľŁå®Łãģł":10877,"Ġç¶ļãģĳãĤį":10878,"ãĥ¬ãĥĻãĥ¼ãĤ¿ãĥ¼":10879,"ãĤ¹ãĥĪãĥ©ãĤ¤ãĤ«ãĥ¼":10880,"ĠãģĦãģļãĤĮãģ«ãģĹãģ¦ãĤĤ":10881,"æĸ¹åĲĳãģ«":10882,"ãģ®å¤±è¸ª":10883,"ĠãĤ¤ãĥ«ãĤµ":10884,"Ġå¥ĩå¦Ļ":10885,"Ġãģ»ãģ£ãģ¨ãģĦãģ¦":10886,"Ġéłĳå¼µãĤĮ":10887,"ãģ®éĿ¢åĢĴ":10888,"ãģĮæķĻãģĪãģ¦ãģıãĤĮãģŁ":10889,"èĢĲãģĪãĤīãĤĮãģªãģĦ":10890,"¥ĩè·¡ãģł":10891,"ãĥĴãĥ¥ãĥ¼ãĤ¤ãĥĥãĥĪ":10892,"§åĺ©":10893,"çĺį":10894,"Ħè³Ĥ":10895,"ħéĥ·":10896,"ãĤĬæĬķãģĴ":10897,"ãĤĴå§Ķè¨Ĺ":10898,"ĠçĲĨè«ĸçļĦãģ«ãģ¯":10899,"Ġä½ķãģ¨è¨Ģãģ£ãģ¦ãģĦãģĦãģĭ":10900,"ãĤĴç¶ļãģĳãĤĭ":10901,"ãĤ¦ãĤ¬ãĥ«ãĥĨ":10902,"ãģ®è·ĿéĽ¢":10903,"ãĥĲãĥ¼ãĥĬãĥ¼ãĥī":10904,"ĠãģĤãģªãģŁãģĮãģĿãģĨè¨ĢãģĨãģªãĤī":10905,"åĲĪè¡ĨåĽ½":10906,"Ġä¸Ńæµģéļİç´ļãģ®é»Ĵäºº":10907,"ä¹¾çĩ¥":10908,"Ġå½ĵãģ¦ãģ¦ãģ¿ãĤĪãģĨ":10909,"20":10910,"AG":10911,"AR":10912,"IG":10913,"ON":10914,"OV":10915,"PC":10916,"RI":10917,"TUM":10918,"ber":10919,"do":10920,"ew":10921,"han":10922,"ion":10923,"ime":10924,"la":10925,"mer":10926,"pp":10927,"pt":10928,"ro":10929,"¡å¤§":10930,"¢ãģ«":10931,"£º":10932,"£è¨Ģ":10933,"¤¼":10934,"¤Ĵ":10935,"¤ļãģı":10936,"¥Ŀ":10937,"¥åł´":10938,"¦¨å®³":10939,"§ãĤģ":10940,"§ãģĹãģĦ":10941,"©ãĤĬ":10942,"ªçĨŁ":10943,"«ĸ":10944,"«ãģł":10945,"«ãģ¾":10946,"«çħĻ":10947,"¬ä½¿":10948,"®ãĤī":10949,"®´ãĤī":10950,"®è¾±":10951,"®å»·":10952,"¯İ":10953,"¯ãģª":10954,"¯åľ°":10955,"¯å®ļ":10956,"°åĪ":10957,"°è¬Ģ":10958,"±³":10959,"³³":10960,"³æĻĤ":10961,"´¾":10962,"´ħ":10963,"´ĩ":10964,"´ãģĨ":10965,"µ¶":10966,"µĲå©ļ":10967,"¸ãģĦ":10968,"¸ãģ«":10969,"¸è»į":10970,"¸åŀĭ":10971,"¹²":10972,"¹»":10973,"ºĬ":10974,"¼é£Ł":10975,"¼ģèŃ·å£«":10976,"½ł":10977,"½è·¡":10978,"½éľĬ":10979,"¾½":10980,"åĦŁ":10981,"å»º":10982,"åłĤ":10983,"å¡Ķ":10984,"åķĨ":10985,"æ¹":10986,"æĥ¨":10987,"æīįèĥ½":10988,"æ°·":10989,"æĶ¯æīķãģĦ":10990,"æºĢè¶³":10991,"æ¬ł":10992,"æ±ļãģĦ":10993,"çĩĥ":10994,"çĭ¬èº«":10995,"çĿ£":10996,"ç¬¦":10997,"çł²":10998,"èĵ":10999,"èĽ®":11000,"è¤ĩ":11001,"éĨ":11002,"Ġ&":11003,"ĠV":11004,"Ġm":11005,"Ġn":11006,"Ġt":11007,"Ġy":11008,"Ġ~":11009,"Ġéĩį":11010,"ĠéĢ±":11011,"Ġè©±ãģĻ":11012,"Ġè¨ĢãĤı":11013,"Ġèª¬æĺİ":11014,"Ġç§ĺå¯Ĩ":11015,"Ġè¦ıåīĩ":11016,"Ġè¨ĢãģĪãģªãģĦ":11017,"Ġè¦ģçĤ¹":11018,"Ġä»¥åīį":11019,"ĠèªĵãģĨ":11020,"Ġéĸ£å¤ĸ":11021,"Ġéģİåİ»":11022,"Ġè©Ĳæ¬º":11023,"Ġäº¤æ¸ī":11024,"ĠçĶ³ãģĹè¨³ãģªãģĦ":11025,"Ģç´Ħ":11026,"ģ°":11027,"ģ·":11028,"ģåŃĹ":11029,"Ĥè":11030,"Ĥãģĳ":11031,"ĤäºĨ":11032,"ħ§":11033,"ĨæĿ¥":11034,"īµ":11035,"īãģĦ":11036,"ĭ¤":11037,"ĭ¼":11038,"ĭæĥħ":11039,"ĭĽå¾ħ":11040,"Įéģĵ":11041,"Į®èº«":11042,"įĴ":11043,"įéĢĨ":11044,"İĪ":11045,"İ®éĿĻåī¤":11046,"ıãĤĦ":11047,"ĳèįī":11048,"ĳ¬å¼ı":11049,"ĳåľ§":11050,"ĳèªĮ":11051,"Ĵ¸":11052,"ĴéĻº":11053,"ĵ¶":11054,"ĵ²åŃ¦":11055,"ļĩ":11056,"ļĳ":11057,"ļç¾©":11058,"ĽĹ":11059,"ĽçĽ":11060,"Ŀ¶":11061,"Ł·":11062,"Łéĩĳ":11063,"ł¹":11064,"ŃãģĳãĤĭ":11065,"Ń©ãģı":11066,"Ń´åı²":11067,"Ń¤å¥´ãĤī":11068,"ãģĦãģ«":11069,"ãģĦãģ¨":11070,"ãģĦãģ£ãģ¦":11071,"ãģĦãģªãĤĭ":11072,"ãģĦãģªãģķãģĦ":11073,"ãģ®ãĤ¹ãĥĪ":11074,"ãģ®ä»ķ":11075,"ãģ®ãģ§ãģįãĤĭ":11076,"ãģ®ãĤ¯ãĤ½":11077,"ãģ®ãģĻãģĲ":11078,"ãģ®ãĤ®":11079,"ãģ®ãĤŃãĥ¼":11080,"ãģ®ä»£":11081,"ãģ®ãģĦãģıãģ¤ãģĭ":11082,"ãģ®ä¼ļç¤¾":11083,"ãģ®è¨ĺæĨ¶":11084,"ãģ®ãĥ¬ãĥĥ":11085,"ãģ®ãĤ²ãĥ¼ãĥł":11086,"ãģ®ãĥŃãĥĥãĤ¯":11087,"ãģ®ãĤ·ãĥ§ãĥ¼":11088,"ãģ®ãĤ»ãĥĥãĤ¯ãĤ¹":11089,"ãģ®è¡ĮçĤº":11090,"ãģ®ãĤ¬ãĥ¼ãĥ«ãĥķãĥ¬ãĥ³ãĥī":11091,"ãģ®ãĥªãĤ¹ãĤ¯":11092,"ãģ®è©³ç´°":11093,"ãģ®ä¾¡åĢ¤ãģĮãģĤãĤĭ":11094,"ãģ®éģº":11095,"ãģ®ãģĦãģ¨ãģĵ":11096,"ãģ®ãĤ¯ãĤ½éĩİéĥİãģł":11097,"ãģ®çŁ¥èŃĺ":11098,"ãģ®è¡ĽæĺŁ":11099,"ãģ¯ãĥŃ":11100,"ãģ¯ãĤ«":11101,"ãģ¯ãĥĨ":11102,"ãģ¯ä¸Ń":11103,"ãģ¯çĶŁ":11104,"ãģ¯ãĥĬ":11105,"ãģ¯ä¸Ģç·Ĵ":11106,"ãģ¯ãģ§ãģįãģªãģĦ":11107,"ãģ¯éģķãģĨ":11108,"ãģ¯ãģĹãģ¦ãģªãģĦ":11109,"ãģªãģĽ":11110,"ãģªåķıé¡Į":11111,"ãģŁãģļ":11112,"ãģ¦ãģįãģŁ":11113,"ãģ«ãģĦãģ¦":11114,"ãģ«ãĤĦãģ£ãģ¦":11115,"ãģ«ãģķãĤĮãģŁ":11116,"ãģ«ãģĿãĤĵãģª":11117,"ãģ«ãģĹãģ¾ãģĹãģŁ":11118,"ãģ«éłŃ":11119,"ãģ«ãģĦãģªãģĭãģ£ãģŁ":11120,"ãģ«éĢ²":11121,"ãģ«ãģĹãĤį":11122,"ãģ«é£Ľãģ³":11123,"ãģ«ãģĦãĤį":11124,"ãģ«ç´¹ä»ĭ":11125,"ãģ«ä¼ĿãģĪãĤĭ":11126,"ãģ«éĸīãģĺè¾¼ãĤģ":11127,"ãĤĴãģ¾":11128,"ãĤĴéģ":11129,"ãĤĴè¡Įãģı":11130,"ãĤĴéħį":11131,"ãĤĴãĤĦãģ£ãģŁ":11132,"ãĤĴä¿¡éł¼":11133,"ãĤĴãĤĤãģĨä¸Ģåº¦":11134,"ãĤĴãĥĨãĤ¹ãĥĪ":11135,"ãĤĴéĽĨ":11136,"ãĤĴãĤ³ãĥ³ãĥĪãĥŃãĥ¼ãĥ«":11137,"ãĤĴé£Ľãģ³":11138,"ãĤĴãģķãĤī":11139,"ãĤĴãĥ¬ãĤ¤ãĥĹ":11140,"ãĤĴè¡¨ç¤º":11141,"ãĤĴãģ¾ãģ£ãģĻãģĲ":11142,"ãĤĴé¨Ļ":11143,"ãĤĴä¿®çĲĨ":11144,"ãĤĭãģ¨æĢĿãģĨ":11145,"ãĤĭãģłãģĳãģł":11146,"ãĤĭçĲĨçĶ±":11147,"ãĤĭå¿ħè¦ģãģ¯ãģªãģĦ":11148,"ãģĹãģ«è¡Įãģı":11149,"ãģĹãĤĵãģ§ãģĦãĤĭ":11150,"ãģĭãĤıãģĭãĤīãģªãģĦ":11151,"ãģĭãģ£ãģ¦ãĤĭãģ®":11152,"ãģĭãģĽãģ¦":11153,"ãģĭãģĭãĤĭ":11154,"ãģĭåĪĨãģĭãĤĭ":11155,"ãģĭãģĮãģ§ãģĻãģĭ":11156,"ãģ¨ä½ķãģĭ":11157,"ãģ¨ãĥķãĤ£":11158,"ãģ¨èĢĥãģĪ":11159,"ãģ¨æļ":11160,"ãģ¨æľ¬å½ĵãģ«":11161,"ãģ¨èģŀãģĦãģŁ":11162,"ãģĮãģ¨":11163,"ãģĮãģĿ":11164,"ãģĮãĤ¤":11165,"ãģĮèĩªåĪĨ":11166,"ãģĮèª°ãģĭ":11167,"ãģĮçĻº":11168,"ãģĮãģĤãģªãģŁãģ®":11169,"ãģĮãģĤãģªãģŁãģ«":11170,"ãģĮãģĬåīį":11171,"ãģĮãģĿãģ®":11172,"ãģĮãģĿãģĵ":11173,"ãģĮéĢĥãģĴ":11174,"ãģĮãģ§ãģįãģ¾ãģĽãĤĵ":11175,"ãģĮãģĿãģĵãģ«ãģĦãĤĭ":11176,"ãģĮãģĦãģªãģı":11177,"ãģĮèª°ãģªãģ®ãģĭ":11178,"ãģĮãģ£ãģĭãĤĬ":11179,"ãģĮãĤĪãģĦ":11180,"ãģĮãģ¤ãģĦãģŁ":11181,"ãĤĮãĤĴ":11182,"ãģ§ãĤĤãģĹ":11183,"ãģ§ãģĤãģªãģŁãģ¯":11184,"ãģ§è²·":11185,"ãģ§æľĢé«ĺ":11186,"ãģ§ãģŁãĤīãĤģ":11187,"ç§Ģ":11188,"ãģĻãģŁãĤģ":11189,"ãģĻãĤĵãģł":11190,"ãģĻãģłãģĳãģł":11191,"ç§ģãĤĪ":11192,"ç§ģãģ¯æľ¬å½ĵãģ«":11193,"ç§ģãģ®æģ¯åŃĲ":11194,"ç§ģãģ®çĽ®":11195,"ãĥ¼ãģ£":11196,"ãĥ¼ãĤ»":11197,"ãĥ¼ãĤ²":11198,"ãĥ¼ãĤ¸ãĤ§ãĥ³ãĥĪ":11199,"ãģĵãģ£ãģ¡":11200,"ãģĵãģ®åł´åĲĪãģ¯":11201,"ĠåĲ":11202,"Ġå¥½":11203,"ĠåĭĿ":11204,"Ġå£ģ":11205,"ĠåĲĮ":11206,"ĠåĮ»èĢħ":11207,"Ġåģ½":11208,"Ġå¸Ĥ":11209,"Ġå¹³åĴĮ":11210,"Ġå¸ĮæľĽ":11211,"Ġåĭĩ":11212,"ĠåĪ¶æľį":11213,"Ġåģ¥åº·":11214,"ĠåĺĺãĤĴãģ¤ãģĦãģŁ":11215,"ãģ¾ãģ£ãģ¦ãĤĭ":11216,"ãģ¾ãģ¾ãģ§":11217,"ãģ¾ãģģ":11218,"ãĤĤãģĤãĤĬãģ¾ãģĽãĤĵ":11219,"ãĤīãĤĮãģ¦ãģĦãģ¾ãģĻ":11220,"ãģ£ãģ¦ãģĵ":11221,"ãģ£ãģ¦ãģįãģ¦":11222,"ãģ£ãģ¦ãĤĤãģĦãģĦãģ§ãģĻãģĭ":11223,"Ġç§ģãģ®æīĭ":11224,"Ġç§ģãģ®æĹ¥":11225,"Ġç§ģãģ®éĥ¨å±ĭ":11226,"Ġç§ģãģ®éłŃ":11227,"ãĤĵãģĶ":11228,"ãģıãģ®ãģĭ":11229,"ãģıãģ¾ãģ§":11230,"ä½µ":11231,"ĠãĥĮ":11232,"ãģĹãģ¦ãģĹãģ¾ãģ£ãģŁ":11233,"ãģĹãģ¦ãģĬãģı":11234,"ãģĹãģ¦æŀľ":11235,"ãĤĬãģ§ãģĻ":11236,"ãĤĬãģŁãģıãģªãģĦ":11237,"ãĤĬåı£":11238,"ãĤĬãĤĵãģĶ":11239,"ãģ£ãģŁãģĦ":11240,"ãģ£ãģŁãģĵãģ¨ãģĮãģªãģĦ":11241,"ãĤ¹ãĤº":11242,"ãĤ¹ãĥĨãĤ£ãĥ³":11243,"ãĤ¹ãĥ©ãĤ°":11244,"ãģĵãģ¨ãģ§ãģĻãģĭ":11245,"ãģĵãģ¨ãģ«ãģªãģ£ãģ¦ãģĦãĤĭ":11246,"ãģĵãģ¨ãĤĴæľŁå¾ħ":11247,"ãĥ¼ãĥĮ":11248,"ãĥ¼ãĥı":11249,"ãĥ¼ãĥĶ":11250,"ãģįãĤĮãģªãģĦ":11251,"ãģįãģ¤ãģĦ":11252,"ãģįåı«ãģ¶":11253,"ãĥĥãĥĩ":11254,"ãĥĥãĥı":11255,"ãĥĥãĤ·ãĥ§":11256,"ä½ķãģĮèµ·":11257,"ä½ķãĤīãģĭ":11258,"ä½ķãĤĴãģĻãĤĭãģ®":11259,"ä½ķåįĥ":11260,"ä½ķå¹´ãĤĤ":11261,"ãĤĴæ¥½":11262,"ãĤĴæ±º":11263,"ãĤĴæŃĮ":11264,"ãĤĴæļĹ":11265,"ãĤĴæ¬ł":11266,"ãĤĴæ´Ĺ":11267,"ãĤĴæĤªåĮĸ":11268,"ãĤĴæĸŃ":11269,"ãģĿãģ°":11270,"ãģĿãģ®ãĤĪãģĨãģª":11271,"ãģĿãģ®åķıé¡Į":11272,"ãģĿãģ®æĹ¥":11273,"ãģ®å¨":11274,"ãģ®å£²":11275,"ãģ®åĩºæĿ¥":11276,"ãģ®å£ģ":11277,"ãģ®åºĥ":11278,"ãģ®åĪĳäºĭ":11279,"ãģ®åºĹ":11280,"ãģ®å±ħåł´æīĢ":11281,"ãģ®åŁºæľ¬çļĦãģª":11282,"ĠãĤ¶":11283,"ĠãĤº":11284,"ĠãĤį":11285,"ĠãģĤãģ®äºº":11286,"ãģ¯å¯":11287,"ãģ¯å°ıãģķãģª":11288,"ãģ¯åŃ¦æł¡":11289,"ãģ¯åħ¨ãģı":11290,"ãģ¯åŃĺåľ¨":11291,"ãģ¯å¸¸":11292,"ãģ¯å¸¸ãģ«":11293,"ãģ¯å«ĮãģĦãģł":11294,"Ġå½¼ãģ®å":11295,"Ġå½¼ãģĮæ":11296,"Ġå½¼ãģ¯å½¼":11297,"Ġå½¼ãģ«ä¼ļ":11298,"Ġå½¼ãģ«ä½ķ":11299,"Ġå½¼ãģ¯ãģĦãģ¤":11300,"Ġå½¼ãĤĴæŃ¢ãĤģ":11301,"ãģĹãģŁãģªãĤī":11302,"ãģĹãģŁãĤĤãģ®":11303,"ãģĹãģŁãĤĪãģĨãģ«":11304,"ãģĹãģŁãģĵãģ¨ãģ¯":11305,"ãģĹãģŁãģłãģĳãģł":11306,"ãģĹãģŁãģ®ãĤĪ":11307,"ãģĹãģŁãģĵãģ¨ãģ¯ãģªãģĦ":11308,"ãģĹãģŁæĸ¹ãģĮãģĦãģĦ":11309,"ãģķãģĤ":11310,"ãģķãģķ":11311,"ãģĦãĤĭãģ®ãģĭ":11312,"Ġæ¶Ī":11313,"Ġæįķãģ¾":11314,"Ġæ¹¿":11315,"Ġæ±ºå®ļ":11316,"Ġæ±Ĺ":11317,"ãģĳãģ¾ãģĻ":11318,"ãĤĴåĲĽ":11319,"ãĤĴåĸľ":11320,"ãĤĴåĭīå¼·":11321,"ãĤĴå¼ķãģ£å¼µ":11322,"ãĤĴåĭĿãģ¡":11323,"ãĤ¤ãĥĢ":11324,"ãĤ¤ãĥįãĤ¹":11325,"ãĤ¤ãĥ©ãĥł":11326,"ãĤ¤ãĥ¬ãĤ¤ãĥ³":11327,"ãĤ¤ãĥ¡ãĥ¼ãĤ¸":11328,"ãĤıãģĹãģĦ":11329,"ãĤıãģĽãģ¦ãģıãĤĮ":11330,"ãĤıãģļãģ«":11331,"ãģĪä¸ĬãģĮ":11332,"äººãĤĴå":11333,"äººãģ®ãĤĪãģĨãģ«":11334,"äººãģªãģ®ãģĭ":11335,"äººè³ª":11336,"ãĥĪãĤ³":11337,"ãĥĪãĤ¥":11338,"ãĥĪãĤ²ãĥ³":11339,"Ġç§ģãģ¯ç§ģ":11340,"Ġç§ģãģ¯ãĤ¹":11341,"Ġç§ģãģ¯ä½ķãģĭ":11342,"Ġç§ģãģ¯çĪ¶":11343,"Ġç§ģãģ¯ä¸Ģåº¦":11344,"Ġç§ģãģ¯æŃ»":11345,"Ġç§ģãģ¯ãģĵãģĵãģ«ãģĦãĤĭ":11346,"Ġç§ģãģ¯çµĲå©ļ":11347,"Ġç§ģãģ¯ãģĿãģĵãģ«":11348,"Ġç§ģãģ¯ãģĹãģŁãģıãģªãģĦ":11349,"Ġç§ģãģ¯èµ¤ãģ¡ãĤĥãĤĵ":11350,"Ġç§ģãģ¯äººçĶŁãģ§":11351,"Ġç§ģãģ¯ç½ªãĤĴçĬ¯":11352,"ãģĽãģļ":11353,"ãģĽãģļãģ«":11354,"è¨º":11355,"Ġ!!":11356,"æĢ¯":11357,"æĢł":11358,"ãģĻãĤĭãģ¨ãģĦãģĨ":11359,"ãģĻãĤĭãģ¾ãģ§":11360,"ãģĻãĤĭå¥³æĢ§":11361,"ãģĻãĤĭãģ¨æĢĿãģ£ãģŁ":11362,"ãģĻãĤĭãģĵãģ¨ãģ¯ãģ§ãģįãģ¾ãģĽãĤĵ":11363,"ãĥ«ãģ¯":11364,"ãĥ«ãĤ·":11365,"ãĥ«ãĥ¼ãĥªãĥ¼":11366,"ãģ¤ãģ¤":11367,"ãģ¤ãģĭãģªãģĦ":11368,"ãģ¤ãģªãģĮ":11369,"ãģĤãģªãģŁãģ¯ä½ķ":11370,"ãģĤãģªãģŁãģ®ä»ķäºĭ":11371,"ãģĤãģªãģŁãģ®æīĭ":11372,"ãģĤãģªãģŁãģ®æľĢ":11373,"ãģĤãģªãģŁãģ¯ä½ķãģĭ":11374,"ãĥªãĥ¥":11375,"ãĥªãĥĬ":11376,"ãĥªãĥ¼ãĥł":11377,"ĠãģĿãĤĮãģ¯ä½ķãģĭ":11378,"ĠãģĿãĤĮãģ¯å½¼ãģĮ":11379,"ĠãģĿãĤĮãģ«åĲĽ":11380,"ĠãģĤãģªãģŁãģ®åĲįåīį":11381,"ĠãģĤãģªãģŁãģ®åĨĻçľŁ":11382,"ĠãģĤãģªãģŁãģ¯æľ¬çī©":11383,"ĠãģĤãģªãģŁãģ¨è©±ãģĹãģŁãģĦ":11384,"ãĤģãģł":11385,"ãĤģãĤĭãģ®":11386,"ãĤģè¨Ģèĳī":11387,"ãĤģãģªãģĦãģ®":11388,"ãĤģãģ¡ãĤĥãģıãģ¡ãĤĥ":11389,"çĶ°":11390,"ãģ«åħ":11391,"ãģ«åĻ":11392,"ãģ«å¿ħè¦ģ":11393,"ãģ«åŃĲä¾Ľ":11394,"ãģ«åĭĿ":11395,"ãģ«åĥį":11396,"ãģ«åºĥ":11397,"ãģ«å¡Ĺ":11398,"ãģ«å°ĳå¥³":11399,"ãģ«å¼ķãģ£è¶Ĭ":11400,"è¡Ŀ":11401,"ãĥ©ãĥĥãĤ¯":11402,"ãĥ©ãĥĥãĥĹ":11403,"ãĥ©ãĥĶãĥ¼":11404,"ãĥ©ãĤ¸ãĤª":11405,"Ġãģĵãģ®ãģĵãģ¨":11406,"Ġãģĵãģ®æĻĤ":11407,"Ġãģĵãģ®æĻĤéĸĵ":11408,"Ġãģĵãģ¡ãĤīãģ¯":11409,"ãģ®æĬ":11410,"ãģ®æ¶Ī":11411,"ãģ®æ³¨æĦı":11412,"ãģ®æ¬ł":11413,"ãģ®æĶ¿æ²»":11414,"ãģ®æĥħåł±":11415,"ãģ®æ¤ľç´¢":11416,"å½¼ãģ¨":11417,"å½¼ãģ«ãģ¯":11418,"å½¼ãģ®ç":11419,"å½¼ãģĮç":11420,"å½¼ãģ¯ç§ģãģŁãģ¡":11421,"å½¼ãģ¯ãģ©ãģĨãĤĦãģ£ãģ¦":11422,"çŁĽçĽ":11423,"ãģĭãĤīãģĿãĤĮ":11424,"ãģĭãĤīãģ¨ãģĦãģĨ":11425,"æĢĿãģ£ãģ¦ãģĦãĤĭ":11426,"æĢĿãģĦãģ¾ãģĻãģĭ":11427,"æĢĿãģ£ãģ¦ãĤĭãģ®ãģĭ":11428,"ãģ£ãģ¦ãĤĭãģªãĤī":11429,"è¨ĢãģĪãĤĭ":11430,"è¨ĢãģĦãģ¾ãģĹãģŁ":11431,"è¨Ģãģ£ãģ¦ãģĦãĤĭãģ®ãģĭ":11432,"çŁ¥ãģ£ãģŁ":11433,"è¦ĭãģ¦ãģıãĤĮ":11434,"è¦ĭãģĽãģ¦":11435,"è¦ĭçŁ¥ãĤīãģ¬":11436,"ãģ¯æĿ¥":11437,"ãģ¯æĪ»":11438,"ãģ¯æ¶Ī":11439,"ãģ¯æĪ»ãģ£ãģ¦":11440,"ãģ¯æĸ°ãģĹãģĦ":11441,"è¡Įãģ£ãģ¦ãģıãĤĮ":11442,"è¡ĮãĤıãĤĮãģ¦ãģĦãĤĭ":11443,"ãģĤãĤĭãģĦ":11444,"ãģĤãĤĭãĤı":11445,"ãģĤãĤĭãģ®ãģĭ":11446,"ãģĤãĤĭæĹ¥":11447,"ãģĤãĤĭç¨":11448,"ãĤ¢ãĥ¼ãĥĪ":11449,"ãĤ¢ãĥľ":11450,"ãĤ¢ãĤ¯ãĤ·ãĥ§ãĥ³":11451,"ãĤ¢ãĥ¬ãĤ¯":11452,"ãĤ¢ãĤ«ãĤ¦ãĥ³ãĥĪ":11453,"ãĤ¢ãĤ«ãĥĩãĥŁãĥ¼":11454,"ãĤ¢ãĤ¤ãĥ«ãĥ©ãĥ³ãĥī":11455,"ãģĿãĤĮãģł":11456,"ãģĿãĤĮãĤĴçŁ¥":11457,"ãģĿãĤĮãģ¯ç§ģãģĮ":11458,"ãģĿãĤĮãĤĴçŁ¥ãģ£ãģ¦ãģĦãĤĭ":11459,"ãģĿãĤĮãģ¯æľ¬å½ĵ":11460,"ãģĿãĤĮãĤĴç½®ãģı":11461,"ãģĦãģĦãģ§ãģĻ":11462,"ãģĦãģĦãģĪ":11463,"ãģĦãģĦèĢĥãģĪ":11464,"ãģĦãģĦãģ®ãģ«":11465,"ãģĦãģĦãģĦãģĭ":11466,"ãĥīãĤ¦":11467,"ãĤĪãģĨãģ«å½¼":11468,"ĠçĹ":11469,"Ġç½®":11470,"ĠçĲĨè§£":11471,"Ġç²¾":11472,"Ġçĭ¬":11473,"ĠçĭĤãģ£ãģ¦ãĤĭ":11474,"ĠçªģçĦ¶":11475,"ĠçĨ±":11476,"ĠçīĽ":11477,"ĠçĻ¾":11478,"ĠçİĩçĽ´ãģ«":11479,"Ġä½ķãģ«ãģ¤ãģĦãģ¦":11480,"Ġä½ķãģłãĤĪ":11481,"Ġä½ķãĤĴãģĻãĤĭãģ®":11482,"Ġä½ķå¹´ãĤĤ":11483,"Ġä½ķãģ§ãĤĤãģªãģĦ":11484,"Ġä½ķãģ®çĤºãģ«":11485,"ãĤĦãĤīãģªãģĦ":11486,"ãĤĦãĤīãģĽ":11487,"ä¸ĢæĻĤ":11488,"ä¸Ģç¨®":11489,"ä¸ĢæĻ©ä¸Ń":11490,"ãĤįãģĦ":11491,"ãĤįãģĻ":11492,"ãĤįãģĹãģ¦":11493,"ãģ«æĮĩ":11494,"ãģ«æµģ":11495,"ãģ«æĸ°ãģĹãģĦ":11496,"ãģ«æīķ":11497,"ãģ«æİ¥":11498,"ãģ«æ³Ĭ":11499,"ãģĦãģŁãģļãĤī":11500,"ãģ¨æĢĿãĤıãĤĮãĤĭ":11501,"ãģĬãģįãģ¾ãģĻ":11502,"ãģĬãĤģãģ§ãģ¨ãģĨ":11503,"ãģĬãĤĤãģ¡ãĤĥ":11504,"ãģĬãģĺãģķãĤĵ":11505,"ãģĬå¬¢":11506,"ĠãģĿãģĨãģ§ãģĻ":11507,"ĠãģĿãģĨãģĻãĤĭ":11508,"ĠãģĿãģĨãģĹãģªãģĦãģ¨":11509,"ĠãģĿãģĨãģ¯æĢĿãģĦãģ¾ãģĽãĤĵ":11510,"ãģĦãģ¦ãģıãģłãģķãģĦ":11511,"ãĤ·ãĤ¹":11512,"ãĥ¬ãĤ«":11513,"ãĥ¬ãĤªãĥ³":11514,"ãĥĥãĤ¯ãĤ¤ãĥ³":11515,"ãĥŃãĤ¤":11516,"ãĥŃãĥķ":11517,"ãĥŃãĤ¦":11518,"ãĥŃãĤ¤ãĥ³":11519,"ãĥŃãĥ¼ãĥŀ":11520,"ãĥŃãĥ«ãĥī":11521,"ãĥŃãĤ¹ãĥĪãĥ³":11522,"äºĭãģ§":11523,"äºĭä¼ļ":11524,"ãĤ¸ãĥĥãĤ¯":11525,"ãĤ¸ãĥ³ãĤ°":11526,"ãĥķãĥĥãĥī":11527,"è©±ãģĹ":11528,"è©±ãĤĴãģĻãĤĭ":11529,"è©±ãģĹãģŁãģĦ":11530,"è©±ãĤĴãģĹãģŁãģĦ":11531,"è©±ãģĽãģªãģĦ":11532,"ãģ«ãģ¯ãģªãģĦ":11533,"ãģ«ãģ¯ãģ©ãģĨ":11534,"ãģ«ãģ¯çĲĨçĶ±":11535,"ãģ«ãģ¯ãģĤãģ¾ãĤĬãģ«ãĤĤ":11536,"ãģ«ãģ¯éĸ¢ä¿ĤãģªãģĦ":11537,"ãģªãĤīéĽ»è©±":11538,"ãģıãĤĮãģŁ":11539,"å®ĩå®Ļ":11540,"å®ĿçŁ³":11541,"ãģĭãģ£ãģŁãģ®":11542,"ãģŁãĤģãģł":11543,"ãģĤãĤĬãģ¾ãģĹãģŁãģĭ":11544,"ãģĤãĤĬå¾Ĺ":11545,"ãĤ¿ãĥķ":11546,"ãĤ¿ãĥĥãĥĹ":11547,"ãĤ¿ãĤ¯ãĤ·ãĥ¼":11548,"ãĤ¿ãĥŁãĥ³":11549,"èª°ãģĮç§ģ":11550,"ãģ®ç¢º":11551,"ãģ®çĭĤ":11552,"ãģ®çĹħæ°Ĺ":11553,"ãģ®çŃĶãģĪ":11554,"ãģ®ç²¾ç¥ŀ":11555,"ãģ®çĻ½":11556,"ãģ®çı¾éĩĳ":11557,"ãģ®çŀ¬éĸĵãģ«":11558,"ãģ®çĿ¡çľł":11559,"éĸĵäºº":11560,"åĪĨãģĭãĤĬãģ¾ãģĻãģĭ":11561,"ãģĮæľŁå¾ħ":11562,"ãģĮæ®ºãģķãĤĮãģŁ":11563,"ãģĮæĤªãģĭãģ£ãģŁ":11564,"ãģĮæ¸ĩ":11565,"ãģĺãĤĥãģªãģĦãģªãĤī":11566,"ãģĺãĤĥãģªãģĦãģĳãģ©":11567,"ĠèĤ":11568,"Ġèĳ":11569,"Ġè¸Ĭ":11570,"Ġè¤ĩ":11571,"Ġè¾ŀ":11572,"ĠèĪĪå¥®":11573,"Ġè±ª":11574,"ãģ®ãĥİ":11575,"ä»ĬãģĻãģĲãģ«":11576,"åīįãģ«å":11577,"åīįãģ«ãģ¯":11578,"ãĤĴç¯":11579,"ãĤĴç·":11580,"ãĤĴçī¹":11581,"ãĤĴç¦ģæŃ¢":11582,"ãģĮãģĤãĤĭãģĵãģ¨ãĤĴ":11583,"ãģĮãģĤãĤĭãģłãģĳãģł":11584,"ãģĹãģĦåıĭäºº":11585,"ãĤ«ãĤ´":11586,"ãĤ«ãĥ«ãĥī":11587,"ãĤ«ãĥĥãĥĹãĥ«":11588,"ãĤĴè¦ĭãģ¤":11589,"ãĤĴè¦ĭãĤĭãģ¨":11590,"ãĤĴè¦ĭåĽŀ":11591,"ãĤĴè¦ĭãĤĭãģĵãģ¨":11592,"ãĤĴè¦ĭãģĽãģ¦ãģıãĤĮ":11593,"ãĤĴè¦ĭãĤĭãģĵãģ¨ãģĮãģ§ãģįãģ¾ãģĻ":11594,"ãģ«ãģªãĤĭãģ®ãģ¯":11595,"éĩ£":11596,"Ġãģ©ãģ£ãģ¡":11597,"ãģ£ãģ¦ãģĦãĤĭéĸĵãģ«":11598,"ãģĮåľ°":11599,"ãģĮå§ĭ":11600,"ãģĮåĭķ":11601,"ãģĮåĦª":11602,"ãģĮåĲĮãģĺ":11603,"ãĥĨãĥ¬":11604,"ãĥĨãĥ©ãĤ¤ãĥĪ":11605,"ãĥŀãĥ¼ãĥ«":11606,"ãĥŀãĥ³ãĥĪ":11607,"ãĥŀãĤ¤ãĥ³ãĥī":11608,"ãĥŀãĥªãĤªãĥ³":11609,"ãĥŀãĤŃãĥ£ãĥķãĥªãĥ¼":11610,"ãĥĹãĥ¼ãĥ«":11611,"ãĥĹãĥ¬ãĥĥ":11612,"ãĥĹãĥ¬ãĤ¼ãĥ³ãĥĪ":11613,"ãĥĹãĥ©ãĤ¹ãĥģãĥĥãĤ¯":11614,"ãĥĩãĥĸ":11615,"ãĥĩãĥĥãĥĪ":11616,"ãĥĩãĥ¢":11617,"ãĥĩãĥ¥ãĥ¼ãĤ¹":11618,"ãĥĩãĤ¦ãĤ¹":11619,"ãĥĩãĤ¸ãĤ¿ãĥ«":11620,"ãĥĩãĤ«ãĥ«ãĥī":11621,"ãģ¯çĭĤ":11622,"ãģ¯çģ«":11623,"ãģ¯ç©º":11624,"ãģ¯çĲĨè§£":11625,"ãģ¯çī¹":11626,"ãģ¯çŃĶãģĪ":11627,"ãģ¯çĭĤãģ£ãģ¦ãĤĭ":11628,"ãģ¯çĹħéĻ¢":11629,"ãģ¯çĻ½":11630,"ĠãģĬæīĭä¼ĿãģĦ":11631,"ĠãģĬçĪ¶æ§ĺ":11632,"ĠãģĵãĤĮãģ¯å½¼":11633,"ĠãģĵãĤĮãĤĴè¦ĭãģ¦":11634,"ĠãģĵãĤĮãģĮå½¼":11635,"ãĤĮãģ¦ãģŁ":11636,"ãĤĮãģ¦ãģĦãģªãģĦ":11637,"ãģłãģĳãģªãĤī":11638,"ĠåĲĽãģ®æ":11639,"ĠåĲĽãĤĴçŁ¥ãģ£ãģ¦ãĤĭ":11640,"ĠåĲĽãģ¯ãģĦãģ¤ãĤĤ":11641,"ĠåĲĽãģ¯çĦ¡":11642,"ãĤĤãģ®ãģ«":11643,"ãĤĤãģ®ãģ«ãģªãĤĭ":11644,"ãĤĤãģ®ãĤĴæīĭãģ«åħ¥ãĤĮãģŁ":11645,"ãĤĤãģ®ãĤĤãģĤãĤĭ":11646,"Ġéĺ²":11647,"Ġé¦ĸ":11648,"Ġéľĩ":11649,"ãĤ¦ãĥ¢":11650,"ãĤ¦ãĤµãĤ®":11651,"æī¿":11652,"æī±ãģĦ":11653,"ãĥĳãĤ¤":11654,"ãĥĳãĥ³ãĤ¯":11655,"ãĥĳãĤ¤ãĥŃãĥĥãĥĪ":11656,"ãĥĳãĥŃãĥĥãĥĪ":11657,"ãģĪãģ¦ãģĦãģªãģĦ":11658,"ãĤĴèŃ¦":11659,"ãĤĴèĪĲ":11660,"ä¸Ńæ¯Ĵ":11661,"å¾Ħ":11662,"ãģĹãģ¦ãģĦãĤĭãģĭãĤĤãģĹãĤĮãģªãģĦ":11663,"ãģĹãģ¦ãģĦãĤĭéĸĵãģ«":11664,"ãģĹãģ¦ãģĦãĤĭãĤĪãģĨãģ«è¦ĭãģĪãĤĭ":11665,"ãģ©ãģĨãģĦãģĨæĦıåĳ³":11666,"ãģ©ãģĨãģĹãģ¾ãģĻãģĭ":11667,"ãģ©ãģĨãģĹãģŁãĤĵãģł":11668,"ãģ©ãģĨãĤĤãģĤãĤĬãģĮãģ¨ãģĨ":11669,"ãģ©ãģĨæĢĿãģĦãģ¾ãģĻãģĭ":11670,"ãģ®éĹ":11671,"ãģ®éĺ²":11672,"ãģ®é¼»":11673,"ãģ®éĮ¨":11674,"ãĥ¼ãĥ«ãģ§":11675,"ãĥ¼ãĥ«èĪ¹éķ·":11676,"ãģ®ãģŁãĤģãģłãģ£ãģŁ":11677,"ãģ®ãģŁãĤģãģ«å½¼":11678,"ãģ®ãģŁãĤģãģ«æĿ¥ãģŁ":11679,"ãģ®èī¯":11680,"ãģ®èº«":11681,"ãģ®èī²":11682,"ãģ®è£ģ":11683,"ãģ®è£ı":11684,"ãģ®è¢ĭ":11685,"ãģ®èĤī":11686,"ãģ®èĨĿ":11687,"ãģ®èĬĿ":11688,"ãģ®èĳ¬å¼ı":11689,"ãģ¯å½¼ãĤĴæĦĽ":11690,"ãģĿãģĨãģĭ":11691,"ãģĿãģĨãģĺãĤĥãģªãģĭãģ£ãģŁ":11692,"Ġå½¼å¥³ãĤĴ":11693,"Ġå½¼å¥³ãĤĤ":11694,"Ġå½¼å¥³ãģ¯ãģ©ãģĨ":11695,"Ġå½¼å¥³ãģ¯æľ":11696,"Ġå½¼å¥³ãģ¯åĲĽ":11697,"Ġå½¼ãģ¯ãĤĤãģĨ":11698,"Ġå½¼ãģ¯ä½ķãģĭ":11699,"Ġå½¼ãģ¯ãģĵãģĵ":11700,"Ġå½¼ãģ¯ãģĻãģ¹ãģ¦":11701,"Ġå½¼ãģ¯ãģŁãģł":11702,"Ġå½¼ãģ¯ãģĤãģªãģŁãģ«":11703,"Ġå½¼ãģ¯èª°ãģ§ãģĻãģĭ":11704,"Ġå½¼ãģ¯èĩªåĪĨãģ®":11705,"ãĤ³ãĥĥãĤ¯":11706,"ãĤ³ãĤ¤ãĥ³":11707,"ãĤ³ãĥ¢":11708,"ãĥĸãĥ³":11709,"ãĥĸãĤº":11710,"ãĥĸãĥīãĤ¥":11711,"ãĥĸãĤ·ãĥ£ãĥ¼":11712,"ĠãģĦãģĦãĤĪ":11713,"ĠãģĦãģĦåŃĲãģł":11714,"åħħ":11715,"åħļ":11716,"çĶ·ãģ®ãģŁãĤģãģ«":11717,"ãģ¿ãĤĴ":11718,"åı¯æĦĽãģĦ":11719,"ãĥĲãĤ¤":11720,"ãĥĲãĥĥãĥĪ":11721,"ãĥĲãĥĨãĤ£":11722,"ãĥĲãĥ©ãĥ³ãĤ¹":11723,"ä¼ļãģĨ":11724,"ä¼ļãĤıãģªãģĦ":11725,"ä¼ļè¨Ī":11726,"Ġç§ģãģŁãģ¡ãģ¯ä½ķ":11727,"Ġç§ģãģŁãģ¡ãģ¯å½¼ãĤĴ":11728,"ãģķãĤĵãģ§ãģĻ":11729,"ãĤĤãģĹãĤįãģĦ":11730,"ĠãģĿãģĨãģłãĤįãģĨ":11731,"ãĤŃãĥĦ":11732,"ãĤŃãĥ³ãĤ¹":11733,"ãĤĮãģŁæĻĤ":11734,"ãĥģãģł":11735,"åĲ¹ãģįé£Ľãģ°":11736,"ãģłãģ£ãģŁãĤĵãģł":11737,"ãģ¯ä½ķæŃ³":11738,"ãģ¯ä½ķãģ§ãĤĤãģĹ":11739,"å¿ł":11740,"ãĤºãĥ¼ãĥª":11741,"ãĤºãĥľãĥ¼ãĥ³":11742,"å½±éŁ¿":11743,"ĠãģªãĤĵãģ§ãĤĤ":11744,"ãĤĭãģ®ãĤĴæŃ¢ãĤģ":11745,"ãĥĵãĥ¥":11746,"ãĥĵãĥ¼ãĥ³":11747,"ãĥĵãĤ¢ãĥ³":11748,"ãĥĵãĤ¢ãĥ³ãĤ«":11749,"ãĤµãĥ©":11750,"ãĤµãĥ³ãĥĩãĤ£":11751,"ãĤµãĥ¤ãĤ¤ãĥ³":11752,"ĠãģĿãĤĮãģ¯ãģĭãģªãĤĬ":11753,"ĠãģĿãĤĮãģ¯ãĥ«ãĥ¼ãĥ«":11754,"ĠãģĿãĤĮãģ¯ãģĻãģĶãģĦ":11755,"ãĤĪãģĨãģ«ãģŃ":11756,"ãĤĪãģĨãģ«èģŀãģĵãģĪãĤĭ":11757,"éĽħ":11758,"Ġ24":11759,"Ġ27":11760,"æĻĤãģł":11761,"æĻĤç§ģãģ¯":11762,"æĻĤå½¼ãģ¯":11763,"æĻĤãģ¾ãģ§":11764,"æĻĤæľŁ":11765,"ãĥĭãĥ³":11766,"ãĥĭãĥ§":11767,"ãĥĭãĥ¼ãĤ¹":11768,"ä¸ĬãĤĮ":11769,"ãģĵãģ¨ãĤĴãģĻãģ¹ãģ¦":11770,"ãģĵãģ¨ãĤĴè¨Ģãģ£ãģŁ":11771,"ãģĵãģ¨ãĤĴçŁ¥ãĤīãģªãģĦ":11772,"ãģĵãģ¨ãĤĴçŁ¥ãģ£ãģ¦":11773,"ãģ¨æĢĿãģĨãģ®ãģ¯":11774,"Ġä»Ĭãģ®ãĤĪãģĨãģ«":11775,"çīĪ":11776,"ãģĦãģªãģĦãģ®ãģĭ":11777,"°ĳãģª":11778,"Ġæľī":11779,"çµµ":11780,"ãĤĤãģĨãģ¨":11781,"ĠãģĤãģªãģŁãģ¯ãģĵ":11782,"ĠãģĤãģªãģŁãģ¯ãģ©ãģĨ":11783,"ĠãģĤãģªãģŁãģ¯ãģŁãģł":11784,"ĠãģĤãģªãģŁãģ¯ãĤıãģĭ":11785,"èĢħãĤĦ":11786,"èĢħãģ«ãģªãĤĭ":11787,"ãĤªãĥ¼ãĥĲ":11788,"ãĤªãĥ¼ãĥĲãĥ¼":11789,"Ġãģ§ãĤĤå½¼å¥³":11790,"Ġãģ§ãĤĤãģĿãĤĮãģ¯":11791,"Ġãģ§ãĤĤåĲĽãģ¯":11792,"Ġãģ©ãģĨãģĹãģŁ":11793,"Ġãģ©ãģĨãģĻãĤĮãģ°":11794,"ãģ¨è¨ĢãĤıãĤĮãģ¦ãģĦãģ¾ãģĻ":11795,"ãĥªãĥ¼ãģ¯":11796,"ä¿ºãģĮ":11797,"ä¿ºãģł":11798,"ãĥ¼ãĥĪãģ«":11799,"ãĥ¼ãĥĪãģ¨":11800,"æ°Ĺãģł":11801,"æ°ĹãģĺãĤĥãģªãģĦ":11802,"è¡ĮãģıãģªãĤī":11803,"ãģ«ãģ¤ãģĦãģ¦ãģ§ãģĻ":11804,"ãģ«ãģ¤ãģĦãģ¦èĢĥãģĪãĤĭ":11805,"ãģ«ãģ¤ãģĦãģ¦èŃ°è«ĸ":11806,"ãĤ¹ãĥĪãĥ¬ãĥ¼ãĥĪ":11807,"ãĤ¹ãĥĪãĥ¬ãĥ¼ãĤ¸":11808,"ãĥ¡ãĤ¤":11809,"ãĥ¡ãĤ¿ãĥ³":11810,"ãĥ¡ãĥŃãĥ³":11811,"ãĥ¡ãĤ¬ãĥį":11812,"ãĥ§ãĥ«ãĥ³":11813,"®ºãģĹ":11814,"åºĬ":11815,"æĹ¥ãģł":11816,"é£¾":11817,"åĩºãģķãĤĮãĤĭ":11818,"åĩºãģĭãģĳ":11819,"Ġãģªãģľç§ģãģ¯":11820,"Ġãģªãģľä¿º":11821,"ĠãģªãģľãģĤãģªãģŁãģ¯":11822,"ĠãģªãģľéĽ»è©±":11823,"Ġãģªãģľãģĵãģĵãģ«ãģĦãĤĭãģ®":11824,"Ġãģªãģľæ°Ĺãģ«ãģĻãĤĭ":11825,"ãĤĮãĤĭãģĭ":11826,"ãĤĮãĤĭãģ®ãģĭ":11827,"ãģĵãģ¨ãģ¯è¨±":11828,"ä¾®è¾±":11829,"¹´é½¢":11830,"ãĤ¨ãĥ¬":11831,"ãĤ¨ãĥŀ":11832,"ãĤ¨ãĥ¼ãĥ«":11833,"ãĤ¨ãĥł":11834,"ãĤ¨ãĥĩãĤ£":11835,"ãģ®ãģ¯ãĤĦãĤģãģ¦":11836,"ãĤ½ãĥªãĥ³":11837,"ãĤ½ãĥ¼ãĤµãĥ¼":11838,"ãģ«ãģªãĤĭãģ¨æĢĿãģĨ":11839,"ãģ«ãģªãĤĭãģ¨æĢĿãģĦãģ¾ãģĻ":11840,"ãĤĴåı³":11841,"ãĥĬãĥ³":11842,"ãĤ¤ãĥ³ãģ§":11843,"ãĤ¤ãĥ³ãĤ¿ãĥ¼ãĥ³":11844,"ãģŁãģĦãģ¨æĢĿãģ£ãģ¦ãĤĭ":11845,"æĢ§ãģ®ãģĤãĤĭ":11846,"æĢ§äº¤":11847,"çī©ãĤĦ":11848,"çī©èªŀ":11849,"åĭ§ãĤģ":11850,"ãĥŁãĥ¥ãĥ¼ãĥ©ãĥ¼":11851,"ãģ«åħ¥ãģ£ãģ¦ãģĦãĤĭ":11852,"ãģ«åħ¥ãĤĮãģ¦":11853,"ãģ«åħ¥éļĬ":11854,"ãģ«åħ¥ãģ£ãģ¦ãģįãģŁ":11855,"ĠãĤ¸ãĥŁãĥ¼":11856,"å½¼å¥³ãģ¨":11857,"å½¼å¥³ãģł":11858,"å½¼å¥³ãģ¯æ":11859,"éģķãģĦãģ¾ãģĻ":11860,"ãĥ©ãĥ³ãĤ°":11861,"ãģĵãĤĮãģ¯æľ¬å½ĵãģ«":11862,"ç´ĭ":11863,"ĠäººãģĦãĤĭ":11864,"Ġäººãģ®äººãģĮ":11865,"å¼ģ":11866,"ãģıãģłãģķ":11867,"ãĥĢãĥ³ãģ¯":11868,"ãĥĢãĥ¼ãĥªãĥ³ãĤ°":11869,"ç§ģãģŁãģ¡ãģĮæ":11870,"åįĴ":11871,"åįł":11872,"åįĬåĪĨ":11873,"æ³¥æ£Ĵ":11874,"ãĥĨãĤ£ãģ¨":11875,"ãĥĨãĤ£ãĤ¹":11876,"ãĥĨãĤ£ãĤ¢":11877,"èµ¤ãĤĵåĿĬ":11878,"ãģ®ä¸Ńãģ®æ":11879,"ãģ®ä¸Ńãģ«ãģĦãģŁ":11880,"ãĤ±ãĤ¹":11881,"ãĤ±ãĥ¼ãĥĸãĥ«":11882,"å¤§åŃ¦":11883,"ĪĨéĩİ":11884,"ĪĨå¼¾":11885,"ãĤ¬ãĥ©ãĤ¹":11886,"ãĤ¬ãĥ³ãģķãĤĵ":11887,"ãĤ»ãĥ¼ãĥ«":11888,"ãĤ»ãĤŃãĥ¥ãĥªãĥĨãĤ£":11889,"ãĥĩãĤ£ãĥ¬ãĤ¯ãĤ¿ãĥ¼":11890,"Ġãģ¾ãĤĭ":11891,"ä½ķãģĭçŁ¥ãģ£ãģ¦ãĤĭ":11892,"ãĥ¼ãĥ³ãĤĴ":11893,"éłĲéĩĳ":11894,"ĠãģĤãģªãģŁãģĮå½¼":11895,"ĠãģĤãģªãģŁãģĮå¥½ãģį":11896,"ãģ§ãģ¯ãģªãģĦãģĮ":11897,"ãĤĴãģĻãĤĭãģŁãĤģ":11898,"ãĤĴãģĻãĤĭãģĵãģ¨ãģ¯ãģ§ãģįãģªãģĦ":11899,"ä¸ĭãĤĬ":11900,"ä¸ĭãģ«ãģĤãĤĭ":11901,"ãģ«èº«":11902,"ãģ«è¸Ĭ":11903,"ãģ«èħ¹":11904,"ãģ«è¥²ãĤıãĤĮãģŁ":11905,"ãģ®äººãģĮå":11906,"ãģĵãģĵãģĭãĤīåĩº":11907,"ãģĵãģĵãģ«æ»ŀåľ¨":11908,"ĠãĥŀãĥªãĤªãĥ³":11909,"Ġãĥŀãĥ¼ãĤ«ãĤ¹":11910,"ãĥ³ãĤ°ãĥ«":11911,"ĠãĤ¢ãĥ¬":11912,"ĠãĤ¢ãĤ¦ãĥĪ":11913,"ĠãĤ¢ãĥķãĥªãĤ«":11914,"ãģķãģĽãģ¾ãģĹãģŁ":11915,"ãģķãģĽãģŁãģıãģªãģĦ":11916,"èĩªåĪĨãģŁãģ¡":11917,"ä»ĸãģ®çĶ·":11918,"ä»ĸãģ®çļĨ":11919,"ãĥĶãĥ¼ãĥĬãĥĥãĥĦ":11920,"ãĥĻãĥĥãĥĪ":11921,"ãĥĻãĥ¼ãĤ¹":11922,"ãĥĻãĥĥãĤŃãĥ¼":11923,"Ġç§ģãģ¯åħ":11924,"Ġç§ģãģ¯åĲĽ":11925,"Ġç§ģãģ¯å¿ĥ":11926,"Ġç§ģãģ¯åĮ»èĢħ":11927,"Ġç§ģãģ¯å¹³æ°ĹãĤĪ":11928,"å½¼ãĤīãģ®":11929,"ä¸Ģç·Ĵãģ«ãģĦãĤĭ":11930,"åĳ³ãģĹãģĦ":11931,"ãĥıãĥ©":11932,"ãĥıãĥ¼ãĥĩãĤ£":11933,"çĻĴ":11934,"éĥ¨è£ľ":11935,"æŃ´":11936,"æŃĵè¿İ":11937,"Ġãģ¤ãģ®ãģĵãģ¨":11938,"Ġç§ģãģŁãģ¡ãģ¯èŃ¦å®ĺ":11939,"Ġç§ģãģŁãģ¡ãģ¯ãģ¡ãĤĩãģĨãģ©":11940,"Ġç§ģãģŁãģ¡ãģ¯ãģĬäºĴãģĦ":11941,"å¯Ĵ":11942,"ĠãģĿãĤĮãģ§ç§ģ":11943,"ĠãģĿãĤĮãģ§å½¼ãģ¯":11944,"ľŁéĻĲ":11945,"ľŁåī£":11946,"åĬĩ":11947,"ãģıãģªãģĦãģ®":11948,"ãĤĦãģ£ãģ¦ãģįãģŁ":11949,"å¾Įãģ«ãģ¯":11950,"æ³ķèĢħ":11951,"æ³ķå¾ĭ":11952,"ãģ¯ãģ©ãģĨãģĦãģĨæĦıåĳ³":11953,"ãģĻãģŀ":11954,"ãģ«çı¾":11955,"ãģ«çľł":11956,"ãģ«ç²¾":11957,"ãģ¨ãģĹãģ¦çŁ¥":11958,"ãģ¨ãģĹãģ¦ãģĦãģªãģĦ":11959,"ãĥ³ãĥīãĥ«":11960,"ä½ľæĪ¦":11961,"ä½ľåĵģ":11962,"ĠãģĿãģĨãģĺãĤĥãģªãģĦãģĭ":11963,"ãģĭãĤĤãģĹãĤĮãģªãģĦãģ¨æĢĿãģ£ãģŁ":11964,"ãĥįãĥ¼ãĤ·ãĥ§ãĥ³":11965,"ãģĹãģŁãģĦãģłãģĳãģł":11966,"ĠãģķãĤĵ":11967,"ĠãģķãĤīãģ«":11968,"ä½ķãĤĴãģĹãģ¦ãĤĭãģ®":11969,"ä½ķãĤĴãģĹãģ¦ãĤĭãĤĵãģł":11970,"ãģ¨ãģ¦ãĤĤè¦ªåĪĩ":11971,"ãģ¨ãģ¦ãĤĤå¿ĥéħį":11972,"ãģĦãģ¾ãģĹãģŁãģĮ":11973,"ĠãģĦãĤĦãģ¾ãģł":11974,"ĠãģĦãĤĦåĲĽãģ¯":11975,"èµ·çĪĨ":11976,"èµ·è¨´":11977,"ãģ§ãģĹãĤĩãģĨãģŃ":11978,"ĠãģĹãĥ¼ãģ£":11979,"æĿ¥ãģªãģĦ":11980,"æĿ¥ãģ¾ãģĹãģŁ":11981,"ãĥ¯ãĤ¤ãĥ³":11982,"è¨ĢãģĨãģ¨":11983,"ãģ®ãģĵãģ¨ãģłãĤĪ":11984,"Ġç§ģãģ¯ãģĤãģªãģŁãģ¨ä¸Ģç·Ĵãģ«":11985,"Ġç§ģãģ¯ãģĤãģªãģŁãĤĴä¿¡ãģĺ":11986,"Ġç§ģãģ¯ãģĤãģªãģŁãģ«ãģĿãĤĮ":11987,"ãĤĴåıĸãģ£ãģ¦ãģıãĤĮãģªãģĦãģĭ":11988,"ãģĿãĤĮãĤĴçŁ¥ãģ£ãģ¦ãĤĭ":11989,"ãģ«ãģĦãĤĭãģ¨æĢĿãģĨ":11990,"ãģ«ãģĦãĤĭéĸĵãģ«":11991,"ãģĤãģ£ãģŁãĤī":11992,"è¨Ģãģ£ãģŁãģ®":11993,"ĠåĲĽãģ¯èĩªåĪĨ":11994,"Ġå¤«":11995,"æīĭãģł":11996,"æīĭãģ§":11997,"æīĭè¡ĵ":11998,"æīĭãģ«åħ¥ãĤĮ":11999,"æīĭæķ°æĸĻ":12000,"æĦıå¿Ĺ":12001,"ãģ¤ãĤĤãĤĬãģĭ":12002,"ãģ¤ãĤĤãĤĬãĤĪ":12003,"ãģ¤ãĤĤãĤĬãģ§ãģĻãģĭ":12004,"ãģ¤ãĤĤãĤĬãģ¯ãģªãģĭãģ£ãģŁ":12005,"Ġãĥķãĥ©":12006,"Ġãĥķãĥ©ãĤ¤ãĥĪ":12007,"ãĥªãĥĥãĤ¯ãģ¨":12008,"ĠãĤĤãģĨãģĦãģĦ":12009,"ĠãĤĤãģĨå¯Ŀ":12010,"ĠãĤĤãģĨçµĤãĤıãĤĬãģł":12011,"ĠãĤĤãģĨåįģåĪĨãģł":12012,"èī¯ãģıãģªãģ£ãģŁ":12013,"ãĤĴæ®ºãģķãģªãģĳãĤĮãģ°ãģªãĤīãģªãģĦ":12014,"ãģķãĤĮãģ¦ãģŁ":12015,"ãģķãĤĮãģ¦ãĤĭãģ®ãģĭ":12016,"Ġå½¼ãĤīãģ¯ãģĿãĤĮ":12017,"Ġå½¼ãĤīãģ¯ãĤĤãģĨ":12018,"Ġå½¼ãĤīãģ¯è¡Įãģı":12019,"ĠãĤ¹ãĤŃãĥĥãĥĳãĥ¼":12020,"ãĥİãĤ¹":12021,"ãģ£ãģ¦ãģŁãĤĵãģł":12022,"ãģ§ãģįãĤĭãģĭ":12023,"ãģ§ãģįãĤĭãģĵãģ¨":12024,"ãģ§ãģįãĤĭãģĭãģ©ãģĨãģĭ":12025,"ãģªãģıãģ¦ãĤĤãģĦãģĦ":12026,"ãģ«è¡Įåĭķ":12027,"ãģ«è¡Įãģ£ãģŁãģ®ãģĭ":12028,"ãģ«è¡Įãģįãģ¾ãģĹãģŁ":12029,"ãĥ¼ãĥłãĤ¹":12030,"ãĥĿãĥĥãĥĪ":12031,"ãĥĿãĥ¼ãĥĦ":12032,"ãĥĿãĥ¼ãĤ¿ãĥ¼":12033,"å¤ľãĤĴ":12034,"°ıåĪĩæīĭ":12035,"è³ŀ":12036,"ĠãĤ¯ãĥŃãĥĥãĤ¯":12037,"ĠãģĵãĤĮãģ¯èī¯ãģĦ":12038,"ĠãģĵãĤĮãģ¯èª°ãģł":12039,"ãģ«ãģĻãĤĭãģĵãģ¨ãģĮãģ§ãģįãĤĭ":12040,"ãģ«ãģĻãĤĭå¿ħè¦ģãģĮãģĤãĤĬãģ¾ãģĻ":12041,"ãģ«ãģĻãĤĭãģªãĤĪ":12042,"ĠãģĻãģ¾":12043,"ĠãģĻãģĦãģ¾ãģĽãĤĵ":12044,"éģĭè³ĥ":12045,"ä¹ı":12046,"ãĥ©ãĤ¤ãĤª":12047,"ãĥ©ãĤ¤ãĥĴ":12048,"ãĥ©ãĤ¤ãĤ¢ãĥ³ãĥĪ":12049,"Ġä½ķãģĭè¨ĢãģĨ":12050,"Ġä½ķãģĭé£Łãģ¹":12051,"å®Łè¡Į":12052,"å®Łé¨ĵ":12053,"ãĤĪãĤĬå¤§ãģįãģª":12054,"ãģ®å¤ķé£Ł":12055,"å¹´ãģ®":12056,"å¹´åīį":12057,"å¹´å¯ĦãĤĬ":12058,"Ġãĥĩãĥ¼ãĥĪ":12059,"ãģ¨ãģ¯çŁ¥ãĤīãģªãģĭãģ£ãģŁ":12060,"ãģ¨ãģ¯è¨Ģãģ£ãģ¦ãģªãģĦ":12061,"ãģ£ãģ¦ãģĦãģŁãģ®":12062,"ãģ£ãģ¦ãģĦãģŁãģĮ":12063,"ãĥĽãĥĥ":12064,"ãģ«ãĤĤãģªãĤĭ":12065,"ãģ«ãĤĤåĲĮãģĺ":12066,"Ġç§ģãģ¯å½¼ãĤĴ":12067,"Ġç§ģãģ¯å½¼ãĤīãģ«":12068,"ãģ®åıĶ":12069,"ãģ®åıĸãĤĬ":12070,"ãģ®åıįå¯¾åģ´":12071,"ãģ®åıĭæĥħ":12072,"éĢ£ç¶ļ":12073,"éĢ£éĤ":12074,"å¾ħãģŁ":12075,"å¥½ãģįãģª":12076,
[...]
