#version: 0.2 - Trained by `huggingface/tokenizers`
ã ģ
ã Ĥ
ã ĥ
ãģ Ħ
ãģ ®
ãģ ¯
ã Ģ
ãģ ª
ãģ Ł
ãģ ¦
ãģ «
ãĤ Ĵ
ãĤ ĭ
Ġ ãģ
ãģ Ĺ
ãĢ Ĥ
ãģ ĭ
ãģ ¨
ãģ Į
ãģ £
ãģ ł
ãĤ Į
ãģ §
ç §
ãģ Ļ
ç§ ģ
ãĥ ¼
ãĢ ģ
ãģ Ĩ
Ġ ?
ãģ ĵ
ãģª ãģĦ
Ġ å
ãģ ¾
ãĤ Ĥ
ãĤ ī
ãģ Ĥ
ãĥ ³
½ ¼
ãģ£ ãģ¦
Ġ ç§ģ
ãĤ ĵ
ãģ ı
ä ½
Ġ ãĥ
ãģª ãģŁ
ä ¸
ãģĹ ãģ¦
ä º
Ġãģ Ŀ
ãĤ Ĭ
ãģ£ ãģŁ
ãĤ Ī
ãĤ ¹
ãģĵ ãģ¨
ãĥ¼ ãĥ
ãģ į
ãĥ ĥ
ä½ ķ
ãĤĴ æ
ãģ Ŀ
ãģ® å
Ġ ãĤ
Ġãģ Ĥ
ãģ¯ å
ãģ¾ ãģĻ
Ġå ½¼
è ¦
ãģĹ ãģŁ
ãģ ķ
ãģĦ ãĤĭ
Ġ æ
ãĤ ¯
ãģ ĳ
ãĤĴ å
ãĤ ¤
ä »
ãģ§ ãģĻ
ãĤ ı
ãģ Ī
äº º
ãĥ Ī
Ġç§ģ ãģ¯
ãģ Ľ
è ¨
Ġ !
ãģ ¡
æ Ģ
ãģĻ ãĤĭ
ãĥ «
ãģ ¤
ãģĤ ãģªãģŁ
ãĥ ª
ĠãģĿ ãĤĮ
ãĥ »
ĠãģĤ ãģªãģŁ
ãĤ ģ
å ¥
ç Ķ
ãģ« å
è ¡
è ª
ãĥ ©
ãģ ©
Ġãģ ĵ
å Ī
ãģ® æ
å ½¼
ãģ ĺ
ç Ł
ãģ® ãģĭ
ãģĭ ãĤī
æĢ Ŀ
ãģ£ãģ¦ ãĤĭ
è¨ Ģ
çŁ ¥
é ģ
è¦ ĭ
å¥ ³
ãģ¯ æ
è¡ Į
ãģĤ ãĤĭ
ãĤ ¢
é ĸ
ãĤ £
ãģĿ ãĤĮ
ãģĦ ãģĦ
Ĳ Ľ
ãĥ ī
ãĤĪ ãģĨ
å ¤
Ġ ç
Ġ ä½ķ
ãĤ Ħ
ä¸ Ģ
ãģŁ ãģ¡
ãĤ į
ãģ« æ
è ©
ãģĦ ãģŁ
ãģ§ ãģį
ãģ¨ æĢĿ
ãģĦ ãģ¾ãģĻ
Ġ -
ä ¿
ãĤ ĥ
ãģ Ĭ
ĠãģĿ ãģĨ
ãģĦ ãģ¦
ãģ¾ ãģĽ
ãĤ ·
é Ģ
ãģ¾ãģĽ ãĤĵ
ãĥ ¬
ãĥĥ ãĤ¯
ãĥ Ń
äº ĭ
ãĤ ¸
ãĥ ķ
è© ±
ãģ« ãģ¯
ãģª ãĤī
ãģı ãĤĮ
ī į
å ®
ãģĭ ãģ£ãģŁ
ãģŁ ãĤģ
ãģĤ ãĤĬ
ãĤ ¿
èª °
ãģĺ ãĤĥ
ãģ® ç
éĸ ĵ
åĪ Ĩ
ãģĮ æ
è Ģ
ãĤĵ ãģł
Į ģ
ä ¼
ãģĺãĤĥ ãģªãģĦ
ãģ¯ ç§ģ
Ļ Ĥ
ãĥ £
Ġ è
ãģ® ãĥ
ä» Ĭ
å īį
ãģ °
ãĤĴ ç
ãģĹãģ¦ ãĤĭ
ãģĮ ãģĤãĤĭ
ãģĹ ãģĦ
ãģ§ ãģ¯
° Ĺ
ãĤ «
ãĤĴ è¦ĭ
ãģ« ãģª
é ĩ
ãĤ °
æ ľ
ãģ Ń
ãĤ §
Ġãģ ©
ĩ º
ãģ£ãģ¦ ãģĦãĤĭ
ãģ¯ ãģĦ
ãģĮ å
ãĥ Ĩ
ãĥ ŀ
ãģĵ ãģ«
ãĥ Ĺ
ãĤĵ ãģª
ãģ ¹
ãĥ ĩ
ãģ¯ ç
Ġãģ Ĭ
Ġãģĵ ãĤĮ
ãĤĮ ãģ¦
ãģª ãģĭãģ£ãģŁ
Ġ 1
ãģł ãģĳ
ãģĵãģ¨ ãģĮ
ãģ¾ ãģĹãģŁ
Ġå ĲĽ
ãĤĤ ãģ®
Ġ é
ãĤ ¦
æ ī
ãĥ ĳ
ãģĪ ãģ¦
ãģķ ãģĦ
ãĤĴ è
è¦ ģ
ä¸ Ń
å ¾
ãģĹãģ¦ ãģĦãĤĭ
ãģ© ãģĨ
ãģ® é
ãĥ¼ãĥ «
ĩ ª
ãĤĴæ Įģ
ãģ® ãģŁãĤģ
ãģ® è
ãģ¯å ½¼
ãģĿ ãģĨ
Ġå½¼ å¥³
Ġå½¼ ãģ¯
æ ĸ
ãĤ ³
ç§ģ ãģ¯
ãĤ ĩ
ãĥ ĸ
Ġ ãģĦãģĦ
Ĺ ¥
Ń Ĳ
å ħ
çĶ ·
ãģ ¿
å ı
çŁ¥ ãģ£ãģ¦ãĤĭ
ãĥ Ĳ
ä¼ ļ
ãĥĥ ãĥĪ
Ŀ ¥
Ġç§ģ ãģŁãģ¡
ãģķ ãĤĵ
ãĤĤ ãģĹ
å ĳ
ĠãģĿãģĨ ãģł
ãĤ Ń
ãĤĮ ãģŁ
ãĥ ģ
Ġãģ §
å Ĳ
ãĥ ¥
ãģł ãģ£ãģŁ
ãģ¯ ä½ķ
ãĤĮ ãģªãģĦ
å ¿
ãĥ ł
ãĤ º
å ½
é ¡
ãĤĮ ãģ°
ãģ ľ
Ġ ãģª
ãģĦ ãģĨ
ãģ§ãģĻ ãģĭ
ħ è¦ģ
ãĤĭ ãģ®
æ Ħ
ģ ŀ
çĶ Ł
ãĥ ĵ
ãĤ µ
ĠãģĿãĤĮ ãģ¯
ãĤĪãģĨ ãģ«
é Ľ
Ġ 2
ãģ¤ ãģĦãģ¦
æ ĻĤ
ãĥ ĭ
ä¸ Ĭ
ãģĵãģ¨ ãĤĴ
ãģ¨æĢĿ ãģĨ
Ġ ä»Ĭ
ç ī
Ġå½¼ ãĤī
ãģĵãģ¨ãģĮ ãģ§ãģį
ãģĦ ãģªãģĦ
° ĳ
Ġæ ľ
è ĩª
Ġ ãģ¯ãģĦ
ç µ
ãģĹ ãģ¾ãģĻ
ç ļ
Ĳ Ĩ
ł ´
ãĤĤ ãģĨ
ĠãģĤãģªãģŁ ãģ¯
èĢ ħ
ãĤ ª
Ġãģ§ ãĤĤ
Ġãģ© ãģĨ
ãģ¨ è¨Ģ
å½ ĵ
ãĥª ãĥ¼
ä¿ º
ħ ¥
ãĥ¼ãĥ Ī
æ °Ĺ
è¡Į ãģı
ãģ« ãģ¤ãģĦãģ¦
ãĤ¹ ãĥĪ
ãĥ ¡
é Ļ
ãĥ §
ãģł ãĤį
Ń ¦
ĠãģĤ ãģĤ
® º
å º
ä» ķ
æ Ĺ¥
ãģ£ ãģ¨
ãĤĵ ãģ§
ãģĹ ãģªãģĦ
é £
ãģ¨ ãģĦãģĨ
å ĩº
éĩ ĳ
Ġãģª ãģľ
ãĤĮ ãĤĭ
çļ Ħ
ãģĵãģ¨ ãģ¯
Ġ èª°
ãģĳ ãĤĮãģ°
ãģĤãĤĬ ãģ¾ãģĽãĤĵ
¤ §
Ġ ãģĦ
ãģª ãģĳãĤĮãģ°
ä ¾
ãģĹ ãĤĩ
ī ĭ
¬ å½ĵ
¹ ´
ãĤ ¨
Ń »
ãģ® ãģ¯
ãĢ ħ
ãĤ ½
ãģ«ãģª ãĤĭ
ãģ¤ ãĤĤ
ãģ®ãģŁãĤģ ãģ«
ä»ķ äºĭ
ĠãģĿãģĨãģł ãģª
ç ·
Ĥ ª
ĥ ¨
ãĤĴå ı
ãĥ Ĭ
ä¿ ¡
ãĤ¤ ãĥ³
ķ ı
ãģŁ ãģĦ
ç Ľ
æĢ §
çī ©
å ĭ
ãĥ Ł
ãģ«å ħ¥
æ ķ
ãĤ ¡
ĠãĤ ¸
å½¼ å¥³
ãģªãĤī ãģªãģĦ
èĢ ĥ
éģ ķ
ç ķ
ãģĤãĤĬ ãģ¾ãģĻ
ãģ¹ ãģ¦
ãĥ© ãĥ³
æĸ ¹
ãģĵ ãĤĮ
ãģ¤ ãģĳ
ç ´
Ġ äºº
ãĢ Į
å ¼
ãģı ãģł
ãĥ Ģ
ãģĹãĤĩ ãģĨ
ç§ģ ãģŁãģ¡
å į
ãĥ¼ãĥ ī
æī Ģ
ãĢ į
æ ³
Ī ĳ
ãģıãģł ãģķãģĦ
Ī ¶
ãģĭãĤī ãģªãģĦ
ãĥĨ ãĤ£
ãģłãĤį ãģĨ
ãģĪ ãĤĭ
ãģ§ ãĤĤ
è µ
ãģ® ä¸Ń
ãĤī ãģªãģĦ
ãĤ¿ ãĥ¼
ç ĲĨ
ãģ¦ ãĤĤ
Ġç§ģ ãģĮ
æ ĺ
ãĤ ±
å ĲĽ
å¤ §
Ī Ĩ
ãģ Ķ
ãĤ ¬
ãĤ »
ãĥĩ ãĤ£
Ġ ä¿º
Ġãģ ¾
ä½ķ ãģĭ
å ŃĲ
ãĥ¼ ãĥ³
é ł
ĠãģĤãģªãģŁ ãģĮ
ãĥĥ ãĥĹ
ãģ§ãģ¯ ãģªãģĦ
ãĤĴ ãģĻãĤĭ
ä¸ ĭ
ī ¯
ãģ« è
ãģ® äºº
ãģĵ ãģĵ
åº ¦
Ī »
ãģĭ ãĤĤãģĹ
å £
Ġãĥ ŀ
ãĥ³ ãĤ°
ĠãĤ ¢
å Ľ
ãģķ ãģĽ
èĩª åĪĨ
ãģªãģĳãĤĮãģ° ãģªãĤīãģªãģĦ
ä» ĸ
ãģłãģĳ ãģł
ãģ Ĵ
ãĥ Ķ
ãĥĥ ãĥī
¢ º
ãĥ Ļ
Ġç§ģ ãģ¯å
ãĥ ľ
ãģª ãģ®
å½¼ ãĤī
ä¸Ģ ç·
ä¸Ģç· Ĵ
åĳ ³
ãĥ ı
éģ Ķ
Ġãģĵ ãģĵ
ãģĤãģªãģŁ ãģĮ
ç Ļ
é ĥ¨
æ Ń
¥ ŀ
ãģ ļ
Ġãģ ¤
ãģ¨ ãģĨ
Ġç§ģãģŁãģ¡ ãģ¯
å ¯
å¿ ħè¦ģ
è »
ĠãģĿãĤĮ ãģ§
ľ Ł
ãĤĴæĮģ ãģ£ãģ¦
å Ĭ
ãģı ãģªãģĦ
ãĤĦ ãģ£ãģ¦
å¾ Į
æ³ ķ
Īĳ ãĢħ
ħ ¨
ãĥ Ħ
ãģ¯ ãģ©ãģĨ
ãģĻ ãģ¹ãģ¦
§ £
ãģĻ ãģ
ãģ« ç
ãĥ³ ãĥĪ
¬ ²
å ł´
ãģ¨ ãģĹãģ¦
ãĥ³ ãĥī
ä½ ľ
ãģĮ ãģ¨ãģĨ
ãĥ¼ ãĤ¹
ĠãģĿãģĨ ãģĺãĤĥãģªãģĦ
ãģĭãĤĤãģĹ ãĤĮãģªãģĦ
ãĥ į
ãģĹãģŁ ãģĦ
¿ ħè¦ģ
ãĤĴ çŁ¥
Ġãģ ķ
ä½ķ ãĤĴ
é¡ Į
ãģ¨ ãģ¦ãĤĤ
è¦ ª
® ¶
ãģĦ ãģ¾ãģĹãģŁ
ĠãģĦ ãĤĦ
èµ ·
ãģ§ ãģĹãĤĩãģĨ
åħ ¨
½ ãģį
Ġ 3
ãģ® çĶ·
Ġãģ Ĺ
æ Ŀ¥
ãģ«æ Ŀ¥
© ļ
ãĥ ¯
ãģ® ãĤĪãģĨ
ãģĭ ãģĹ
ľ °
ä¾ Ľ
ķı é¡Į
ãĥ ´
ãģ¹ ãģį
ãģ® ãĤĪãģĨãģ«
é ħ
è¨Ģ ãģĨ
ãģĵãģ« ãģĦãĤĭ
è ģŀ
ãģ® ãģĵãģ¨
ãĥ¼ ãĤ¯
Ġç§ģãģ¯ ãģĤãģªãģŁ
é ļ
ãģŁ ãģł
ãĤĴåı ĸ
Ĳ į
å½¼ ãģ¯
ãģĿãĤĮ ãĤĴ
éĢ ļ
å ±
ãģ ¶
ãĥ ¢
ãģ« ãģĦãĤĭ
ãģĤ ãģ£ãģŁ
è¦ ļ
» è©±
ãģ® ãĤĪ
è¨Ģ ãģ£ãģŁ
ĠåĲĽ ãģ¯
Ġå½¼å¥³ ãģ¯
Ħ Ľ
ãģ¦ ãģıãĤĮ
Ġãĥ ī
Ġå ¤
ãģ¯æ ľ
æī ĭ
æĦ ı
ãģ¤ãĤĤ ãĤĬ
è §£
ãģ£ãģ¦ ãģĦãģ¾ãģĻ
Ġãĥ ķ
ãģķ ãĤĮãģŁ
ãĥª ãĥĥãĤ¯
ĠãģĦãģĦ ãĤı
ãģ¨æĢĿ ãģĦãģ¾ãģĻ
Ġ ãĤĤãģĨ
ķ ·
ãģ§ãģį ãģªãģĦ
è ī¯
ãĤĴæ ®º
ãģķ ãĤĮãģ¦
å¤ «
Ġå½¼ãĤī ãģ¯
. .
Ġ ãĤ¹
Ĺ ħ
ãĥ İ
ãģ£ãģ¦ ãģŁ
ãģ§ãģį ãĤĭ
¥ ³
ãģª ãģı
ãģ« è¡Į
ãĥ¼ãĥ ł
çļĦ ãģª
Ļ ãģĪãģ¦
ãģ¾ ãģ§
ĺ ãģĦ
ãĥ Ŀ
ãģĮ ç§ģ
ãģĮ ãģĤãĤĬãģ¾ãģĻ
ä½ ¿
Ġ "
ãĤı ãģĭãĤīãģªãģĦ
å¤ ľ
° ı
è ³
ãģį ãģŁ
ĠãĤ ¯
ĠãģĵãĤĮ ãģ¯
ä¿¡ ãģĺ
å ¸
é Ŀ
ãģ« ãģĻãĤĭ
Ġãģ Ļ
éģ ĭ
ĠãģĹ ãģĭãģĹ
ä ¹
è Ń
ãģ¨ ä¸Ģç·Ĵ
ä¸ ĸ
ãĥ© ãĤ¤
Ġä½ķ ãģĭ
å® Ł
ãĤĪ ãĤĬ
ãģ®å ¤
å ¹´
Ġ ãĤĤ
Ġãģ Ī
ãģĭ ãģª
Ġãĥ ĩ
Į ãģĺ
ãģ ŀ
ãģ¨ ãģ¯
ãģ£ãģ¦ ãģĦãģŁ
ãĥ Ľ
ãģ§ ãģĹãģŁ
åīį ãģ¯
æ Ľ
ĭ äºº
ãģ« ãĤĤ
Ġç§ģ ãģ¯å½¼
ä¸ į
ãģ®å ı
éĢ £
ãģĵãģ¨ ãģ§ãģĻ
ãģ®å ŃĲ
°ĳ ãģĹ
® ĭ
ãģ ³
ĻĤ éĸĵ
ãĤĴè¦ĭ ãģ¤ãģĳ
å¾ ħ
§ ĭ
ãģ¯ ãģªãģĦ
ä½ ĵ
å¥ ½ãģį
ãĤ¸ ãĥ£
åĭ ķ
è ĥ
Ġãĥ ı
ãģĤãģªãģŁ ãģ¯
éĸ ¢
¬² ãģĹãģĦ
ãĤĭ ãģĵãģ¨ãģĮãģ§ãģį
ãģĹãģ¦ ãģĦãģ¾ãģĻ
Ġå ¤§
ä» ¥
´ ãĤī
æ Ļ
ãģ« ä¼ļ
Ġãĥ ĳ
ãģ¾ ãĤĬ
ãĤ· ãĥ§
ãģ¾ ãģł
å ©ļ
è ¿
çĶ ¨
æ Ĭ
ãĤĭ ãģĭ
ç§ģ ãģĮ
Ġå ĪĨ
ãģĹãģ¦ ãģıãĤĮ
ãģ¡ ãĤį
ãģ© ãģĵ
¬å½ĵ ãģ«
Ġ ä¸Ģ
åĲ Ī
ãģĵãģ¨ ãģł
ãĤ· ãĥ¼
ãģĹãģ¦ãĤĭ ãģ®
é£ Ł
ç Ī¶
Ħ Ł
Ĵ ĥ
ãģ« ãģ¯å
ãģ ĸ
ãĤ¯ ãĤ½
ãĤĴå ¾
ãĤı ãģªãģĦ
çĽ ®
¥ ½
ãģ® ä»ķäºĭ
ĠãĤ Ħ
ãĤ¸ ãĤ§
ãĥķ ãĤ£
ãģ¨è¨Ģ ãģ£ãģŁ
ç ¤
Ħ ¡
Ń £
ãģ »
ãĤĴæ īĭ
ĠãģĤ ãĤĬ
ãĤģ ãĤĵãģª
ãģŁãĤģ ãģ«
ãĤģãĤĵãģª ãģķãģĦ
ãĤ ©
ãģ® ãĤĤãģ®
çĶ ±
çĶ »
å£ «
æ Įģ
ãģĭ ãģªãģĦ
ãģ« è¡Įãģı
é ķ·
Ī å¤«
ãģ® äºĭ
ãģ¦ ãģĦãĤĭ
ä¸ Īå¤«
ãĥĲ ãĥ¼
Ĥª ãģĦ
ãģ®ãĤĪãģĨ ãģª
į ķ
ãģĦ ãģ¾ãģĽãĤĵ
Ġãĥ Ģ
èĢĥ ãģĪ
º «
ãģ®å Ĳį
ĠãģĤãģªãģŁ ãģ¯ç§ģ
æľ Ģ
ĠãģĦãģĦ ãģĪ
ãĥĭ ãĥ¼
ãģĻãģ Ĳ
± º
ç ½
ãĤ ®
ãģ¦ ãĤĭ
Ġãģ Ķ
ĠãĤ ª
éĽ »è©±
© Ł
¯ į
ãĤ ¶
ãģĮ ãģĤãģ£ãģŁ
ãĥª ãĥ³
ãĥĥãĤ¯ ãĤ¹
æĺ İ
ĠãģĪ ãģĪ
Ġ ãĢĮ
ãģĹãģŁ ãģ®
å® ¶
ä¼ Ŀ
ãĤĴæĮģ ãģ£ãģ¦ãģĦãĤĭ
Ŀ Ģ
ãģ§ãģ¯ ãģĤãĤĬãģ¾ãģĽãĤĵ
ãĤĴå ¤
ãĤ· ãĥ¥
çķ Į
© ãģĳ
« ĭ
è ²
ãģª ãĤĭ
Ġãģ ł
Ġå ¹´
ä¸ İ
ãĥ¼ãĥ ª
ãģ®æ ľ
å¤ ĸ
ĠãģĤãĤĬ ãģĮãģ¨ãģĨ
¿ ĥ
Ġãĥ Ń
ĠãĤ ¦
ãģ¯ä½ķ ãģł
éħ į
å Ĥ
Ķ ¯
ãģı ãĤī
ãģĻãĤĭ ãģ®
ãĥª ãĤ¢
ãģĬ éĩĳ
ĠãĤĤ ãģ¡ãĤį
æ ł
Ġ 5
ãģ£ãģ¦ ãģıãĤĮ
ãģ¾ãģĻ ãģĭ
åĪ Ŀ
¾ Į
ãĤ Ģ
ãĥ³ ãĤ¹
ãĥķ ãĤ¡
ãĤĩ ãģ£ãģ¨
é¡ ĺãģĦ
èĥ ½
æ ĥ
æ Ŀ
è ¾
Ĳ å©ļ
ãģ¨ ãĤĤ
Ġãĥ ª
ĠãĤ ¤
éĩ į
ĻãģĪãģ¦ ãģıãĤĮ
ãĤī ãĤĮãģªãģĦ
åĪ ĩ
ãģĮ ç
ĠãģĿ ãģĹãģ¦
ãģŁ ãģ®
ãģ¨ ãģĵ
ãģł ãģ¨
çŁ¥ ãĤīãģªãģĦ
ãĥģ ãĥ£
å Į
ãģ® ä¸Ģ
ä¸ĸ çķĮ
å Ģ
å ĵ
è £
è «
è º«
Ġå½¼ ãģ¯å
Ġæ ĺ
ä¸Ģ åº¦
ãģ® è©±
ãĤĴ çŁ¥ãģ£ãģ¦ãĤĭ
ãĤĴæ ķ
ĠãĤ ¨
ãĤĴè ģŀ
ãģĿãģĨ ãģł
¶ Ī
ļ ãģı
ãĥ ļ
ãģ¤ ãģĭ
è¦ļ ãģĪãģ¦
å ľ°
è Ī
Ġ 4
Ġãģ ¨
ãĥ¼ ãĤ¸
Ġãĥ Ī
ãģį ãģª
åĲ Įãģĺ
èĢĥ ãģĪãģ¦
èī¯ ãģĦ
Ī ¦
ãģĮ ãģĦãģĦ
Ġå ı
éĢ ±
Ġæľ Ģ
éģķ ãģĨ
Ġ *
ãģ® ä¸Ĭ
ãģ®æ ĸ
å ĥ
ãĥ¼ ãĤº
ãĥ¼ãĥ ĸ
ãģ£ãģ¦ãĤĭ ãģ®
èª° ãģĭ
Ġ1 0
æĻĤ éĸĵ
Ġ ãĤĤãģĹ
Ĭ ©ãģĳ
ãģĿ ãĤĵãģª
ãģĿãĤĮ ãģ¯
å® ĺ
ãĤĴè¦ĭ ãģŁ
ãĤ¦ ãĤ§
å °
æ Ĺ
Ĥ ãĤı
ãģĵ ãģ®
ãĤī ãģĽ
Ġæ ĪĳãĢħ
ãģ© ãģĵãģ«
ãĤĦ ãģ£ãģŁ
éĢ ĥ
æĦ Ł
å ķı
ãģ ģ
ãĤĴ ãģĹãģ¦
Ġç§ģ ãģ®
ãĤĬ ãģŁãģĦ
Ġæ °Ĺ
ãģĪ ãģŁ
å® ļ
åĬ Ľ
¹ ¸
ãģł ãĤĪ
ĠãĤ ³
ãģ«æ Ī»
æĦ Ľ
éĢ£ ãĤĮãģ¦
İ ¢
ãģª ãģ®ãģĭ
ãģ§ æ
Ġå ®
ãĤĪ ãģı
ĠãģĿãĤĮ ãģĮ
ãĤ· ãĥ£
åīį ãģ«
éĩ İ
ãģĮå ¿ħè¦ģ
é «
ģ ¯
Ħ ı
ãĤĴ ãģĹãģŁ
ĠãĤ ·
Ġå½¼ ãģĮ
éģ ĵ
Ġ ä¸
ãģĮ ãģªãģĦ
ãĥª ãĤ¹
ãĤĬ ãģ¾ãģĻ
ãĥ¼ãĥ Ħ
ãĤĪãģĨ ãģ¨
ä¿ Ŀ
ãĤ¸ ãĥ§
æ ©Ł
Ĺ ãģĳ
Ġãģ ¡
ãģ®å ł´
ãĤĴè¦ĭ ãģ¦
é£ Ľ
ĠãģĶ ãĤģãĤĵãģªãģķãģĦ
ãĤ¤ ãĥ«
Ġç§ģãģ¯ ãģĿãĤĮ
ãģĮæ ľ
ãĤĴæĮģ ãģ£ãģ¦ãĤĭ
åĭ Ļ
çĻ º
ãģ¨ãģĵ ãĤį
ãĤ ²
ãģ« ãģĤãĤĭ
ãģĪ ãģªãģĦ
è¨ Ī
Ġãģĵ ãģ®
¦ ¬
è ĳ
Ġ ä»ĸ
ãĥ¼ãĥ Ĺ
ä½ķ ãĤĤ
ãģ¯å ĲĽ
ãĤ¢ ãĥ³
äº Į
ĠãĤ µ
èª° ãĤĤ
Ġè ĩª
çķ ª
ãģĶ ãģĸ
¼ ķ
å Ĩ
å Ń¦
Ĳ ½
ãĤĭ ãģ¨
ç§ģ ãģ«
ãģĵ ãģĵãģ«
Ġãģ©ãģĨ ãĤĦãģ£ãģ¦
§ ĺ
Ķ ¾
ãģ« ãĤĪ
ãģĮ ãģĦãĤĭ
ĠãĤ «
ãģķ ãĤĮãĤĭ
ãģĤãģªãģŁ ãģ®
èª ŀ
ãĤĴè ¿
åĲ į
¢º ãģĭ
ħ¨ ãģ¦
ãģĮ èµ·
ãģ®ä¸Ń ãģ§
ãģĵãģĵ ãģ§
ãĤĴ ä½ľ
Ġæ ķ
ãģ«å ¯
Ġç µ
éĢ ģ
ãĤµ ãĥ¼
Ġèª° ãģĭ
ĠãģĦãģĦãĤı ãĤĪ
ä¹ Ĺ
ãĤĴæīĭ ãģ«åħ¥
įķ ãģ¾
° ãģĹãģĦ
å ·
æ §ĺ
é ĥ
ãģª ãģķãģĦ
ãģ«å ½¼
æĸ¹ æ³ķ
½ ãģĦ
ãģĭ ãģ£ãģ¦ãĤĭ
ãĤĬ ãģ¾ãģĽãĤĵ
ãģ«å ĩº
Ĭ ĥ
ĭ Ĥ
ãĤĴ èª
ãģł ãģ¨æĢĿãģĨ
Ġãĥ Ĳ
ãģ®å ¥³
å½¼ãĤī ãģ¯
ç ¥ŀ
ł ±
ãĥ ¤
ãĤģ ãĤĭ
Ġç ¥ŀ
Ġæľ ¬å½ĵ
ĠãĤ¸ ãĤ§
æĻ ´ãĤī
ãĤĴå¾ Ĺ
Ġãģ¡ ãĤĩãģ£ãģ¨
Ġ çŁ¥ãģ£ãģ¦ãĤĭ
Ľ ®
ãĥ Ĵ
Ġãģ Ĩ
ãģĮ å¥½ãģį
ãģł ãģ¨æĢĿ
Ġãĥ ©
ãģĹãģ¦ ãģĦãģŁ
ãĥ¼ãĥ ŀ
ä» »
éģ ¸
éĸĵ éģķ
åĳ ¼
çĶŁ ãģį
æĦı åĳ³
ģ «
ł æĻ´ãĤī
Ń Ķ
Ġãĥ Ĩ
ĠãģĿãĤĮ ãģĭãĤī
ãģ¯æ Ń»
ãĥŀ ãĥ³
© º
ç Ĥ
ãģĦ ãģı
ãģ® ãģĵãģ¨ãĤĴ
ãģĹ ãģ¾ãģĹãģŁ
ãģ¾ ãģĹãĤĩãģĨ
è¨ ±
éĸ ĭ
ãģ¯ç§ģ ãģĮ
ãĤŃ ãĥ£
éł ¼
.. .
İ æĹ¥
ç§ģ ãģ¯å
ãģĳ ãģ©
ãĤĴå Ĳ
å± ĭ
°ı ãģķ
ãģıãĤī ãģĦ
ãĥ¼ãĥ Ĩ
ãĤĴæ ĦĽ
Ġæ Ĺ¥
ãĤ¤ ãĤ¯
ãĥ» ãĥ»
ãģĦãģŁ ãģĦ
ãģ©ãģĨ ãģĭ
ãģ¯å½¼ å¥³
å¿ ĥ
éĽ ¢
ãĤĴåı Ĺãģĳ
åĽ ŀ
æĿ Ł
è ¬
è Ń¦
ãģ®å ®¶
è¨ ¼
ãģ¡ ãĤĥ
ãģĤãģªãģŁ ãģ«
ĠãģĿãĤĮ ãģ¯å
åı ĸ
ãĥ©ãĥ³ ãĤ¯
éĢļ ãĤĬ
łæĻ´ãĤī ãģĹãģĦ
ª åķı
å ģ
æ Ń»
ı Ĳ
ãģ¨ ãģ£ãģ¦
Ġãĥ ĸ
Ġãĥ ľ
ãĤĴæ ī
ãģĿ ãģĹãģ¦
ä» ĺ
ãĤģ ãģ¦
Ġè ģŀ
ãĤ³ ãĥ³
ãĤŃ ãĥ¼
ãģĵãģ¨ãģĮãģ§ãģį ãĤĭ
ç´ Ħ
è» Ĭ
åł´ æīĢ
åĤ Ļ
ģ¯ åŃĲ
¬ ¡
¿ ĺ
ç Ħ
ç Ĭ
İ ĭ
Ľ ¸
ãģĵ ãģĵãģ«ãģĦãĤĭ
Ġç§ģ ãģ«
éģ ħ
ãĥĵ ãĥ¼
Ġãģĵãģĵ ãģ§
°ıãģķ ãģª
Ġ è¦ĭ
ãĤĴ ãģĹãģ¦ãģĦãĤĭ
ãģ¨ åĲĮãģĺ
ãģĹãģ¦ ãģıãģłãģķãģĦ
ĠãĤ Ń
ĠãģĬ åīį
ãĤĮãģ¦ ãģĦãĤĭ
é£ ²
å¿ħè¦ģ ãģĮãģĤãĤĭ
ãģ®æĸ ¹
± ãģĦ
Ġ ...
İ »
Ń ¢
ãģ¯ ãģĤãĤĬãģ¾ãģĽãĤĵ
ãĤĴ ä¸İ
ãģķ ãĤĮ
Ġæ ĻĤéĸĵ
çŁ¥ ãģ£ãģ¦ãģĦãĤĭ
Ġç ´
ä¿ Ĥ
ãģĬ åīį
è©± ãģĻ
ãĤĤãģ® ãģ§ãģĻ
Ġèª° ãĤĤ
çĲĨ çĶ±
ãģ®äºº çĶŁ
Ġãģķ ãģĤ
ãĥ´ ãĤ¡
ãĤĪãĤĬ ãĤĤ
ĠãĤĤãģ¡ãĤį ãĤĵ
èĳ ī
¦ »
¹ ¿
½ ®
ķ ª
ãĤ ´
ãĤī ãģı
Ġãĥ ĵ
ä¸ »
ãĥ¬ ãĤ¤
ãģĤãĤĬ ãģĮãģ¨ãģĨ
Ġé Ľ
ãģ®é ĥ¨
ãģĵãģ¨ãģ¯ ãģ§ãģįãģªãģĦ
èŃ °
éĸ¢ ä¿Ĥ
çĪ¶ ãģķãĤĵ
ç ĿĢ
Ġ 6
ç§ģ ãģ®
ãģĤ ãģ¾ãĤĬ
Ġãĥ ģ
ĠãģĿ ãĤĵãģª
äºº ãģł
ãĤĴè ²
åħ ¥
ãĤĭãģ® ãģ¯
ĲĨ è§£
ãĤĵãģ§ ãģĦãĤĭ
ĠãĤ¸ ãĥ£
ç§ģãģŁãģ¡ ãģ¯
åĽ ½
ãģ¨ä¸Ģç·Ĵ ãģ«
åĵ ¡
ı ¾
ãģª ãģľ
ãĤĴ ãģĬ
Ġãģ ı
ãĥ¼ ãĤ¿ãĥ¼
ãĤĤ ãģªãģĦ
ãĤĵ ãģ¦
ãģ£ãģŁ ãģ®
ãĤĴå Ī
è¨Ģ èĳī
è¡Į ãģĭ
åĳ Ĭ
¶ ļ
» Ĭ
¾ İ
æ ħ
ãĤĭ ãģĵãģ¨
Ġãĥ ¬
ãĤ¹ ãĤ¿
ãĥĥ ãĤ·ãĥ¥
ãĤĴæ Ģ
ĠãĤ ı
ãĥª ãĤ«
éģ İ
ĠãģĿãģĨ ãģĭ
ãģĦãģ¦ ãģıãĤĮ
ãĤĵãģ§ ãĤĭ
çĽ ´
ĠãĤ¸ ãĥ§
ãĤ·ãĥ§ ãĥ³
ĠãģĪãģĪ ãģ¨
ãģ®åł´ æīĢ
ãģ«å¯ ¾
¯ èĥ½
ç ¢º
è ĭ
ģ åĪĨ
Ī Ĳ
ãĤ ¥
ãģ® éĸĵ
ãĤĴ ä½¿
ãģĵãģ¨ ãģĮãģĤãĤĭ
èª į
éĻ Ĳ
Ġãģ¾ ãģĤ
è» į
å ī
æ ®º
æ ¬²ãģĹãģĦ
ģ Ĳ
ãģ§ ãģĤãĤĭ
ãĤī ãĤĮãĤĭ
ãĥĥ ãĥģ
ãģ®å ¾Į
ä» £
ĠãģĤãģªãģŁ ãģ®
ãģ®é ł
éļ Ľ
Ħı åĳ³
é ¨
ãģĭ ãĤĬ
ãģªãģĦ ãģĭ
äºº ãģ¯
ãģ®æ īĭ
Ġãģ¾ ãģł
ä»¥ ä¸Ĭ
Ġãģł ãģĭãĤī
Ġèĩª åĪĨ
º ĸ
å ľ
æ ¥½
ç ľŁ
ãģ® ãģ§
ãģ« ãģĹãģªãģĦ
ãĤĤ ãģ£ãģ¨
ãģı ãģª
ãĤĴæ ľ
ãĤ¯ ãĥ©
ãĤĴå ®
ä¼ ĳ
ŃĲ ä¾Ľ
ãģ¨ãģĦãģĨ ãģĵãģ¨ãģ§ãģĻ
¸ °
Ł ³
ç§ »
ãĤĤ ãģĦãģĦ
ãģ¯å ¤§
ĠãģĿãĤĮ ãģ¯æ
æĢĿ ãģĨ
ä¸Ģ ãģ¤
ãģ®ç Ī¶
æľ ¬
éĻ º
æĹ ı
ãĥ¼ãĥĨ ãĤ£
¹ ³
æ Ĥª
ĸ ¬
ľ ł
ł çĶ»
Ń ĺ
ãģ ²
ãĤĭ ãĤı
ãģĭ ãģĳ
ãģ¨ åĳ¼
ãĤĴæ İ¢
ãĥ« ãĥĪ
åĪ ¥
ãĤ¦ ãĥ³
ãģ¨è¨Ģ ãģĨ
Ī» ãģ£ãģ¦
éĿ ¢
æł ¡
åĮ ĸ
Ġä¸ ĩ
æ ¸
é ¹¿
ãģ ¸
ãģ¯ ãģ©ãģĵ
Ġãĥ Ļ
ĠãģĿ ãģ®
ãĤĴæ įķãģ¾
ãģ¯å ®
Ġæ ĻĤ
è¨ ĺ
èª ¿
ãģ®ãĥ ĳ
æľ Ī
ãĤĤãģ® ãģł
çµ Ĳå©ļ
æŃ £
ãģ¯ãģ©ãģĨ ãģł
ãģĻãģ İ
å ķıé¡Į
æ Ł
æ ¯į
ãģ« ãģĹãģ¦
Ġãģ ĭ
ãģĹ ãģªãģĳãĤĮãģ°ãģªãĤīãģªãģĦ
ãĥ³ ãĤ¯
Ġãĥ Ľ
ãģĽ ãĤĭ
å¥³ æĢ§
ãģ¯ãģĦ ãģ¤ãĤĤ
ä¾ ¡
ãģ¨ãģ¯ æĢĿ
±º ãģĹãģ¦
¿ĥ éħį
éĩİ éĥ
çĦ ¶
éĩİéĥ İ
¨ ©
° ´
¾ ħ
Ġ ãģŁ
Ĭ Ģ
Į ĩ
ĳ ¼
Ġãĥ Ł
ãĥī ãĥ«
ãģĦãģ¾ãģĻ ãģĭ
ãĥķ ãĥ¬
ãĤ¦ ãĤ£
ãģĵãģ¨ãģ¯ ãģªãģĦ
ãģ¶ ãĤĵ
Ĺħ æ°Ĺ
è¾ ¼
¦¬ é¹¿
ãģ«ãĤĪ ãģ£ãģ¦
¨ ®
¨ ĺ
è ·
ãģĭ ãģ©ãģĨãģĭ
ãģ¨ ãģį
ãĤ¹ ãĥĨ
ãĥĥ ãĤ°
ãģĿ ãģ®
ãģĿ ãģĵ
ãģĿ ãģĵãģ«
ãģĹãģŁ ãĤī
èª ¬
ĠãģĵãĤĮ ãĤī
çµ ±
åį ĺ
åį ļ
éĢ± éĸĵ
é« ĺ
Ġãģı ãģĿ
¾ ©
å °ĳ
æ Ĵĥ
ãģ¯ ãģĤãģªãģŁ
ãģ« ä½ķ
Ġå į
ãĥ³ ãĥĲãĥ¼
Ġãĥ ĭ
ãģĹãģ¦ ãģĦãģªãģĦ
ãĤ¹ ãĤ¿ãĥ¼
ãģĮæ ¬²ãģĹãģĦ
ãĥĳ ãĥĳ
ãĥĸ ãĥ«
å¿ µ
Ġ2 0
èĩª èº«
ãĤ¸ãĥ£ ãĥĥãĤ¯
è¬ Ŀ
£ ²
µ ·
¶ ³
ãģ Ĳ
ãģĭ çŁ¥ãģ£ãģ¦ãĤĭ
ãģ¯å ¤
Ġå½¼ ãģ¯ç§ģ
ãģ£ãģ¦ãĤĭ ãģ®ãģĭ
è¦ĭ ãģĪãĤĭ
Ġä½ķ ãĤĴ
Ġãģ© ãģĵãģ«
ĠãģĬ åīįãģ¯
æī ķ
ãģĭãģª ãĤĬ
Ġå¤§ ä¸Īå¤«
æĥ ħ
å §ĭ
æ Ĩ
æ ĭ
ãģ¨ è©±
ãģł ãģª
ãģł ãģĭãĤī
ãĤĵ ãģ©
ä½ ı
Ġå½¼ ãģ¯æ
ãģĽ ãģ¦
ãģĻãĤĭ ãģĵãģ¨
ä¸Ģ äºº
Ġé »
ãĥĬ ãĥ¼
åĲĽ ãģ¯
ãĤĴåıĸ ãĤĬ
ç¤ ¾
éĢĥ ãģĴ
ºĸ åĤĻ
« Į
ĭ ķ
į ãģĦãģ¦
ãģ« ãģĹãģŁ
ãģ¨ ãĤĵãģ©
ãģĮ ãģĤãģªãģŁ
ãĤī ãĤĮ
Ġç§ģ ãģ«ãģ¯
ãģı ãĤĭ
ä» ¶
ãĥĪ ãĥªãĥĥãĤ¯
Ġç ¢ºãģĭ
ãģ®ç µ
ĠåĲĽ ãģĮ
Ġä»Ĭ å¤ľ
Ġãģªãģľ ãģ§ãģĹãĤĩãģĨ
æķ °
ãģ®åĲį åīįãģ¯
ç½ ª
è¨Ī çĶ»
ãģ® ãģ§ãģĻ
ãģ« ãģ¡
Ġå Ĩ
ãĤĴå ĩº
ãĥĪ ãĥ©
ãģ«å ı
ãģ«å Ĳ
Ġãģĵ ãĤĵ
å¤ ļãģı
ĠãģĬ é¡ĺãģĦ
ãĥ¡ ãĥªãĤ«
ãĥį ãĤ¹
Ġãĥĩ ãĤ£
ãģ®åı ĭäºº
éĩį è¦ģ
æĦŁ ãģĺ
ãģĶãģĸ ãģĦãģ¾ãģĹãģŁ
çĤ ¹
¬ ĳ
å ĸ
Ĥ ²
Į åħ¨
Ĵ ãģĦ
ãģ ¬
Ġå ħ
ãģ£ãģ¦ ãģªãģĦ
ãģ®å īį
Ġæ Ģ
ãĤ¤ ãĤ¹
ãĤ¤ ãĥĪ
è¡ Ģ
ãģ© ãĤĵãģª
è¡Į ãģĭãģªãģĦ
ãĥ¬ ãĥ³
ãģĮå ĲĽ
ãģĵãģ¨ãģĮ ãģªãģĦ
ãĥģ ãĤ§
ãģ¨ãģĦãģĨ ãģĵãģ¨
æĸ¹ ãģĮãģĦãģĦ
éł Ń
å¯ ¾
ĠãģĻ ãģ¹ãģ¦
èŃ ·
ĠãĤĦ ãģģ
Ĳ½ ãģ¡
æ ¥
ķ °
Ľ ŀ
ãĤĴ ä¿¡ãģĺ
ãĤĭ ãģ®ãģĭ
ãĤī ãģªãģĭãģ£ãģŁ
ãģį ãģŁãģĦ
ĠãģĤãģªãģŁ ãģ¯ç
ãģ«å ¸°
ãĥķ ãĤ§
ãĥĹ ãĥŃ
ç´ Ļ
ãĤ¬ ãĥ¼
Ġãĥŀ ãĥŀ
çĻ ½
ãģķãĤĮãģ¦ ãģĦãĤĭ
æĽ ¸
ĦŁ ãģĺ
Ķ¯ ä¸Ģ
ĤãĤı ãĤĬ
åľ ¨
ãģ«ãģ¡ ãģ¯
ç «ĭ
è ĩ
Ġ ãĤĪ
ãģ« ãģ¨ãģ£ãģ¦
ãģĮ å½¼
Ġç§ģ ãĤĤ
Ġãĥ ¡
ãģ®å ĳ
ãģ®å °ĳ
ãĤ¯ ãĤ¿ãĥ¼
ãĤģ ãģŁ
ãĥ© ãĥ¼
å¤ ī
Ġç ķª
ãĤĴç ĲĨè§£
æľ ī
æľ Ľ
ãģĦãģĨ æĦıåĳ³
éł ĺ
å¯ Ł
å¿ħè¦ģ ãģĮãģĤãĤĬãģ¾ãģĻ
Ġãģķ ãģ¦
ãģ«æĿ¥ ãģŁ
ãĤĴæ®º ãģĻ
åįļ å£«
ī ²
ĺ ĺ
ãģĹ ãĤĪãģĨãģ¨
ãģĽ ãģ¦ãģıãĤĮ
ãĥ¬ ãĤ¹
åĪĨ ãģĭãĤīãģªãģĦ
ãĤ« ãĥ¼
ãģłãģĳ ãģ§ãģĻ
ĠãģĦãģĦ ãģĭ
Ġãģ©ãģĨ ãģĹãģ¦
Ġä¿º ãģ¯
ãģļ ãģ£ãģ¨
ãĤĴçŁ¥ ãģ£ãģ¦ãģĦãĤĭ
ãĤĴå¤ ±
¥ ãģĦ
º §
å ł±
æ ´
ļ åĪĨ
Ľ ä¸ĭ
ãģĭ ãĤĭ
ãģªãģĦ ãģ®
ãģ¾ ãģı
ãĤ¤ ãĥī
ãĥĪ ãĥ«
æĢ ĸ
ä¸Ģ çķª
ãģ¨æĢĿ ãģ£ãģ¦ãģŁ
ãģ¾ãģĹãģŁ ãģĭ
ãĥĳ ãĥ¼ãĥĪ
åĳ ½
ãĥ¥ ãĥ¼ãĥ
åĩº ãģĻ
ãĤ½ ãĥ³
çĲĨ è§£
ãĥ´ ãĤ£
ãģ®åĲį åīį
è« ĸ
¼ķ ãģį
Ġ <
Ĭ ¯
ãģ® ãĤ¢
ãĤĴ éĢ£ãĤĮãģ¦
åĪ ©
è© ¦
ĠãģĬ ãģĦ
ãģĤãĤĬãģ¾ãģĻ ãģĭ
å¼ µ
å¼ ķ
ãĥĨãĤ£ ãĥ³
ĠãĥĢ ãĥ¡
Ġå® Ł
¯èĥ½ æĢ§
ĬĢ è¡Į
ĠãĤĪ ãģĹ
< /
¿ ĳ
å °ĳãģĹ
æ Ī¦
ç ¶ļ
è ĸ¬
ĺ ²
ãģ« ãģ¯æ
ãģ£ ãģ¡
ãĤĮ ãģ¾ãģĽãĤĵ
ãģªãģĦ ãģ¨
ãģ£ãģŁ ãģ®ãģĭ
ãĥ¼ãĥ ķ
ãģį ãģ¦
ãģį ãģ¾ãģĻ
ãģ®å į
Ġæ ĦĽ
ãģĹãģ¦ãĤĭ ãģ®ãģĭ
æľ Ŀ
æĸ Ļ
è» ¢
ãģĦãģı ãģ¤ãģĭ
ĠãģŁ ãģ¶ãĤĵ
± éĻº
æ İ
Ġ 8
ãĤ ¼
ãĥ ĺ
ãģ« ãģĦãģŁ
ãģ« è©±
ãĥ¼ ãĤ¤
Ġå ¥
ãģ®å ķıé¡Į
ãĤĴå Ĭ©ãģĳ
ãĥ« ãĥī
ãģ®æ ĻĤ
è¡Į ãģĳ
è¡Į æ©Ł
ãģ¨æĢĿ ãģ£ãģŁ
å® ¢
ãĤ¿ ãĥ³
ãģ¯ç§ģ ãģŁãģ¡
ãģ¯å½¼ ãĤī
æĸ Ń
Ġãģª ãĤĵãģ¦
Ġä»Ĭ æĹ¥
ãģ«ãģ¤ãģĦãģ¦ ãģ¯
å½¼å¥³ ãģ¯
ãģĵãĤĮ ãĤī
ãģ¹ãģį ãģł
Ġãĥī ãĥ«
å¸ ¸
æĬ ŀ
é£Ł ãģ¹
éģ¸ æĬŀ
ĠãĤ¸ãĥ£ ãĥĥãĤ¯
ĠãģĵãĤĵ ãģ«ãģ¡ãģ¯
å İ»
æ ļ
ī ©
ãģ® ãģŃ
ãģŁ ãģı
ãĤĴæ Ĭ
ĠãĤ °
ãģĹãģŁ ãģıãģªãģĦ
ãĥ© ãĤ¹
ãģ®æ Ĺ¥
å½¼ ãģĮ
è¨Ģ ãĤı
ãĤ¢ ãĥĥãĥĹ
ãĤĦ ãĤĭ
ãĥŃ ãĥ¼
ãĥķ ãĥªãĥ¼
èª° ãģł
å¾ Ĺ
ç§ģãģ¯ ãģĤãģªãģŁ
éĽ £
Ġä»Ĭ ãģ¯
éĻ į
ãģķãģĽ ãĤĭ
èµ· ãģĵ
ãĤĭãģĵãģ¨ãģĮãģ§ãģį ãĤĭ
è« ĩ
åĭĻ æīĢ
ãĥ¼ãĥĨãĤ£ ãĥ¼
æ¥ Ń
° ¡
± Ĥ
Ġ ãģŁãģł
Ľ ãģ¿
Ġå ¥³
ãģ£ãģ¦ ãģĦãģªãģĦ
ãģĵãģ¨ ãģ«ãģªãĤĭ
ãĤĪãģĨ ãģª
ãģ§ãģį ãģ¾ãģĽãĤĵ
ãģ®ãĥ Ĳ
ãģ©ãģĨ ãĤĦãģ£ãģ¦
åħ Ī
ä¸Ĭ ãģĴ
Ġèª° ãģĮ
ħ¨ éĥ¨
ãģ¨ãģĹãģ¦ ãĤĤ
ç§» åĭķ
çµ± éłĺ
³ ãģĹ
¼ ·
æ ĤªãģĦ
Ġ .
ãģ® ãĤ¹
ãģ® ãģĬ
ãģ« éģķ
ãģĹ ãģ¾ãģĽãĤĵ
Ġå ®¶
ãģ¾ ãģŁ
Ġãĥ Ĺ
ĠãĤ ¿
Ġæ ĸ
ãĤĴå ĳ¼
Ġç§ģãģ¯ ç
Ġãģĵ ãģĵãģ«
ãģĿãĤĮ ãģĮ
å¤ ±
ãĤĦ ãĤĬ
Ġãģ© ãģĵ
åı ·
ä¼ļ ç¤¾
Ġæľ ¬å½ĵãģ«
ãĤ± ãĥĥãĥĪ
åŃĲ ä¾Ľ
Ġ3 0
ãĤĴæ®º ãģĹãģŁ
æĻ ©
è¿ ĳ
ãģ» ãģ¨ãĤĵãģ©
æĮģ ãģ¡
ãĤ¶ ãĥ¼
ĠãģĤãĤĬãģĮãģ¨ãģĨ ãģĶãģĸãģĦãģ¾ãģĹãģŁ
Ķ¯ æīķ
ãĤĴæľ Ľ
°¡ åįĺ
² ¾
Ġ ãģ¯
Ġ éĢ±éĸĵ
Ĺ è«ĩ
Ŀ ãģĦ
ãģĦ ãģ¤ãĤĤ
ãĥ¼ ãĤĵ
äº ī
ãĥĥ ãĥĳ
ãĥĥ ãĥĦ
ãģ®å ħ
Ġæ Ń
è¨ Ń
ãĥª ãĤ¹ãĥĪ
ãģ¯ä½ķ ãĤĤ
Ġæľ ¬
Ġãģ©ãģĨ ãģĦãģĨæĦıåĳ³
ãĤ¡ ãĥ«ãĥĪ
ãģ¯æľ ¬å½ĵãģ«
ãģ®å¤ ľ
ãģ» ãģ©
ç½ ®
ãĥ¼ãĥĦ ãĤ¡ãĥ«ãĥĪ
ãĥ¼ãĥŀ ãĥ¼
¦ ĸ
Ĥ ·
Ħ ª
Ļ çľŁ
ãģª ãģĵãģ¨
Ġãĥ ¯
Ġãĥ ĺ
ãĤĴæ Ľ¸
ãģ®å ¤§
ĠãģĿãĤĮ ãģ¯ç§ģ
ãģ®æ ĻĤéĸĵ
è¦ĭ ãģ¦
ãģĦãģŁ ãģ®
ãĥ¬ ãĥ¼
ãģĮæ Ń»
ãĤĴç Ľ
å¼ ı
Ġãģ¾ ãģŁ
ãģªãģı ãģ¨ãĤĤ
Ġç§ģãģ¯å½¼ å¥³
®ĭ å¿µ
ãĥ¼ãĥª ãĥ¼
ĠãĤĤãģ¡ãĤį ãĤĵãģł
åĢ ¤
ãĤĴæīĭãģ«åħ¥ ãĤĮãģŁ
ãĤĴè² ·
é¨ ĵ
ãģ«éģķ ãģĦãģªãģĦ
æ Ī»
ãģĹ ãģĭãģ£ãģŁ
Ġå ¾ħ
ãĤī ãģĭ
Ġãĥ «
ä¸ ¡
ãģĹãģ¦ ãģªãģĦ
ãģķ ãģĪ
ãģĻãĤĭ ãģ¤ãĤĤãĤĬ
ĠãģĤãģªãģŁ ãģ¯æ
çĶ ³ãģĹ
èª Ń
åĪ ĳ
è¦ĭ ãģŁ
Ġä½ķ ãģĮãģĤãģ£ãģŁ
ãĤĩ ãģĨ
ãĥĸ ãĥ©
ãģĵãģ¨ãģĮãģ§ãģį ãģ¾ãģĻ
ĠãģĦ ãģ¤
ãĤ» ãĤ¹
Ġãĥķ ãĥ©ãĥ³ãĤ¯
ãĤĴè¦ĭãģ¤ãģĳ ãģŁ
ãģĻãģĲ ãģ«
Ġæĺ İæĹ¥
ãĤĴèģŀ ãģĦãģŁ
¹¸ ãģĽ
é£Ľ ãģ°
ãģ®å¥³ æĢ§
Ġé» Ļ
å ©
æ ĪĲ
Ġ 7
ĭ éģĶ
ãģĦ ãģªãģĭãģ£ãģŁ
ãģ® ãģĤãĤĭ
ãģ® ãģ¨ãģĵãĤį
ãģ¦ ãģıãģłãģķãģĦ
ãĤĴ é
ãģĹ ãģı
ãĥ³ ãģķãĤĵ
ãĤĴæ °Ĺ
ãĤĴæ ıĲ
Ġå½¼ ãģ¯ç
Ġç§ģãģ¯ ãģŁãģł
è¨ ³
ãģ«å ¤
ãģĭãĤī åĩº
è¨Ģ ãĤıãģªãģĦ
éģ ł
ãģĦãģ¦ ãģĦãĤĭ
ãĤ¸ ãĥįãĤ¹
æľ Ł
ãĥĨ ãĥ«
ãĤ¦ ãĤ©
ĠãģĤãģĤ ãģĿãģĨãģł
å¼ ·
ĠãģĦãģĦãĤı ãģŃ
æĽ ľ
ãģ®æľ Ģ
èĪ ¹
æŁ »
ä¾¡ åĢ¤
ãģŁãģı ãģķãĤĵ
ª ģ
æ ĪĳãĢħ
ç ©º
Ī åĳ³
ĭ Ŀ
Ľ ½
ãģŁ ãģıãģªãģĦ
ãģĹ ãģ¾
ãģł ãģĮ
ãģĻ ãĤĮãģ°
ç§ģ ãģ¯æ
ãģĨ ãģ¾ãģı
Ġãĥ Ķ
Ġãĥ Ŀ
äº Ī
ãĤĴæ ĭ
ãĤĴæ Ĵĥ
ãĤĴæ Ń¢
ãģĳ ãĤĭ
ãģĻãĤĭ ãģ®ãģĭ
çĶ º
ãģ®æ ģ¯åŃĲ
éĢ ²
ãģ§ãģ¯ ãģªãģı
ãģ«ãģª ãģ£ãģŁ
ãģ«ãģª ãģ£ãģ¦ãģĦãĤĭ
Ġãģ© ãĤĵãģª
ãĤ¦ ãĥĪ
ãĥ¥ ãĥ¼
ãĥĵ ãĥĥãĥī
Ġãģªãģľ ãģł
æķ Ļ
Ġãĥĳ ãĥĳ
æĬ ľ
ĦŁ è¬Ŀ
Ń£ ãģĹãģĦ
ãģ®è©± ãĤĴ
ãģ®ä¸Ĭ ãģ«
¹¸ éģĭ
ĠçŁ¥ãģ£ãģ¦ãĤĭ ãĤĪ
ç´Ħ æĿŁ
ãģ®æĸ¹ æ³ķ
ãģ¯ãģ©ãģĵ ãģł
Ġçķª çĽ®
¤ ãģĦ
å ¦
æ ²
è ģ
Ġ 9
ĩ ¦
į ģåĪĨ
Ĳ Įãģĺ
ãģ İ
ãģ« ãģĭ
ãģ« ä¹Ĺ
ãĤĴ ãģ¤ãģĳ
ãĤĴ è¦ļãģĪãģ¦
ãģĹ ãģªãģĭãģ£ãģŁ
ãģĭ ãĤĤ
ãĤĮ ãģıãĤīãģĦ
Ġç§ģ ãĤĴ
ãģĹãģ¦ ãģŁ
ĠãĤ ±
ĠãĤ »
ãģĹãģŁ ãģ®ãģĭ
ĠãģĿãĤĮ ãģ¯ç
ãĥ© ãĥł
ãģĬ é¡ĺãģĦ
éĢ Ł
ãĥŃ ãĥ³
ãģĮæ Ŀ¥
ãģ®ãĥ ģ
ãģ° ãĤīãģı
ãĤĴç µ
ĠãģĿãģĨãģł ãģŃ
èĢħ ãģł
ãģĹãģªãģĦ ãģ§
ãĥ©ãĥ³ ãĤ¹
ľŁ å®Ł
ãĤĴçŁ¥ ãĤīãģªãģĦ
Ġå¤ ļåĪĨ
ãģ¯æľ ¬å½ĵ
ãĥ¼ãĥĸ ãĥ«
ãĤĴæī ķ
ãĥ´ãĤ¡ ãĥ³
ãĤĩãģĨ ãģ©
0 0
ç Ĺ
é ¦¬é¹¿
Ġ çĶ·
Ĳ æ
ãĤĴ é£²
ãģ§ ãģĹãĤĩ
ãģ®å ¨ĺ
ãģ¯å ı
Ġæ īĭ
Ġæ ¬¡
ãĤĴå ¿ħè¦ģ
ãĤĴå §ĭ
ãĤ¤ ãĥł
ãĤı ãģŃ
ãĥ« ãĥ¼
éĸ ī
Ġè Ń¦
ãģ®ãĥ ĩ
ãģ¯ä½ķ ãģ§ãģĻãģĭ
çµ Į
éĻ ¢
æķ ĻãģĪãģ¦ãģıãĤĮ
ãĥ©ãĥ³ ãĥī
æŃ ¢
ãĤĴæĮģãģ£ãģ¦ ãģĦãģŁ
éĿ ŀ
ãĤĴå¾ ħ
åģ ´
ãĤĴåĪ ĩ
æ¯į ãģķãĤĵ
ĠãĥĢãĥ¡ ãĤĪ
å Ļ
å Ł
å Ńĺ
è ¶³
é Ł³
ī ¹
Ķ ¿
ãģĦ ãĤĦ
ãģª ãģĹ
ãģ« éĽ»è©±
ãĤĴ ãģıãĤĮ
ãģĮ ä½ķ
ç§ģ ãģ¯ç
ãĥ¼ãĥ Ĭ
ãĥ¼ãĥ Ĳ
ãĤĴæ ĦŁãģĺ
ĠãģĤ ãĤĭ
è¦ ĸ
ãģ© ãģĵãģ«ãģĦãĤĭ
åĪ ¤
ãģ¯æ ĺ
ãģ«æ īĭ
ãĤĴç ½®
ãģ«ãģª ãĤĬ
ãģ«ãģª ãĤĬãģ¾ãģĻ
ãģ¯ç Ħ¡
ãģ®ãģŁãĤģ ãģ«å
ãģ®è ²
ãĥ¥ ãĥ¼ãĤ¹
è¡Įãģı ãģ®
ãĥŁ ãĥ¼
èµ °
ãģĭãĤĤãģĹ ãĤĮãģ¾ãģĽãĤĵ
åł´ åĲĪ
è¦ª åĪĩ
ãĤĴæķ ĻãģĪãģ¦ãģıãĤĮ
ĠæľĢ åĪĿ
Ġãģ¡ãĤĩãģ£ãģ¨ å¾ħ
èŃ¦ å®ĺ
ĠéĽ »è©±
¨ å¤ľ
¬ ¬
ç ¨®
è į
é Ĭĥ
Ġ ä»ķäºĭ
Ġ éģķãģĨ
ģ ĭ
ĩ ĥ
Ī ¥
ļ Ĩ
ãĤĴ éĸĭ
Ġãģ Į
ç§ģ ãģ«ãģ¯
ãģĵ ãĤĵãģª
ãĤī ãĤĮãģŁ
ãĤĴå ¿ĺ
ãģĽ ãģĦ
ĠãģĤãģªãģŁ ãģ¯å
å¥³ ãģ®åŃĲ
ãĥī ãĤ¢
ãĥķ ãĤ©
ãģªãĤī ãģªãģĭãģ£ãģŁ
ãģ®ç Ľ®
ãĥŀ ãĥŀ
Ġé Ŀ
ãģ®è »Ĭ
åı £
Ġæľ Ī
ãĤª ãĥ³
®º äºº
ãģĶ ãĤģãĤĵãģªãģķãģĦ
å£ Ĭ
ãĥĻ ãĥ«
å¯ Ĩ
ãģ¯æľ Ģ
ĠãĤĤãģĨ ä¸Ģåº¦
ä¿¡ãģĺ ãĤīãĤĮãģªãģĦ
ç¤ º
ãģ®ä¸Ģ éĥ¨
è£ ħ
ĠæĪĳãĢħ ãģ¯
åĨ ħ
Ġæľ¬å½ĵ ãģĭ
ãģ¡ãĤĥ ãĤĵ
ãĥķãĥ¬ ãĥ³ãĥī
ãĤĦãĤĬ æĸ¹
Ġé»Ļ ãĤĮ
© ãģı
¬ ī
¶ æľĪ
æ °ĳ
ç Ĺħ
ç Ħ¡
ç ģ«
ç İĭ
ç ¾©
è ¼
è Ĥ
è ħ
Ġ D
Ń ãģĦ
ãģ® ä¸ĭ
ãģª ãĤĵãģł
ãģ« ãģĬ
ãģ« ä½ķãģĭ
ãģ£ ãģ
Ġå ŃĲä¾Ľ
ãĥ³ ãĥĩãĤ£
ãģ®å ®
ãĤ¯ ãĥª
ãĤı ãĤĪ
Ġä½ķ ãģł
å® ³
ãģ®ãĥ ŀ
ãĤĮãģ¦ ãĤĭ
ãĥĢ ãĥł
ãĤ± ãĥ¼
éģĶ ãģ¯
è³ ª
ĠãģĻ ãģĲ
ãĤĴè¦ĭãģ¤ãģĳ ãĤĭ
ç¤ ¼
ãĤĴå¤ ī
ãĤ¸ãĥ§ ãĥ³
ãĤĴè¿ ½
ãģĮèµ· ãģĵ
¾İ ãģĹãģĦ
æħ ĭ
è¨ĺ æĨ
èª¬ æĺİ
è¨ĺæĨ ¶
³ ªåķı
» Ĵ
æ ı
é Ń
Ġ A
Ġ ä¸Ń
ģ ¥
ãģª ãĤĬãģ¾ãģĽãĤĵ
ãĤĴ éĢģ
ç§ ĺ
ãģĨ ãģ¨
Ġãĥ ¢
äº ¤
ĠãģĿ ãģĵ
ãĥ¼ãĥ ĵ
ãĥ¼ãĥ Ń
äºº çĶŁ
ãĥĪ ãĥ¬
çŁ¥ ãģ£ãģ¦ãģĦãģ¾ãģĻ
ãģĦãģĦ ãĤĪ
éĢ Ģ
ãĥ¬ ãĤ¤ãĥ³
ãģ®ç Ĭ
ãģ®ãĥ Ŀ
ãģĮãģĤãĤĭ ãģ®ãģĭ
ãĥŀ ãĥ¼
ãģłãģĳ ãģ§
ãģ¿ ãĤĵãģª
ãĤµ ãĥĸ
ãģĵãĤĮ ãģ¯
ãĥĢ ãĥ¼
ãģĶ ãģĦ
ī¯ ãģĦ
ãĥľ ãĥĸ
Ġãģ¤ ãģ®
éģĭ è»¢
ãĤ¯ãĤ½ éĩİéĥİ
æĥ ³
ãĤĴè¿ ½ãģĦ
éĻĲ ãĤĬ
å© ¦
µ ģ
¼ Ķ
æ ¯
ç ľł
é ĺ²
Ġ S
Ġ éĩĳ
ĸ ĳ
ãģŁ ãĤī
ãĤĭ ãģ¤ãĤĤãĤĬ
ãģ§ åĥ
ç§ģ ãģ®å
ãģĤ ãģĴ
ãĥ³ ãĥĦ
ãĤĴå ¼ķãģį
ä» ²
äºº ãĢħ
ãģ¡ ãĤĩãģĨãģ©
ĠãģĿãĤĮ ãĤĴ
è¡ ĵ
èª ĵ
è¨Ģ ãģĦãģŁãģĦ
ãģ¯æ °Ĺ
Ġä½ķ ãĤĤ
ãĤ· ãĥ³
å® ¤
ãģ®ãĥ Ĺ
ãģ®ãĥ ľ
ãģĹãģ¦ãĤĭ ãĤĵãģł
ãĤ° ãĥĬ
æľ į
ĩº æĿ¥
ãģ¯ãģĦ ãģªãģĦ
ãĤŃ ãĥ³ãĤ°
Ġãģ§ ãģį
é¡ Ķ
é¡ ŀ
éĻ ¤
å¼ ¾
ãģ«æĿ¥ ãģ¦
ãģĶãģĸ ãģĦãģ¾ãģĻ
ĠãģªãĤĵãģ¦ ãģĵãģ¨ãģł
åĻ ¨
¥ Ī
± ļ
³ ¨
¸ ¡
» º
æ ±º
ç ©
ç į
ī åħ¨
ãģ® ãĤ«
ãģ® ãĤ³
ãģ« ãģĿãĤĮ
Ġãģ ĺ
ãģĹ ãĤį
ãģĹ ãģ¾ãģĹãĤĩãģĨ
ãģĭ ãĤı
ãģĮ è¦ĭ
ãģĮ å¤§
Ġç§ģ ãģĮæ
Ġãĥ Ĭ
ãĥ¼ãĥ ©
ãĥĥ ãĤŃãĥ¼
ãĤ¯ ãĥŃ
ãĤ¤ ãĥªãĥ¼
ãģ«å º§
è¡ Ĺ
ãĤ¢ ãĥ«
Ġä½ķ ãģªãģ®
ãģ®ç Ĥ
ä»Ĭ ãģ¯
ãĤĴç ¢º
æľ ¬å½ĵãģ«
Ġé Ļ
ãĤ¦ ãĤ¹
ãģĪãģ¦ ãģıãĤĮ
ãģĿãģĨ ãģĺãĤĥãģªãģĦ
ãģĹãģ¾ãģĻ ãģĭ
ãģªãģĳãĤĮãģ° ãģªãĤīãģªãģĭãģ£ãģŁ
ãĤ¨ ãĥ«
ãĥ©ãĥ³ ãĤ«
ãģĵãĤĮ ãĤĴ
ãĤĴãģĻãĤĭ ãģ®
æŃ ³
å¿ħè¦ģ ãģ¯ãģªãģĦ
ãĥ¼ãĤ¹ ãĥĨãĤ£ãĥ³
èģŀ ãģĦãģŁ
ãģ«è¡Į ãģ£ãģŁ
ä¹ ±
è¿ Ķ
éķ· ãģĦ
åĤ ·
ãĤĴæķ ĳ
Ġ10 0
ãģĮæľ Ģ
ŃĶ ãģĪ
ãĤĴåĲ ¸
çĬ ¶
ãģ®éĥ¨ å±ĭ
ãĤĴå¿ħè¦ģ ãģ¨
¡ Ī
¥ ½ãģį
´ łæĻ´ãĤīãģĹãģĦ
¿ ãĤĵãģª
å Ķ¯ä¸Ģ
æ £
æ °´
ç ®
é Į
Ġ T
Ĭ åĪĨ
ĭ ãģŃ
ãĤĭ ãĤĪ
Ġãģ ¿ãĤĵãģª
ãģªãģĦ ãģ§
ãĥ³ ãĥĸ
Ġç§ģ ãģ®å
ãģı ãģªãĤĭ
äº ĴãģĦ
ãĤĴæ ¶Ī
ãģĿ ãģĵãģ«ãģĦãĤĭ
ãĤ¤ ãĥĦ
äºº ãģĮ
ãģ¡ ãĤĩãģ£ãģ¨
ãģĻãĤĭ ãģ¨
è¡ ¨
ãģ®æ ¯į
çŁ¥ ãĤĬãģŁãģĦ
ãĤ¢ ãĥ¡ãĥªãĤ«
å¤ ¢
ãĤ· ãĤ¢
äºĭ ãĤĴ
ãģ®ãĥ Ĩ
ãģ¯ç µ
ĠãģĵãĤĮ ãģĮ
ãģĿãģĨ ãģ¨
æĸ ĩ
ãģłãģ£ãģŁ ãģ®
ãĤº ãĥŃ
Ń¦ æł¡
çķ Ļ
Ġãģ¤ ãģ¾ãĤĬ
ħ¨ ãģı
èģŀ ãģĵ
éļ ł
Ġãĥķ ãĤ¡
ãģ¨æĢĿãģĦãģ¾ãģĻ ãģĭ
®ĭ ãĤĬ
ãĤĭãģĵãģ¨ãģĮãģ§ãģį ãģ¾ãģĻ
Ġä¸Ģ ä½ĵ
æľĢ å¾Į
ĠãĤª ãĥ¼
Ġãĥª ãĥĥãĤ¯
åĵ ģ
ĠæľĢ å¾Į
åĥ ı
ãĤĴå® Ī
¨© åĪ©
ãģ£ãģ¡ ãģł
¬ī ãģĹãģĦ
¬ ä»»
¹ ãģį
å ¹³
ç Ĵ
Ġ C
ĭ ¬
ãĤĴ éĢļ
ãģĭ ä½ķãģĭ
Ġå °ĳ
Ġå ¾Į
Ġå Ľŀ
ãĥ³ ãģ¯
ãģ£ãģ¦ ãģĬ
ãĥ¼ãĥ ģ
ãĤĴæ Ħıåĳ³
ĠãĤ ¬
Ġæ Ń»
ãĥª ãĥ³ãĤ°
åĪ »
è¨Ģ ãģ£ãģ¦ãĤĭ
éģ Ĭ
ãģ§ãģį ãģ¦
ãģ¨æĢĿ ãģ£ãģ¦ãĤĭ
ãĥ¬ ãĥĥ
éĸĵ ãģ«
æľ ¬å½ĵ
ãģ®ãģŁãĤģ ãģ«æ
Ġå½¼å¥³ ãģ¯ç§ģ
ãģ¿ ãģŁãģĦ
ä¼ļ ãģĦ
çµ ĤãĤı
ãģĹãģªãģĦ ãģ¨
ĠãĤĤ ãģ£ãģ¨
ãģ®ãĤĤãģ® ãģł
ãĥ¼ãĥĸ ãĥ³
ãĤ² ãĥ¼ãĥł
ĠãģĨ ãĥ¼ãĤĵ
ãĤĴæĢ ĿãģĦ
æ´ »
ãĤĴçĽ Ĺ
ãĤµãĥĸ ãĥ©ãĥ³ãĤ«
Ġãģĺ ãĤĥ
¢ ¨
£ Ľ
å °ı
ç Ĳ
ç ı¾
Ġ M
Ġ ãģ®
Ġ è¡Įãģĭ
Ħ æĿŁ
Ī ¹
ĸ ²
ãģ« éĸ¢
ãĤĴ è©±
Ġãģ »
ãģĻ ãģ¹ãģį
Ġå Ģ
Ġå ¿ĺ
ä½ Ļ
ãĤĬ ãģ«
ãģ®å ľ°
Ġå½¼ ãģ®
ãĤ¤ ãĥŃ
ãģ§ãģĻ ãģŃ
ãģ¯æ ±ºãģĹãģ¦
è¡Į ãģ£ãģ¦
è¡Į ãģ£ãģŁ
ãĤ¢ ãĤ¦ãĥĪ
ãģĬ çĪ¶ãģķãĤĵ
ãĥŃ ãĥ¼ãĥ«
ãĤĴç ĿĢ
ãĤĴè¦ĭ ãĤĭ
Ġé ł
ãĥĳ ãĥ¼ãĥĨãĤ£ãĥ¼
ãģ®é ¡
ãĤĴæĮģ ãģ¤
æĸ °ãģĹãģĦ
ãĤŃ ãĤ¹
éĻ Ľä¸ĭ
ãģªãģĳãĤĮãģ° ãģªãĤĬãģ¾ãģĽãĤĵ
ãĤ± ãĥĦ
å£ °
éļ Ĭ
ãģ«ä¼ļ ãģĨ
ãĥķãĤ£ ãĤ¹
ĠãĤ¦ ãĤ£
Ġãģ¨ ãģ¦ãĤĤ
ãģĮå¿ħè¦ģ ãģł
äºĮ åº¦
ãĤĴæĦĽ ãģĹãģ¦ãĤĭ
Ġè¦ĭ ãģ¦
ãĤĴä¸İ ãģĪãĤĭ
ãģĤãģ¾ãĤĬ ãģ«ãĤĤ
ãģ«å¯¾ ãģĻãĤĭ
Ġå¤§ä¸Īå¤« ãģĭ
Ĳ½ãģ¡ çĿĢ
ĺĺ ãĤĴ
²¾ ç¥ŀ
çĲ ĥ
£ Ĭ
® æ
¯ æĦĽ
¸ Ĭ
º Ģ
å ¬īãģĹãģĦ
æ ¡Ī
ç ¬ĳ
Ġ è©±
Ġãģ Ń
ãģ§ ç§ģ
ãĥ³ ãĤ¸
Ġç§ģ ãģĮå
ä½ į
ãģ®å Ĩ
ãģ¯å ħ
Ġæ Ń£
ãģĳ ãģªãģĦ
ãĤĴå Ĥ·
ãģĻãĤĭ ãģª
ãģĻãĤĭ ãģŁãĤģãģ«
ĠãģĤãģªãģŁ ãģ¨
çŁ ³
éģ ©
Ġç Ī¶
Ġä½ķ ãģĮ
ãģŁãģ¡ ãģ¯
ãĥ¬ ãĥĵ
ãĥŃ ãĥĥãĤ¯
ãĥŃ ãĥ¼ãĥ³
ãģ®ãĥ ĵ
éĩ ı
ãĥĨ ãĥ³
ĠãģĬ éĩĳ
ĠãģĬ çĪ¶ãģķãĤĵ
Ġå½¼ãģ¯ ãģĤãģªãģŁ
æĸ °
ãģ¿ ãģ¾ãģĽãĤĵ
çŁ¥ãģ£ãģ¦ãĤĭ ãģ®
ãĤµ ãĥ³
çµ Ħ
ãģ¨è¨Ģ ãģ£ãģ¦ãĤĭ
çļĦ ãģ«
ä¿¡ çĶ¨
æ³ ģ
æĺ Ł
ãĥĶ ãĥ³
ãģ§ãģĹãĤĩãģĨ ãģĭ
ãĥ©ãĤ¤ ãĤ¢ãĥ³
æľĢ ãĤĤ
è² ·
Ī¦ äºī
Ġæķ °
ĠãĤŃ ãĥ£
ãģ«å¯¾ ãģĹãģ¦
è· ¡
Ġç¢ºãģĭ ãģ«
ãģ®ãģ§ãģĻ ãģĮ
ãģ®å°ĳ å¹´
¤ ãģ¡ãĤĥãĤĵ
¥ ¿
¶ Ļ
· ·
» èĢħ
å §
å Ĵ
Ġ ãĤĪãģı
Ħ ļ
Į çĴ
İ Ł
ãģ® ãģĽãģĦ
ãģª ãĤĤãģ®
ãģ« éĢ£ãĤĮãģ¦
ãĤĴ ãģĹãģ¦ãĤĭ
ãĤĴ è¨±
ãģĹ ãģ¿
ãģĹ ãģ°ãĤīãģı
ãģ£ãģ¦ ãģĦãģ¾ãģĹãģŁ
ãģį ãģ¾ãģĹãģŁ
ãģ¯å į
Ġå½¼ ãģ«
ãģĹãģŁ ãģĵãģ¨
ãĤĴå ½¼
Ġç§ģãģ¯ èĩªåĪĨ
ãģĻãĤĭ ãĤĪ
ãĤģ ãĤį
ãģ¯æ ĪĳãĢħ
ãģ«æ ľ
ãģ«æ °Ĺ
ãģ§ãģį ãģ¾ãģĻ
èª° ãģ§ãģĻãģĭ
ãģ®ãĥ ¡
ãĤ° ãĥŃ
ãĥĹ ãĥ©ãĤ¤
Ġé ķ·
Ġå½¼å¥³ ãģĮ
åĲ ĳ
å½ ¢
ãĥĵ ãĤ¸ãĥįãĤ¹
ãĤµ ãĤ¤
éĽ ĩ
çī ¹
çµ ¶
ç· ´
ä¿¡ éł¼
ãĤ¤ãĥ³ ãĥĪ
å¼ Ł
ãĥĨãĤ£ ãĥ¼ãĥĸãĥ³
ãĤ¬ ãĥ¼ãĥ«
ãģ«è ģŀ
ãĥĶ ãĥ¼ãĥ«
æŃ ©
ãģ«æĿ¥ ãĤĭ
ãĤĴåıĸ ãĤĭ
ãĥ¢ ãĥ¼ãĥĦãĤ¡ãĥ«ãĥĪ
è³ ĩ
ãĤ® ãĥ£
ĭĤ ãģ£ãģ¦ãĤĭ
éĸĵéģķ ãģĦ
ĠãĤ¸ãĥ§ ãĥ³
ç¢º ä¿¡
ãģ®éł Ń
ãģ² ãģ©
ãĤĴæıĲ ä¾Ľ
¯æĦĽ ãģĦ
ĮçĴ §
¨ ãĥ¼ãĤ¯
½ ª
½ ĵ
æ ŀ
ç ł´
ç ĪĨ
é ©ļ
é ĬĢè¡Į
Ġ F
Ġ ãĢį
ķ Ļ
ãĤ Ĩ
ãģ® ãĤĦãĤĬæĸ¹
ãģ¯ æĢĿ
ãĤĴ ãĤĦ
ãģĹ ãģıãģªãģĦ
ãģ£ ãģı
Ġå ħ¨ãģ¦
ãĤĵ ãģĺãĤĥãģªãģĦ
Ġãĥ ł
ĠãĤ ²
ãĤĴå «Į
ãĤı ãģĭãģ£ãģ¦ãĤĭ
Ġç§ģãģ¯ æ
ãģ¡ ãĤī
ãĥ« ãĤº
ãĥ« ãĥİ
ãģĤãģªãģŁ ãģ¨
ĠãģĤãģªãģŁ ãģĮæ
çĶ £
è¨Ģ ãģ£ãģ¦
çŁ¥ ãĤīãģªãģĭãģ£ãģŁ
è¦ĭ ãģ¤ãģĳ
ãģĿãĤĮ ãģ«ãģ¤ãģĦãģ¦
ãĥ¬ ãĥĥãĥĪ
ãģĺãĤĥ ãģªãģĭãģ£ãģŁ
ãģ¯ãģĦ ãģ¤
ĠãģĵãĤĮ ãģ¯ä½ķãģł
ãģªãģĭãģ£ãģŁ ãģ®
ãģĹãģ¦ãģĦãĤĭ ãģ®ãģĭ
çĶ· ãģł
åı ĭäºº
ãĥ¡ ãĥ©
ãģ¨ãģĦãģĨ ãģĵãģ¨ãĤĴ
æķ µ
ãģ®ä¸Ń ãģ«
å¤§ ä¸Īå¤«
å¤§ ãģįãģª
åħ¨ éĥ¨
ãģķãĤĮãģ¦ ãĤĭ
ãģ«è¡Į ãģ£ãģ¦
ãģ®å¤ «
ãģ«ä¼ļ ãģ£ãģŁ
ãĤ¯ãĤ½ ãĥ³ãģķãĤĵ
ãģ®æľ ¬
Ġèª°ãģĭ ãģĮ
ãĤĴæįķãģ¾ ãģĪãģŁ
ãģĻãģİ ãĤĭ
Įåħ¨ ãģ«
¿ĳ ãģı
çĶ³ãģĹ è¨³
ãģĹãģ¾ ãģ£ãģŁ
ãģ«ãģĭ ãģı
ç§ĺ å¯Ĩ
ä»² éĸĵ
çį Ħ
£Ľ è¡Įæ©Ł
äºĮåº¦ ãģ¨
¨ æĹ¥
å Ħª
æ Ķ¾
ç Ĩ
è Ĭ
è ī²
é ŃĶ
Ġ ä¸ĸçķĮ
Ħ å¼Ł
Ĭ Ľ
į µ
ķ é£Ł
Ļ º
ŀ ¬
ãģĦ ãģ¤
ãģ® è¨ĢãģĨ
ãģ¯ ãĤĪãģĨ
ãģª ãĤĬ
ãģĮ ä½ķãĤĴ
ãģĮ ãģ§ãģįãĤĭ
Ġå Ĭ©ãģĳ
ãģ¾ ãĤĮ
ãģ£ãģ¦ ãģįãģŁ
ãģ£ãģŁ ãĤĮ
ãĤ¹ ãĤ¯
ãĤ¹ ãĤ³
ãĥ¼ãĥ ¬
ãĥ¼ãĥ ĩ
ãĤĴæ Ķ¾
ĠãĤ ½
Ġæ Ĥª
ãĤ¯ ãĥĪ
ãĤı ãĤĮãģŁ
Ġç§ģãģ¯ ãģĿ
ãĥ« ãĥķ
ĠãģĿãĤĮ ãģ«
å¥ ´
éĸ £
Ġç Ľ®
Ġä½ķ ãģłãģ¨
ãģ«æ ĦŁè¬Ŀ
ä¿ ®
äºĭ ãģ¯
ãģĮæ ĤªãģĦ
ä»Ĭ å¤ľ
ãģĮãģĤãĤĭ ãģ®
ãģĹãģ¦ãģĦãĤĭ ãģ®
åı ¯èĥ½æĢ§
å½ ¹
ãģĵãģ¨ãģĮãģ§ãģį ãģŁ
ãģ«åħ¥ ãĤĭ
èĢĥ ãģĪãĤĭ
ãģ«ç «ĭ
åħ¨ ãģ¦
èģŀ ãģĦãģ¦
è³ ªåķı
ĠãĤ¯ ãĤ·
ãģ®åŃĲ ä¾Ľ
ãĤ¸ãĥ£ ãĥ¼
ãĥ¼ãĥª ãĥ³
äºĮ äºº
Ġæķ ĻãģĪãģ¦ãģıãĤĮ
ãĤĴå¾Ĺ ãĤĭ
ãģ¨åĲĮãģĺ ãĤĪãģĨãģ«
Ġä¸ĩ ãĥīãĥ«
è· ¯
ĠåĨ Ĺè«ĩ
ãĥģãĤ§ ãĥĥãĤ¯
éĻį ãĤĬ
ĠãģĤãģĤãģĿãģĨãģł ãģª
£ ģ
½ ¢
æ Ĥ
æ ºĸåĤĻ
é ¦ĸ
Ġ B
ãģ® ãģªãģĦ
ãģ¯ ãģĦãģĦ
ãģ¯ ãĤĤãģĨ
ãĤĴ è¨ĢãģĨ
ãĤĴ éĽ¢
ãģĹ ãģĭ
ãģ¨ çµĲå©ļ
ãģĵ ãģ®å
Ġå ¿ĥéħį
Ġç§ģ ãģ«ãģ¯å
Ġãĥ ¶æľĪ
äº Ĩ
ãĥ¼ãĥ Ĵ
ãĤĴæ İ
ãĤĴæ ®ĭ
ãģĿ ãĤīãģı
ãģ¯å ®¶
ãĤ¤ ãĥ¤
Ġç§ģãģ¯ ãģĤãģªãģŁãģĮ
è¨ ĵ
ĠãģĿãĤĮ ãģĮç§ģ
ãģ«å Ī
Ġãģĵ ãģ£ãģ¡ãģł
ãģ®æ Ń»
å½¼ ãģ«
ãģĭãĤī æĿ¥
ãĥī ãĤ¥
ãģĬ äºĴãģĦ
ĠãģĿãģĨ ãģªãģ®
ãĥķ ãĥĪ
ä»Ĭ æĹ¥
ĩº ãģ¦
Ġ1 5
Ġé Ĭĥ
ãģ®é ļ
ãģ®é Ŀ
ĠãģĦãģĦ ãģ®ãĤĪ
åħ ĥ
ãģ¯ä½ķ ãģĭ
é¡ ĺ
çĶŁ æ´»
ãĤĤãģĨ ä¸Ģåº¦
éĻ ¸
ç· ļ
çĽ ¸
æĺ łçĶ»
ãĥĶ ãĥ¼
ãģ«ç ½®
ãĥ¯ ãĥ¼
ãģ¯æľ ¬
èŃ ĺ
Ġä¸Ģ äºº
Ġ5 0
ãĤĴå¾Ĺ ãģŁ
Ġèģŀ ãģĦãģ¦ãģıãĤĮ
ãģ¨åĳ¼ ãģ°
æĭ ł
ĤãĤıãĤĬ ãģł
ãĥ¥ãĥ¼ãĥ ¨ãĥ¼ãĤ¯
å®¢ æ§ĺ
æĽľ æĹ¥
ãĤĴãģ¤ãģĳ ãģ¦
ãĤ°ãĥĬ ãĥ³
ĠãģŃ ãģĪ
ãĤĴåĤ· ãģ¤ãģĳ
° ĭãģŃ
± ħ
æ ¨
æ ®
æ ¶Ī
Ġ K
Ġ P
İ ĩ
ķ ãģĴ
ãģ® ãĤ¨
ãģ® ãģĻãģ¹ãģ¦
ãģŁ ãģ®ãģĭ
ãģ« ç§ģ
ãĤĴ ãģĹ
ãĤĴ ãģĹãģ¦ãģĦãģ¾ãģĻ
ãĤĭ ãĤĵãģł
ãģĮ ãģĻãĤĭ
ç§ ĳ
ãģĻ ãģ®
ãĥ¼ ãĤ¿
Ġå ķıé¡Į
ãĥ³ ãĥĹ
Ġãĥ ´
Ġãĥ ļ
ãĤĴæ ¸¡
ãģ¯å ĪĨ
Ġæ ĤªãģĦ
Ġæ Ń¢
ãĤĴå ħ
äºº ãģ§ãģĻ
Ġç§ģãģ¯ ãģĿãģĨ
æĢ ¥
æĢ Ĵ
ĠãģĿãĤĮ ãģ¯ä½ķãģł
è¦ĭ ãģĽ
ãĤĪãģĨ ãģł
ãĤĦ ãģĻ
éĢ ®æ
èĢ ³
ĠãģĬ ãģ¯ãĤĪãģĨ
ãĤĮãģ¦ ãģĦãģ¾ãģĻ
ãĤĴè Ħ
å¾ Ĵ
ãģ®é Ľ
ãĥ¼ãĥ« ãĥī
ãĤŃ ãĥ³
ãĤª ãĥ¼
Ġãģ©ãģĨ ãģŀ
ãģ«åħ¥ ãĤīãģªãģĦ
çĻ ½ãģĦ
ľŁ å¾ħ
ãģ«ãģĦãĤĭ ãģ®
ĠãģĻ ãģĶãģĦ
Ġãĥĳ ãĥĪãĥªãĥĥãĤ¯
ãĤ·ãĥ§ ãĥ¼
ĠãĤ¦ ãĤ©
ãģ®ä¸Ģ äºº
åĲį åīį
ãģ¨ãģ¯æĢĿ ãĤıãģªãģĦ
ãģ«åĲ ĳ
éĩįè¦ģ ãģª
Ġå®Ł éļĽ
Ġãģ©ãģĨãģĦãģĨæĦıåĳ³ ãģ§ãģĻãģĭ
ãģ§åĥ įãģĦãģ¦
ĠãĤªãĥ¼ ãĤ±ãĥ¼
åĴ Į
ãĥ¼ãĥĴ ãĥ¼
éĢ®æ įķ
® ´
¶ Ń
ç «
è Ħ
Ġ G
Ġ I
Ġ ä¸į
Ġ èª¿
ģ èŃ·
ĺ łçĶ»
ãģ ¥
ãĤ ¾
ãģª ãĤĪ
ãĤĴ ãģĭ
ãģ¨ ãģĭ
ãģ¨ ãģĹãģŁãĤī
ãĤĮ ãģĦ
ãģ§ å½¼
ç§ Ĵ
ãģĨ ãģ®
ãģªãģĦ ãģ®ãģĭ
Ġå °ĳãģĹ
ãģ¾ ãĤĮãģŁ
ãĤĤ ãĤī
ãĤī ãĤĮãģ¦ãģĦãĤĭ
ãĤ¹ ãĥĳ
ãĤ¤ ãĥĸ
Ġç§ģãģ¯ ãģĵ
ĠãģĤãģªãģŁ ãģ¯å½¼
åĪ ¶
çŁ¥ ãģ£ãģ¦ãģŁ
çŁ¥ ãĤīãģĽ
ãĤĪãģĨ ãģªãĤī
Ġä½ķ ãģ®è©±ãĤĴ
ãĤ· ãĤ§
ãĥ¬ ãĥ¼ãĥĪ
ãĥŃ ãĤ·ãĥ¼
ãĥķ ãĥ©ãĥ³ãĤ¯
ãĥķ ãĥ©ãĥ³ãĤ¹
ãģĺãĤĥãģªãģĦ ãģĭ
Ġè ²
ãĤĴç ł´
ãģĹãģ¦ãĤĭ ãĤı
ãģ§ãģ¯ ãģªãģĭãģ£ãģŁ
ãĤ« ãĤµãĥĸãĥ©ãĥ³ãĤ«
ãģĮå ı
ãĥĨ ãĤ¹ãĥĪ
ĠãģĵãĤĮ ãģ¯ç§ģ
ãģ®è ĭ
ãĤĤãģĹ ãĤĮãģªãģĦ
ãĤŃ ãĥ¥
ãĤĭãģ® ãĤĪ
ä¸Ĭ ãģĮ
åĩº ãģĹãģŁ
ĠãģĦ ãģ¤ãĤĤ
çĽ Ĺ
ãģ«åħ¥ ãĤĮ
æķ ĻãģĪãģ¦
ç§ģãģŁãģ¡ ãģĮ
åį ģåĪĨ
å¤§ ãģª
ãĤ» ãĥĥãĤ¯ãĤ¹
ãĥ³ãĥĪ ãĥ³
ãĥ³ãĥī ãĥ¼ãĥ«
ãĥį ãĥ«
Ġå¤ ī
Ġå¤ ĸ
å®Ł éļĽ
ãģ«ä¼ļ ãģĦ
ĠãĤ³ ãĥ¼ãĥ«
ãģ®åł´ åĲĪ
åŃ¦ æł¡
ł± åĳĬ
ãģ¯æŃ» ãĤĵãģł
ãĥ»ãĥ» ãĥ»
è¨¼ æĭł
Ġç´ łæĻ´ãĤīãģĹãģĦ
Ġãĥģ ãĥ£
ãĤĤãģĦãģĦ ãģ§ãģĻãģĭ
ãģ®å°ĳ å¥³
ãĥ³ãĥĸ ãĥªãĥ¼
¹ãģį é£Ľãģ°
ãģ²ãģ© ãģĦ
ãģ£ãģı ãĤĬ
è¨ĵ ç·´
¶Ń æĮģ
! !
¤ ľ
ª æ
· ±
Ġ è¦ļãģĪãģ¦
ĥ įãģĦãģ¦
ĩ į
ĸ å¼ķ
Ľ ãĤĢ
Ł ãĤĬ
ãĥ Į
ãģ® ãĥĪ
ãģ® ãģıãĤīãģĦ
ãģ® éĸ¢ä¿Ĥ
ãģ¯ ãģļ
ãģ¯ ãģ¾ãģł
ãĤĴ ãģĹãģŁãģĦ
ç§ģ ãĤĴ
Ġå īį
ãĤĪ ãģŃ
ãĥ¼ãĥ Ģ
ãĥ¼ãĥ ĭ
ãĥĥ ãĤ»
ãģ®å °ıãģķãģª
è¦ ı
ãģĹãģŁ ãĤĵãģł
ä» ĭ
ãģ§ãģĻ ãģĮ
ãĤı ãģĭ
äºº ãģĭ
Ġç§ģãģ¯ ãģĿãĤĮãĤĴ
ãģĽ ãģªãģĦ
ãģĻãĤĭ ãĤı
ĠãģĤãģªãģŁ ãģ¯ä½ķ
å¥ ´ãĤī
èª ī
Ġãģĵ ãģ®æ
ãģ®æ ¨©åĪ©
ãģĭãĤī ãģł
ãģĭãĤī ãģ§ãģĻ
è¨Ģ ãģĦ
è¡Į åĭķ
ãģĿãĤĮ ãĤĴå
Ġä½ķ ãģ¦
ãģĬ åīįãģ¯
Ġè »Ĭ
ãģ®ãĥ ĸ
ãģ«ãģª ãģ£ãģ¦ãĤĭ
ä¸Ń ãģ§
ãģ¯å½¼ ãģĮ
åħ ¬
ãģ¿ çī©
ãĥĲ ãĤ¹
ãģ¯ä½ķ ãĤĤãģªãģĦ
éĽ Ĩ
æ°Ĺ åĪĨ
ãģ«ãģ¤ãģĦãģ¦ è©±
ãĤ¹ãĥĪ ãĥ³
®º ãģķãĤĮãģŁ
çļĦ ãģ«ãģ¯
ãĥŁ ãĤ»ãĤ¹
ãĥ¼ãĥ³ ãĤº
ãģ«è ¿
ãģķãģĽ ãģ¦ãģıãĤĮ
åĬ ł
ãģĭãĤĤãģĹãĤĮãģªãģĦ ãģĮ
ãģ®ãĤĪãģĨ ãģ«æ
ĠãģĻ ãģ¿ãģ¾ãģĽãĤĵ
æľĢ åĪĿ
ä¼Ŀ ãģĪãģ¦ãģıãĤĮ
ãĥģãĥ£ ãĥ³ãĤ¹
å· ŀ
éł¼ ãĤĵãģł
èŃ¦ å¯Ł
éĢļãĤĬ ãģł
ä»ĺ ãģĳ
ãĤĴæĢ ĸ
èĭ ±
ãģ®éł ĥ
Ńĺ åľ¨
Ġå¥ ´ãĤī
ªģ çĦ¶
ãĥ¼ãĥĵ ãĤ¹
ãĤĴç¢º èªį
·· ä¹±
ģèŃ· å£«
¢ ãģĦ
° ¸
· ±ãģĦ
¾ ĵ
¿ Ĵ
å Ń
æ »
æ ±Ĥ
é §
ĥ ³
ãĤĴ è¦ļ
ãģĮ ãģĭ
ãģĮ ãģĤãĤĬ
ãĤĮ ãģłãģĳ
ãģªãģĦ ãĤı
Ġå ¹¸éģĭ
ãĥ³ ãĤ¿
Ġç§ģ ãģ®çĪ¶
ãģı ãģ¤ãģĭ
Ġãĥ Ĵ
ãĤĴæ ®´
ãģ®å Ī
ãĤ¤ ãĥĹ
ä» ¤
ãģĪ ãģ¾ãģĻ
äºº ãģŁãģ¡
Ġç§ģãģ¯ ãĤĤãģĨ
ãģĻãĤĭ ãģ®ãģ¯
ãģĤãģªãģŁ ãĤĴ
ĠãģĤãģªãģŁ ãģ®æ
çŁ¥ ãģ£ãģ¦ãģĦãģŁ
ãģĦãģĦ ãģĭ
Ġä½ķ ãĤĤãģªãģĦ
ãģ§ãģį ãģ¾ãģĻãģĭ
ãģĬ ãĤĬ
äºĭ ä»¶
èª° ãģĮ
ãģ®ãĥ ļ
ãĤĴç Ĭ¯
ãĤ° ãĥ©
ĠãģĵãĤĮ ãģ¯æ
ĠåĲĽ ãģ¯æ
ãĥĳ ãĥ³
ãģĿãģĨ ãģ§ãģĻ
ãģĿãģĨ æĢĿãģĨ
åı ¯
åı ĭ
ãĥĵ ãĥ³
æĻĤ ãģ«
ĲĨ çĶ±
åº «
ãģĵãģ¨ãģ¯ ãģ§ãģįãģ¾ãģĽãĤĵ
ä¾ ĭ
ãĥŁ ãĥ¥
ãĥŁ ãĤ¹ãĤ¿ãĥ¼
æķ ħ
ç´ ł
ç´ łæĻ´ãĤīãģĹãģĦ
ãĤ¬ ãĥ³
ãĤ» ãĥĥãĥĪ
åº¦ ãĤĤ
ãĥĻ ãĤ¹
ãĥĻ ãĥĥãĥī
ãĥ³ãĥĪ ãĥŃãĥ¼ãĥ«
Ġãģķ ãĤĪãģĨãģªãĤī
èµ· ãģį
ãĥ¯ ãĥ¼ãĥī
ãģŁãģł ãģ®
å± Ģ
Ġãĥķ ãĤ£
Ĺħ è¡Į
éĿ Ļ
åĢ Ļ
èĪ Īåĳ³
ãĤīãģĽ ãĤĭ
ãģ©ãģĵãģ« ãģĤãĤĭ
Ġçµ Ĳå©ļ
Ġãĥľ ãĥĸ
Ġèģŀ ãģĦãģ¦
ãĤ¥ ãĥ³ãĥĸãĥªãĥ¼
åī ĩ
ĠãģıãģĿ ãģ£ãģŁãĤĮ
ä¸Ģäºº ãģ§
éĽ£ ãģĹãģĦ
ãģĭãĤīåĩº ãģ¦
èĪ¹ éķ·
ãĤĴæŃ¢ ãĤģ
æĬľ ãģĳ
ĠèŃ¦ å¯Ł
æ£ Ĵ
Ġè¡Įãģĭ ãģĽãģ¦ãģıãĤĮ
± ¡
å ĩ¦
æ ¬²
æ ¬¡
æ ģĲ
æ ¨©
è Ĳ½
é º
Ġ O
Ġ ãĤĴ
Ġ ãĢģ
Ĩ į
ĵ į
Ľ ²
Ł º
ł Ķ
ãģ® ãģ«
ãģ¯ ãģĹãģªãģĦ
ãģ¯ ãģ¨ãģ¦ãĤĤ
ãģĭ ãĤĮ
ãĢģ ãĢĮ
Ġå ĭķ
ãĤĤ ãģł
ãĤī ãģ«
ä½ Ĳ
Ġãĥ ¤
ĠãĤ ´
ãĤ¯ ãĥ¬
ãĤ¯ ãĤ·ãĥ§ãĥ³
ãĤĴå į
ãĤĴå £²
ãĤ¤ ãĤ¢
ãģĻãĤĭ ãģŁãĤģ
ãģĤãģªãģŁ ãģ¯ç§ģ
ãģ«å Ģ
è¡ Ľ
Ġãģĵ ãĤĵãģª
ãĤ¢ ãĤ¤
ãĤ¢ ãĥªãĥ¼
è© ķ
ãĤ¸ ãĥ¼
å® ī
ãģ®ç ī©
ãģĮæ °Ĺ
ãģĮæ Ī»ãģ£ãģ¦
ãģĺãĤĥãģªãģĦ ãģ®ãģĭ
ãģ®ãĥ Ļ
ãĤĴç ¶ŃæĮģ
ãĤ« ãĥ¼ãĥī
Ġãģ© ãĤĮãģıãĤīãģĦ
ĠãģĬ æ¯įãģķãĤĵ
ãĤĮãģ¦ ãģĦãģŁ
Ġ1 2
ãģ®é Ĭĥ
ãģ®é Ł³
ãģ®è ĥ
ãģ®è ħ
ãĤ³ ãĥ¼ãĥĪ
Ġç§ģãģŁãģ¡ ãģĮ
ãĤµ ãĥ¼ãĥĵãĤ¹
Ġå½¼ãĤī ãģĮ
Ġå½¼ãĤī ãģ¯ç§ģ
ãĤª ãĤ«
ãĤª ãĥķãĤ£ãĤ¹
ãĤĵãģ§ ãģĦãģ¾ãģĻ
ãĤ¨ ãĥ´ãĤ¡ãĥ³
Īĳ åĭĻæīĢ
å¤§ çµ±éłĺ
Ġä¿º ãģĮ
Ġãģ¾ ãģļ
ãĥľ ãĥ¼ãĥ«
ãĤĴæĮģãģ£ãģ¦ ãģĦãģ¾ãģĻ
ãģ¯ãģ©ãģĨ ãģ§ãģĻãģĭ
è¦ª æĦĽ
åħ¨ ä½ĵ
ãģ®ãģĵãģ¨ ãģł
ãĥ¢ ãĥ³
ĠãĤĤãģĨ ä¸Ģãģ¤
Ĺħ éĻ¢
å¸ «
ĠãģĪ ãģ£
ãĥĽ ãĥ¼ãĥŀãĥ¼
ä»¥ æĿ¥
ä»¥ å¤ĸ
ãĥªãĤ¢ ãĥł
æł ¼
ãĤĴèģŀ ãģĦãģ¦
ãģĿãĤĵãģª ãģĵãģ¨ãĤĴ
ĠãĤ· ãĥ£
ãĤĴæīĭãģ«åħ¥ ãĤĮãĤĭ
çĬ ¯
Ġç´ ĦæĿŁ
ĠãĤı ãģĭãģ£ãģŁ
ãģ®æīĭ ç´Ļ
ĠãģıãģĿ ãģ£
Ġåį ĥ
ãĤīãĤĮ ãģªãģĭãģ£ãģŁ
ãĤĴå¤± ãģ£ãģŁ
Ĭ¯ ç½ª
Ġæĸ °ãģĹãģĦ
ãĥĥãĥĳ ãĥ¼
è¨Ń å®ļ
Ġæľ¬ æ°Ĺ
ä¸¡ è¦ª
Ĳæ §ĭ
éĿŀ å¸¸
Ġãģ¡ãĤĩãģ£ãģ¨å¾ħ ãģ¦
ĩºæĿ¥ ãģªãģĦ
Ġå°ĳ ãģªãģıãģ¨ãĤĤ
ĺĺãĤĴ ãģ¤
Ġä½ķãģ®è©±ãĤĴ ãģĹãģ¦ãĤĭãģ®
è¦ªæĦĽ ãģªãĤĭ
i n
s t
£ ı
£ èĢħ
¤ ĩ
³ ķ
¸ ¸
å ¨
å °ıãģķãģª
æ ®ĭ
æ ģ¯åŃĲ
æ Ķ¿
ç ĸĳ
è ¶
è ¸Ĭ
é ¤
Ġ è¡Įãģı
Ġ éģħ
Ĭ ł
Ĳ Į
ĸ ãĤĬ
ãĥ ¨
ãģ® ãĤ¿
ãģ¯ ãģªãģĭãģ£ãģŁ
ãģª ãĤĵãģ¦
ãĤĭ ãģªãĤī
ãĤĭ ãģŁãĤģ
ãģ§ ç
ãģ§ ä¼ļ
ãĥ¼ ãĤµãĥ¼
Ġå ¯
Ġç§ģ ãģ®äººçĶŁ
ä½ķ ãģĹãģ¦ãĤĭãģ®
ä½ķ åº¦ãĤĤ
ãģ®å ¼
ãģ®å ¿ĥ
ãģ¯å °ĳãģĹ
Ġæ ¯
Ġæ ¯į
Ġæ Ķ¾
ãĤı ãĤĮ
ãĤı ãģĳ
ãĤı ãģªãģĭãģ£ãģŁ
äºº éĸĵ
å¥ ¥
æĢĿ èŃ°
ãģĿãĤĮ ãĤī
å¤ ļ
Ġä½ķ ãģĮèµ·
ãģĬ ãģĿãĤīãģı
ãģ¾ãģĽãĤĵ ãģĭ
ãĤ¸ ãĥ¥
ãģ®ç ķª
Ġè ĭ
Ġè ī¯ãģĦ
ãĤĴç ´
ãĤĴè¦ĭ ãĤį
ãģ«ãģª ãģ£ãģ¦
ãģĮå ħ¥
ãģĵãģ¨ãģĮ ãģĤãĤĬãģ¾ãģĻãģĭ
Ġé ļ
ãĥĳ ãĥĪãĥªãĥĥãĤ¯
ãĤĴè §£
ãģ®é «
ãģĿãģĨ ãģłãģ£ãģŁ
ãĤ³ ãĥ¼ãĥ«
ãĤ³ ãĥ³ãĥĪãĥŃãĥ¼ãĥ«
åı İ
ãĥĲ ãĥ³
Ġä»Ĭ æľĿ
Ġå½¼ãĤī ãģ¯å
ãģ¨è¨Ģ ãģ£ãģ¦ãģĦãĤĭ
è¡Įãģı ãĤı
¤§ ä¸Īå¤«
ãĥŁ ãĤ¹
éģķ ãģĦ
ç´ Ķ
ãĥĩãĤ£ ãĥ¼
ãĤĴãģĻãĤĭ ãģ¤ãĤĤãĤĬ
Ġãĥŀ ãĥ³
ĠãĤ¢ ãĥ¡ãĥªãĤ«
èĩªåĪĨ èĩªèº«
ä»ĸ ãģ®
çĻ ¾
å¯ Ŀ
å¾Į ãģ«
èģŀ ãģĦãģ¦ãģıãĤĮ
ĠãĤ¯ ãĤ½
ãģ«ãģĻãĤĭ ãģª
ãĥĽ ãĥĨãĥ«
ĠåĪĨ ãģĭãģ£ãģ¦ãĤĭ
¥½ ãģĹ
ãĤ¸ãĤ§ ãĤ·ãĥ¼
ãĤĴæīĭ ä¼Ŀ
Ġãģł ãģĮ
ãĥ¼ãĥª ãĥĪãĥ«
æĥ ĳ
è¾ ŀ
èª°ãģĭ ãģĮ
å° Ħ
ãģ§æ Ń»
ãĤĴèª Ń
ãģĮå¥½ãģį ãģ§ãģĻ
ĠãĥĨ ãĥĥãĥī
ãĤ³ãĥ³ ãĥĶ
ãĤĴãģĹãģ¦ãģĦãĤĭ ãģ®
èŃ° è«ĸ
éģİ ãģİ
ãģ¯å¤§ ä¸Īå¤«
ãģ®çĪ¶ è¦ª
Ġãģ©ãģĵãģ« è¡Įãģıãģ®
«Į ãģĦ
ãĥ¼ãĤ¤ ãĥķãĥ¬ãĥ³ãĥī
åħĪ çĶŁ
Ġå¾ħ ãģ£ãģ¦ãģıãĤĮ
å¦ Ļ
è¼ ª
ç© ¶
ãģ®çĤ º
ãģĮæľĢ åĪĿ
éĮ ²
ãģ®åĨ ĻçľŁ
Ġéķ· ãģĦ
çĶ³ãģĹè¨³ ãģĤãĤĬãģ¾ãģĽãĤĵ
ãĥ¼ãĥĢ ãĥ¼
ãĤĴæĢĸ ãģĮ
e r
£ °
¤ º
¨ ª
¸ Ľ
¿ ł
è §
è Į
é ¢¨
Ġ L
Ġ ä¿¡ãģĺ
ĥ į
Ī å¥
Ī Īåĳ³
Į »èĢħ
Ĳ Ī
ĸ °ãģĹãģĦ
Ń ãģĳ
ãģ ¼
ãĥ ¦
ãģ¯ ãģĤãĤĬãģ¾ãģĻãģĭ
ãģ¦ ãģĦãģŁ
ãģ« ãģĤãģªãģŁ
ãģ« ä½ķãĤĴ
ãģ« ä»»
ãĤĴ ãģ©ãģĨ
ãĤĴ ä¸ĭ
ãģĭ ãģªãģĳãĤĮãģ°ãģªãĤīãģªãģĦ
ãģ§ ä½ķ
ãĥ¼ ãĤ¹ãĥĪ
ãģĵ ãģĨ
Ġå ·
Ġå ľ°
Ġå Ĳį
Ġå ħ¨éĥ¨
Ġå ĲĮãģĺ
ãĤĤ ãģĤãĤĭ
ãĤĤ ãģ¡ãĤį
Ġãĥ ¨
äº ¡
ãĤ¹ ãĥĶ
ãĤ¹ ãĥļ
ãĥ¼ãĥ ĳ
ä½ķ ãģł
ãĤĴæ ±Ĥ
ãģ®å ģ
ãģ®å ¦»
Ġæ Ŀ¥
ãĤ¯ ãĤ·ãĥ¼
ãĤĴå ħ¥
ãĤĴå Ń¦
ãĤı ãģĦ
ãĤı ãģªãģĳãĤĮãģ°ãģªãĤīãģªãģĦ
ãĥ« ãĥ¼ãĥ«
ãĥª ãĤ¨
ãĥª ãĥĥãĥĹ
ãĥ© ãĤºãĥŃ
ãģ© ãĤĮãģıãĤīãģĦ
è¦ĭ ãģĪãģªãģĦ
Ġç ī¹
ãģĬ è©±
äºĭ ãģł
ãĤ¿ ãĥ«
ãģ®ç ¨®
åĪĨ ãģĭ
Ġè Ĳ½ãģ¡çĿĢ
ä»Ĭ ãģ¾ãģ§
ãĤĴç ¤º
ãģ®è ĩª
ãĤ³ ãĤ¹
ãģ¿ ãģ¾ãģĻ
åı ¸
ãĥĲ ãĤ³
ãĥĵ ãĥ«
ĠãģĿãĤĮãģ¯ ãģĻãģ¹ãģ¦
éĽ »
ãĥĭ ãĤ¢
èĩª çĶ±
æ°Ĺ ãģ«ãģĹãģªãģĦ
åº §
ãģ¨ãģĦãģĨ ãģ®ãģ¯
Ġèª° ãģł
ĠãģĦ ãģıãĤī
ãĤ¨ ãĤ¹
ãĤ½ ãĥĭãĥ¼
çī© ãģł
æķ Ĺ
åį ĥ
ãģ®äºº ãģĮ
å£ ²
ĠãĤ¢ ãĥ³
Ġç§ģãģ¯å ¤
ãĥľ ãĥ¼ãĥ³
Ġãģĵãģĵ ãģł
éĥ¨ å±ĭ
ãĥ´ ãĤ§
å± ±
ĠãĤ¯ ãĥªãĤ¹
å¸ Ĥ
ãģ¦ãĤĭ ãģ®ãģĭ
Ġãģ¨ ãģ«ãģĭãģı
å° ī
é£Ľ ãģ³
é£Ľ è¡Įæ©Ł
¼ķ ãģ£
ãģ«å½¼ å¥³
ãģ®å¥³ ãģ®åŃĲ
çĬ ¬
ãģ®éĥ¨ åĪĨ
Ġãĥģ ãĤ§
ãĤĴãģĬ é¡ĺãģĦ
ĠãĥĽ ãĥ¼ãĥŀãĥ¼
æĥħ åł±
Ġç¢ºãģĭ ãģĭ
ãģ®åĳ ½
ĠæĦĽ ãģĹãģ¦ãĤĭ
åł´åĲĪ ãģ¯
èį ī
ĩĥ ãĤĦ
èħ ¹
ĠéĻ Ľä¸ĭ
ãģ®é¡ Ķ
Ġèª¿ åŃĲ
ĥ³ åĥı
łĶ ç©¶
Īå¥ ®
¨ ãĤĬ
³ ŀ
· ãģĦ
¹ ä»ĭ
¾ Ĺ
æ İ¢
æ Ī»ãģ£ãģ¦
æ Įĩ
æ ·±ãģĦ
é ³
é Ĺ
é »Ĵ
Ġ è¨Ģãģ£ãģŁ
Ġ çŁ¥ãĤīãģªãģĦ
ī Ħ
į å¯¾
ĸ ľ
ãģ® ãģ¯ç
ãģ® è¨Ģèĳī
ãģ¯ ãģĤãĤĭ
ãģŁ ãĤı
ãĤĴ ä¿Ŀ
ãĤĭ ãģŁãĤģãģ«
ãģĹ ãĤĪãģĨ
ãģ§ ãģĤãĤĬ
ç§ģ ãĤĤ
ãĥ¼ ãĤ·ãĥ§ãĥ³
Ġå ¿ħè¦ģ
Ġç§ģ éģĶ
ãģı ãģ®
ä½ İ
Ġãĥ į
ĠãģĿ ãģĵãģ«
ãģ£ãģŁ æĻĤ
ãĤĴæ ģĲ
ãģ®å °
ãģ¯å ¿ħè¦ģ
Ġå½¼ ãĤĴ
ãģķ ãģĭ
ãĤ¤ ãĤ®
ãĤı ãĤĮãĤĭ
Ġç§ģãģ¯ ãģĦãģ¤ãĤĤ
ãĥ« ãĤ¤ãĤ¹
ãģĤãģªãģŁ ãģĮå
ãģĤãģªãģŁ ãģ®ãģŁãĤģãģ«
ãĥª ãĥĨãĤ£
ĠãģĿãĤĮ ãģ¯ç§ģãģĮ
ãģ®æ Įĩ
å½¼ ãģ®
ãģ¯æ Ń£
ãĥī ãĥ©
Ġç ģ«
ãĤį ãģĨãģ¨
ãģ¨æĢĿ ãģ£ãģ¦ãģĦãģŁ
ãĤ¸ ãĥİ
Ġè µ
ãģ®ãĥ Ģ
ãĤĴç ¥Ī
ãĤ« ãĥ«
ãģĮå ķıé¡Į
ãģłãģĳ ãģ©
Ġé ħ
ãĥĳ ãĥ¯
ãģ®è ³
ãģĿãģĨ ãģĻãĤĭ
åħ ī
ãģ¿ ãĤĪãģĨ
åı ²
ãĥĲ ãĥĥãĤ¯
ä¼ļ èŃ°
ãģķãĤĵ ãģ¯
åĲ Į
å¿ ľ
ĠãģĿãĤĮãģ¯ ãģ¨ãģ¦ãĤĤ
ãĥĭ ãĥ¥ãĥ¼ãĤ¹
Ġä»Ĭ ãģĻãģĲ
ãģĵãģ¨ãģĮãģ§ãģį ãģªãģĦ
çµ Ĳ
Ġãģ©ãģĨ ãģĭ
åĩº ãģĹ
¤§ ãģįãģª
ãģ®ãģ¯ çŁ¥ãģ£ãģ¦ãĤĭ
æķ ¬
ç´ °
ãĤ» ãĥ³ãĥĪ
ãĥĩãĤ£ ãĤ¯ãĤ½ãĥ³ãģķãĤĵ
ãĥĻ ãĤ¹ãĥĪ
ãĤĴæĮģãģ£ãģ¦ ãģĦãģªãģĦ
ãģĹãģŁãģĦ ãģ®
éħ Ĵ
ãĤĴåıĸ å¾Ĺ
Ġå¤ ©
Ġå¤ ±
ä¸ĸ è©±
ãģ®å¤ ĸ
Ġå¤§ çµ±éłĺ
ĠåĪĨ ãģĭãģ£ãģŁ
ĠãĤĦ ãģĤ
ãģ» ãģĨ
ç½ ²
è² ´
ãĥªãĤ¢ ãĥ³
ãģ®ä¸Ģ ãģ¤
ãģįãģª ãģķãģĦ
æĹ ©ãģı
Ġæ°Ĺ åĪĨ
Ġæ°Ĺ ãģ«ãģĹãģªãģĦ
ãģĮå¿ħè¦ģ ãģ§ãģĻ
ãĤĴèª ¿
ĠãĤ¸ãĤ§ ãĤ·ãĥ¼
ĠãĤ¸ãĤ§ ãĥķãĥªãĥ¼
è¨¼ æĺİ
èĭ ¥ãģĦ
ãģĿãģĵ ãģ§
å°ĳ å¥³
Ġå¤§ä¸Īå¤« ãĤĪ
å§ĭ ãĤģ
ĠãģĬé¡ĺãģĦ ãģł
åĸ Ħ
ãĤĴä¿¡ãģĺ ãģ¦
æĢĸ ãģĦ
ãģ®ãĤ¢ ãĥĳãĥ¼ãĥĪ
æİ ¥
ĠæŃ ³
Ġãĥĺ ãĤ¤
ãģŁãģıãģķãĤĵ ãģĤãĤĭ
ãĤĴåĪĩ ãĤĬ
éŃ ļ
ãģ®çĬ ¶
ãĤĴéĢļ ãģĹãģ¦
Ġå¿ĺ ãĤĮãģ¦
ãĤ®ãĥ£ ãĥ³ãĤ°
ãģ¯æĢĿ ãģĦãģ¾ãģĽãĤĵ
çĨ ±
ĠK I
åŃ Ĺ
a n
o n
o r
£ ç
¥ ²
ª ĵ
º ¦
» èĸ¬
ç ħ
é Ł
Ġ '
Ġ N
į ľ
İ ãĤīãģĭ
Ľ °
Ľ ´
ŀ åľ¨
ãģ µ
ãģĦ ãģ¯
ãģ® ãģĵãģ¨ãģ¯
ãģ® è¦ª
ãģ® èĢĥãģĪ
ãģ® ãĥķãĤ¡
ãģ¯ ãģĿãĤĮ
ãģ¯ ãģªãĤīãģªãģĦ
ãģª ãģĵãģ¨ãĤĴ
ãģ¦ ãģĦãģ¾ãģĻ
ãģĭ ãģ«
ãģĭ ãģł
ãģ¨ ç§ģãģ¯
ãģĮ ãģĦãģŁ
ãģĮ ãģªãģĭãģ£ãģŁ
ãģĮ ãģĤãĤĬãģ¾ãģĽãĤĵ
ãģĮ å½¼å¥³
ãģĮ è¨Ģãģ£ãģŁ
ãģ§ ãģªãģĦ
ãģĵ ãģ®æ
Ġå ¼
Ġå °ıãģķãģª
Ġå ¦»
ãģ¾ ãĤĭ
ãģ¾ ãģ§ãģ¯
ãģĵãģ¨ ãģ«
ãģį ãģĦ
ãģį ãĤĥ
ãģį ãĤĮãģĦ
ãĥĥ ãĤ¸
ãĤĴæ ľŁå¾ħ
ĠãĤ ®
ĠãģĤ ãĤĮ
ãģ¯å ¥½ãģį
ãģĹãģŁ æĻĤ
ãģķ ãģªãģĦ
Ġæ ģĲ
ãĤĴå °
Ġç§ģãģ¯ ãģĵãĤĮ
ãĥ« ãĤ¹
ãģĤãģªãģŁ ãģ®æ
ĠãģĿãĤĮ ãģ«ãģ¤ãģĦãģ¦
ĠãģĤãģªãģŁ ãĤĤ
å½¼ ãĤĴ
è¨Ģ ãģĪ
éĸ Ģ
ãģĦãģĦ ãģ®ãģĭ
Ġç ¬¬
ä¸Ģ æĹ¥
ãĤį ãģĹãģĦ
ãģ«æ Įģ
ãģĬ ãģĨ
ãģ«ãģ¯ ä½ķãĤĤ
å® ¹
ãģĺãĤĥãģªãģĦ ãģ®
ãĥĨ ãĥ¬ãĥĵ
ãĥĹ ãĥ©
ãģ¯ç ļĨ
ĠãģĬ ãĤĦãģĻ
Ġ1 9
å¾ ĭ
ãģ©ãģĨ ãģª
ãģ®è ¿ĳãģı
ĠãģĦãģĦ ãģŃ
ãģ¿ ãģ¾ãģĹãĤĩãģĨ
ä¼ļ ãģĪãģ¦
Ġç§ģãģŁãģ¡ ãģ¯å
ãĤŃ ãĥªãĤ¹ãĥĪ
å¿ ĺ
ĠãģĿãĤĮãģ¯ ãģĦãģĦ
ãĥĭ ãĥĥãĤ¯
ãĤª ãĥ¼ãĤ¹ãĥĨãĤ£ãĥ³
Ġãģ§ãĤĤ ç§ģãģ¯
ä¿º ãģ¯
ãĥ¡ ãĥªãĥĥãĤ¯
åº Ĺ
Ġãģªãģľ ç§ģ
ãģ«ãģªãĤĭ ãģłãĤįãģĨ
çķ ¥
Ġäºº çĶŁ
ãĥĢ ãĥ³
åį Ĭ
Ġãģ¾ ãģķãģĭ
ĠãģĤãģªãģŁãģĮ ç§ģ
ãģ«è ²
åĽ ²
èĩªåĪĨ ãģ®
ãĥı ãĥĭãĥ¼
ľŁ åľ°
ãĤĴçŁ¥ ãģ£ãģ¦ãģĦãģ¾ãģĻ
®¶ ãģ«å¸°
ãģĦãģ¾ãģĹãģŁ ãģĭ
éħ Ķ
å± Ī
ãģĤãģ£ãģŁ ãģ®ãģĭ
Ġãĥī ãĥ³
Ġãĥķ ãĤ§
ãģķãĤĮãģ¦ ãģĦãģ¾ãģĻ
å¤« äºº
ãĥĿ ãĥ¼ãĥ«
å¸ ĥ
å¥½ãģį ãģ§ãģĻ
ãģĹãģ¦ãģĦãģ¾ãģĻ ãģĭ
ãģ«ä¼ļ ãģĦãģŁãģĦ
ãģĹãģ¦ãģıãĤĮ ãģªãģĦãģĭ
ãĤ¸ãĤ§ ãĤ¤ãĤ¯
ãģ®ãĤĤãģ® ãģ§ãģĻ
ãģ«è¡Įãģı ãģ®
ãģ®äºĭ ä»¶
è² ł
Ġå¹´ åīį
å¤ĸ ãģ«åĩº
ãģŁãģ® ãģŃ
åĢ Ĵ
Ġæĺ ¨å¤ľ
ãĥļ ãĥ©
é« ª
é« ĺãģĦ
ãģĮæľ Ľãģ¿
çķª åı·
å· ¥
çĶŁãģį ãģ¦ãĤĭ
çĤ º
ıĲ æ¡Ī
ãĤĴæī ĵ
ãĤĴä¸İ ãģĪ
ãĤĴå® Ł
ãģ¯å¤§ ãģįãģª
æ¸ ¬
ä½ı ãĤĵãģ§
èĩ ĵ
å¤ī ãĤı
æļ ĩ
è¨ĢãĤı ãģªãģĭãģ£ãģŁ
Ġå¥³ ãģ®åŃĲ
ĠãĥĹ ãĥŃ
ä¸¡ æĸ¹
è¨ĢãĤıãģªãģĦ ãģ§
æ² »
èģ ĸ
»º çī©
ãģ®æ¯į è¦ª
ãĤĴæĦıåĳ³ ãģĻãĤĭ
ãĤĴæĢĿãģĦ åĩº
ŀ¬ éĸĵ
æ® µ
ãĥĳãĥ¯ ãĥ¼ãĤº
a t
¡ çĲĨ
£ Ł
¥ ª
© çĶ¨
® éĢļ
¯ Ľ
² åł´
´ åı²
» į
¼ ãģĹ
½ ¹
å ¦»
æ °ı
ç ľ
ç Ń
è Ļ
é »
é ¦¬
Ġ E
Ġ s
Ġ ä¸Ģç·Ĵ
Ġ ç§Ĵ
ģ ½
Ĥ åĬł
ħ åĬĽ
ī å¤§ãģª
Į ¯
Ļ ½
Ń ©
ãģĦ ãģªãģı
ãģ¯ ãģĻãģ¹ãģ¦
ãģª ãģĮ
ãģŁ ãĤĵãģł
ãģ¦ ãģĤãĤĬãģĮãģ¨ãģĨ
ãģ« ãģĦãģ¾ãģĻ
ãģ« ãģªãĤīãģªãģĦ
ãĤĴ ãģĹãģ¾ãģĻ
ãĤĴ é£Łãģ¹
ãĤĭ å¿ħè¦ģãģĮãģĤãĤĭ
ãģĮ èī¯
ãģ£ ãģį
ãģĨ ãģ¡
Ġå ĳ
ãĥ³ ãĥģ
ãģı ãģ¦
ãģı ãģĿ
ä¸ ĩ
ãģĹãģ¦ ãģĦãģ¾ãģĽãĤĵ
ãĤĪ ãģªãĤī
ãĤ¹ ãĥĬ
ãģĵãģ¨ ãĤĤ
ãĥ¼ãĥ ´
ãģ®å Ģ
ãģĳ ãģ¾ãģĽãĤĵ
ãĤĴå ¿ĥéħį
ãĤ¤ ãĥķ
ä» ®
ãĥĪ ãĥŃ
ãģĻãĤĭ ãģłãĤįãģĨ
ãĥ« ãĥķãĤ£
ãģĤãģªãģŁ ãģ¯å
ãģĤãģªãģŁ ãģ®ç
ĠãģĤãģªãģŁ ãģĮå
èª ¤
Ġãģĵ ãģ®çĶ·
ãģ®æ Ħıåĳ³
ãģĭãĤī ãģ®
ãģĭãĤī ãģªãģĭãģ£ãģŁ
çŁ¥ ãĤĬ
ãģ¯æ ķ
ãģ¯æ īĭ
ãģĿãĤĮ ãģ¯ç
ãĥī ãĥ³
Ġç ·
Ġç Ħ¡
ãģ«æ Ĭ
è© °
ãģ¨æĢĿ ãģ£ãģ¦ãģĦãĤĭ
èª° ãģ§ãĤĤ
èª° ãģ«ãĤĤ
ãģ®ç ´
ãģĺãĤĥãģªãģĦ ãĤı
ãģ¯ç§ģ ãģ«
ãģĮãģĤãĤĭ ãĤĵãģł
ãĤĴè¦ĭ ãģ¦ãĤĭ
ãģ«ãģª ãĤĬãģŁãģĦ
ãģ£ãģ¦ãģĦãĤĭ ãģ®ãģĭ
ãĥĹ ãĥĨãĥ³
ãĥĩ ãĤ¤
å¾ ¡
å¾ ©
ãģ®é »Ĵ
ãģ®è Ń¦
ãģ®è Ī¹
Ġå½¼ãģ¯ ä½ķ
çĶ· æĢ§
åı «
ãĥ¥ ãĥ¼ãĤ¿ãĥ¼
ãĥĵ ãĥĩ
ãĥĭ ãĥ¥ãĥ¼ãĥ¨ãĥ¼ãĤ¯
ãģĵãģ¨ãĤĴ é¡ĺ
çµ ¡
çµ Ĳæ§ĭ
ãĤ¹ãĥĪ ãĥ©
ä¾ µ
ä¾ ¿
ãģ®ãģ¯ ãģĿãĤĮ
ãĥĬ ãĥ«ãĥī
Ġäºº ãĢħ
ãĥĢ ãĥ¡
ãģ®ä¸Ń ãģ«ãģ¯
ãĥĩãĤ£ ãĤ°ãĥĬãĥ³
åĽ ³
ä»ĸ ãģ®äºº
ãģ«ç ĿĢ
è¨ĢãģĨ ãģ®
ãģ¶ ãĤī
Ġãĥī ãĤ¤ãĥĦ
ãģ¤ãĤĤãĤĬ ãģł
ãģķãĤĮãģ¦ ãģĦãģªãģĦ
ãĥİ ãĥ¼
¥³ æĢ§
Ġãĥĩ ãĥĵãĥ¼
ãģ§ãģĹãģŁ ãģĭ
æĽ ¹
Ġç§ģãģ¯å½¼ ãĤī
éĢ£ çµ¡
ãĤĭãģĵãģ¨ãģĮãģ§ãģį ãģªãģĦ
ãģĹãģ¦ãģıãĤĮ ãģŁ
ãģĹãģ¦ãģıãĤĮ ãĤĭ
ãģ®ãĤĪãģĨãģª ãĤĤãģ®
ãģ®ãĤĪãģĨãģª ãĤĤãģ®ãģ§ãģĻ
ãģ®ãĤĪãģĨãģª ãĤĤãģ®ãģł
ĠãĥĢ ãĥ³ãĥĲãĥ¼
ĠãĤª ãĥ¼ãĤ¹ãĥĨãĤ£ãĥ³
ãĤĴå¤ ĸ
Ġå¹´ éĸĵ
æł Ħ
è£ ½
¶Ī éĺ²
Ġåı ¯æĦĽãģĦ
ãģ®æĸ °ãģĹãģĦ
ãģģ ãģģ
ä¿Ŀ èŃ·
ãģ¨ãģĵãĤį ãģ§ãģĻ
ãĤĴæīĭãģ«åħ¥ ãĤĮ
ãģłãģ¨æĢĿ ãģ£ãģŁ
ä»» åĭĻ
ãĤĴåıĹãģĳ åıĸ
èĭ ¦
ä¼ĳ æļĩ
ãĤĴæİ¢ ãģĹ
ãĤĴæįķãģ¾ ãģĪãĤĭ
è¾¼ ãĤĢ
ãģ®çµ Ĳå©ļ
åĸ ¶
è¡ĮãģĭãģªãģĦ ãģ¨
ãģ®åį ĬåĪĨ
Ġå¥³ æĢ§
Ġå®¶ ãģ«å¸°
åĪĳ äºĭ
ãģ«å¤ ī
ãģĻãĤĮãģ° ãģĦãģĦ
ãģĨãģ¾ãģı ãģĦ
ãģ®ãĥģ ãĥ£
èį ·
èĤ ī
ãģ£ãģ ±ãģĦ
ãĤĴå¤ī ãģĪãĤĭ
çŁ¥ãģ£ãģ¦ãģĦãģ¾ãģĻ ãģĭ
³¨ æĦı
çĬ¶ æ³ģ
å¬īãģĹãģĦ ãĤĪ
ãĥĹãĥ©ãĤ¤ ãĤ¹
äºĮäºº ãģ¨ãĤĤ
æĤ Ķ
æ¨ Ļ
ãģ«åĲĳ ãģĭ
ãĥĥãĤ» ãĥ¼ãĤ¸
ãĤªãĤ« ãĥŁ
å¥¥ æ§ĺ
èĮ ¶
± æľī
¸ åĲĽ
¿ Ļ
æ µģ
ç ¾İãģĹãģĦ
ç ¿Ĵ
è Ĥ²
è ±¡
é İ
Ġ ä¸Ĭ
Ġ ä¸ĭ
Ġ ä¿¡ãģĺãĤīãĤĮãģªãģĦ
Ģ æľī
ĥ æ°Ĺ
Ħ Ģ
ī åĲį
Ķ »
ľ §
Ł éļĽ
ł Ĥ
Ń Į
ãģĦ ãģ£ãģ±ãģĦ
ãģª çĶ·
ãģª ãģĵãģ¨ãģł
ãģŁ ãģĮ
ãĤĴ ç§ģ
ãĤĴ çĶŁ
ãĤĴ è©¦
ãĤĴ ãĥģãĤ§ãĥĥãĤ¯
Ġãģ µ
ãģĭ ãģĹãģĦ
ãģĭ ãĤĮãģŁ
ãģĮ ãģ§ãģįãģ¦
ãģ£ ãģĻãģĲ
ãģĻ ãģ§
ç§ģ ãģ¯å½¼
Ġå Į
ãĤĤ ãģĤãĤĬãģĮãģ¨ãģĨ
ãģĤ ãģĤ
ãĥ³ ãĥĢ
ãģ£ãģ¦ ãģıãĤĭ
ãģ£ãģŁ ãĤī
ãĤ¹ ãĤŃ
ãģį åİ»
è¦ ³
Ġæ ®º
Ġæ ®ĭãĤĬ
ãĤĴå £Ĭ
ãĤĴå ¥ª
ãĤ¤ ãĥ¬
äºº ãĤĤ
Ġç§ģãģ¯ ä½ķãĤĤ
è¨ ªåķı
ĠãģĿãĤĮ ãģ¯å½¼
ĠãģĿãĤĮ ãģ¨ãĤĤ
ĠãģĤãģªãģŁ ãģ®å
ãĤģ ãģ§
å¥ ª
å¥ ĩ
ãģ«å ®
ãģ«å ĲĽ
ãģ«å įģåĪĨ
ãĥ© ãĤ¤ãĥ³
ãģ© ãģ®ãģıãĤīãģĦ
ãģ®æ °Ĺ
ãĤ¢ ãĥĳãĥ¼ãĥĪ
ãģĿãĤĮ ãģ¯å
å¤ ©
Ġç ı¾
Ġä½ķ ãĤĴãģĹãģ¦ãģĦãĤĭãģ®
Ġä½ķ ãģĮæľĽãģ¿
ãĤĦ ãģ£ãģ¦ãĤĭ
ãĤį ãģĨ
ãģ«æ Ń»
ãģ«æ ģĭ
ãģ§ãģį ãģªãģĭãģ£ãģŁ
ãģ¨æĢĿ ãģ£ãģ¦ãģĦãģ¾ãģĻ
ãĥ¬ ãĥ¼ãĥ³
ãĥŃ ãĤ·ãĤ¢
äºĭ æķħ
ãĤ¸ ãĥ«
ãĥķ ãĥª
ãģ«ãģ¯ ãģªãĤīãģªãģĦ
īį èĥ½
ãĤ¿ ãĤ¦ãĥ³
ãģ®ç ½ª
Ġè «
Ġè ³ªåķı
ãĤĴç Ļº
ãģĮãģĤãĤĭ ãģªãĤī
ãĤ« ãĤ¦
ãĤ« ãĥ¼ãĥĪ
ãĤ° ãĥ©ãĥł
æľ «
Ġãģ© ãģĵãģ«ãģĦãĤĭ
ãģ£ãģ¦ãģĦãĤĭ ãģ®
ãĥĩ ãĤ¢
ãĥĩ ãĥ¼ãĥĪ
ĠãģĵãĤĮ ãģ¯ç
ãĥĳ ãĥª
ãģ®é ĬĢè¡Į
ãģ®é £Ľè¡Įæ©Ł
ãģ®è ³ªåķı
ãĥĸ ãĥ©ãĤ¤ãĤ¢ãĥ³
ãģ¯ä½ķ ãģ§ãĤĤ
æĦ ļ
ãĤª ãĥķ
ĠãģĦ ãģıãģ¤ãģĭ
ãģ«ãģªãĤĭ ãģ¨
ãģ«ãģªãĤĭ ãĤı
ä»ķäºĭ ãĤĴ
ãģ«åħ¥ ãĤĬ
ãģ«åħ¥ ãģ£ãģŁ
å½¼å¥³ ãģĮ
Ġäºº ãģ¯
ãģłãĤįãģĨ ãģĭ
åĲĽ ãģĮ
ãĤ» ãĥ³
ãģ«è Ń¦
ãģĵãģĵ ãģ«æĿ¥
ãģĵãģĵ ãģ«æĿ¥ãģŁ
Ġãĥŀ ãĥĥãĥĪ
ĠãĤ¢ ãĥ«
ãĥĶ ãĤ¢
ãĥĻ ãĤ¤
ãģ¨ãģĹãģ¦ ãģĦãģŁ
ãĥ³ãĥī ãĥ³
Ġãģķ ãĤĪãģªãĤī
ä½ķãĤĴ ãģĹãģŁ
ä½ķãĤĴ ãģĹãģ¦ãĤĭ
å± ħ
ãĥ¼ãĥł ãĤº
ãĥĿ ãĥĥãĥĹ
ãģĮãģĤãĤĬãģ¾ãģĻ ãģĭ
ãģ®å¤ ¢
ä¸į æĢĿèŃ°
ãĤ·ãĥ§ ãĥĥãĥĪ
è¿ İ
ãģ©ãģĵ ãģĭ
ãĤ¸ãĤ§ ãĤ¯ãĥĪ
ä¸İ ãģĪ
åĮ »
ä¸Ģåº¦ ãĤĤ
ãĤĴçŁ¥ãģ£ãģ¦ãĤĭ ãģ®
ãģ£ãģ¦ãĤĭãģ® ãģŃ
ĠãĤĤãģĹ ãĤĤãģĹ
ãĤĴãģĹãģ¦ ãģĦãģŁ
Ġä¸ ¡
Ġä»ĸ ãģ®
åĨ ĻçľŁ
ãģĮèµ· ãģį
Ġçµ ¶
å· ®
ĭĤ ãģ£ãģŁ
ĠãģĨ ãĤĵ
ãģĮå¥½ãģį ãģł
ãģłãģ¨æĢĿ ãģ£ãģ¦ãģŁ
ãģ¯æŃ» ãĤĵãģ§ãĤĭ
ãģĹãģ¾ãģĹãģŁ ãģĭ
éģħ ãĤĮ
ä¸» ç¾©
ĠãĤı ãģĭãĤīãģªãģĦ
çĽ´ ãģ«
ãĤĴä½¿ ãģ£ãģ¦
åī ¤
ãģĭãĤĬ ãģ¾ãģĹãģŁ
å°ĳ å¹´
ãĤĴåıĸãĤĬ æĪ»
ãĥĪãĥ© ãĥĸãĥ«
Ġåħ Ī
ãĤ¤ãĥĪ ãĥŀãĥ³
ãĤĴéĢ£ãĤĮãģ¦ è¡Įãģı
ãģ®å¤§ ãģįãģª
éģł ãģı
ãĤĴæĴĥ ãģ£ãģŁ
ãĤĴå§ĭ ãĤģ
ãģ®ãĥĩ ãĤ£
çµĮ é¨ĵ
éŁ³ æ¥½
Ġãģ¡ãĤĩãģ£ãģ¨å¾ħ ãģ£ãģ¦
ãĤĴéĸĭ ãģĳ
Ġãĥ¢ ãĥ¼ãĥĦãĤ¡ãĥ«ãĥĪ
éķ·ãģĦ éĸĵ
ĭ¬ èº«
ĠåĢ ĭäºº
ĠãĤ¯ãĤ· ãģł
ªæ Īĳ
è¦ı åīĩ
°¸ éģł
æģ¯åŃĲ ãĤĪ
ä½ķåº¦ãĤĤ ä½ķåº¦ãĤĤ
Ġéļ İ
ãĤ³ãĥ³ãĥĶ ãĥ¥ãĥ¼ãĤ¿ãĥ¼
ĠæĦĽãģĹãģ¦ãĤĭ ãĤĪ
īĦ éģĵ
ãģ»ãģĨ ãģĮãģĦãģĦ
Ġæ°Ĺãģ«ãģĹãģªãģĦ ãģ§
Ġå¿ĺãĤĮãģ¦ ãģıãĤĮ
éŁ ¿
ãģ£ãģį ãĤĬ
Ġä½ķãģĮæľĽãģ¿ ãģł
U M
l e
£ è¦ĸ
¦ ģ
ª éĻ
¯ Ŀ
° ·
³ £
µ å£«
¸ Ĥ
å »
å ¹¸ãģĽ
ç ¨
ç ¯
ç ¬¬
ç İĩ
Ġ H
Ġ R
Ġ e
Ġ éģĵ
ĥ ħ
Ĩ İ
Į æľĽ
ı ¡
Ľ º
Ľ ãģĦ
Ŀ £
Ŀ ãĤģãģ¦
ãģ® ãĥī
ãģ® è¡Ģ
ãģ¯ çŁ¥ãģ£ãģ¦ãĤĭ
ãģ¯ ãĤıãģĭãĤīãģªãģĦ
ãģ¯ ãģ©ãģĵãģ«
ãģª ãģįãĤĥ
ãģ« ãģĹãģ¦ãģĦãĤĭ
ãģ« ãģĹãģŁãģĦ
ãģ« ä½¿
ãģ« éĢģ
ãĤĴ ãĤĤ
ãĤĴ ãģ¤ãģĭ
ãĤĴ éģ¸
ãĤĭ ãģĵãģ¨ãģ¯ãģ§ãģįãģªãģĦ
Ġãģ į
ãģĭ ãģªãģĭãģ£ãģŁ
ãģ§ ãģªãģĳãĤĮãģ°ãģªãĤīãģªãģĦ
ãģ§ ä¸Ģçķª
ç§ģ ãģ¨
ç§ģ ãģ¯å½¼å¥³
Ġå º§
Ġå Ī¥
Ġå ħ¨ãģı
Ġå º¦
ãĥ³ ãĤº
ãĥ³ ãĥªãĥ¼
ãģ£ãģ¦ æ¬²ãģĹãģĦ
Ġç§ģ ãģ¨
Ġç§ģ ãģ®ãģŁãĤģãģ«
Ġãĥ »
ãģĹãģ¦ ãģ¿
ãģĹãģ¦ æ¬²ãģĹãģĦ
ãĤĬ çī©
ãģ£ãģŁ ãĤĵãģł
ãĤ¹ ãģł
ãĤ¹ ãĥ¼ãĥĦ
ãĤ¹ ãĥĨãĤ£ãĥ¼ãĥĸãĥ³
ãĥĥ ãĤ«
ãĥĥ ãĤ«ãĥ¼
ãģ®å Ľ½
ãģ®å ĬĽ
ãģ¯å ħ¨ãģ¦
ãģķ ãĤī
Ġæ °´
ãĤ¯ ãĥªãĤ¹
ãĤĴå ±
ãĤĴå ħ¨éĥ¨
ãģ§ãģĻ ãĤĪ
äºº ãģ¨
Ġç§ģãģ¯ ä»Ĭ
Ġç§ģãģ¯ ãģ¨ãģ¦ãĤĤ
ãģĽ ãĤį
ãģ¡ ä¸ĬãģĮ
ãģĻãĤĭ ãģĵãģ¨ãģĮãģ§ãģįãģ¾ãģĻ
ãĥª ãĥ«
ãĥª ãĤ±
å¥ ½
ãĥ© ãĥ¡
ãģ© ãĤĮãģłãģĳ
åĪ º
ãģ®æ ĦĽ
ãģ®æ ©Ł
ãģ®æ Ħı
ãģ®æ ĺłçĶ»
å½¼ ãģ¯æ
æĢĿ ãģĦ
è¨Ģ ãģĪãģªãģĦ
ãģ¯æ Ń£ãģĹãģĦ
è¡Į çĤº
ãĥī ãĥŃãĤ·ãĥ¼
Ġç İĭ
Ġç ļĨ
ãģĬ ãģı
ãģĬ æ¯įãģķãĤĵ
ãģĦãģ¦ ãĤĭ
éĢ Ķ
éĢ ł
èĢ ģ
Ġè ¥¿
ãģ®ãĥ Ľ
ãģĮãģĤãĤĭ ãģ¨
ãĤĴè¦ĭ ãģ¦ãģĦãĤĭ
ĠãģĵãĤĮ ãĤĴ
ĠåĲĽ ãģ¯å
Ġé «
Ġé ¦¬é¹¿
ãĤĴè ĩª
è¦ģ çĤ¹
è¦ģ æ±Ĥ
ãģĹãģ¦ãģĦãĤĭ ãģ®ãģ¯
ãĤ³ ãĤ¢
ãĤ³ ãĥ¼ãĥī
ç§ģãģ¯ ãģĿãĤĮ
åı ¯èĥ½
Ġç§ģãģŁãģ¡ ãģ¯æ
å¿ «
ãĤĪãģĨãģ« è¦ĭãģĪãĤĭ
éĽ ĳ
ãģĵãģ¨ãĤĴ çŁ¥ãģ£ãģ¦ãģĦãĤĭ
ãģ¨æĢĿãģĨ ãģĭ
çī ĩ
çµ ¦
Ġãģ©ãģĨ æĢĿãģĨ
ãģ¨è¨Ģ ãģ£ãģ¦
ãĥ¼ãĥĪ ãĥĬãĥ¼
ãģĵãģ¨ãģ¯ ãģĤãĤĬãģ¾ãģĽãĤĵ
ãĤ¨ ãĥªãĥĥãĤ¯
ãģ«åħ¥ ãĤĮãģŁ
ç´ ļ
Ġäºº ãģ®
ãĥĢ ãĤ¦ãĥ³
ãĥĢ ãĥ¼ãĥªãĥ³
æĺ ¥
åĲĽ ãģ®
ãģĶ ãģ¨
ãĥĩãĤ£ ãĤ¢
Ġä¿º ãĤĤãģł
éł Ĩ
ãģ®äºº ãĢħ
åĽ ł
ãģķãģĽ ãģ¦
ãģļ ãģ«
å¯ Ħ
åĬ Ł
ãĤĴçŁ¥ ãĤīãģªãģĭãģ£ãģŁ
éļ İ
ãģ¤ãĤĤãĤĬ ãģ¯ãģªãģĦ
ãĥİ ãĥĥãĤ¯
ãģ«è¡Į ãģįãģ¾ãģĻ
ä¹ ¾
ãĥ©ãĤ¤ ãĥĪ
Ġä½ķãģĭ åķıé¡Į
ä»¥ åīį
æĬ Ģ
ãĤĭãģĭ çŁ¥ãģ£ãģ¦ãĤĭ
Ġä¸Ģ ãģ¤
ãģ£ãģ¦ãģıãĤĮ ãģªãģĦãģĭ
ãĥķãĤ¡ ãĥ¼
æĿ ¯
è£ ľ
Ġæĺ ¨æĹ¥
Ġ4 0
ĠãĥĪ ãĥ©
ĠãĥĪ ãĥł
ãģĿãĤĵãģª ãģ«
ãĤ¦ãĤ§ ãĥ³
ãĤ¦ãĤ§ ãĤ¤
æĹ ©
æ©Ł ä¼ļ
çĻº è¦ĭ
èĳ ¬
Ġä»ĸ ãģ«
ãĤĴè¿ Ķ
ãģ«å½¼ ãĤī
ãĤĴèª ¬
Ġç¥ŀ ãĤĪ
è¨± åı¯
ãĤĴåĲ ¹ãģįé£Ľãģ°
ãĥ»ãĥ» ãĥ»ãĥ»
æŃ» ãĤĵãģł
æŃ» ãģ¬
Ġãĥĸ ãĥ©ãĤ¤ãĤ¢ãĥ³
Ġãģĵãģĵãģ§ ä½ķãģĹãģ¦ãĤĭãģ®
ãģķãĤĮ ãģ¾ãģĻ
ãĥ¬ãĤ¤ ãĥĹ
ãĤĴåĪ ©çĶ¨
ĠãĤı ãģĭãĤĬãģ¾ãģĹãģŁ
ãĤĴä½¿ çĶ¨
è»į æĽ¹
åī ²
ä»£ ãĤı
ãģıãģª ãģ£ãģŁ
¹³ åĴĮ
Ġãģĭ ãĤıãģĦ
ãĤ¦ãĤ£ ãĥ¼ãĥ³
ãĤ¹ãĥĨ ãĥł
Ġä½ķãĤĴ è¨Ģ
ĠæĢ ĸ
ãģĹãĤĪãģĨãģ¨ ãģĹãģ¦ãģĦãĤĭ
Ġãģ©ãģĨãģĹãģ¦ çŁ¥ãģ£ãģ¦ãĤĭãģ®
ãĥĳãĥ¼ãĥĪ ãĥĬãĥ¼
ãĤĴæĭ ¾
éĢŁ ãģı
çĹ ĩ
åĪ¤ æĸŃ
ģ¥ ãģļ
ãĥ¼ãĥŃ ãĥĥãĥĳ
ãĥĪãĥ¬ ãĥĻãĤ¹
éĢĢ å±Ī
ãģ®çĬ ¬
ãĤĴåĲ¸ ãģĨ
Ġå¾Į ãģ§
ä½Ļ åľ°
ãĤ¬ãĥ¼ãĥ« ãĥķãĥ¬ãĥ³ãĥī
çĪĨ å¼¾
ãĥ¼ãĥĩ ãĤ£
ãĥīãĤ¥ ãĥ¼ãĥªãĥĪãĥ«
ãģ¯æľ¬ çī©
ãĤĴè¦ļ ãģ¾ãģĻ
ãģ®çķª åı·
ãĤĤãģ¡ãĤį ãĤĵ
ãĤĴãģĬé¡ĺãģĦ ãģĹãģ¾ãģĻ
ãĤ¤ãĤ® ãĥªãĤ¹
įľ æŁ»
Ķ» æĴĥ
ªéĻ ½
S S
¢ çĻ½ãģĦ
¤ į
§ Ķ
© ´
ª ¨
® ±
² å®¶
³ å£«
´ Ī
µ ´
º ĥ
æ ģ¯
æ Ĥ²
ç ³
ç ¹
ç Ĺħæ°Ĺ
ç °¡åįĺ
ç ¶Ļ
è ¥¿
Ġ )
Ġ ä¿Ŀ
ī ķ
Ĭ ±
Ĭ æķ¬
ĭ ¦
Į ä¸Ń
Į é¨ĵ
İ ¥
ĵ è¿İ
ĸ Ħ
ĺ ç´Ķ
Ļ ®éĢļ
ļ Ĺ
ãģ® ãĤ·
ãģ® ãģ§ãģĻãģĭ
ãģ® ãģĬéĩĳ
ãģ® ä½Ļåľ°
ãģ« è¦ĭ
ãĤĴ ãģķãģĽ
ãĤĴ ãģĻãģ¹ãģ¦
ãĤĴ éģĭ
ãĤĴ èĢĥãģĪãģ¦
ãĤĴ ãģĭãģĳ
ãģĹ ãģķ
ãģĹ ãģªãģķãģĦ
ãģĭ ãģĦ
ãģĭ çŁ¥ãĤīãģªãģĦ
ãģ¨ ãģĬãĤĬ
ãģĮ è¦ĭãģĪãĤĭ
ãģł ãģ¨è¨Ģãģ£ãģŁ
ãģ§ ãģĤãģªãģŁ
ãģ§ ãģıãģłãģķãģĦ
ãģĵ ãģĿ
ãģĵ ãĤį
Ġå ĩºãģ¦
ãģ¾ ãģ¾
ãĤĤ ãģª
ãĤī ãĤĮãģ¦
ãĥ³ ãĤ¬ãĥ¼
ãģı ãĤĭãģ®
ãĤĬ è¿Ķ
ä½ķ ãģĮ
ãĤĴæ ¼Ķ
ãģĿ ãģ®çĶ·
ãģ®å ħ¨ãģ¦
ĠãģĤ ãģ¾ãĤĬ
Ġå½¼ ãģ®åĲįåīįãģ¯
ãģķ ãģªãģĳãĤĮãģ°ãģªãĤīãģªãģĦ
ãĤ¯ ãĤ¹
ãģĪ ãģ°
äºº ãģłãģ£ãģŁ
ãĥĪ ãĥ³
Ġç§ģãģ¯ ãģ¡ãĤĩãģĨãģ©
ãģĻãĤĭ å¿ħè¦ģãģĮãģĤãĤĭ
ãģĻãĤĭ å¿ħè¦ģãģĮãģĤãĤĬãģ¾ãģĻ
ãĥ« ãĥ¼ãĥĹ
ãģĤãģªãģŁ ãģ®å
ĠãģĿãĤĮ ãģªãĤī
ĠãģĿãĤĮ ãģ¯åĲĽ
ĠãģĿãĤĮ ãģĮåĲĽ
ĠãģĿãĤĮ ãģ¯æľ¬å½ĵ
ãĤģ ãĤĵ
èª ł
ãĥ© ãĥĥãĤ¯ãĤ¹
ãģ© ãģ¡ãĤī
Ġãģĵ ãģĵãģ«ãģĦãĤĭ
Ġãģĵ ãģ®åł´æīĢ
ãģ®æ ķ°
ãģ®æ ¯Ľ
ãģ¯æ ®ĭå¿µ
ãģĿãĤĮ ãģ§
ãĤĪãģĨ ãģĵãģĿ
Ġç ī©
ãģŁãģ¡ ãģĮ
ãģĦãģŁ ãģıãģªãģĦ
ãĤ· ãĥ³ãĥĪãĥ³
äºĭ å®Ł
ãĥķ ãĥ«
ãĥķ ãĥªãĤ«
ãģ«ãģ¯ è¡ĮãģĭãģªãģĦ
å® Ī
ãĤ¿ ãĥªãĤ¢
ãģĮæ ĪĳãĢħ
Ġè Ħ
Ġè Ī¹
ãģ®ãĥ ı
ãĤĴç «ĭ
ãĤĴç ĩĥãĤĦ
ãģ«ãģª ãģ£ãģ¦ãģĦãģ¾ãģĻ
ãĤ° ãĥ¬
ãģ¯ãģĦ ãģĳãģªãģĦ
ãĥĨ ãĥĥãĥī
ãĥĨ ãĥ¼ãĥĸãĥ«
ãĥĩ ãĥĵãĥ¼
Ġ1 1
ĠåĲĽ ãģ¯ç
Ġé įµ
Ġé £Ł
ãĤĴè ¶
ä¸Ń ãģ§ãģĻ
ãģ©ãģĨ ãģĻãĤĭ
ãĥ¼ãĥ« ãģ¯
ãĥ¼ãĥ« ãĤº
ãģ®è µ
ãģ®è ¾
ãģ®è ¶³
Ġå½¼å¥³ ãģ¯æ
ãĤ³ ãĥĥãĥĪ
ãģ¿ ãĤį
ãĥĲ ãĤ«
ãĤĤãģĹ ãģªãģĦ
Ġãģ§ ãģĻ
ãĥ¥ ãĥ¼ãĥĪ
éĽ Ħ
æĻĤ ãģ¯
Ġä»Ĭ åº¦
ãĤª ãĥļãĥ©
Ġãģ©ãģĨ ãģł
Ń¦ åĻ¨
ãĥĬ ãĥ«
åĭ Ŀ
èµ ¤ãģ¡ãĤĥãĤĵ
Ġç§ģãģĮ ãĤĦãģ£ãģŁ
æĺ ¼
ãĥĥãĥĹ ãĥ«
ãģ§ãģ¯ãģªãģĦ ãģĭ
èĩªåĪĨ ãģ§
å½¼ãĤī ãģ¯ç§ģ
ãĥı ãĤ¤
ãĥı ãĥ«
ãĥı ãĤ¦ãĤ¹
Ġãģĵãģĵ ãģ§ãģ¯
æŃ ¯
åĬ ´
åĬ ©ãģĳ
èµ· ãģįãģ¦
ãģ®çĶ· ãģ¯
ãģ¹ãģį ãģłãģ¨æĢĿãģĨ
æīĭ ä¼Ŀ
ãģĮç§ģ ãģ«
ãģįãģŁ ãģ®ãģĭ
ĠãĤ¯ ãĥ©
éĿ ´
éģĭ åĳ½
ãģ®å¤ ļãģı
Ġãĥĩ ãĤ¤
Ġãĥĩ ãĥĵãĥĥãĥī
Ġãĥı ãĤ¤
ãĤĭãģĵãģ¨ãģĮãģ§ãģį ãģŁ
ĠãĥĢ ãĥ³
æľĢ é«ĺ
ãĤ® ãĥ¼
å®¶ æĹı
Ġ5 00
ãĤĴæķ ĻãģĪãģ¦
Ġãģ¨ ãģĵãĤį
ãģ©ãģĵãģ« ãĤĤ
Ġæ°Ĺ ãĤĴãģ¤ãģĳãģ¦
ãģĮå¿ħè¦ģ ãģªãģ®
ãĥªãĤ¹ ãĤ¯
ãĤ¸ãĥ§ ãĤ¨ãĥ«
èª°ãĤĤ ãģĦãģªãģĦ
ãĤĴèª į
ĠçŁ¥ãģ£ãģ¦ãĤĭ ãģłãĤį
Ġãĥ© ãĤºãĥŃ
ãĥ¼ãĥŀ ãĥ³
çĶŁãģį ãģ¦ãģĦãĤĭ
å¿ĥ éħį
åıĸ ãĤĬ
ä»ĺ ãģį
ĠãģĿãĤĵãģª ãģĵãģ¨
åĵ¡ ä¼ļ
ãĤĴãģĬ æĮģãģ¡
è¡Įãģĭ ãģªãģĳãĤĮãģ°ãģªãĤīãģªãģĦ
¶ļ ãģĳ
ĠãģĿãģĨãģĭ ãĤĤãģª
ãĤĴä½¿ ãģĨ
ãģ®å¾Į ãĤį
ä¼ĳ æĨ
åĪ¥ ãģª
ãģ¨è¨ĢãģĨ ãģ®ãģĭ
ĠãĥĻ ãĥĥãĥī
ĠãĥŁ ãĤ¹
å°ĳ ãģªãģıãģ¨ãĤĤ
ä½ı ãĤĵãģ§ãģĦãĤĭ
Ġç§ģãģ«ãģ¯ ãĤıãģĭãĤīãģªãģĦ
èĩ ´
ãģ®åĳ ¨ãĤĬ
ãģįãģ¦ ãĤĭãģ®
Ķ¯æīķ ãģĦ
ãĤĴæľĽ ãĤĵãģ§ãĤĭ
Ġãģ©ãģĨãģĦãģĨæĦıåĳ³ ãģł
ãģĮæŃ» ãĤĵãģł
ãģĨãģ¾ãģı ãģĦãģı
ãĤĴæŃ¢ ãĤģãĤĭ
å¦ ¹
ãĤĴå§ĭ ãĤģãģŁ
ãģ¯æĺ İæĹ¥
ãĤĴå¤ī ãģĪ
æı Ľ
è¡¨ ç¤º
èģŀãģĵ ãģĪãĤĭ
ãģ£ãģ¦ãģĬ ãģı
Ġéł Ń
ºĢ è¶³
çµ¶ å¯¾
æŀ ľ
ãĤĴèĦ ±ãģĦ
ĠãģĻãģĶãģĦ ãģŃ
ãĤĴçł´ å£Ĭ
çĶ³ãģĹè¨³ãģĤãĤĬãģ¾ãģĽãĤĵ ãģĮ
ãģįåİ» ãĤĬ
ĠãģĭãĤıãģĦ ãģĿãģĨ
Ġãģ¨ãģĵãĤį ãģ§
ä¼ĳæĨ ©
E R
i t
¡ å¸ĥ
¦ ¹
¬ º
¬ ł
® ¡çĲĨ
³ ç´°
µ ®
¸ ĮæľĽ
» ŀåľ¨
å Ŀ
å ŀ
å ¹¸
å ĦĢ
æ ¼
æ ¿
ç ¥
ç ¸
ç Į
ç ¢ºãģĭ
é Ĥª
Ġ %
Ġ (
Ġ W
Ġ d
Ġ è¡Į
Ĥ ©
ĩ å®
Ĵ ®
Ĵ åĲ
Ĺ æķĻ
ļ ®
Ń °
ãģ® ãĤ¤
ãģ® ãĤ±ãĥĦ
ãģ« ãģĤãĤĬãģ¾ãģĻ
ãģ« ãģĿãĤĮãĤĴ
ãģ« ãĤŃãĤ¹
ãĤĴ è¡Į
ãģĹ ãģĭãģªãģĦ
ãģĹ ãģªãģĳãĤĮãģ°ãģªãĤĬãģ¾ãģĽãĤĵ
ãģĭ ãģ®ãĤĪãģĨãģ«
ãģ¨ ä¿¡ãģĺ
ãģĮ ãģĿãĤĮ
ãģ§ ãģĦãģ£ãģ±ãģĦ
ãĥ¼ ãĤ¶
ãĥ¼ ãĤ«ãĥ¼
ãģĨ ãģĵãģ¨
Ġå Ī
ãģ¾ ãģ£ãģŁ
ãģ¾ ãģ£ãģĻãģĲ
ãģĤ ãĤĮãģ°
ãģ£ãģ¦ ãģĦãģ¾ãģĽãĤĵ
Ġç§ģ ãģ®ç
Ġç§ģ ãģ®åĲįåīįãģ¯
ãģı ãģªãģĭãģ£ãģŁ
Ġãĥ İ
ãģĹãģ¦ ãģĦãģ¾ãģĹãģŁ
ãĤĬ ãģ¾ãģĹãģŁ
ãģ£ãģŁ ãģĵãģ¨
ãĤ¹ ãĤ«
ãĥ¼ãĥ ¢
ãĥĥ ãĤµ
ãĥĥ ãĤŃãĥ³ãĤ°
ãģ®å ½¼
ãģ®å °ı
ĠãģĤ ãģ®
ãģĦãĤĭ ãģ®
Ġæ ºĸåĤĻ
ãĤĴå °ĳãģĹ
ãĤ¤ ãĥĥãĥģ
äºº ãģĮãģĦãĤĭ
æĢ ªæĪĳ
ãģĻãĤĭ ãĤĪãģĨ
ãĥª ãĤª
ĠãģĤãģªãģŁ ãģ¯ãģĦãģ¤ãĤĤ
ãĤģ ãģªãģĦ
çĶ ĺ
ãģ«å į
ãģ«å ±ħ
ãģ«å ¾ĵ
è¡ Ĩ
å½¼ ãģ¯å
å½¼ ãģ¯ç§ģ
å½¼ ãģ¯ç
çŁ ŃãģĦ
çŁ¥ ãĤĬãģ¾ãģĽãĤĵ
ãĥī ãĥĭãĥ¼
å¤ ķé£Ł
Ġç ©º
Ġä½ķ ãģĮåķıé¡Į
ãģ«æ ²
ãģ«æ Ķ¯æīķ
è© ³ç´°
ãģ¾ãģĽãĤĵ ãģ§ãģĹãģŁ
å® īåħ¨
ãĤ¿ ãĥĲãĤ³
ãģĮæ ķ
ãģĮæ Įģ
ãģĮæ Ń£
èĢ Ĳ
Ġè ³
Ġè µ·
ãģ®ãĥ ¢
ãģ®ãĥ ¯
ãģĹãģ¦ãĤĭ ãģ¨æĢĿãģĨ
ãģĮãģĤãĤĭ ãģĭãĤĤãģĹãĤĮãģªãģĦ
ãĤĴè¦ĭ ãģŁãģĦ
ãģ«ãģª ãĤĭãģ®
ãĥĨ ãĥ¼ãĥĹ
ãĥŀ ãĤ¹
ãĥŀ ãĥĥãĥĪ
ãĥĩ ãĥ«
ãĥĩ ãĥªãĥĥãĤ¯
ãĥĩ ãĥĵãĥĥãĥī
ãģĵãģ¨ãģĮ ãģĤãĤĬãģ¾ãģĻ
ãĤĤãģ® ãģ¯
ãĤĤãģ® ãģ§ãģ¯ãģªãģĦ
Ġé £Ľè¡Įæ©Ł
ãĤ¦ ãĥ³ãĥī
ä¸Ń ãģł
ãĤĴæĮģ ãģ¡
ãģĿãģĨ æĢĿ
Ġå½¼å¥³ ãģ¯å
ãĤ³ ãĥ¼ãĥĴãĥ¼
ç§ģãģ¯ èĩªåĪĨ
ãĥĸ ãĥªãĥ³
åħ ±
ãģłãģ£ãģŁ ãģ®ãģĭ
ãĤµ ãĥł
æĻĤ ãģ«ãģ¯
çī ²
çī Ľ
èĩª çĦ¶
ĲĨ è«ĸ
ĠãģĤãģªãģŁãģ¯ ãģ¨ãģ¦ãĤĤ
Ġãģ§ãĤĤ ãģŃ
ãģ¨è¨Ģ ãģ£ãģ¦ãģŁ
ãĥ¼ãĥĪ ãĥ«
ãĤĵãģ§ ãģıãĤĮ
ãĤĵãģ§ ãģĦãģªãģĦ
ãģ®ãģ¯ ãģĤãģªãģŁ
ãĥĬ ãĥĥãĥĦ
Ġäºº ãģĮ
Ġäºº éĸĵ
åį ±éĻº
ãĤ¿ãĥ¼ ãĥ³
ãģ¦ãĤĤ ãģĦãģĦ
ãĤ± ãĥ¼ãĤ¹
ãĤ± ãĥ³ãĥīãĥ¼ãĥ«
Ġãĥŀ ãĥ¼ãĤ¯
ĠãĤ¢ ãĥªãĤ¹
Ġç§ģãģ¯å ı
Ġç§ģãģ¯å °ĳãģĹ
ãĥľ ãĥ³
ä¸Ģç·Ĵ ãģ«
ãģ¯ãģ©ãģĨ ãĤĦãģ£ãģ¦
ãĥį ãĥĥãĥĪ
ãģĹãģŁãģĦ ãģªãĤī
ãĥ¯ ãĥ³
éħ ·ãģĦ
ãĥ¢ ãĥ³ãĥī
Ġãĥī ãĤ¢
ãģ¨æĢĿãģĦãģ¾ãģĻ ãģĮ
ãĤĴæ®º ãģĿãģĨãģ¨
ĠãĤ¹ ãĥĨãĤ£ãĥ¼ãĥĸãĥ³
è³ Ľ
å¸ °
ãĤĪãĤĬ èī¯ãģĦ
æĽ ´
ä¸į æĺİ
Ġãĥı ãĥ¼
ãģ©ãģĵ ãģ§
Ġä¸Ģ åº¦
ãĤ¯ãĤ½ ãĥ³
¥½ ãģĹãģĦ
éķ· ãģı
ĠãĤª ãĥ¼ãĤ¯
å®¶ ãģ«å¸°
ä¼Ŀ ãģĪ
è² ¬ä»»
ãĥ¼ãĥª ãĥ³ãĤ°
ãģ®æľ į
ãģ®æľ Ŀ
ĠãĥŃ ãĥ¼ãĤº
ĠãĤ¦ ãĤ§
åĪĿ ãĤģãģ¦
ãĥģãĥ£ ãĥ¼ãĥī
è£ ģ
Ġåı ĭéģĶ
ãģĿãĤĵãģª ãģĵãģ¨
å° »
Ġæ°Ĺ ãģ«åħ¥ãĤīãģªãģĦ
Ġå® ĮçĴ§
ĠãĤ· ãĤ§
ãĤ¸ãĥ§ ãĥ¼ãĤ¸
Ġæľ¬å½ĵ ãģł
ãģĮå¥½ãģį ãģłãģ£ãģŁ
ãĤĴæĦĽ ãģĹãģ¦ãģĦãĤĭ
ĠæĹ¥ éĸĵ
ãģ®å®¶ æĹı
ãģ¡ãĤĥ ãģı
åģ µ
åł´æīĢ ãģł
çĦ ¼
ãģ¯ãģĤãĤĬãģ¾ãģĽãĤĵ ãģ§ãģĹãģŁ
Ġèª°ãĤĤ ãģĮ
çĲĨçĶ± ãģł
ä¸» å¼µ
ãĥĥãĤ·ãĥ¥ ãĥ¼
èĭ ¥
é¨ Ļ
çľŁ å®Ł
ä¼ĳ ãģ¿
ãģ¨åĳ¼ ãģ¶
ĠãģĿãģ® éĢļãĤĬãģł
Ġ20 0
ãģ®çµ ĤãĤıãĤĬ
ãĥĪãĥ© ãĥĥãĤ¯
éģ¸æĬŀ ãģ®ä½Ļåľ°
ãģªãģĵãģ¨ ãģ«
ãĥĸãĥ© ãĥĥãĤ¯
ä¾¡åĢ¤ ãģĮãģĤãĤĭ
ªģ ãģį
èģ ·
ãĤĴè¦ļãģĪãģ¦ ãĤĭ
ãĥ«ãĥ¼ ãĤ¬ãĥ¼
éĸī ãģĺ
ãĥ¼ãĥĲ ãĥ¼
èĤ ¢
æ¯ İ
ãģĤãģĴ ãĤĭ
èªĵ ãģĨ
Ġãģ§ãģį ãĤĭ
ãģ®çĤ ¹
ãĤĴæķĳ ãģ£ãģŁ
ç® Ĺ
ãĤĴæ¶Ī ãģĻ
ĠãģĺãĤĥ ãģĤ
ãĤ¤ãĥŃ ãĥĥãĥĪ
¶Ļ ç¶ļ
Ħļ ãģĭãģª
İŁ åĽł
ãģĹãģ°ãĤīãģı ãģ®éĸĵ
ãĤĨ ãĤĭ
ĠãĤ² ãĤ¤ãĥªãĥ¼
æķµ ãģª
éĸ£ å¤ĸ
ãĤ¤ãĥ¤ ãĥ¼
ãģĭãĤīæĿ¥ ãģŁ
Ġãĥ´ ãĤ£
Ġç§ģãģ¯ãģĿãģĨ ãģ¯æĢĿãģĦãģ¾ãģĽãĤĵ
ĠãģĬãģ¯ãĤĪãģĨ ãģĶãģĸãģĦãģ¾ãģĻ
ãĤªãĥ¼ ãĤ¦ãĤ§ãĥ³
è¨ĢãģĦ è¨³
èĭ± èªŀ
Ġå¹¸éģĭ ãĤĴ
Ġè¡Įãģı ãģŀ
è§ ¦
ĠãģĦãģıãĤī ãģł
Ġèª¿åŃĲ ãģ¯ãģ©ãģĨãģł
éĹ ĩ
Ġå¤± ç¤¼
ĠKI SS
ãĤĴå®Ł è¡Į
éİ ĸ
ãĤģãģ§ ãģ¨ãģĨ
Ġä¸¡ æĸ¹
ãĥªãĤ± ãĥ¼ãĥ³
Ġä½ķãģĭåķıé¡Į ãģ§ãĤĤ
ĩå® Ļ
ĴåĲ ¦
A N
a r
p o
u t
¤ ¾
¤ å¥´ãĤī
¨ ãģ¦
¨ æ¸¬
± éŁ¿
´ Ĺ
· çī©
¼ »
¼ ¾
¾ ŀ
å ¢
å ¹¸éģĭ
æ ¼Ķ
ç ĭ
ç ¾İ
ç ªģçĦ¶
è Ĳ½ãģ¡
é ľ
é ½¢
Ġ J
Ġ ãĤ¹ãĥĪ
Ġ ä»£
Ġ ä¼ļãģĪãģ¦
ģ īå¤§ãģª
Ĥ £èĢħ
ħ åŃĲ
ĩ ŃãģĦ
ī ±
ī å¼·
Ĭ æĢ¥
ĭ èŃ·
į ¨ãģ¦
į ·çī©
ľ æŃ¢
ŀ ľ
ãģ® ãĥª
ãģ® éĩĳ
ãģ® ä¸į
ãģ® éģĵ
ãģ® ãĤ¯ãĥ©
ãģ® ä¸ĸè©±
ãģ¯ ãģĵãģĵ
ãģ¯ èª°ãģł
ãģª ãģ£ãģŁ
ãģŁ ãĤĮãģŁ
ãģŁ ãģ¶ãĤĵ
ãģ¦ ãĤĭãģ®
ãģ« ãģªãģĦ
ãģ« æĢĿ
ãģ« ãģĹãģ¾ãģĻ
ãĤĴ ä¸ĬãģĴ
ãĤĴ éģĭè»¢
ãģĭ ãĤĬãģ¾ãģĽãĤĵ
ãģ¨ æ
ãģ¨ ãģĦãģĦ
ãģ¨ ãģ¯ä½ķ
ãģ¨ ç¢ºä¿¡
ãģĮ ãģ§ãģį
ãģĮ ãģĦãģ¾ãģĻ
ãģĮ ãģĦãģªãģĦ
ãģĮ ç§ģãģŁãģ¡
ãģĮ ãĤĦãģ£ãģŁ
ãĤĮ ãĤĪ
ç§ģ éģĶ
ç§ģ ãģ«ãģ¯å
ãĥ¼ ãĥ¼
Ġå ĩº
Ġå ¿ĥ
Ġå ĺĺ
Ġå Ń¦æł¡
ãĤī ãģªãģĳãĤĮãģ°ãģªãĤīãģªãģĦ
ãĤī ãģļ
ãģ£ãģ¦ ãĤĤãģĦãģĦ
ä¸ ī
ãģĹãģ¦ ãģįãģŁ
ĠãģĿ ãģ®å¾Į
ãĤĬ å½ĵ
ãĤ¹ ãĥĹ
ãĤ¹ ãĥĨãĤ£
ãĤ¹ ãĤ±
ãĥĥ ãĥĶãĥ¼
ãĤĴæ ı
ãĤĴæ ĺ
ãģ®å Į
Ġå½¼ ãģĮå
Ġæ ģ¯åŃĲ
Ġæ ®ĭå¿µ
ãĤĴå ĭķ
ãĤĴå Ľŀ
ãĤı ãģĽ
ãĤı ãģĭãĤĭ
ãĥĪ ãĥł
Ġç§ģãģ¯ ä½ķ
è¨ ´
ãģĻãĤĭ ãģĭ
ãģĻãĤĭ ãģªãĤī
ãĥ« ãĤ¯
ĠãģĿãĤĮ ãĤī
ĠãģĿãĤĮ ãģ§ãĤĤ
ãģ«å °ĭãģŃ
ãģ© ãģ®ãĤĪãģĨãģ«
ãģ®æ ī
ãģ®æ Ĥª
ãģ®æ ºĸåĤĻ
ãģĭãĤī éĢĥãģĴ
ãģĭãĤī æĬľãģĳ
è¨Ģ ãģ£ãģ¦ãģıãĤĮ
ãģĿãĤĮ ãģĭãĤī
ãģĿãĤĮ ãģłãģĳãģł
Ġç ľŁå®Ł
ãģ«æ ®ĭ
ãģ¨æĢĿ ãģ£ãģ¦ãĤĭãģ®ãģĭ
ãģĬ å®¢æ§ĺ
ãĤ· ãĥĨãĤ£
ãĤ· ãĥ³ãĤ°
éĢ Ĩ
ãĥŃ ãĥ¼ãĥī
äºĭ æħĭ
ãĤ¸ ãĤª
ãĥķ ãĥŃ
è©± ãģĹãģŁãģıãģªãģĦ
ãģŁãĤģ ãģ«ãģ¯
ãĤ¿ ãĤ¤ãĥł
ãĤ¿ ãĥ©ãĥ¡
èª° ãģªãģ®ãģĭ
ãģ®ç ¾©
ãģ®ç ĲĨçĶ±
ãģĮæ Ĵĥ
ãģĮæ ¶Ī
ä¼ ¼
ãģĺãĤĥãģªãģĦ ãĤĪ
ãģ®ãĥ Ķ
ãģ®ãĥ Ł
ãĤ« ãĥĲãĥ¼
ãģ«ãģª ãģ£ãģ¦ãģĦãģŁ
ãģĮå į
ãĥĩ ãĥ¼ãĥ«
ãĥĩ ãĥ¥
ĠãģĬ ãģ£ãģ¨
Ġé £²
ãĤ¦ ãĥł
ãģĪãģ¦ ãģĦãĤĭ
ãĤĴè £ı
ãģ©ãģĨ ãģĹãģŁãģ®
ãģ¯å½¼ ãĤĴ
ĠãģĦãģĦ ãģŀ
åħ Ħå¼Ł
åı į
åı Ĺãģĳ
åı ĭéģĶ
ãĥģ ãĥ¼ãĥł
åĲ ¸
çĶŁ å¾Ĵ
ãĥĭ ãĥ³ãĤ°
ãģ¨æĢĿãģĨ ãģªãĤī
Ġä»Ĭ æĻ©
Ġæľ į
çµ Ĥ
çļ Ĩ
ãĤĤãģĨ ä¸Ģãģ¤
ĠãģĤãģªãģŁãģ¯ ãģĿãĤĮ
Ġãģ©ãģĨ ãĤĤãģĤãĤĬãģĮãģ¨ãģĨ
ãĥªãĥ¼ ãĥ³
Ń¦ è£ħ
ãĤĵãģ§ ãģĦãģŁ
ãģĹãģªãģĦ ãģ®
ãĤ¨ ãĤ¹ãĥĪ
ãģ«ãģªãĤĭ ãģ§ãģĹãĤĩãģĨ
ãĤ¤ãĥ³ ãĥī
ãĤ¤ãĥ³ ãĤ¿
åĭ ¢
åĭ ĩ
çķ °
ãĥ¼ãĥī ãĥ³
æ³ ¨
ãģ®ä¸Ń ãģ«ãģĤãĤĭ
çĲĨ ãģł
Ġä¿º éģĶ
ãģ«è Ĳ½ãģ¡
ãģ«è ĪĪåĳ³
ãģ«è ĭ¦
Ġãĥŀ ãĤ¤ãĥŃ
åĽ º
ãĥľ ãĤ¹
ãģªãģ® ãĤĪ
ãģĤãģªãģŁãģĮ ç§ģ
æŃ Į
åĬ ©
åĬ ¹
å¾Į ãģ§
ãģ¨ãģĹãģ¦ ãģĦãģ¾ãģĻ
ãĤĴçŁ¥ ãģ£ãģ¦ãģŁ
ãģ®ãģĵãģ¨ ãģ§ãģĻ
éļ ľ
å½¼ãģ¯ ãģĤãģªãģŁ
ãģĿãĤĮãĤĴ ä½ľ
è¨Ģãģ£ãģŁ ãģĭ
è¨Ģãģ£ãģŁ ãģĵãģ¨
Ġå¤ ļãģı
ĠãĤ¹ ãĤ³ãĥĥãĥĪ
ãģ«è¡Į ãģĭãģªãģĦ
ãģ«è¡Į ãģįãģŁãģĦ
ãĥĿ ãĥ«ãĥİ
ãģĮç§ģ ãĤĴ
è³ ¢ãģĦ
ĠãĤ¯ ãĥ¬
ĠãĤ¯ ãĥ¼ãĥ«
å¸ ¯
å¹´ ãĤĤ
æĽ ¿
ãģ®åı £
ãģ®åı ĭéģĶ
Ġå¤§ ãģįãģª
è¿ ·
ĠåĪĨ ãģĭãĤīãģªãģĦ
ãģĹãģ¦ãĤĭãģ® ãģŃ
ĦŁ æĥħ
ãĤĴå¾ Į
ãĤ¸ãĤ§ ãĤ¤ãĥł
ãĥķãĤ£ ãĥ¼
ãĤĴæīĭ ãģ«ãģĻãĤĭ
æĮģ ãģ£ãģ¦ãģĦãģªãģĦ
ãģ®äºĭ ãģł
ãģĬéĩĳ ãĤĴæīķ
åĪĩ ãĤĬ
åĪĩ æīĭ
ãĥģãĥ£ ãĥ³
è£ ı
ãĤĴçŁ¥ãģ£ãģ¦ãĤĭ ãģ®ãģĭ
ĠãĤ¨ ãĥ´ãĤ¡ãĥ³
ĠãĥĪ ãĤ¥ãĥ³ãĥĸãĥªãĥ¼
éĢ± æľ«
ãĤĴè¦ĭãģŁ ãģĵãģ¨ãģĮãģªãģĦ
ãģ«æĪ» ãģ£ãģ¦ãģįãģŁ
ãĤ·ãĥ£ ãĥ¼
Ġä¸ »
ãģĵãģĵãģ« ãģĤãĤĭ
ãĤĴä½ľ ãĤĭ
ãģ«å¯ Ŀ
æĸ¹æ³ķ ãģł
ãģ«åĩº ãģ¦
ĠãĤ¸ãĤ§ ãĤ¤ãĤ¯
éĸĵéģķ ãģ£ãģ¦ãģĦãĤĭ
ĠãĥĨ ãĤ£
ãģ¯æŃ» ãģ¬
éĸĭ ãģĳ
ãĤŃãĥ£ ãĥ³
ãĤŃãĥ£ ãĥĹãĥĨãĥ³
ãĤĴåıĹãģĳ ãģŁ
Ġãĥĸ ãĥ©
ãĤĴæī Ģæľī
ãģĵãģĵãģ«ãģĦãĤĭ ãģ®
ĠãĤĤãģ¡ãĤįãĤĵ éģķãģĨ
éĸ¢ä¿Ĥ ãģªãģĦ
Ġ6 0
éģİ ãģĶ
éģİ åİ»
ĪĲ éķ·
åī £
ãģ®å¾Į ãĤĴè¿½
ãģĭãĤĬ ãģ¾ãģĻãģĭ
ĠèĩªåĪĨ èĩªèº«
æ¸ ¯
èª¿ æŁ»
æŁ ĵ
Ġãģĭ ãĤī
Ġãģĭ ãģªãĤĬ
ãģ¨ãģį ãģ«ãģ¯
Ġé» Ĵ
Ġä»Ĭå¤ľ ãģ¯
ãĤĴåĩº ãģ¦
ãģ«åı ĸãĤĬ
ãģ«åı ĤåĬł
ãģ«åĲ Į
æĸ¹ãģĮãģĦãģĦ ãĤĪ
æľī åĲį
ãģĹãĤĪãģĨãģ¨ ãģĹãģ¦ãĤĭ
ãĤĴå¤± ãģĨ
å¼ķ ãģį
ĠãĥĢãĥ¡ ãģł
éģ¸æĬŀ èĤ¢
ãĤĴåĳ¼ ãģ¶
Ġãģ©ãģĵ ãģĭ
ãĤĴæĽ¸ ãģı
ãģĮæŃ» ãģ¬
Ġå¾ħ ãģ¦
ãģ®æľĢ åĪĿ
ĠãĥĿ ãĥ¼ãĥ«
äºĪ å®ļ
ãģ®æĸ¹æ³ķ ãģ§
ĠãĤ± ãĥ³ãĥīãĥ¼ãĥ«
ãģĬé¡ĺãģĦ ãģĹãģ¾ãģĻ
åŃĺ çŁ¥
ãģ®è² ¬ä»»
è¦ªåĪĩ ãģ«
ĠéĿ ¢çĻ½ãģĦ
éŃ ħåĬĽ
ãģ®ãĥĿ ãĤ¤ãĥ³ãĥĪ
è¨ĢãģĦãģŁãģĦ ãģĵãģ¨ãģĮãģĤãĤĭ
ãģ¯æ°Ĺ ãģ«ãģĹãģªãģĦ
ãģĭãĤı ãģĦãģĦ
ãģ«éĸ¢ ãģĻãĤĭ
Ġãģ» ãģ¨ãĤĵãģ©
éģ© åĪĩ
ãģ«æľ Ģ
é©ļ ãģı
éĸ£ ä¸ĭ
ä¿® çĲĨ
ĠãĤ¯ãĤ· ãģ£
Ġç§ģãģ«ãģ¯å ĩºæĿ¥ãģªãģĦ
ãģ«åĪ °
ãģ®éļ £
ç§ĳ åĮ»
ãģ¯ãģļ ãģł
æ» ħ
éº »èĸ¬
ãĤĴåį ±éĻº
Ġç´ĦæĿŁ ãģĻãĤĭ
³ķ å¾ĭ
ãģ®é« ª
ĠèĲ½ãģ¡çĿĢ ãģĳ
é³ ´
ãģ®çĬ¶ æ³ģ
ä¸ĢæĹ¥ ä¸Ń
ãģªãģĮ ãĤī
ãĤĴèĩª åĪĨ
ĠãģĿãĤĮãģ¯æľ¬å½ĵ ãģł
åŀ ĭ
ãĤĬå½ĵ ãģ¦
u n
¡ Ķ
¨ æĻ©
° çĦ¡
° ãĤĬè¿Ķ
µ °
¶ çĦ¶
¸ è¡ĵ
» çĶ¨
½ °
¿ ħ
å ĩį
æ ¶
ç ²
ç ĸ²
ç ²¾ç¥ŀ
Ġ c
Ġ ãģ«
Ġ çĶ³ãģĹè¨³ãģĤãĤĬãģ¾ãģĽãĤĵãģĮ
Ģ ãĤĮ
ģ ĭäºº
Ĥ ãģĦ
Ħ ¼
Ĩ çĹħ
ĩ ãĤĬ
ī ĩ
Ĭ ¬
Ĭ å¼µ
Ĭ å¨
ĭ īå¼·
İ ³
Ĳ º
Ĳ ĳ
Ĺ Ľãģ¿
ļ ĸ
ãĥ ¶æľĪ
ãģĦ ãģªãģĳãĤĮãģ°ãģªãĤīãģªãģĦ
ãģ® ãĥŃ
ãģ® ãģ¿
ãģ® çĶŁæ´»
ãģ¯ ãģĿ
ãģ¯ ä»Ĭ
ãģª ãģ©
ãģŁ ãĤĬ
ãģŁ ãģĭãģ£ãģŁ
ãģŁ ãģ³
ãģ« ãģĹãģ¦ãĤĭ
ãģ« èĩªåĪĨ
ãĤĴ éĻ¤
ãĤĭ ãģłãĤįãģĨ
ãĤĭ ãģ¾ãģ§
ãĤĭ ãģĵãģ¨ãģ¯ãģªãģĦ
ãģĭ èĢħ
ãģ¨ ãģĹãģŁ
ãģ¨ ä¼ĿãģĪãģ¦ãģıãĤĮ
ãģĮ ä¿º
ãģĮ ãģ©ãģĵãģ«ãģĤãĤĭ
ãģĮ ãģŁãģıãģķãĤĵãģĤãĤĭ
ãģ§ ãģĤ
ãģ§ è©±
ãģ§ ä½ķãĤĴ
ãģ§ ãģªãģĹ
ãĥ¼ ãĤ«
ãĥ¼ ãĤ¶ãĥ¼
ãģĨ ãĥ¼ãĤĵ
ãģĵ ãģ®çĶ·
Ġå °
Ġå ¨ĺ
Ġå ½ĵ
ãģ¾ ãģļ
ãĤĤ ãģ¡ãĤĥ
ãĤī ãģĹãģĦ
ãĥ³ ãĤ¬
ãģ£ãģ¦ ãĤĤ
ãģ£ãģ¦ ãģ¿
ãģ£ãģ¦ ãģıãģłãģķãģĦ
ãģı ãĤĭãģ¨
ä¸ ¸
ãģĹãģ¦ ãĤĦãĤĭ
ãĤĬ ãģªãģķãģĦ
ãĤĪ ãģĭãģ£ãģŁ
ãĤ¹ ãģ¯
ãĤ¹ ãĥĿ
ãĤ¹ ãĥ©ãĥ¼
ãģĵãģ¨ ãĤĴæľĽ
ãĥ¼ãĥ į
ãĥĥ ãĤ³
ãĥĥ ãĥģãĥ£
ãĥĥ ãĤ·ãĥ§ãĥ³
ä½ķ ãģ§ãĤĤ
ä½ķ ãģĮèµ·ãģĵ
ãĤĴæ Įĩ
ãĤĴæ ¥½ãģĹ
ãģĿ ãģ¤ãģĳ
ãģ®å ½¢
Ġå½¼ ãģ¯ç§ģãģĮ
Ġæ Ĺ
Ġæ Ĵĥ
Ġæ ±ºãģĹãģ¦
Ġæ Ī¦äºī
ãĤ¯ ãĤ¿
ãĤĴå ·
ãĤĴå ¼·
ãĤı ãģĭãģ£ãģŁ
ãĤı ãģĽãģ¦
ãĥĪ ãĥª
ãĥĪ ãĤ¥ãĥ³ãĥĸãĥªãĥ¼
æĢ ª
æĢ ¥ãģĦ
ãĥ« ãĥ¼ãĥł
ãģ¤ ãģĦ
ãģ¤ ãģį
ãģĤãģªãģŁ ãģĮæ
ãĥª ãĥĲ
ĠãģĿãĤĮ ãģłãģĳãģł
ĠãģĤãģªãģŁ ãģ¯æľ¬å½ĵãģ«
ãĤģ ãģ¦ãģĦãĤĭ
ãĥ© ãĤ°
ãĥ© ãĥĥãĤŃãĥ¼
ãģĭãĤī éĽ¢
è¨Ģ ãģĦãģ¾ãģĻ
éģ º
ãĤ¢ ãĥī
Ġç ¶Ļç¶ļ
ãĤĦ ãĤģ
ä¸Ģ ä½ĵ
ãģ«æ Ľ¸
ãģ«æ »ŀåľ¨
è© Ĳæ
ãģĦãģŁ ãģĭ
ãģ¨æĢĿ ãģĦãģ¾ãģĹãģŁ
ãģ¨æĢĿ ãģ£ãģ¦ãģĦãģ¾ãģĹãģŁ
ãĤ· ãĤ¹ãĥĨãĥł
ãĥ¬ ãĥĥãĤ¯ãĤ¹
äºĭ ãģĮãģĤãĤĭ
ãĥķ ãĥ©ãĥ³
ãģ«ãģ¯ ãģĦãģªãģĦ
ãĤ¿ ãĥªãĥ¼
ãĤ¿ ãĤ¤ãĥ³
ãģ®ç ·
ãģ®ç ŀ¬éĸĵ
åĪĨ ãģĭãģ£ãģŁ
åĪĨ ãģĭãĤĭ
ãģĮæ ®º
Ġè ī¯
ãģ®ãĥ ĭ
ãģ®ãĥ į
ä»Ĭ ãģĻãģĲ
ãģ° ãģĤ
ãĤĴç ĪĨ
ãĤĴç Ħ¡
ãĤĴè¦ĭ ãģĽ
ãĥŀ ãĤ¤ãĥ«
ĠãģĬ å®¢æ§ĺ
ĠãģĵãĤĮ ãģ¯å
ãģ¾ãģĹãģŁ ãģĮ
ĠåĲĽ ãģ¨
ãĤĤãģ® ãģłãģ£ãģŁ
æī ĵ
ãĤĴè µ°
ãģ®é Ń
ãģ®è Ħ
ãģĿãģĨ è¨ĢãģĨ
Ġå½¼ãģ¯ ãģĿãĤĮ
Ġå½¼ãģ¯ ãģ¾ãģł
ç§ģãģ¯ ãģĤãģªãģŁãģ«
åħ ·
çĶ· ãģ¯
åı ¤ãģĦ
ãĥĲ ãĥ¼ãĥĪ
ä¼ļ è©±
Ġç§ģãģŁãģ¡ ãģ®
ãĤŃ ãĤ·
ãĥģ ãĥ³
ãĥģ ãĥĥãĤ¯
ãģ¯ä½ķ ãģłãģ£ãģŁãģ®
çĶŁ ãģ¾ãĤĮ
ãĥĵ ãĤ¶
ĠãģĿãĤĮãģ¯ èī¯ãģĦ
ãģ¤ãģĦãģ¦ ãģĦãĤĭ
ãģĵãģ¨ãĤĴ èĢĥãģĪãģ¦
Ġä»Ĭ ãģł
Ġå½¼ãĤī ãģ¯æ
Ġå½¼ãĤī ãģ¯ç
Ġæľ Ŀ
èĩª æ®º
ĠãģĤãģªãģŁãģ¯ èª°ãģ§ãģĻãģĭ
ãĤª ãĥŁ
æ°Ĺ ãģ«åħ¥ãĤĬ
ãĥ¡ ãĥ³ãĤ¿
åº ľ
ãĤĵãģ§ ãĤĤ
ãģ¨ãģĦãģĨ åĲįåīį
åĩº ãģ¦
åĩº çĻº
Ġãģªãģľ ãģªãĤī
ãĤ¨ ãĤ¢
ãģ«ãģªãĤĭ ãģĭãĤĤãģĹãĤĮãģªãģĦ
ä»ķäºĭ ãĤĴãģĻãĤĭ
ç· ł
æķ £
æķ ĳ
å½¼å¥³ ãģ«
æĸ¹ ä¸įæĺİ
ãģĵãĤĮ ä»¥ä¸Ĭ
åį °
æīĢ ãģ§
Īĳ äºĭ
ãĥĨãĤ£ ãĥ¼
ãĥĨãĤ£ ãĥ³ãĤ°
ãģ§ãĤĤ ãģªãģĦ
ãģ®ä¸Ń ãģ§ãģ¯
çĲĨ çļĦ
Ġç§ģãģĮ ãģĤãģªãģŁ
æĺ Ķ
æĺ ¨å¤ľ
å¤§ ãģįãģĦ
ãĤ¬ ãĤ¹
éł ĳ
ãģ«è ³
Ġãĥŀ ãĤ¤ãĥ«
ĠãĤ¢ ãĤ¢
ãĥĻ ãĤ¤ãĥĪãĥŀãĥ³
çĻ »
ãĤĴæĮģãģ£ãģ¦ ãģĦãģ¾ãģĻãģĭ
ãģ¯ãģ©ãģĨ ãģĹãģŁãģ®
ãģĻãģ¹ãģ¦ ãģ®
ãĥį ãĥĥãĤµ
ãĤĴçŁ¥ ãĤĬãģŁãģĦ
Ġãģķ ãģģ
ĠãģĦãĤĦ ãģĿãģĨãģĺãĤĥãģªãģĦ
åħ¨ åĵ¡
ãģ®çĶ· ãģł
ĠãģĹ ãģ°ãĤīãģı
æĿ¥ ãģ¦
ãģ¹ãģį ãģłãģ£ãģŁ
ãģ¹ãģį ãģĺãĤĥãģªãģĭãģ£ãģŁ
ãĤĴåıĸ ãģ£ãģ¦
æīĭ ãģ«åħ¥
Ġãĥķ ãĥ¬
Ġãĥķ ãĥŃ
ãĥĿ ãĤ¤ãĥ³ãĥĪ
ãģįãģŁ ãģıãģªãģĦ
Ġä½ķãģĭ ãģĤãģ£ãģŁãģ®ãģĭ
ä¸į åı¯èĥ½
ãģ®åı ¯èĥ½æĢ§
å¾ħ ãģ¤
ãĤ¸ãĥ£ ãĥł
ãĤĭãģĵãģ¨ãģĮãģ§ãģį ãģªãģĭãģ£ãģŁ
è¿ «
è¿ ½
è¿ ½ãģĦ
çĽ® ãĤĴè¦ļãģ¾ãģĻ
ĠãĤĦ ãĤģãĤį
ĠãĤĦ ãģ£ãģ¦ãģ¿
ãĤ¸ãĤ§ ãĥķãĥªãĥ¼
ãĥķãĤ£ ãĥ³
ãģ» ãģĹãģĦ
ãģ®äºĭ åĭĻæīĢ
ãģ¦ãģĦãĤĭ ãģ®ãģĭ
èĢĥãģĪ ãģł
ĠãģĶ ãĤģãĤĵ
ãģĮãģĤãģ£ãģŁ ãģ®
ä¼Ŀ çµ±
å¤ĸ åĩº
Ķ¯ éħį
æł ¹
è¾ ±
ĠãĤ¤ ãĥ´
ĠãĤ¤ ãĤ¨ãĤ¹
ãģĮç Ħ¡
Ġå½¼ãģ¯å ĲĽ
è¦ļãģĪãģ¦ ãĤĭ
èĪ ª
èĪ Īå¥®
ãģ®ä¸Ĭ ãģ§
åĥ §
åĥ į
ãĤ¦ãĤ§ ãĥ«
å° Ĩ
å° İ
ãĤĦãģ£ãģŁ ãģ®
æĦŁ è¬Ŀ
ãģłãĤĪ ãģŃ
ĠãĤ³ ãĥ³ãĤ¯
ĠãĤ³ ãĥ¼ãĥĴãĥ¼
ãģ«æĪ» ãģ£ãģ¦
ãĤ·ãĥ£ ãĥ«
éĩİ çĲĥ
Ġç§ģãģ¯ãģĿãĤĮ ãģ«ãģ¤ãģĦãģ¦
ãģĮæľ ĽãĤĢ
ãĤ¢ãĥ³ ãĤ½ãĥĭãĥ¼
ĠãĤµ ãĤ¤
ãģ«ãĤĪ ãĤĭ
ãģ«ãĤĪ ãĤĭãģ¨
ãĤĴä½ľ ãģ£ãģŁ
ãģ«åĩº çĻº
ĠãģĨ ãģĿãģ¤ãģĳ
çĶŁãģį ãģ¦
ãģ®ãģĵãģ¨ãĤĴ è©±
ãģ¾ãģĹãĤĩãģĨ ãģĭ
è¨± ãģĹ
éĽ¢ å©ļ
ãĤĴåıĹãģĳ åħ¥
ãģĤãģªãģŁãģ« ãģ¨ãģ£ãģ¦
Ġèģŀ ãģĵ
éģħ åĪ»
é£² ãģ¿çī©
ãģ®æĸ¹ ãģĮ
Ġç´ ł
è©±ãģĻ ãģ®
ãģĤãĤĬãģĮãģ¨ãģĨ ãģĶãģĸãģĦãģ¾ãģĻ
ĠéĽ »
æħ ¢
ãĤ¹ãĤ¿ ãĥ³
æ®º äºº
ç§» æ°ĳ
éĿ¢ çĻ½ãģĦ
æ¸ ¡
æ¸ ī
è¨ĺ éĮ²
æŃ£ çĽ´
ãģ¨ãģ¯æĢĿ ãģĦãģ¾ãģĽãĤĵ
ãģ¨ãģ¯æĢĿ ãĤıãģªãģĭãģ£ãģŁ
ãģ¯å¤ ĸ
ãģ£ãģ¦ãĤĭãģ®ãģĭ ãĤıãģĭãĤīãģªãģĦ
ĠåĨ ·
ãģ®åīį ãģ«
ķ° ãģªãĤĭ
çĲĨè§£ ãģĹãģ¦ãģĦãĤĭ
ãĥĺ ãĥĥãĥī
ãĤĴæĬ ķãģĴ
ç§»åĭķ ãģĻãĤĭ
Ġæľ¬ çī©
åĪĳ åĭĻæīĢ
ãģ«å¤ ļãģı
æľŁ å¾ħ
äºĪ ç´Ħ
æĬľ ãģĦãģŁ
ãĤĴçµ Ĥ
ãģĹãģªãģĦãģ§ ãģıãģłãģķãģĦ
éĿŀ éĽ£
Ķ¿ æ²»
ĠãģĤãĤĭ ãģĦ
ãĤĴç½® ãģĦãģ¦
ãģ®ãģŁãĤģãģ«å ĥįãģĦãģ¦
ãģĭãĤĤãģĹãĤĮãģ¾ãģĽãĤĵ ãģĮ
ĠéģķãģĨ ãĤĪ
çĹħ éĻ¢
ãģ£ãģ ±
³¨ æĸĩ
ãģ¡ãĤĩãģ£ãģ¨ ãģĹãģŁ
ãģ®ãĥĨ ãĥ¼ãĥĸãĥ«
ãĤ°ãĥŃ ãĥ¼ãĥĸ
ãģ«èģŀ ãģĦãģ¦
èĬ ±
èĬ ¸è¡ĵ
å¥´ ãģł
æºĸåĤĻ ãģĮãģ§ãģįãģ¦
ãģ®éĿ ´
ãģ¨åĳ¼ãģ° ãĤĮãĤĭ
ĠæŃ¢ ãģ¾ãĤĮ
ãģ®åł´åĲĪ ãģ¯
åħ¬ å¹³
é§ Ħ
ä¾ĭ ãģĪãģ°
ĵį ä½ľ
ãģ«åĢ ¤
ãģ®éŁ³ æ¥½
¤ĩ éĽĳ
¸¸ ãģ«
è¶ Ĭ
Ġä½ķãģĮèµ· ãģįãģ¦ãĤĭãģ®
«ĮãģĦ ãģł
ãģ®çĤº ãģ«
Ġä¿¡ãģĺ ãģ¦ãģıãĤĮ
ĠåĲį åīį
Ġè¨Ģãģ£ãģŁ ãģłãĤį
£ç Ŀ£
ãģµ ãĤĬ
çŃ ĸ
ä»® å®ļ
ãģ®é»Ĵ äºº
æłĦ ãģ§ãģĻ
Ġãģµ ãģĸ
ãģ«åįģåĪĨ ãģª
ãģ«èŃ¦ åĳĬ
ãĥĻãĤ¤ ãĥĵãĥ¼
ĥħ åł±
ãĤĴèª¬ æĺİ
įľæŁ» å®ĺ
ãĤĴè¶ ħ
è£ģ åĪ¤
ãģ¡ãĤĥãģı ãģ¡ãĤĥ
Ĭå¨ ł
è©Ĳæ ¬º
ãĥ¡ãĥ³ãĤ¿ ãĤ¤ãĥ³
ĠãĤ³ãĥ³ãĤ¯ ãĥªãĥ³
a c
m e
r e
¡ ä»¶
¡ çĶ£
¤ ħåŃĲ
¥ ĩ
¦ å®ļ
¦ Ĭå¨ł
§ ħ
§ į
¨ ¼
© ĭ
¬ å¼ı
® Ĳ
º Ĺ
å ¹
æ ®ĭå¿µ
ç ĻĤ
ç ŃĶãģĪ
ç ĭ¬
è ®Ĳ
Ġ éģĭ
Ġ éĢĥãģĴ
ħ ¹
ħ ī
ħ å½ĵ
Ĩ ħ
ĩ ¸
Ī Į
ĭ ĩ
ĭ ĺ
ĭ åķı
Į ¨
Į åĸ¶
ĸ åŃ¦
Ĺ è»Ĭ
ļ ãģ£ãģ¨
ãģĦ ãģıãĤī
ãģĦ ãģ¨ãģĵ
ãģ® ãĤ¬
ãģ® ä½ľ
ãģ® ä¸ĸçķĮ
ãģ® ãĥīãĤ¢
ãģ® ãģĨãģ¡
ãģ¯ ãģ£ãģįãĤĬ
ãģª ãģĵãģ¨ãģ§ãģĻ
ãģ« ãģĵ
ãģ« ãģĹãģ¦ãģıãĤĮ
ãģ« ãģĭãģĳ
ãĤĴ ãģ¨
ãĤĴ ãģĤ
ãĤĴ ä¸Ģ
ãĤĴ ä¼
ãĤĴ ãģĹãģªãģĦ
ãĤĴ ãĤĪãģı
ãĤĴ éĸī
ãĤĴ éĽĩ
ãĤĴ ãĥİãĥĥãĤ¯
Ġãģ ļãģ£ãģ¨
ãģĭ ãĤĮãĤĭ
ãģĭ ãģĴ
ãģĭ è¦ĭãģ¦
ãģ£ ãģĭãĤĬ
ãĤĮ ãģªãģĭãģ£ãģŁ
ãģĻ ãģĵãģ¨ãģĮãģ§ãģįãĤĭ
ãģĻ ãģĶãģĦ
ç§ģ ãģ®æ
ãģĨ ãĤĮ
ãģĵ ãģ®ä»ķäºĭ
ãģ¾ ãģªãģĦ
ãĤī ãĤĨãĤĭ
ãĥ³ ãģ®
ãģı ãģ§ãģªãģĹ
Ġãĥ ¦
äº ķ
ãĤĬ ãģł
ãģ£ãģŁ ãģĭ
ãĤĪ ãģĵ
ãģĵãģ¨ ãģ¯ä½ķãĤĤãģªãģĦ
ãģį åĽŀ
ãĥĥ ãĥķ
ãĥĥ ãĤµãĥ¼
ãĤĴæ įķ
ãĤĴæ ³¨æĸĩ
ãģĿ ãģ®æ
ãģ®å ĩº
ãģ®å ¹´
ãģ®å Ĭ©ãģĳ
ãģ¯å Ī
ãģĹãģŁ ãģĮ
ãģĹãģŁ ãĤı
ãģķ ãĤĮãģªãģĦ
ãģķ ãģªãģĦãģ¨
Ġæ Ī»
Ġæ ¬²ãģĹãģĦ
Ġæ Ħıåĳ³
Ġæ ·±
ãĤ¯ ãĥĵ
ãĤĴå Ģ
ãĤĴå ĩ¦
ãĤĴå Ĩį
ãĤ¤ ãĥ¯
ãĤ¤ ãĥ´
ãĤı ãĤĮãģ¦ãģĦãĤĭ
äºº ãģ«
äºº ãģĭãĤī
ãģĻãĤĭ ãģĵãģ¨ãģ¯ãģ§ãģįãģªãģĦ
ãĥ« ãĤ³
ãĥ« ãĤ¿ãĥ¼
ãģĤãģªãģŁ ãģ¯æ
ĠãģĿãĤĮ ãģ«ãģ¤ãģĦãģ¦ãģ¯
ĠãģĤãģªãģŁ ãģ¯å½¼å¥³
ĠãģĤãģªãģŁ ãģ®åĲįåīįãģ¯
ãĤģ ãģ¾ãģĻ
å¥ ı
ãģ«å ¤§
ãģ«å Ĭł
Ġãģĵ ãģ®å
ãģ®æ Ń
è¨Ģ ãģ£ãģ¦ãģªãģĦ
çŁ¥ ãĤĭ
çŁ¥ ãĤī
çŁ¥ ãģ£ãģ¦
è¦ĭ ãģĪãģŁ
ãģĦãģĦ ãģĵãģ¨ãģł
Ġç ľŁ
ãĤĦ ãĤģãģ¦
ãģ«æ ķ
ãģ«æ ĺ
ãģ§ãģį ãģŁ
ãģĬ å°»
ãĥ¬ ãĤ¼
ãĥķ ãĥ©
ãģ®ç ľŁ
ãģ®ç Ħ¡
ãģĮæ īĭ
ãģĮæ ¬²
ãģĮæ Ń£ãģĹãģĦ
ãĤĵãģł ãģ®
ãĤĵãģł ãģ£ãģ¦
ãģ° ãĤĵ
ãĤĴç Ľ®
ãģ§ãģ¯ ãģĦ
ãĤ« ãĥĥãĥĪ
ãģ«ãģª ãĤĮãĤĭ
éĩ Ī
ãģ¯ãģĦ ãģĳãģ¾ãģĽãĤĵ
ãģĮå ĩº
ãĥŀ ãĥ¼ãĤ¯
ãĥŀ ãĥĥãĤ¯ãĤ¹
ĠãģĬ ä¼ļãģĦ
ĠãģĵãĤĮ ãģ§
ĠãģĵãĤĮ ãģĮç§ģ
ãģłãģĳ ãĤĪ
ĠåĲĽ ãģŁãģ¡
ĠåĲĽ ãģ«ãģ¯
ãĤĴè Ĳ½
ä¸Ń ãģ«
ä¸Ń ãģ«åħ¥
ä¸Ń å°ī
å¾ ´
ãģ®é ¦ĸ
ãģ®è ī¯ãģĦ
Ġå½¼å¥³ ãģ¯ç
Ġå½¼ãģ¯ ãģ¨ãģ¦ãĤĤ
ç§ģãģ¯ ãģĿãģĨ
çĶ· ãģ®åŃĲ
åı °
çŁ¥ãģ£ãģ¦ãĤĭ ãģ§ãģĹãĤĩ
ãĥĥãĥĪ ãģ¯
ĠãģĿãģĨãģł ãĤį
ãĥģ ãĥ¥
ãĥģ ãĥ§
ãģ¯ä½ķ ãĤĴ
ãĤĮãģªãģĦ ãģ¨
å¿ Ĺ
é¡ į
ãĥĵ ãĥ¥ãĥ¼
ãĥĭ ãĥ¼ãĥ«
ä¸Ĭ æīĭ
ãģĵãģ¨ãĤĴ ãģĹãģŁ
Ġä»Ĭ ãģ®ãģ¨ãģĵãĤį
°ĳ ãģªãģıãģ¨ãĤĤ
çµ ĤãĤıãĤĬ
çļ ĩ
èĢħ ãģ¯
èĢħ ãģĮ
ãĤª ãĤªãĤ«ãĥŁ
Ġãģ§ãĤĤ å½¼ãģ¯
Ġãģ§ãĤĤ ãģĤãģªãģŁãģ¯
Ġãģ§ãĤĤ ä»Ĭãģ¯
ãģ¨è¨Ģ ãģĦãģ¾ãģĻ
ãĥ¡ ãĥ³ãĥĪ
ãĥ¡ ãĤ¢ãĥªãĥ¼
ãĥ¡ ãĥĥãĤ»ãĥ¼ãĤ¸
ä»ķ ä¸ĬãģĴ
ãĤĵãģ§ ãģŁ
ãģĹãģªãģĦ ãģªãĤī
ãģ¨ãģĦãģĨ æĦıåĳ³
åĩº æĿ¥
éĩĳ æĮģãģ¡
éĩĳ ãĤĴæīķ
Ġãģªãģľ ç§ģãģĮ
Ġãģªãģľ ãģĿãĤĵãģªãģĵãģ¨ãĤĴ
ä¾ Ŀ
ãģ®ãģ¯ ãĤıãģĭãģ£ãģ¦ãĤĭ
ãģ®ãģŁãĤģãģ« ä½ķãģĭ
ãĤĴåı ©
çī© ãģ¯
ĠãĤ¸ ãĥ¼ãĥ³
å½¼å¥³ ãĤĴ
å½¼å¥³ ãģ¯å
èĢĥ æħ
ãĥ©ãĥ³ ãĥĪ
ãģĵãĤĮ ãģĮ
ç´ ¢
ãĥĢ ãĥ³ãĥĲãĥ¼
Ī¶ å¾¡
ãĥĨãĤ£ ãĥĸ
çĲĨ çļĦãģª
Ġä¿º éģĶãģ¯
ãģ«è ¿ĳ
ĠãĤ¢ ãĥĢãĥł
ãģķãģĽ ãģŁ
Ġç§ģãģ¯å ®¶ãģ«å¸°
å½¼ãĤī ãģĮ
Ġãģĵãģĵ ãģ¯
å¯ ©
å¿ħè¦ģ ãģ¯ãģĤãĤĬãģ¾ãģĽãĤĵ
ãĤĴæĮģãģ£ãģ¦ ãģŁ
ãĤĴæĮģãģ£ãģ¦ ãģįãģŁ
ãĤĴæĮģãģ£ãģ¦ ãģĦãģ¾ãģĽãĤĵ
ãģĹãģŁãģĦ ãģ®ãģĭ
ãĤĴçŁ¥ ãģ£ãģ¦ãģĦãģŁ
ĠãģĦãĤĦ çµĲæ§ĭ
ãģ®çĶ· ãģĮ
ãģ®ãĤĪãģĨãģ« è¦ĭãģĪãĤĭ
èģŀ ãģįãģŁãģĦ
Ġç§ģãģ¯ãģĤãģªãģŁ ãĤĴ
ãĤĴåıĸ ãģ£ãģŁ
ãĥ¢ ãĤ¢
ĠåĲĽãģ¯ ãģĿãĤĮ
Ġãĥī ãĥŃãĤ·ãĥ¼
Ġå¤ ¢
ãģ¤ãĤĤãĤĬ ãģ§ãģĻ
ĠãĤĤãģĨ å°ĳãģĹ
ĠãĤ¹ ãĥŃãĥ¼ãĥ³
¥³ ãģ®åŃĲ
ãĥĿ ãĥ³ãĥī
ä½¿ çĶ¨
è³ Ńãģĳ
å¸ Ń
ãģ¨ä¸Ģç·Ĵ ãģ«ãģĦãĤĭ
ãĥ©ãĤ¤ ãĥĸ
ãģ®å¤ ©
ãĥĽ ãĥ¼ãĥ«
ãĥĽ ãĥ¼ãĥł
ä¸į å¹¸
èĥ ŀ
Ġãĥı ãĥĭãĥ¼
ãĤĭãģĭ ãģ©ãģĨãģĭ
é£Ł äºĭ
ãĤ¸ãĤ§ ãĥ³ãĥĪ
æĮģ ãģ£ãģ¦ãĤĭ
ĠãģĤãģªãģŁãģ¯ç§ģ ãģŁãģ¡
±º å®ļ
æĺİ æĹ¥
ãģ§ãģ¯ãģĤãĤĬãģ¾ãģĽãĤĵ ãģĮ
ĠãĥŃ ãĥĥãĤ¯
ãĥķãĤ¡ ãĥĥãĤ¯
ãĥķãĤ¡ ãĤ¤ãĥ«
åĮ »èĢħ
Ġæĺ łçĶ»
ãĤĴæķ Ļ
ãĤĴèģŀ ãģı
è¦ļãģĪãģ¦ ãģĦãĤĭ
åľ° çįĦ
Ġ4 5
Ġåı ¯èĥ½æĢ§
åĥ įãģĦãģ¦
ãĤĴè¦ĭãģŁ ãĤı
ãĤ¦ãĤ§ ãĤ¤ãĥī
Ġæ°Ĺ ãģ«ãģĻãĤĭãģª
ä¿Ŀ è¨¼
ä¿Ŀ éĻº
ãĤĴè¦ĭãģ¦ ãģıãģłãģķãģĦ
ãĤ¤ãĥ« ãĤµ
è¨Ī ç®Ĺ
Ġä»ĸ ãģ«ãģ¯
Ġä»ĸ ãģ«ãĤĤ
èª°ãĤĤ ãģĮ
åĨ Ĺè«ĩ
ĠãĤ« ãĤ¸ãĥİ
ãģĮèµ· ãģįãģŁ
éĥ ½
æĸ¹æ³ķ ãģ§
Ġç¥ŀ ãģ«æĦŁè¬Ŀ
ĠãĤ¸ãĤ§ ãĤ¤
ĠãģĨ ãĤı
ãģłãģ¨æĢĿ ãģ£ãģ¦ãĤĭ
ãģłãģ¨æĢĿ ãĤıãģªãģĦ
Ġãĥ© ãĤ¤
çĶŁãģį æ®ĭ
åģ ½
ıĲ ä¾Ľ
Ġç§ģãģ« ä½ķãĤĴ
Ġãĥĵ ãĤ¯ãĤ¿ãĥ¼
Ġãĥ¬ ãĤ¤
ĠãĤı ãģĭãģ£ãģ¦ãĤĭ
ç¢º ãģ«
ç¢º ãģ«ãģ¯
ç¢º èªį
ãģĵãģ¨ãģĮãģĤãĤĭ ãģĭ
æ¬²ãģĹãģĦ ãģ®
Ī»ãģ£ãģ¦ ãģıãĤĭ
ãģ¯å® Įåħ¨ãģ«
ĠæĻĤ ãĢħ
ãģ®ãĥĳ ãĥ¼ãĥĪãĥĬãĥ¼
æŃ£ ãģĹãģĦ
åķıé¡Į ãģĮãģĤãĤĭ
ãĥ³ãĤ¯ ãĤ¹
ãĤ¦ãĤ£ ãĥ«
ãĤ¦ãĤ£ ãĥªãĤ¢ãĥł
ãģ¨ãģį ãģ¯
ãĤ¹ãĥĨ ãĥĥãĥĹ
Ġãĥĭ ãĥ¥ãĥ¼ãĤ¹
Ġãĥĭ ãĥ¥ãĥ¼ãĥ¨ãĥ¼ãĤ¯
£² æĺ¥
ãģ¯å¤ ī
ĠåĨ į
ĠãĥĩãĤ£ ãĤ¯ãĤ½ãĥ³ãģķãĤĵ
æĦŁãģĺ ãģł
åĸ ľ
ãģ®åīį ãģ§
ĠæĢ ¥
ĠæĢ ĿãģĦ
ãĥĹãĥŃ ãĤ°ãĥ©ãĥł
Ġç§ģãĤĤ ãģĿãģĨæĢĿãģĨ
Ġãĥ¡ ãĥªãĥĥãĤ¯
Ġãĥ¡ ãĤ¢ãĥªãĥ¼
ãģ®åĳ ³
åł± åĳĬ
ãĥ¥ãĥ¼ãĥ ©
Ġå¥ ´
è¡Įãģĳ ãģªãģĦ
ãĤĴæĬ ľ
ãĥķãĥªãĥ¼ ãĤ¯
èµ·ãģĵ ãĤĭ
èµ·ãģĵ ãģ£ãģŁ
¼· çĽĹ
ãģĹãģ¾ãģĽãĤĵ ãģ§ãģĹãģŁ
Ġæĸ °
ãĤĴåĳ¼ ãģ³
å¤± ç¤¼
ãģ®åħ ī
ãģĻãĤĭãģ¤ãĤĤãĤĬ ãģł
æĪĳãĢħ ãģ¯
ãĤĴæĭ ĴåĲ¦
ç´ĦæĿŁ ãģĹãģŁ
æ² ¹
ãĤĴè¦ļãģĪãģ¦ ãĤĭãģĭ
ĠãĤ» ãĥ³ãĥĪ
ãģ®ãĥģ ãĤ±ãĥĥãĥĪ
çĹ Ľ
ĠèŃ¦ å®ĺ
åŁ ·
åŁ º
åŁ Ł
ãģĮä½ķ ãģªãģ®ãģĭ
ãĤĴç½® ãģı
ãģ«ãģªãĤĬ ãģ¾ãģĹãģŁ
ĠéĿ Ļ
ãģ¯æľĢ å¾Į
è£ħ ç½®
ãģ«ãģĬ ãģĦãģ¦
æı º
ĠãģĿãģĵ ãģł
ãĤ¯ãĤ½éĩİéĥİ ãģł
ãĤĴè¿½ãģĦ ãģĭãģĳ
ãĤĭãģ¤ãĤĤãĤĬ ãģ¯ãģªãģĦ
ãģ§åĥ į
ãģ®ãĥĹ ãĥŃ
ãģ®ãĥľ ãĥ¼ãĤ¤ãĥķãĥ¬ãĥ³ãĥī
¥Ī ãĤĬ
±ļ ãģĦ
ãĥ¼ãĥ© ãĥ¼
ãģ«åº§ ãģ£ãģ¦
ç® ±
å°ı åĥ§
Ġãģ» ãĤī
å£° ãģ§
ĠãĤ¦ãĤ£ ãĥªãĤ¢ãĥł
ãĤĨ ãģ£ãģıãĤĬ
ä¿® æŃ£
ãģĵãģ®å Ľ½
çĽ¸ æ£Ĵ
ãĤĴåħ ±æľī
å®ŁéļĽ ãģ«ãģ¯
ŁãĤĬ ãģĮãģĤãĤĭ
Ġä½ķãģ¦ ãģĵãģ¨ãĤĴ
ãģĮãģĭ ãģĭãĤĭ
Ľ² ãģĮ
ãĤ¢ãĤ¤ ãĥĩãĤ¢
ãĥ¨ ãĥ¼ãĥŃãĥĥãĥĳ
Ġæ¯ İ
ĠæĶ¾ ãģĽ
ãĤıãģĳ ãģ§ãģ¯ãģªãģĦ
å¤ļ ãģĦ
ãĤĴç´ ¹ä»ĭ
Ġãĥŀãĥ³ ãĤ¿ãĥ³
¿ł å®Ł
ãģ®åģ ´
ãĥªãĤ¨ ãĥª
¼ķãģ£ å¼µ
Ġèµ ¤ãģ¡ãĤĥãĤĵ
ĠãĤ® ãĥ£
çķ¥ å¥ª
ãĥĢãĥ¡ ãģł
¶Īéĺ² å£«
Ġè« ¸åĲĽ
ãĤ«ãĥ¼ãĥĪ ãĥ³
Ġãģ©ãģĵãģ«ãģĦãĤĭ ãģ®
Ġçµ¶ å¯¾
ãģªãģįãĤĥ ãģªãĤīãģªãģĦ
ģ¥ãģļ ãģĭãģĹãģĦ
Ġåĩºãģ¦ è¡Įãģĳ
Ġé£Ł ãģ¹
æīĭä¼Ŀ ãģĦ
ãĤĴèĦ±ãģĦ ãģł
åĿ Ĭ
Ġä½ķãģĮåķıé¡Į ãģªãģ®
po st
ãĤĴæı ı
ãģ«åıĸãĤĬ çµĦ
ãģ§ãģĤ ãĤĮ
ãģ£ãģ± ãĤī
ãĥ¬ãĤ¼ ãĥ³ãĥĪ
èĢĥæħ ®
L L
n o
¡ Ĺ
¢ °
¢ ĭ
¢ ĵ
¢ å©ļ
£ è£ħ
¤ ãĤĵ
¥ æ£Ĵ
§ ¿
® ãģĹ
³ ¶
¶ º
¹ æ³ķ
º Ĳ
» ĳ
½ åŃĲ
¾ ¤
å ľŁ
æ Ī
æ ºĸ
æ ¢°
è ¸
è ı
é Ĥ
é ª¨
Ġ è¦ª
Ġ äºĨ
Ġ äºĮäººãģ¨ãĤĤ
Ġ ä¾ĭãģĪãģ°
ģ ´
ĥ éĻ¤
Ħ åĽ²
ħ £
ħ Ī
Ĩ ±
Ī å¾Į
Ī Īå¥®
ī å¦¹
Ĭ ķ
Ĭ çĻ½
ĭ èĳ¬
Į «
Ĵ æ¥Ń
Ļ Ľãģ¿
Ļ èįī
ŀ į
ãģĦ ãĤīãĤĮãģªãģĦ
ãģ® ãĤ¯
ãģ® ä»²éĸĵ
ãģ¯ ãģĭ
ãģ¯ ãģĤ
ãģ¯ ãģĤãģªãģŁãģĮ
ãģ¯ ãģĬåīį
ãģª åł´æīĢ
ãģ« è¨Ģãģ£ãģŁ
ãģ« ãģķãĤī
ãĤĴ èĢĥãģĪ
ãĤĴ ä¿¡çĶ¨
ãģĹ ãĤĥ
ãģĹ ãģĻãģİ
ãģĭ åĪĨãģĭãĤīãģªãģĦ
ãģ¨ ç§ģ
ãģ¨ å½¼
ãģ¨ èĢĥãģĪãģ¦
ãģ¨ è©±ãģĻ
ãģ¨ ãģ®éĸĵ
ãģ¨ ãģ«ãģĭãģı
ãģ¨ ä»ĺãģį
ãģĮ è¦ļ
ãģĮ éĸĭ
ãģł ãĤı
ãģł ãģ¨æĢĿãģĦãģ¾ãģĻ
ãģ§ ãģ¯å
ãģ§ ãģĿãĤĮ
ãģ§ ãģŃ
ãģ§ å¾ħ
ãģ§ ãģķãģĪ
ãģ§ æľĢãĤĤ
ãģĻ ãģ¹ãģįãģł
ç§ģ ãģ¯å½¼ãĤī
ãĥ¼ ãĤ¸ãĥ£ãĥ¼
ãģĨ ãĤĵ
ãģĵ ãģ£ãģŁ
Ġå ħ¨
ãĤĤ ãģ®ãģĭ
ãģĤ ãĤīãĤĨãĤĭ
ãģ£ãģ¦ è¨Ģãģ£ãģŁ
Ġç§ģ ãģ®åıĭäºº
ãģĹãģ¦ ãģŁãģ®
ãģĹãģ¦ ãĤĤãģĦãģĦãģ§ãģĻãģĭ
ĠãģĿ ãģ®çĶ·
ãģ£ãģŁ ãģ®ãĤĪ
ãĤĪ ãģĦ
ãĤ¹ ãĥª
ãĤ¹ ãĤŃãĥ¼
ãģĵãģ¨ ãģ§ãģ¯ãģªãģĦ
ãģĵãģ¨ ãģ«æ°Ĺ
ãĥ¼ãĥ Ļ
ãģį ãģ£ãģ¨
ãĥĥ ãĤ±
ä½ķ äººãģĭ
ãĤĴæ ¬²
ãĤĴæ Ń£
ãĤĴæ ··ä¹±
ãĤĴæ µ´
ãĤĴæ Ĵ®
ãģ®å Ķ¯ä¸Ģ
ĠãĤ ¼
ĠãģĤ ãĤī
ãģ¯å Ī¥
Ġå½¼ ãģ«ãģ¯
Ġå½¼ ãģ¯å½¼å¥³
Ġæ µ·
Ġæ ®ºäºº
ãĤ¯ ãĥªãĥ³
ãĤ¯ ãĥªãĤ¢
ãĤĴå ¼ķ
ãĤĴå ħ¨ãģ¦
ãĤ¤ ãĤ¨ãĤ¹
ä» °
ãĤı ãģļ
ãĤı ãģĽãĤĭ
ãģĪ ãģ¾ãģĻãģĭ
Ġç§ģãģ¯ ä½ķãĤĴ
ãģĻãĤĭ ãĤĵãģł
ãģĻãĤĭ åīįãģ«
ãĥ« ãĥł
ãģ¤ ãģı
ãģ¤ ãģĦãģŁ
ãģ¤ ãģĭãĤīãģªãģĦ
ãģĤãģªãģŁ ãģ«æ
ãģĤãģªãģŁ ãģ«ãģ¯
ãģĤãģªãģŁ ãģ¯ç
ãĥª ãĥķ
ãĥª ãĤªãĥ³
ãĥª ãĥĥãĤ¸
ãĥª ãĥģãĥ£ãĥ¼ãĥī
ĠãģĿãĤĮ ãģ¨
ĠãģĿãĤĮ ãģł
ĠãģĿãĤĮ ãģĮå
ĠãģĤãģªãģŁ ãĤĴ
ĠãģĤãģªãģŁ ãģ®ãģŁãĤģãģ«
çĶ ĺãģĦ
ãģ«å ¿
è¡ £è£ħ
ãĥ© ãĥĩ
ãģ®æ ł
ãģĺ ãģķãĤĵ
çŁ Ń
ãģĭãĤī å§ĭ
è¨Ģ èªŀ
çŁ¥ èŃĺ
è¦ĭ ãģĪ
ãģ¯æ ĻĤ
ãģ¯æ ĻĤéĸĵ
è¡Į ãģį
ãĤ¢ ãĥ³ãĥĪ
ãĤ¢ ãĥ³ãĥī
ãĤ¢ ãĥĢãĥł
ãĤ¢ ãĥķãĥªãĤ«
ãģĿãĤĮ ãģ¯ç§ģ
ãģĿãĤĮ ä»¥ä¸Ĭ
ãģĦãģĦ ãĤı
ãĥī ãĤ¯
ãĥī ãĤ¤ãĥĦ
Ġç Ľ
Ġç ¢º
Ġç ľł
Ġç °¡åįĺ
Ġä½ķ ãģ®ãģŁãĤģ
Ġä½ķ ãģĮèµ·ãģĵ
Ġä½ķ äººãģĭ
ãĤĦ ãĤĬãģŁãģĦ
ä¸Ģ ãģ«
ä¸Ģ æĿ¯
ãģ«æ ĸ
ãģĬ ãģĨãģ¨
ãģĬ è¦ĭãģĽ
ãĥ¬ ãĥĥãĥī
ãĥ¬ ãĥ³ãĤ¹
ãĥ¬ ãĥĻãĥ«
ãĥŃ ãĥ³ãĥīãĥ³
ãģªãĤī ç§ģãģ¯
å® ħ
ãģ®ç İĭ
åĪĨ ãģĭãģ£ãģ¦ãĤĭ
Ġè ¿
Ġè ¿ĳãģı
Ġè Ń°
ãģ®ãĥ Ĭ
ãĤĴç ©º
ãĤĴè¦ĭ ãĤĭãģ®
ãĤĴè¦ĭ ãģĽãģ¦
ãģĮå ĩºãģ¦
ãģĮå ¾Ĺ
ãĥŀ ãĤ¦
ãĥĹ ãĥªãĥ¼
ãĥĩ ãĥ³
ĠãģĬ èĮ¶
ĠãģĬ ãĤģãģ§ãģ¨ãģĨ
Ġ1 7
Ġ1 8
ãģłãģĳ ãģĮ
ãģłãģĳ ãģĺãĤĥãģªãģĦ
ãģĵãģ¨ãģĮ ãģĤãĤĬãģ¾ãģĽãĤĵ
ĠåĲĽ ãģ®
ãĤĤãģ® ãģĮãģĤãĤĭ
Ġé Ń
Ġé ĥ¨
ãĥĳ ãĤ¹
ãģĪãģ¦ ãĤĭ
ãĤĴè ¹´
è¦ģ ãĤĭ
ãģĹãģ¦ãģĦãĤĭ ãģĭ
ãģ©ãģĨ ãģł
ãģ®é ķ·
ãĤĴæĮģ ãģ£ãģŁ
ãģ®ãģŁãĤģ ãģ®
ãģ®ãģŁãĤģ ãģł
ãģ®è £
ãģ®è ĩŃãģĦ
ãĥĸ ãĥŃ
åħ µ
åħ Ħ
ãĥĲ ãĥ«
ãĥĲ ãĥ¼ãĤ¹
ãĥĲ ãĥĥãĤ°
Ġç§ģãģŁãģ¡ ãģ«ãģ¯
Ġç§ģãģŁãģ¡ ãģ¯ç
ãĤŃ ãĥĥãĤ¯
Ġãģ§ ãģ¯
ãģłãģ£ãģŁ ãģĮ
å¿ Ļ
Ġãģª ãĤĵãģłãģ£ãģ¦
ãĥĵ ãĥĥãĥģ
ãĥĵ ãĥĥãĤ°
ãĤµ ãĤ¤ãĥ³
ĠãģĿãĤĮãģ¯ ãģĤãģªãģŁ
ãĤĪãģĨãģ« æĢĿ
ãĤĪãģĨãģ« éł¼ãĤĵãģł
éĽ ²
ãģĵãģ¨ãĤĴ çŁ¥ãģ£ãģ¦ãĤĭ
Ġä»Ĭ ãģ¾ãģ§
Ġä»Ĭ åĽŀ
çµ ĤãĤıãĤĬãģł
çļ ®
èĢħ ãģ§ãģĻ
Ġãģ©ãģĨ ãģĦãģŁ
ä¿º ãģŁãģ¡
æ°Ĺ ãĤĪ
è¡Įãģı ãĤĵãģł
ãģ«ãģ¤ãģĦãģ¦ ä½ķãģĭ
ãĤ¹ãĥĪ ãģ¯
ãĥ¡ ãĥ³
åº ·
åĩº èº«
ãģĵãģ¨ãģ¯ ãģĹãģªãģĦ
Ġèª° ãģ«ãĤĤ
ãĤ¨ ãĥ¼
ãĤ¨ ãĤ¤
ä»ķäºĭ ãĤĴãģĹãģŁ
Ĥª ãģĭãģ£ãģŁ
ä¿¡ ä»°
ãĤ¤ãĥ³ ãĤ°
çī© äºĭ
æķ ¢
æķ ´
ĠãĤ¸ ãĥ¼ãĤ¶
å½¼å¥³ ãģ¯ç§ģ
Ġäºº ãģ§
ç§ģãģŁãģ¡ ãģ®
Ī¶ æľį
ãģ§ãĤĤ ãģĦãģĦ
ãģ®ä¸Ń ãģ®
ãģ®ä¸Ń ãģ«ãģĦãĤĭ
Ġç§ģãģĮ ä½ķãĤĴ
ãĤ¬ ãĥ«
ãĤ» ãĤ¯ãĤ·ãĥ¼
åŃĲ ãģł
ãģ§ãģ¯ãģªãģĦ ãģ¨æĢĿãģĦãģ¾ãģĻ
ãĤĴãģĻãĤĭ ãģĭ
ĠãĤ¢ ãĥ³ãĥĲãĥ¼
åĽ °
ãģķãģĽ ãģªãģĦ
ãģķãģĽ ãĤĪãģĨãģ¨
ãĥĶ ãĥ¼ãĤ¿ãĥ¼
ãĥĻ ãĥªãĥ¼
ãĥĻ ãĥ¼ãĥĪ
Ġç§ģãģ¯å ®
Ġç§ģãģ¯å ¤§
ãĥı ãĥı
éģĶ æĪĲ
Ġãģĵãģĵ ãģ«ãģ¯
¥ŀ çµĮ
ãģıãģªãģĦ ãĤı
ãģ¯ãģ©ãģĨ ãģĻãĤĭ
ãģ¯ãģ©ãģĨ ãģłãģ£ãģŁ
ãģĹãģŁãģĦ ãģ¨æĢĿãģĦãģ¾ãģĻ
ãģĹãģŁãģĦ ãģ®ãģ§ãģĻãģĮ
ãģ®çĶ· æĢ§
æĿ¥ ãģĦ
ãģ«æĿ¥ ãģ¾ãģĹãģŁ
©ļ ç´Ħ
ãģ®ãĤĪãģĨ ãģł
èģŀ ãģĳ
ãģ®ãģĵãģ¨ ãĤĴèģŀãģĦãģŁ
Ĳį èªī
éĢļ å¸¸
ãģ¯æľ īåĲį
ãģ£ãģ¦ãģĦãģ¾ãģĻ ãģĭ
ĠãĤĤãģĨ ãģĻãģĲ
ĠãĤ¹ ãĤ«
ãĥĿ ãĤ¹ãĥĪ
ĠãģĵãĤĮãģ¯ ãģ¨ãģ¦ãĤĤ
å¸ Ŀ
éĿ Ĵ
ä¹ ³
ãģ¨ä¸Ģç·Ĵ ãģ«å
ãģ¨ä¸Ģç·Ĵ ãģ«æ
Ġç§ģãģ¯å½¼ ãģ«
ä¸į åħ¬å¹³
ãģ®åı ¤ãģĦ
ãģ®åı ĸå¼ķ
éĢ£ ãĤĮ
ãģ³ ãģŁ
å¾ħ ãģ£ãģ¦
Ġãĥı ãĥ«
Ġãĥı ãĥ¯ãĥ¼ãĥī
éĸ¢ å¿ĥ
ä»¥ åĨħ
Ġãĥĳ ãĥª
ãģ©ãģĵ ãģł
Ġä¸Ģ çķª
ãĤ¸ãĤ§ ãĥ¼ãĥłãĤº
ãģ®äºĭ ãģ¯
ĠãģĤãģªãģŁãģ¯ç§ģ ãģ«
ĠãģĪãģĪ ãģ§ãĤĤ
ãģ§ãģ¯ãģĤãĤĬãģ¾ãģĽãĤĵ ãģ§ãģĹãģŁ
ĠãģĤãĤĬãģĮãģ¨ãģĨ ãģĶãģĸãģĦãģ¾ãģĻ
ĠãĤ¦ ãĤ¨ãĤ¹ãĥĪ
ãģĻãĤĭãģ® ãģĮ
ãģĬéĩĳ ãĤĴ
ãģ£ãģ¦ãģıãĤĮ ãĤĭ
ãĤĢ ãģĹãĤį
ãĥķãĤ¡ ãĥ³
åĪĩ ãģ£ãģŁ
åĢ ĭ
è£ Ĥ
Ġæĺ İ
ãĥļ ãĥ³
ãĥ¼ãĤ¸ ãĥ¼
èĢĥãģĪãģ¦ ãģĦãĤĭ
èĢĥãģĪãģ¦ ãģ¿
Ī¦ ãģĨ
Ġåı ĭäºº
ĠæľĢ ãĤĤ
ĠæľĢ é«ĺ
ĠæľĢ è¿ĳ
ãģ®ä¸Ĭ ãģ«ãģĤãĤĭ
èª°ãģĭ ãģ¨
æĻĤéĸĵ ãĤĴ
ãĤĴè¦ĭãģŁ ãģĭ
éĢĥ ãģĹãģŁ
ãĤĴãģĹãģ¦ ãģĦãģªãģĦ
ãģ«æĪ» ãĤĭ
æĦĽ ãģĹãģ¦ãĤĭãĤı
ãģ§æ ®ºãģķãĤĮãģŁ
ãĤ·ãĥ£ ãĥ¯ãĥ¼
ĠãĤ· ãĥ¼ãĥ
ãģĮãģªãģĦ ãģ®
Ġç§ģãģ¯ãģĿãĤĮ ãģĮ
ãģĮæľ ¬å½ĵãģ«
ãĤĴæĮģãģ£ãģ¦ãĤĭ ãģ®ãģĭ
ãĤ² ãĤ¤ãĥªãĥ¼
ãĤ¢ãĥ³ ãĤ«
ĠãĤµ ãĥ³
ĠãĤµ ãĥł
åĨ į
ãģķãĤĮãĤĭ ãģłãĤįãģĨ
Ġæķ Ļ
Ġçµ ĤãĤıãĤĬãģł
ä¹Ĺ ãĤĬ
ĠãĥĲ ãĤ«
ç¥ŀ çĪ¶
ãĥ¤ ãĥ³ãĤ¬ãĥ¼
ãĥĴ ãĥ¥
ĠãģĨ ãģ¾ãģı
éĸĵéģķ ãģ£ãģ¦ãĤĭ
éĸĵéģķ ãģ£ãģ¦ãģĦãģŁ
ĠæĹ¥ åīį
ãĤĴåıĹãģĳ ãĤĭ
ãĤ³ãĥ³ ãĤ¯ãĥªãĥ³
ãģ¨åĲĮãģĺ ãĤĪãģĨ
ãģ¨åĲĮãģĺ ãģıãĤīãģĦ
İ» ãģ£ãģŁ
ãĤĴä¸İ ãģĪãģŁ
ãģķãĤĮ ãģ¾ãģĹãģŁ
ãĥ´ãĤ¡ ãĥįãĥĥãĤµ
Ġãĥĵ ãĥ¼ãĥ«
Ġãĥĵ ãĥĥãĤ°
ä¸» äºº
ãģ¨ä¸Ģç·Ĵãģ« ãģĦãģ¾ãģĻ
ı¾ éĩĳ
ı¾ å®Ł
ĠãĤ¸ãĥ§ ãĥ¼ãĤ¸
ĪĲ åĬŁ
æ®º ãģĻ
æ¥½ ãģĹãģĦ
ãģıãģª ãĤĬãģ¾ãģĻ
ãĤĴæľ Ģ
ãĤ¯ãĥ© ãĥĥãĥĹ
ãģĭãģĳ ãĤĭ
ĠãĥĻ ãĥ«
ãģ¯å® Įåħ¨
ãģ¯å® ĮçĴ§
ĠæĻĤ ãģ«ãģ¯
ãģĻãģİ ãģ¾ãģĻ
å°ĳ ä½Ĳ
Ġãĥĭ ãĥĥãĤ¯
ãģĭçŁ¥ãģ£ãģ¦ãĤĭ ãģ§ãģĹãĤĩ
ãģ¯å¤ ļãģı
ãģ¨è©± ãģĹãģŁãģĦ
ä½ı ãĤĵãģ§ãĤĭ
ãĤĴåĩº ãģĻ
ãģĹãĤĪãģĨãģ¨ ãģĹãģŁ
æ´ ¾
æĢĸ ãģĮ
ãĤ¼ ãĥ«
ãĤĴåĬ©ãģĳ ãģ¦ãģıãĤĮ
é£Łãģ¹ çī©
æļ Ĺ
ĠãĤ° ãĥ¬
ãģ®ãĤ¹ ãĥ¼ãĥĦ
ãģ®ãģĬ ãģĭãģĴ
ĠãĥĹ ãĥ©ãĤ¤
å¤± æķĹ
è¿ĳ ãģı
ãĤĴæĽ¸ ãģį
ãĥ¬ãĥ¼ ãĤ¶ãĥ¼
ãĤĴè²· ãģĨ
Ġãĥ« ãĥ¼ãĤµãĥ¼
ãģĻãĤĭãģ¤ãĤĤãĤĬ ãģ¯ãģªãģĦ
Ġãĥķãĥ©ãĥ³ãĤ¯ ãģ¯
ãĤ¦ãĤ© ãĥ¼ãĥªãĥ¼
å¼· ãģĦ
ĭĿ ãģ£ãģŁ
ĠãĥĶ ãĥ³
ãĤĴæĴĥ ãģ¤
æ² ¢
èģ ´
ãĤĴçµ ĤãĤı
ãĤĴæĦŁãģĺ ãĤĭ
ãģ©ãģĵãģ«ãģĦãĤĭ ãģ®
ãģ«æīĭ ç´Ļ
ãĤĴå¿ĺ ãĤĮãģªãģĦ
ãĥĻãĥ« ãĥªãĥ³
ĠåŃĲä¾Ľ ãģ®éłĥ
ãĤıãĤĪ ãģŃ
ãĤĴéĢģ ãĤĬ
äººçĶŁ ãģ§
æĥ³ åĥı
ãģŁãĤī ãĤģ
èªĵ ãģĦ
Ġä½ķãĤĤ ãģĭãĤĤ
»º è¨Ń
ãģĮå¤§ å¥½ãģį
ĠT UM
ĠãĤ¬ ãĥ³ãĥĦ
ĠæŃ» ãĤĵãģł
éģĬ ãģ¶
ãĥ¬ãĥĥ ãĤ¿
ãģ®é¡ ĺãģĦ
ä½į ç½®
ãģ«éĢ£ãĤĮãģ¦ è¡Įãģı
çī¹ åĪ¥ãģª
ãģ®è¨ĢãģĨ ãģĵãģ¨
ĠåĬ©ãģĳ ãģ¦ãģıãĤĮ
ãģ«ç«ĭ ãģ¤
Ġå¿ĥéħį ãģĹãģªãģĦãģ§
ãģ®éļ İ
éĻ¸ è»į
ĠæŃ¢ ãĤģãĤį
Ġå®ŁéļĽ ãģ«ãģ¯
ç« ¯
æķĻãģĪãģ¦ ãģıãģłãģķãģĦ
åįģåĪĨ ãģł
Ġè¦ļãģĪãģ¦ ãĤĭ
ä»¤ å®ĺ
ãĤ»ãĥĥãĥĪ ãĤ¢ãĥĥãĥĹ
æģĲ ãĤįãģĹãģĦ
éº Ĺ
ĠO ut
Łº æľ¬
ãģĭãĤĮ æĹ©
ãģ®èħ ķ
Ĭ¯ç½ª èĢħ
Ġéģħ åĪ»
ĲĮ æĦı
Ġèĭ ±
ãĤĴæĢĸãģĮ ãĤīãģĽ
ãĥ¼ãĥĳ ãĥ¼
ĠãĤ¢ãĥ³ ãĤ½ãĥĭãĥ¼
æİ¢ åģµ
ãģ®ãģ¯ç ¢ºãģĭ
çħ §
ãģ®è¦ª åıĭ
ãģ¯å¥½ãģį ãģĺãĤĥãģªãģĦ
çľ ģ
é» Ļ
ãĤ¹ãĥĬ ãĥĥãĥĹ
ãĥĪãĥŃ ãĤ¤ãĥĪ
ãĥĵãĥĩ ãĤª
ä¾µ åħ¥
ãģĻãĤĮãģ°ãģĦãģĦ ãģ®
ãģĨãģ¾ãģıãģĦ ãģĭãģªãģĦ
å¥ĩ å¿ĥ
ĭ¬èº« ãĥĳãĥ¼ãĥĨãĤ£ãĥ¼
ãĤĴãĤĤ ãģŁãĤī
ĠæĢĸ ãģĦ
§Ķ åĵ¡ä¼ļ
´Ī ãĤĬçī©
ç³ »
ĸĦ èī¯
ĠãĥĩãĤ¤ ãĥĵãĥĥãĥī
µ® æ°Ĺ
ãĤĴå¾Į æĤĶ
ãģ«åĲĮ æĦı
å°Ĩ è»į
ĠãģĬä¼ļãģĦ ãģ§ãģįãģ¦
ãĥ¥ãĥ¼ãĥ© ãĥ¼
¤ãĤĵ åĿĬ
¶º éºĹ
ĠäºĨ è§£
ãģĨãĤĵ ãģĸ
ĠOut post
* !
B I
E N
i c
r a
¢ «
¥ ĸ
¦ ı
¦ æĸĻ
ª å¤±
¯ Ĵ
¯ İæĹ¥
° èĥŀ
± ĭ
± Ĺ
² »
¶ äºī
· Ŀ
¹ çĸĳ
¹ °ãĤĬè¿Ķ
» ãģį
½ ±éŁ¿
å ĺ
å ¨ĺ
å İŁ
å »ºçī©
æ µ·
æ Ķ¯æīķ
æ įľæŁ»å®ĺ
ç ĭĤãģ£ãģ¦ãĤĭ
é Ĭ
é īĦéģĵ
Ġ U
Ġ ãĢĤ
Ġ äºĮ
Ġ è¡Ĺ
Ġ çŁ³
Ġ äºĮåº¦ãģ¨
Ġ çŁ¥ãģ£ãģ¦ãģŁ
Ġ è¦ªæĦĽãģªãĤĭ
Ġ éĸ£ä¸ĭ
Ĥ éĸĢ
Ħ æĥ³
ĩ ãĤĬãģ«
Ĭ ĩ
į å¿ľ
İ éĩį
Ĳ è»Ĭ
ĺ èªŀ
Ľ ãĤĵãģł
Ľ å¾ħ
ľ ĭèŃ·
Ń ĵè¿İ
ãģĦ ãģĭ
ãģĦ ãģł
ãģĦ ãģ£ãģŁ
ãģĦ ãĤį
ãģ® ãĤ»
ãģ® ä»ĸ
ãģ® è¡Įåĭķ
ãģ® éģķãģĦ
ãģ¯ ãģĵ
ãģ¯ ãģĭãģªãĤĬ
ãģ¯ ãģĹãģŁãģıãģªãģĦ
ãģª ãĤĤãģ®ãģł
ãģŁ ãģ°
ãģ« ãģĤãģ£ãģŁ
ãģ« éł¼
ãģ« ç§»
ãĤĴ ãĥĹ
ãĤĴ ãĥĲ
ãĤĴ è©±ãģĻ
ãĤĴ ä¼ĳ
ãĤĴ ãģ²
ãĤĴ éĻį
ãĤĴ éļł
ãĤĴ éĢ®æįķ
ãĤĴ è¨Ńå®ļ
ãĤĭ åīįãģ«
ãģĹ ãģĮ
ãģĭ ãģĽ
ãģĭ ãģĽãĤĭ
ãģ¨ æĪ¦
ãģ¨ ãģ®éĸ¢ä¿Ĥ
ãģ¨ åħ±
ãģĮ ãģĻ
ãģĮ è¡Į
ãģĮ è©±
ãģĮ ãģ§ãģĻãģĭ
ãģĮ ãģ¾ãģł
ãģĮ èģŀãģĵ
ãģ£ ãģĵ
ãģł ãģ¨ãģĦãģĨãģĵãģ¨
ãĤĮ ãĤĭãģ®
ãģ§ ãģ®
ç§ °
ãģĻ ãģ¨
ãĥ¼ ãģł
ãĥ¼ ãĤŃ
ãģĨ ãģĵãģ¨ãģ«ãģªãĤĭ
ãģĵ ãģ®ãģĵãģ¨
ãģªãģĦ ãģłãĤįãģĨ
Ġå ģ
ãĤī ãĤĵ
ãģ£ãģ¦ ãģĵãģ¨
ãģ£ãģ¦ èª°
ãģ£ãģ¦ ãģĹãģ¾ãģ£ãģŁ
Ġç§ģ ãģ®æ
Ġç§ģ ãģ®ãģĵãģ¨
Ġç§ģ ãģ¨ä¸Ģç·Ĵãģ«
Ġç§ģ ãģ®å¤«
ãģĹãģ¦ ãĤĤ
äº Ĵ
ĠãģĿ ãģ®æ
ãĤĬ åĽŀ
ãĥ¼ãĥ ľ
ãĥ¼ãĥ Ł
ãĥĥ ãĤ¿
ãĥĥ ãĤ·ãĥ¼
ä½ķ ãģĮèµ·ãģį
ãĤĴæ Ń»
ãĤĴæ µģ
ãĤĴæ ¨ª
ãĤĴæ ĥ³åĥı
ãĤĴæ Į¯
ãģ®å ĸ
ãģ®å ħ¥
ãģ®å ħ¨
ãģ®å ľŁåľ°
ĠãĤ Ĩ
ĠãģĤ ãĥ¼
ãģ¯å ¦»
ãģķ ãĤĴ
ãģķ ãģĪãģªãģĦ
Ġæ İ
Ġæ ¥½ãģĹãģĦ
ãĤ¯ ãĤ¤
ãĤ¯ ãĥ«
ãģĳ ãģŁ
ãĤĴå Ľ°
ãĤĴå Ī¶å¾¡
äºº ãģĺãĤĥãģªãģĦ
äºº æ°Ĺ
Ġç§ģãģ¯ ãģĤ
Ġç§ģãģ¯ ãģĵãģĵ
Ġç§ģãģ¯ ãģ¾ãģł
Ġç§ģãģ¯ ãģĵãģ®
Ġç§ģãģ¯ ãģĵãģĵãģ§
Ġç§ģãģ¯ ãģĿãģ®
Ġç§ģãģ¯ çŁ¥ãĤīãģªãģĭãģ£ãģŁ
ãģĻãĤĭ ãģ«ãģ¯
ãģĻãĤĭ ãģĭãĤĤãģĹãĤĮãģªãģĦ
ãģĻãĤĭ ãģĵãģ¨ãģĮãģ§ãģįãĤĭ
ãģĻãĤĭ ãĤĪãģĨãģª
ĠãģĿãĤĮ ãģ«ãģ¯
ĠãģĤãģªãģŁ ãģ¯å½¼ãĤī
ãģ«å ®¶
ãģ«å ł±åĳĬ
ãĥ© ãĤ¯
ãĥ© ãĥĥãĥĪ
ãĥ© ãĤº
Ġãģĵ ãģ®ç
Ġãģĵ ãģ®äºº
ãģ®æ ®ºäºº
ãģ®æ ķĻ
ãģ®æ Ķ¯æīķãģĦ
ãģ®ãģĭ ãĤıãģĭãĤīãģªãģĦ
è¨Ģ ãģ£ãģ¦ãģĦãĤĭ
è¨Ģ åı
ãģ¯æ Įģ
ãģĤãĤĭ ãģĦãģ¯
ãģĿãĤĮ ãģ¯æ
ãĥī ãĥĥãĤ°
Ġç ĪĨ
Ġç ²¾ç¥ŀ
Ġç Ľ´
Ġç Ĭ¬
Ġä½ķ æĻĤ
ä¸Ģ éĥ¨
ãĤį ãĤĪ
ãģ«æ ¸¡
è© ©
ãģ§ãģį ãĤĭãģ®
ãģĬ ãģĦ
ãģĬ èħ¹
ĠãģĿãģĨ æĢĿ
ĠãģĿãģĨ æĢĿãģĨ
ĠãģĿãģĨ ãģ§ãģĻãģŃ
ãģĦãģ¦ ãģĦãģŁ
ãĤ· ãĥĥãĥĹ
ãĤ· ãĤ¹ãĤ¿ãĥ¼
ãĥ¬ ãĤ¯
ãĥ¬ ãĥ«
ãĥ¬ ãĤ¯ãĤ¿ãĥ¼
ãĥŃ ãĤ¹
ãĥŃ ãĥĥãĥĪ
ãĥŃ ãĥ¼ãĥĹ
ãĥŃ ãĤµãĥ³
ãĤ¸ ãĥĥãĥĪ
è©± ãģĹãģ¦
ãģ«ãģ¯ ãĤĤãģĨ
ãģ«ãģ¯ ãģ¾ãģł
ãģ®ç ¯
ãģ®ç ģ«
ãģ®ç ī¹
ãģ®ç ®±
ä¼ ģ
ãĥ£ ãĥ³
Ġè ĥ
Ġè ĩ
Ġè ĪĪåĳ³
ãģ° ãģĭãĤĬ
ãĤĴç ¬ĳ
ãĤĴç ¶ļãģĳ
ãĤĴç ªģãģį
ãģĹãģ¦ãĤĭ ãģłãģĳãģł
ãĤ« ãĥĭ
ãĤ« ãĥ¼ãĥ³
ãĤ« ãĥ¡ãĥ©
ãĤ« ãĤ¸ãĥİ
ãĤĴè¦ĭ ãģŁãģ®
ãĤ° ãĥ¬ãĤ¤
ãĤ§ ãĤ¹
Ġãģ© ãģ®ãģıãĤīãģĦ
ãģ¯ãģĦ ãģıãĤī
ãģĮå ħ¨ãģ¦
ãģĮå ŃĲä¾Ľ
ãģĮå Ńĺåľ¨
ãĥŀ ãĤ¤
ãĥŀ ãĥ¼ãĥĪ
ãĥŀ ãĥĩãĤ£
ãĥŀ ãĥ¼ãĥķ
ãĥŀ ãĤ¶ãĥ¼
ãĥŀ ãĥĢãĥł
ãĥŀ ãĤ·ãĥ³
ãĥĹ ãĤ¹
ãĥĩ ãĤ¹
ãĥĩ ãĤ¤ãĥĸ
ãĥĩ ãĥĪãĥŃãĤ¤ãĥĪ
ĠãģĵãĤĮ ãģ¯åĲĽ
ĠãģĵãĤĮ ãģ¯ç§ģãģĮ
ãĤĮãģ¦ ãĤĭãģ®
Ġ1 3
Ġ1 4
ĠåĲĽ ãģ«
ãĤĤãģ® éĸĵ
ãĤĤãģ® ãģ¯ä½ķãģ§ãĤĤ
Ġé ĬĢè¡Į
ãĥĳ ãĤ¤ãĤ¯
ãĤĴè ³
ãĤĴè µ·
ä¸Ń ãģ«ãģĦãĤĭ
ãģĹãģ¦ãģĦãĤĭ ãģ¨
ãģ©ãģĨ ãģĹãģ¦
ãģ®é ħ
ãģ®é Ļ
ãĤĴæĮģ ãģŁ
ãģ®è »į
ãģ®è į·çī©
ãģĿãģĨ ãģ§ãģ¯ãģªãģĦ
Ġå½¼å¥³ ãģ¯ä½ķ
ãĤ³ ãĥĶãĥ¼
ç§ģãģ¯ ä½ķ
ç§ģãģ¯ ãģĤãģªãģŁãģĮ
ãĥĸ ãĥªãĥ¼
åħ Ĳ
åı ³
åĳ Ĥ
ãĥł ãĥĥãĤ·ãĥ¥ãĥ¼
çĶŁ åĳ½
ãĥĵ ãĥĥãĥĪ
ãĤµ ãĥ«
éĽ ª
Ġ2 1
Ġ2 5
ãĥĭ ãĤ¹
ãĥĭ ãĥĥãĥĪ
ãĥĭ ãĥ£ãĥ³
ãĥĭ ãĤ§ãĤ¹
ãģ¨æĢĿãģĨ ãĤı
ãģĵãģ¨ãģĮãģ§ãģį ãģªãģĭãģ£ãģŁ
ãģĵãģ¨ãģĮãģ§ãģį ãģ¾ãģĻãģĭ
çµ ŀ
çļ ¿
ãĤĤãģĨ å°ĳãģĹ
ĠãģĤãģªãģŁãģ¯ ãģĿ
ĠãģĤãģªãģŁãģ¯ èĩªåĪĨ
èĢħ ãģ®
ãĤª ãĤ¦
Ġãģ©ãģĨ ãĤĦ
Ġãģ©ãģĨ ãģłãģ£ãģŁ
æ°Ĺ ãģĮ
æ°Ĺ ãģ§
æ°Ĺ ãģ¯ãģªãģĦ
ãĥ¡ ãĥ¼ãĤ¸
åº Ń
é£ ¢
ãģ¨ãģĦãģĨ ãģĵãģ¨ãģ¯
ãĤĮãĤĭ ãģª
ãĥĬ ãĤ¤
ãĥĬ ãĤ¤ãĥķ
ãĥĬ ãĤ¿ãĥªãĥ¼
ãĥŁ ãĥ³
ãĥŁ ãĥ³ãĤ°
ãģ«åħ¥ ãģ£ãģ¦
ãĥ©ãĥ³ ãĥģ
ç´ ¹ä»ĭ
åį ģ
åį Ķ
Īĳ æħ¢
Ġç§ģãģĮ å½¼å¥³
ãģĶ ãĤīãĤĵ
ãĤ¬ ãĥ©
ãĥĩãĤ£ ãĤ¹
ãĥĩãĤ£ ãĥĥãĤ¯
éł ĥ
ĠãģĤãģªãģŁãģĮ ãģĦãĤĭ
ãĤĴãģĻãĤĭ ãģĵãģ¨
ãģĵãģĵ ãģĭãĤī
ãģĵãģĵ ãģ«æĿ¥ãĤĭ
Ġãĥŀ ãĤ¤ãĤ¯
ãģķãģĽ ãģŁãģĦ
ãģķãģĽ ãģ¦ãģıãģłãģķãģĦ
ãĥľ ãĥ¼
ãĥľ ãĥ¼ãĤ¤ãĥķãĥ¬ãĥ³ãĥī
ãĥı ãĥ¼
ãĥı ãĥ³
ãĥı ãĥªãĤ±ãĥ¼ãĥ³
Ġãģĵãģĵ ãģĭãĤī
Ġãģĵãģĵ ãģĭãĤīåĩº
éĥ¨ åĪĨ
Ġãģ¤ çĽ®
Ġç§ģãģŁãģ¡ãģ¯ ãģĿãĤĮ
å¯ Ĥ
ĠãģĿãĤĮãģ§ åħ¨éĥ¨
åĬ £
Ġ3 5
ãģ«æĿ¥ ãģŁãģ®
ãĥ¯ ãĥ¼ãĤ¯
ãģ®ãĤĪãģĨ ãģ«å
èģŀ ãģı
Ĳį åīį
ãģ«ãģĦãĤĭ ãģ®ãģĭ
Ġãĥī ãĥĭãĥ¼
Ġãĥī ãĤ¥
Ġå¤ ľ
Ġå½¼ãĤīãģ¯ ãģĤãģªãģŁ
ãģ§ãģįãĤĭ ãģłãģĳ
ãģªãģı ãģ¦
ãģ«è¡Į ãģį
ãģ«è¡Į ãģĭãģªãģĳãĤĮãģ°ãģªãĤīãģªãģĦ
çļĦãģª ãĤĤãģ®ãģł
è³ ĥ
ãģįãģŁ ãģ®
ĠãĤ¯ ãĥ«ãĥ¼ãĤ¬ãĥ¼
ãģ«ãģĻãĤĭ ãģ®
ãģ«ãģĻãĤĭ ãģŁãĤģãģ«
éģĭ ãģĮãģĦãģĦ
ä¸ĸ è¾ŀ
ãģ¨ãģ¯ éģķãģĨ
ãģ¨ãģ¯ éĻĲ
ãĤĴè¦ĭãģ¤ãģĳ ãģ¦
ãĤĴè¦ĭãģ¤ãģĳ ãĤĭãģ®
å¾ħ ãģ¡
Ġãĥĳ ãĤ¤ãĤ¯
æĬ Ĺ
ĠåĪĨ ãģĭ
é£Ł ãģ¹ãģ¦
ãģ«ãģ¯å ĲĽ
¥½ ãģĹãģ¿
ãģ«è¡Įãģı ãĤı
ãģĦãģ¾ãģĽãĤĵ ãģ§ãģĹãģŁ
èĢĥãģĪ ãĤīãĤĮãģªãģĦ
©Ł èĥ½
ä¼Ŀ ãģĪãĤĭ
ä¼Ŀ èª¬
ĠãĥŃ ãĥ³ãĤ°
ĠãĥŃ ãĥĭãĥ¼
ãģ£ãģ¦ãģıãĤĮ ãģŁ
è¾ ĽãģĦ
ĠãĤ¤ ãĥ¬ãĤ¤ãĥ³
ĠãĤ¤ ãĤ¿ãĥªãĤ¢
ãģĮç ĭĤ
ãģĮç ľŁå®Ł
ãģłãģ¨ çŁ¥ãģ£ãģ¦ãĤĭ
åĢ ĭäºº
è£ ķ
Ġå½¼ãģ¯å ¤§ä¸Īå¤«
ãĤĴæķ °
ĠãĤ¨ ãĤ¤
ĠãĥĪ ãĤ¤ãĥ¬
Ġåı ³
Ġåı ĸå¼ķ
ĠãĤĤãģĹ ç§ģãģĮ
ĠãĤĤãģĹ å½¼ãģĮ
ãĤ¦ãĤ§ ãĤ¢
ãĤ¦ãĤ§ ãĥ«ãĤº
å° ĭãģŃ
ãģ©ãģĵãģ« ãģĦãģŁ
éģĵ è·¯
ä¿Ŀ åŃĺ
ä½ķãĤĤ ãģªãģĦ
ãģĵãģĵãģ« ãģĦãģŁ
ãģĵãģĵãģ« éĢ£ãĤĮãģ¦
ãģĮãģĦãĤĭ ãģ®
ĠãĤ« ãĤµãĥĸãĥ©ãĥ³ãĤ«
å· ¡
ãģĭãģ£ãģ¦ãĤĭ ãģ®ãģĭ
Ġç¥ŀ æ§ĺ
Ġãģ¡ãĤĩãģ£ãģ¨ ãģĹãģŁ
éĸĵéģķ ãģ£ãģŁ
ĠãĥĨ ãĥĩãĤ£
ãĤŃãĥ£ ãĥªãĤ¢
ãĤĴåĲ ¹
ãĥ¼ãĥĨ ãĥ«
è¬ Ģ
ãģ®å®¶ ãģ«
è¨¼ è¨Ģ
åıĸ å¼ķ
Ġãĥĸ ãĥ«
Ġãĥľ ãĥ¼ãĥ³
ãĤĴæī ±
é£² ãģ¿
ãĤĴä¸İ ãģĪãģ¦ãģıãĤĮ
ãģķãĤĮ ãĤĭãģ®
ãĤ´ ãĥ³
ãĤ´ ãĥŁ
Ġãĥĵ ãĤ¸ãĥįãĤ¹
ãģ®éĥ¨ ä¸ĭ
ãĤĴè² ¬
ãģ¨ä¸Ģç·Ĵãģ« ãģĦãģŁ
ãĤĴåĪ º
è¡Įãģĭ ãģĽ
ãĤĭãģĵãģ¨ ãģ«ãģªãĤĭ
Ġãĥ¬ ãĤ¤ãĥĹ
èªį ãĤģ
ãĥĥãĥģ ãĥ³
ĠãģĤãģªãģŁãģ® ãģĬçĪ¶ãģķãĤĵ
ĠèĩªåĪĨ ãģĮä½ķãĤĴ
æ¥½ ãģĹãģ¿
ãĤ¯ãĥ© ãĥĸ
æľ¬ çī©
ãĤĴæİ¢ ãģĻ
éĿ¢ çĻ½
ãģ¸ ãģ¨
ãģ¯å® īåħ¨
ãģ®ãĥĳ ãĥ³
ãģ®ãĥĳ ãĥ¼ãĥĨãĤ£ãĥ¼
ãģ®ãĥĳ ãĤ¤ãĥŃãĥĥãĥĪ
ãģ«ãģĹãģ¦ ãĤĤ
ãģ¨ãģ¯æĢĿ ãģĪãģªãģĦ
¾ħ ãģ¤
ãģ¨ãģį ãģ«
ãģĿãģĵãģ« ãģĦãģŁ
ãģĹãģŁãĤī ãģĦãģĦãģ®ãģĭ
ãģ«ä½ķ ãģĮèµ·ãģĵ
ãģĮæ¬²ãģĹãģĦ ãģ®
ãģĮæ¬²ãģĹãģĦ ãģ®ãģĭ
Ġå½¼ãģ¯ç§ģ ãģŁãģ¡
Ġãģ©ãģĵãģ« ãģĦãģŁãģ®
ãģĻãĤĭãģĵãģ¨ ãĤĤ
ĭķ ãģį
ãģ®çµ Ħ
ãģ®çµ Įé¨ĵ
ĠãĥĩãĤ£ ãĤ°ãĥĬãĥ³
éĩįè¦ģ ãģĺãĤĥãģªãģĦ
Ġåħ ī
ãĥĹãĥŃ ãĤ¸ãĤ§ãĤ¯ãĥĪ
ç«ĭ ãģ¡ä¸ĬãģĮ
èĩ ĨçĹħ
ãģ«ãģ¨ãģ£ãģ¦ ãģ¯
ãģĭãĤĭ ãĤĪ
åĳ½ ä»¤
çĲĨè§£ ãģ§ãģįãģªãģĦ
ãĥĺ ãĥ«
ĠãģªãĤĵãģ¦ ãģĵãģ£ãģŁ
æļ ´
ãĤĴæĬ ¼
ĠãģŁãģł ãģ®
Ġå®¶ æĹı
ãģ¾ãģŁ ãģ¯
Ġæĸ ĩ
ãģ®åħ Ħå¼Ł
Ġãĥ« ãĤ¤ãĤ¹
çĶ³ãģĹ åĩº
èªŃ ãģ¿
Ġä½ķãģĮãģĤãģ£ãģŁ ãģ®
ãĤ¦ãĤ© ãĥ¬ãĤ¹
ĠãĥĶ ãĥ¼ãĥ«
ĠãĥĶ ãĥ¼ãĤ¿ãĥ¼
é¦¬é¹¿ ãģª
Ĳæ ŀľ
ãĤĴé£² ãģ¿
ãĤĴå§ĭ ãĤģãĤĭ
ãģ®ãĥĩ ãĥ¼ãĤ¿
åŃĺ åľ¨
ãģªãģĹ ãģ§
ãĤĴå¿ĺ ãĤĮãģ¦
ģ¥ åº·
äº¤ æ¸ī
ãĥ¼ãĥĵ ãĥ¼
ãĥŀãĥ¼ ãĤ·ãĥ£ãĥ«
ãĤĴè¿½ãģĦ åĩºãģĻ
æ¯ Ľ
ç§ģãģ®å ¿ĥ
ãģ®ãĤ³ ãĥ¼ãĥī
ãģĮè¦ĭ ãģĪãģªãģĦ
ãģĮå¤§ å¥½ãģįãģ§ãģĻ
ãĥ¼ãĥ© ãĥ³ãĥī
ãĤĴæķĳ ãģĨ
çĬ¶ æħĭ
ãĤĴå¿ħè¦ģãģ¨ ãģĹãģ¦ãĤĭ
åĶ¯ä¸Ģ ãģ®æĸ¹æ³ķ
çķĻ ãģ¾
ĠæľĢå¾Į ãģ®
ãĤĴçĽĹ ãĤĵãģł
ãģ«éĸ¢ ãģĹãģ¦
ĠåĢ į
ä½Ļ åĪĨ
ĠãĤ¦ãĤ£ ãĥ«
ĠæŃ£ çĽ´
è²· ãģĦ
Ġæķ° åĪĨ
ãģ®ãģĽãģĦ ãģ§
ãģ®ãĥ¡ ãĥ³ãĥĲãĥ¼
çł´ å£Ĭ
ĠF BI
ãĥ«ãĥİ ãĥ¼
ãĤ¹ãĤ³ ãĥĥãĥĪ
ĠåĨĹè«ĩ ãģĺãĤĥãģªãģĦ
éĻįãĤĬ ãģ¦
ãĤĴéĽ¢ ãĤĮãĤĭ
Ġå¿ĥéħį ãģĻãĤĭãģª
ãĤĴæİ ĺ
ãĤĴæ®ĭ ãģĹãģ¦
ãģ®æŃ» ä½ĵ
ãĤĴèĦ ħ
ãģ®éĽ »è©±
èĦ ³
ãĥķãĥ©ãĥ³ãĤ¹ èªŀ
ãĤŃãĥ¥ ãĥªãĥĨãĤ£
ªæ µ·
ãģ«è¿ ·
æ¬² ãģĹãģıãģªãģĦ
ĵį ç¸
Ġåĭķ ãģıãģª
ãĤĴå£² ãģ£ãģŁ
è©ķ åĪ¤
ãģ®ãĥĻ ãĥĥãĥī
ãģ®èĥ Įä¸Ń
ĺĺãĤĴãģ¤ ãģĦãģŁ
å¨ ģ
ãģªãĤĵãģ¦ ä¿¡ãģĺãĤīãĤĮãģªãģĦ
ãģ®å¼ ģèŃ·å£«
Ġæ¯ İæĹ¥
ãĤĴè§£ æ±º
ãģ§æŃ» ãĤĵãģł
å¦Ļ ãģª
ãģ«ä»» ãģĽ
ãģĵãģĨ åģ´
ãĤĴæ±Ĥ ãĤģãģ¦
ãģĬè©± ãģĹ
åı¸ ä»¤å®ĺ
ãĥ´ãĤ§ ãĥŃ
įå¯¾ åģ´
ĸľ ãģ³
ãģŁãĤı ãģĶãģ¨
Ġéħ Ķ
ãģ®è³ ĩ
Ġå¤© æ°Ĺ
ãĤĴèª¿ ãģ¹
İãĤīãģĭ ãģ«
ãģ©ãģĨãģª ãĤĭãģĭ
éħĶ ãģ£ãģ±ãĤī
é«ª ãģ®æ¯Ľ
ãģ®èŃ¦ å®ĺ
åı« ãģ¶
ãģ¶ãĤī ãģ¶ãĤī
ãģģãģģ ãģģãģģ
¿Ļ ãģĹãģĦ
ãĤ«ãĤ¦ ãĥ³ãĥĪ
ãĤ«ãĤ¦ ãĤ¬ãĥ¼ãĥ«
ãĤ»ãĥ³ ãĤ¿ãĥ¼
ä¸»ç¾© èĢħ
Ġãģį ãģ£ãģ¨
ãĤĴå± ¥
Ġé« ĺ
ä»£ãĤı ãĤĬãģ«
İ¥ ç¶ļ
æĺ¼ é£Ł
ãģįåİ»ãĤĬ ãģ«ãģĹãģŁ
Ġãĥıãĥ¼ ãĤ·ãĥ¥
Ġãģ§ãģįãĤĭ ãģłãģĳ
Ġä¸¡æĸ¹ ãģ¨ãĤĤ
¤¾ ä¼ļ
å¢ ĥ
Ġä¼ļãģĪãģ¦ å¬īãģĹãģĦãĤĪ
ãģĭãĤīæĬľãģĳ åĩºãģĻ
Ġé£² ãģ¿çī©
ãĤĴè£ı åĪĩãģ£ãģŁ
Ġãģ©ãģĨãĤĤãģĤãĤĬãģĮãģ¨ãģĨ ãģĶãģĸãģĦãģ¾ãģĹãģŁ
æ³¨ æĦı
ãĤ¸ãĤ§ãĤ¤ãĥł ãĤ¹
ãģ«åĪ° éģĶ
ãĤĴåį±éĻº ãģ«ãģķãĤī
¿ħ ãģļ
æ¶ ²
Ĳº å¸¯
ãĤĴéĻ¤ ãģĦãģ¦
ç·ł å½¹
éłĳ åĽº
Ġèģŀãģĵ ãģĪãģŁ
ãĤĪãģĵ ãģĽ
ãģ«è¿ĳ ãģ¥
ĠãģĨãĤı ãĥ¼
ĠéĿĻ ãģĭãģ«
Ġç¢º èªį
Ġãģ©ãģĨãģĦãģŁ ãģĹãģ¦
ĠãĤ¸ãĥ¼ãĤ¶ ãĤ¹
¢« å®³
è¨Ģåı Ĭ
ĵįç¸ ¦
E L
a l
c e
c h
l o
u s
¡ ©
£ Ĵ
¤ æĸŃ
¥ µ
¦ Ħæĥ³
ª æĿ¥
« ãģ³
¬ å¹³
® èº«
¯ ¾
± æķĹ
³ Ĭ
´ ç¿Ĵ
´ åĬ©
¸ ©
º ¶
º º
» ¢
¼ ±
¾ Ĭ
å «
å Ķ
æ µ
æ ½
æ īį
æ ®ĭãĤĬ
æ ¨©åĪ©
æ Ĺħè¡Į
æ ºĲ
ç ĭĤ
ç ŀ¬éĸĵ
ç ¦ı
è ĸ
é įµ
é ı¡
Ġ #
Ġ èĢĥãģĪ
Ġ è¨ĪçĶ»
Ġ ãĤĪãģĨãģĵãģĿ
Ġ éģ¸æĬŀãģ®ä½Ļåľ°
Ĥ ¹
Ĥ ī
ĥ ķ
Ħ Ħ
Ĩ ·
Ĩ Ĵ
Ĩ Ŀ
Ĩ ±ãģĦ
ī £
ī å
ī Ľ
ī ç½ª
ī å¿«
Ĭ Ŀ
ĭ ãģĮ
ĭ åº¦
İ Ħ
Ĳ éĩĳ
ĳ ½
ĵ ĢãĤĮ
ķ Ĩ
ķ çĶŁ
Ĺ Ľ
Ļ ¾
ļ ´
Ľ ³
Ŀ çŁ³
ãģ ĩ
ãģĦ ãĤĪ
ãģĦ ä¸ĬãģĴ
ãģ® ãģ©
ãģ® ãģ¯ç§ģ
ãģ® ãĤª
ãģ® ãĤ½
ãģ® ãĤ²
ãģ® ãĤ¹ãĤ¿
ãģ® ãĤªãĥķãĤ£ãĤ¹
ãģ¯ ãģŃ
ãģ¯ èĩªåĪĨ
ãģª ãģ®ãģ¯
ãģ¦ ãģ¦
ãģ« ãģĹ
ãģ« ä»ķ
ãģ« ãģĵãĤĮ
ãģ« ãģĹãģ¦ãģıãģłãģķãģĦ
ãģ« è¦ĭãģĪãĤĭ
ãģ« è¦ĭãģŁ
ãģ« éģİãģİ
ãĤĴ ãģĶ
ãĤĴ ãģ¨ãģ¦ãĤĤ
ãĤĴ ãģĹãģ¦ãģıãĤĮ
ãĤĴ ãģĹãģ¦ãĤĭãģ®
ãĤĴ çĶŁãģį
ãĤĴ éĢļãĤĬ
ãĤĴ ãģĤãĤĬãģĮãģ¨ãģĨ
ãĤĴ é£Ľãģ°
ãĤĴ ãģĤãģĴ
ãĤĴ ãģķãģĽãģ¦ãģıãĤĮ
ãĤĴ é£Łãģ¹ãģ¦
ãĤĭ ãĤĪãģĨ
ãĤĭ ãĤĪãģĨãģ«
ãĤĭ ãģĵãģ¨ãģ¯
ãĤĭ ãģ§ãģĹãĤĩãģĨ
ãĤĭ ãģ¹ãģį
ãģĹ ãģł
ãģĹ ãģĭãģĹ
ãģĭ ãĤĮãģ¦ãģĦãĤĭ
ãģĭ ãģĽãģ¦ãģıãĤĮ
ãģĭ çŁ¥ãģ£ãģ¦ãģĦãģ¾ãģĻãģĭ
ãģ¨ ãģĬ
ãģ¨ çŁ¥ãģ£ãģ¦ãĤĭ
ãģ¨ ãĥĲ
ãģ¨ ä»ķäºĭ
ãģ¨ ç§ģãģ¯å
ãģĮ ãģĵ
ãģĮ ä½ķãģĭ
ãģĮ çµĤãĤı
ãģĮ ãģĤãĤĮãģ°
ãģ£ é£Ľãģ°
ãģł ãģ¨è¨ĢãģĨ
ãģł ãģ¨ãģĦãģĨãģĵãģ¨ãĤĴ
ãģ§ ãģıãĤĮ
ãģ§ ä½ķãģĭ
ãģĻ ãģª
ãģĻ ãģĵãģ¨
ç§ģ ãģĮæ
ç§ģ ãģĮå
ãĥ¼ ãĤ·ãĤ¢
ãĥ¼ ãĤ¬ãĥ³
ãģĵ ãģ®åł´æīĢ
ãģªãģĦ ãĤĪ
Ġå °ı
Ġå ¹³
Ġå Ľ½
Ġå ĪĳåĭĻæīĢ
Ġå ĥķ
ãģ¾ ãĤīãģªãģĦ
ãĤĤ ãģªãģı
ãĤī ãĤĮãģ¦ãĤĭ
ãģĤ ãģ®
ãĥ³ ãģł
Ġç§ģ ãĤĪ
Ġç§ģ ãģĭãĤī
Ġç§ģ ãģ«æ
Ġç§ģ ãĤĴè¦ĭãģ¦
Ġç§ģ éģĶãģ¯
ãģı ãĤĵãģł
ãģı ãĤĭãĤı
ãģĹãģ¦ ãģŁãģ®ãģŃ
ĠãģĿ ãģ®è©±
ĠãģĿ ãģ®åł´æīĢ
ãĤĬ ãģ¦
ãģ£ãģŁ ãģĮ
ãģ£ãģŁ ãģ®ãģ¯
ãģ£ãģŁ å¾Į
ãĤ¹ ãĤ¤ãĥĥãĥģ
ãģĵãģ¨ ãģĺãĤĥãģªãģĦ
ãģĵãģ¨ ãģ«ãģ¤ãģĦãģ¦
ãģį ãģı
ãĥĥ ãĥĨ
ãĥĥ ãĤŃ
ãĥĥ ãĤ¿ãĥ¼
ãĤĴæ Ĩİ
ãĤĴæ į¨ãģ¦
ãģĿ ãģ®ãģĵãģ¨
ãģ®å ¥
ãģ®å ·
ãģ®å ĪĨ
ãģ®å ¼·
ãģ®å Ĥ·
ãģ®å Ĳĳ
ĠãģĤ ãģ¨
ĠãģĤ ãģ®çĶ·
ãģ¯å ķıé¡Į
è¦ §
ãģĹãģŁ ãģĭ
ãģĹãģŁ ãģĭãģ£ãģŁ
ãģĹãģŁ çĶ·
Ġæ ł
Ġæ Įģ
Ġæ Ĥ²
Ġæ ¥½ãģĹ
ãĤĴå ¹¸ãģĽ
ãĤĴå ¥½ãģį
ãĤĴå °ĭãģŃ
ãĤı ãĤĮãģ¦
ãģĪ ãģ¨
ãģĪ ãģĪãģ¨
äºº ãģ¯ãģĦãģªãģĦ
Ġç§ģãģ¯ ãĤ¢
Ġç§ģãģ¯ ãģĹãģªãģĦ
Ġç§ģãģ¯ ãģĵãĤĮãĤĴ
è¨ ª
ãģĻãĤĭ ãģłãģĳãģł
ãģĻãĤĭ ãģĵãģ¨ãģ§ãģĻ
ãģĻãĤĭ æĸ¹æ³ķ
ãģĻãĤĭ å¿ħè¦ģãģ¯ãģªãģĦ
ãĥ« ãĥ¼ãĥĪ
ãĥ« ãĥľ
ãģĤãģªãģŁ èĩªèº«
ãĥª ãĥĥãĤ·ãĥ¥
ĠãģĿãĤĮ ãģ¯å½¼ãĤī
ĠãģĿãĤĮ ãģ¯æľ¬å½ĵãģ«
ãģ«å ĪĨ
ãģ«å ķıé¡Į
ãģ«å ¤§ãģįãģª
èª ķçĶŁ
ãĥ© ãĥĲ
ãĥ© ãĥ¼ãĥª
ãģ®æ ¨
ãģ®æ ĭ
ãģ®æ ķ
ãģ®æ ĺ
ãģ®æ ĤªãģĦ
ãģ®æ °´
ãģĺ ãģ¦
ãģĭãĤī éĢĥ
ãģ£ãģ¦ãĤĭ ãĤĪ
ãģ£ãģ¦ãĤĭ ãģłãģĳãģł
è¦ĭ ãģŁãģĦ
è¡Į ãģ£ãģŁãģ®
ãģĤãĤĭ ãģ®
ãģĤãĤĭ ç¨®
ãĤ¢ ãĥ¼
ãĤ¢ ãĤ¹
ãĤ¢ ãĥĽ
ãģĿãĤĮ ãģ«
ãģĿãĤĮ ãģĮå
ãĥī ãĤ¯ãĤ¿ãĥ¼
ãĥī ãĥ¢ãĤ¢
Ġç «ĭ
Ġç Ĺħæ°Ĺ
Ġç ¾İãģĹãģĦ
Ġç ŃĶãģĪ
Ġç Ļº
Ġç ĹħéĻ¢
Ġç Ļ½
Ġç ķ°ãģªãĤĭ
ãĤį ãģıãģ§ãģªãģĹ
ãģ«æ ĻĤéĸĵ
ãģ«æ ĤªãģĦ
ãģ«æ ±º
ãģ¨æĢĿ ãģ£ãģ¦ãĤĭãģ®
ãģĬ ä¼ļãģĦ
ãĤ· ãĤ¹ãĤ¿
ãĥ¬ ãĥ¼ãĤ¸
ãĥŃ ãĥĲ
ãĥŃ ãĥ¼ãĥ¬
ãĥŃ ãĥĩãĥªãĥĥãĤ¯
ãĤ¸ ãĤ¢
ãĤ¸ ãĤ¿ãĥ«
ãģ«ãģ¯ ä½ķ
ãģªãĤī ãģªãģľ
å® ¿
å® Įåħ¨ãģ«
ãģŁãĤģ ãģ®
ãĤ¿ ãĤ°
ãģ®ç Ľ
ãģ®ç ¾İ
ãģ®ç ĲĨè«ĸ
Įģ ãģ£ãģ¦ãģĦãĤĭ
ä¼ ı
Ġè ĸ¬
Ġè ī²
Ġè ¿ĳ
Ġè »į
ä»Ĭ åĽŀ
ä»Ĭ æľĿ
ãĤĴç ®¡çĲĨ
ãĤĴç Ħ¼
ãĤĴç ¨¼
ãĤĴç ¹°ãĤĬè¿Ķ
ãģĹãģ¦ãĤĭ ãģ®ãĤĪ
ãģĮãģĤãĤĭ ãĤı
ãĤ« ãĥ¼ãĥ«
ãĤ« ãĥķãĤ§
éĩ ĺ
ãĤ° ãĥ«
ãĤ° ãĥ«ãĥ¼ãĥĹ
æľ Ń
Ġãģ© ãģ¡ãĤī
Ġãģ© ãĤĮãģłãģĳ
ãģ¯ãģĦ ãģıãģ¤ãģĭ
ãģĮå °ĳãģĹ
ãĥĹ ãĥªãĥ³
ãĥĩ ãĥľ
ãģ¯ç ¢ºãģĭ
ĠãģĬ ãĤĦ
ĠãģĬ ãģ°ãģĤ
ĠãģĵãĤĮ ä»¥ä¸Ĭ
Ġ1 6
ãģ¾ãģĹãģŁ ãģŃ
ĠåĲĽ ãģ¯å½¼
Ġé Ĥª
Ġé Ł³
æī ±
ãĥĳ ãĥ©
ãģĪãģ¦ ãģĦãģ¾ãģĻ
ãĤĴè ģ´
å¾ ³
å¾ ĵ
ãģ©ãģĨ æĦŁãģĺ
ãģ®é ¦¬é¹¿
ãĤĴæĮģ ãģ£ãģ¦ãĤĭãģ®
ãģ®è Ĭ±
ãģ®è ´ĪãĤĬçī©
ãģĿãģĨ ãģª
ãģĿãģĨ è¨Ģãģ£ãģŁ
ãģĿãģĨ ãģªãĤĭ
Ġå½¼ãģ¯ èĩªåĪĨ
Ġå½¼ãģ¯ ãģ©ãģĵãģ«ãģĦãĤĭ
æĸ ½
ãĤ³ ãĥ¼ãĤ¹
ãĤ³ ãĥŃãĥ³
ç§ģãģ¯ ãģĵãģ®
ãĥĸ ãĥ¬ãĤ¤ãĥ³
çĶ· ãģĮ
ãĥĲ ãĤ¤ãĤ¹
ãĥĥãĥĪ ãģĮ
ĠãģĿãģĨãģł ãĤĪ
ãĥģ ãĥĥãĥĹ
ãģłãģ£ãģŁ ãĤı
ãĥł ãģķãĤĵ
ãĤº ãĥł
ãĥĵ ãĥ¼ãĥ«
ãĥĵ ãĤ¯ãĤ¿ãĥ¼
ãĤµ ãĥ¼ãĥĪ
ãĤµ ãĥ³ãĥī
ãĤµ ãĤ¤ãĤ¯
ĠãģĿãĤĮãģ¯ ãģĤãģªãģŁãģĮ
éĽ ·
æĻĤ ä»£
ä¸Ĭ ãģ®
ä¸Ĭ ãģ«
ãģ¨æĢĿãģĨ ãĤĪ
Ġä»Ĭ ãģ¯å
Ġä»Ĭ ãģĻãģĲãģ«
Ġå½¼ãĤī ãģ¯å½¼å¥³
ãģĵãģ¨ãģĮãģ§ãģį ãĤĮãģ°
ãģĵãģ¨ãģĮãģ§ãģį ãĤĭãģ®
èĩª åĭķ
ãģĹãģ¾ãģĻ ãģĮ
ł´ å£Ĭ
ãĤĤãģĨ ä¸Ģ
ãĤĤãģĨ ä¸Ģäºº
Ġãģ§ãĤĤ ç§ģ
Ġãģ§ãĤĤ å½¼
Ġãģ§ãĤĤ ãĤĤãģĹ
Ġãģ§ãĤĤ ãģªãģľ
Ġãģ©ãģĨ ãģ§ãĤĤãģĦãģĦ
ãģ¨è¨Ģ ãģ£ãģ¦ãģĦãģ¾ãģĻ
ãģ¨è¨Ģ ãģ£ãģ¦ãģĦãģŁ
ãģ¨è¨Ģ ãģ£ãģ¦ãģıãĤĮ
æ°Ĺ ãĤĴãģ¤ãģĳãģ¦
è¡Įãģı ãģ®ãģĭ
è¡Įãģı ãģŀ
ãģ«ãģ¤ãģĦãģ¦ ãģ®
æĹ¥ ãģ«
ãĤĵãģ§ ãĤĭãģ®
ãģĹãģªãģĦ ãģłãĤįãģĨ
ãģ¨ãģĦãģĨ è¨Ģèĳī
åĩº ãģķãĤĮãģŁ
Ġãģªãģľ å½¼ãģ¯
Ġèª° ãģ§ãĤĤ
ãģĤãĤĬãģ¾ãģĽãĤĵ ãģ§ãģĹãģŁ
ãĤ¨ ãĥ¬ãĥ¼ãĥ³
ãģ®ãģ¯ éĽ£ãģĹãģĦ
ãģ«ãģªãĤĭ ãģª
ãĤĴåı °çĦ¡
ãĥĬ ãĤ¹
ãĤ¤ãĥ³ ãĥĩãĤ£
çĽ Ĭ
çĽ £è¦ĸ
çī© è³ĩ
éģķ æ³ķ
ç´ Ģ
å¼ ģèŃ·å£«
ãĥ¼ãĥī ãĤ³ãĤ¢
æ³ £
ãģ§ãĤĤ ãģĤãĤĭ
æĺ ¨æĹ¥
ãĤ± ãĥ«
ãĤ± ãĥ³ãĤ¸
åĲĽ ãģ¯æ
åĲĽ ãģ¯ç
å¤§ ä½¿
ãĤ¬ ãĤ¿
ãĤ» ãĥ«
Ġä¿º ãģ¯å
Ġä¿º ãģŁãģ¡
åŃĲ ãģ¯
ĠãģĤãģªãģŁãģĮ ä½ķãĤĴ
ãĤĴãģĻãĤĭ ãģ®ãģĭ
ãĤĴãģĻãĤĭ ãģĵãģ¨ãģĮãģ§ãģįãĤĭ
ä¸ĭ ãģ«
ãģ«è §£
ãģ®äºº ãģ¯
ãģ®äºº éĸĵ
ĠãĤ¢ ãĤ¤
ĠãĤ¢ ãĥĥãĥĹãĥ«
ĠãĤ¢ ãĥıãĥı
ãģķãģĽ ãģ¾ãģĻ
ä»ĸ ãģ«
ä»ĸ ãģ«ãĤĤ
ãĥĶ ãĥĥãĤ¯
ãĥĶ ãĤ¹ãĥĪ
¢º ä¿¡
ãĥľ ãĥ¼ãĥī
ãģªãģ® ãģ§
ãĥı ãĥ¯ãĥ¼ãĥī
ãģļ ãĤĮ
ãĤĦãģ£ãģ¦ ãģ¿
ãģĻãģ¹ãģ¦ ãģĮ
ãģ«ç ¥ŀ
ãģ«ç ¸Ľ
ĠãģĿãģĨãģĺãĤĥãģªãģĦ ãģ®
ãģĹãģŁãģĦ ãĤĵãģł
¿ħè¦ģ ãģªãģĦ
æĿ¥ ãģŁ
ãĥ¯ ãĤ¤ãĥĪ
ľ° çįĦ
ãģ¹ãģį ãģ§ãģ¯ãģªãģĦ
è¨ĢãģĨ ãĤĵãģł
Ġç§ģãģ¯ãģĤãģªãģŁ ãĤĴè¨±
å½¼ãģ¯ ãģĿãĤĮ
è¦ļ ãĤģ
ãģ®ãĤĪ ãģŃ
è¨Ģãģ£ãģŁ ãĤĪãģĨãģ«
Ġå½¼å¥³ãģ¯ ãģĤãģªãģŁ
Ġå½¼å¥³ãģ¯ ãģ¨ãģ¦ãĤĤ
Ġå½¼å¥³ãģ¯ ãģ©ãģĵãģł
Ġãĥī ãĥ©
Ġå¤ ķé£Ł
ãģ¤ãĤĤãĤĬ ãģłãģ£ãģŁ
ãģķãĤĮãģŁ ãģ®
èī¯ ãģıãģªãģĦ
ãĤĴæ®º ãģĹ
ãĤĴæ®º ãģĹãģŁãģ®
ãģķãĤĮãģ¦ ãģªãģĦ
ĠãĤ¹ ãĥĨ
ĠãĤ¹ ãĥĨãĤ£
ĠãĤ¹ ãĤ¿ãĥ³
ãĥİ ãĥ«ãĤº
ãģ£ãģ¦ãģŁ ãģ®
çļĦãģª ãĤĤãģ®ãģ§ãģĻ
ãģ¾ãģ§ ãģ«
ãģ«ãģĻãĤĭ ãģĵãģ¨ãģ¯ãģ§ãģįãģªãģĦ
éģĭ åĭķ
ãģ¨ä¸Ģç·Ĵ ãģ«è¡Įãģı
ãģ®å¤ ī
å¹´ ä¸Ĭ
Ġãĥĩ ãĥ©
ãģ¨ãģ¯ è¨ĢãģĪ
ãģ¨ãģ¯ è¨ĢãĤıãģªãģĭãģ£ãģŁ
æĽ ²
ãĤĴè¦ĭãģ¤ãģĳ ãģŁãģ®
åĭķ ãģį
ãģĤãģªãģŁãģ¯ ãģĿãĤĮ
éĸ¢ ä¸İ
ãģ«ä¼ļ ãģĪãģ¦
Ġãĥĳ ãĥ¼ãĥĨãĤ£ãĥ¼
ĠåĪĨ ãģ§
ĠåĪĨ ãĤĭãģĭ
é£Ł æĸĻ
çĪ¶ è¦ª
çĪ¶ æ§ĺ
ĦŁ è¦ļ
ãĤıãģªãģĦ ãģ¨
çĽ® ãģĮè¦ļ
ãĤ¸ãĤ§ ãĥĥãĥĪ
ãģ¨è¨Ģãģ£ãģŁ ãģłãĤįãģĨ
ãĤ© ãĥ¼ãĥī
ãģ«è¡Įãģı ãģĵãģ¨
ãģ®äºĭ æķħ
ĠãĥĢ ãĥ¼ãĤ¯
èĢĥãģĪ ãģŁ
ãģ®åĲį èªī
ĠãģĤãģªãģŁãģ¯ç§ģ ãģ®
ĠãĤª ãĤªãĤ«ãĥŁ
ãĥªãĥ³ ãĤ¯
ãģĹãģŁãģ® ãģŃ
ãĤĴå¤ ¢
ãĤĴå¤ ±ãģĦ
«ĭ åł´
è² §
Ġå¹´ çĶŁ
ä¸İ ãģĪãĤĭ
ĠãĥŃ ãĤ¸ãĥ£ãĥ¼
ĠãĥŃ ãĥ³ãĥīãĥ³
ãģĬéĩĳ ãģĮ
ãĤĢ ãģ®
ãĤĢ ãģĵãģ¨
æĿ ±
æĿ ¡ä»¶
è¾ ²åł´
Ġãĥª ãĥĩãĤ£ãĤ¢
Ġå½¼ãģ¯å ®
Ġå½¼ãģ¯å ħ
ä¸Ģåº¦ ãģłãģĳ
ãģ®è©± ãģł
ĠãĤ¨ ãĥ¬ãĥ¼ãĥ³
ãĤĴèģŀ ãģĦãģ¦ãģıãĤĮ
ãģĿãģĨãģł ãģª
èĪ ¬
Ġãģ¨ ãģĦãģĨ
èī¯ãģĦ ãģĵãģ¨ãģł
Ġåı £
ãģ®æĸ ĩ
ãĥ¼ãĤº ãĥĩãĥ¼ãĥ«
ãģĵãģ® éĩİéĥİ
ãĤĴãģĹãģ¦ ãĤĤ
ãģ«æĪ» ãĤĬãģ¾ãģĻ
Ġå® Įåħ¨ãģ«
ĠãģĿãĤĮãģĮ ä½ķ
ãĤ·ãĥ£ ãĥ³
ãĤ·ãĥ£ ãĥĦ
ãģĮå¿ħè¦ģ ãĤĪ
ĠãĤ· ãĥ§
ãģĮãģªãģĦ ãĤĵãģł
ãģĮæľ ¬å½ĵ
ãģ¨ãģĵãĤį ãģ§
ãĤ² ãĥ³
ãĥ¼ãĥĹ ãĥ³
ãĤ¢ãĥ³ ãĥĲãĥ¼
ç§ģãģ« è©±
ĠãĤ« ãĥ¼ãĥī
ãģĵãģĵãģ§ ä½ķãĤĴ
Ġçµ Ĳ
å· ±
ãģ«å½¼ ãģ¯
æĸ¹æ³ķ ãĤĴçŁ¥ãģ£ãģ¦ãĤĭ
ãģłãģ¨æĢĿãģĨ ãģĭ
ĠãĥĲ ãĥ³
ĠãĥĲ ãĤ¹
ç¥ŀ æ§ĺ
ãĥ¤ ãĤ¤ãĥ³
ĠçŁ¥ãģ£ãģ¦ãĤĭ ãģ®
ãģĮå¥½ãģį ãģªãģ®
ãģĹãģ¦ãģĦãģŁ ãģ®ãģĭ
ĠãĥĨ ãĤ¹ãĥĪ
ĠãĥĨ ãĥ¬ãĥĵ
ãģ®ãģĵãģ¨ãĤĴ èĢĥãģĪ
ãģ®ãģĵãģ¨ãĤĴ èĢĥãģĪãģ¦
è¨± ãģĹãģ¦
ãĤŃãĥ£ ãĥķãĥªãĥ¼
ãĤĴåĲ ¦å®ļ
éĽ¢ ãĤĮãģ¦
ãģ®å®¶ ãģ§
ĠãģĿãĤĮãģ¯å ®
Ġãĥĸ ãĥŃ
Ġãĥľ ãĤ¹
ä»ĺ ãģĳãĤĭ
ãĤ³ãĥ³ ãĤµãĥ¼ãĥĪ
Ľ¸ é¡ŀ
Ġç§ģãģ« ãģ¨ãģ£ãģ¦
ĠãģĬåīį ãģ¯å
ãģ®æĸ¹ åĲĳ
Ġç´ Ħ
Ġãĥĵ ãĥ«
ãģ®éĥ¨ ç½²
èŃ° ä¼ļ
è¡Įãģĭ ãģªãģĭãģ£ãģŁ
ãĤĴæĢ Ĵ
ĠãĤ¸ãĥ§ ãĤ¨ãĥ«
ãģ«å¯¾ åĩ¦
ãĥĥãĥģ ãĤ§
ĠãģĤãģªãģŁãģ® ãģĬ
ãģ®éł ĺ
é¨ Ĵ
åľ §
æĤª ãģª
ãĤĴæİ¢ ãģĹãģ¦ãĤĭãģ®
æ¸ Ī
ãĤĴæįķãģ¾ ãģĪ
ĠæĻĤ ãģ«
èª¿ ãģ¹ãģ¦
Ġãģĭ æľĪ
ĠãĥĽ ãĥĨãĥ«
ĠãĥŁ ãĤ¹ãĤ¿ãĥ¼
è¾¼ ãģ¾
è¾¼ ãĤģ
è¾¼ ãĤĵãģł
è¾¼ ãģ¿
ãģĿãģĵãģ« è¡Įãģı
èª¬ å¾Ĺ
ĠãģĵãĤĮãĤī ãģ®
é«ĺ ãģı
ĠãģıãģĿ ãĥ¼
¾© è®Ĳ
Ġãĥĭ ãĥ¥ãĥ¼ãĥĪ
ãģĭçŁ¥ãģ£ãģ¦ãĤĭ ãģĭ
ãģĭçŁ¥ãģ£ãģ¦ãĤĭ ãģ®ãģĭ
ãģ¯å¤ ©
Ġä½ķãĤĴ ãģĹãģ¦ãĤĭãĤĵãģł
æĨ İ
ä½ı æīĢ
ãĤīãĤĮ ãģ¾ãģĻ
Ġä»Ĭå¤ľ ãģł
ç½ª ãĤĴçĬ¯
ĠåĨ ĻçľŁ
ãģ«åı ĸ
ãģ«åı įå¯¾
ĠãģĵãĤĵ ãģ°ãĤĵ
ĠæĢ ¥ãģĦ
æ¥ µ
ãĥķãĤ§ ãĤ¢
ãĥķãĤ§ ãĥ©ãĥ¼ãĥª
ãĥĹãĥŃ ãĤ»ãĤ¹
èĩ ŃãģĦ
ãģ«ãģ¨ãģ£ãģ¦ ãĤĤ
ī² ãĤĬå½ĵãģ¦
¥ãģĦ çĶ·
ãģ®ãĤ¢ ãĤ¤
è©¦ åĲĪ
å¼µ ãĤĮ
Ġå®Ł ãģ¯
ç¶ļ ãģĳ
ãģ®åį µ
ãģ®åį ĺèªŀ
ãĤ¼ ãĥ«ãĤ¹
Ġä»ĬæĹ¥ ãģ¯
ãĤĴæĬ ±
ãĤĪãģĨãģª ãĤĤãģ®ãģ§ãģĻ
Ġç§ģãģ¯ç Ĺħæ°Ĺ
Ġãģĵãģĵãģ« ãģĤãĤĭ
ãģĿãĤĮãģĮ ä½ķ
Ġãģ©ãģĵ ãģ§
æĻ© ä¸Ń
ãĤĴæľĽ ãĤĵãģ§ãģĦãĤĭ
Ġãģ¯ ãģģ
ĠéĢ±éĸĵ åīį
è¨Ń è¨Ī
ãģªãģĵãģ¨ ãģĺãĤĥãģªãģĦ
Ġãĥĺ ãĥ¬ãĥ³
Ġãĥĺ ãĥ³ãĥªãĥ¼
ãĤĴæĽ¸ ãģĦãģŁ
èªŃ ãĤĵãģł
Ġä½ķãģĮãģĤãģ£ãģŁ ãĤĵãģł
ãĤĴè¦ĭãģ¤ãģĳãģŁ ãĤī
ĠæĺİæĹ¥ ãģ®å¤ľ
ãĤĴæ°Ĺ ãģ«
ãĤĴæıĲ æ¡Ī
å¼· ãģı
ä¾¡åĢ¤ ãģ®ãģĤãĤĭ
ĭĿ ãģ¡
ĭĿ ãģ¤
éĢ² ãģĻãĤĭ
éĢ² æŃ©
ãĥ¥ãĥ¼ ãĤ¿
æķĻ ä¼ļ
æķĻ å¾Ĵ
ãģ«ä¹Ĺ ãĤĮ
ãĤĴçµ Įåĸ¶
Ġæ¬¡ ãģ«
éĸī éİĸ
æķĻãģĪãģ¦ãģıãĤĮ ãģªãģĦãģĭ
ãĥ¼ãĥĲ ãĥ¼ãĥī
ĠãģĤãĤĭ æĹ¥
ãģ¯çĦ¡ çĲĨãģł
è¦ªåĪĩ ãģª
ãĤĴæķĻãģĪãģ¦ãģıãĤĮ ãģŁ
ãĤĴæķĻãģĪãģ¦ãģıãĤĮ ãĤĭ
ãĤĴéĸĭ å§ĭ
è¼ Ŀ
èħ ķ
ãģ®ä¸ĭ ãģ«
ĠåŃĲä¾Ľ ãģŁãģ¡
ãĤ¯ãĥª ãĥķ
ãĤ¯ãĥª ãĥ¼ãĥł
ãĤĴè¦ĭãģ¤ãģĳãĤĭ ãģŁãĤģãģ«
ãĤĴè¿½ è·¡
ĠãģĿãģĵ ãģ§
ãĥ¼ãĥŃ ãĥ¼
ãĥĪãĥ¬ ãĥĥãĥī
å©¦ äºº
ĠS i
ãĤĭãģ¤ãĤĤãĤĬ ãģł
Ġãģ§ãģį ãģªãģĦ
±ļ ãĤĮ
ãģĭãĤı ãģĦ
ãĤ¯ãĥŃ ãĥ¯
ãģĮæľĢ å¾Į
ãģªãģĦãģ§ ãģıãĤĮ
ãģªãģĦãģ§ ãģıãģłãģķãģĦ
ãģ¯çµ ĤãĤıãĤĬãģł
çķĻ ãģ¾ãĤĭ
ĠãĥķãĤ¡ ãĥĥãĤ¯
Ġå¾Į ãĤį
éģĬ ãģ³
å°ı ãģķãģĦ
ºĢ æľĪ
å¬īãģĹãģĦ ãģ§ãģĻ
å¬īãģĹãģĦ ãĤı
Ġä½ķãģĮ çŁ¥ãĤĬãģŁãģĦ
ãģ®ãĥĵ ãĥ¼ãĥĪ
æĸ° èģŀ
Ġç¢ºãģĭãģ« ãģĿãģĨãģł
å§ ¿
å§ īå¦¹
ãģ¯åį ±éĻº
ãģĹãģŁãģĵãģ¨ ãģĺãĤĥãģªãģĦ
Ġéķ· ãģı
ãĤĴæıĲä¾Ľ ãģĻãĤĭ
çĪĨ çĻº
ãģ¯æĢĿ ãĤıãģªãģĦ
ãĤĵãģĺãĤĥãģªãģĦ ãģ®
ãĤĴå«Į ãģ£ãģ¦ãĤĭ
ãģ¡ãĤī ãģ¯
çĶ³ãģĹè¨³ ãģªãģĦ
ãģ®è¨ĢãģĨ éĢļãĤĬãģł
ãĤĴæĶ¾ ãģ£ãģ¦ãģĬ
ĠæĤª æ°Ĺãģ¯ãģªãģĦ
ãģ«æĦŁè¬Ŀ ãģĹãģ¾ãģĻ
åı¯èĥ½æĢ§ ãģĮãģĤãĤĭ
ĠåĨĹè«ĩ ãģłãĤį
æĤ £èĢħ
ãģ«ç½® ãģı
Ġä¸Ģäºº ãģ§
æĽľæĹ¥ ãģ«
±ħ åł´æīĢ
æ¶Ī éĺ²
ç§ĳ åŃ¦
Ġåķıé¡Į ãģĤãĤĬãģ¾ãģĽãĤĵ
ãĥ³ãĥĹ ãĤ½ãĥ³
Ġãĥ´ ãĤ§
ãģ¯åĪĨ ãģĭãĤīãģªãģĦ
ãĤ¾ ãĥ³
ãĤĤãĤī ãģĨ
ãĤĤãĤī ãģĦãģŁãģĦ
ãĤ¹ãĥĳ ãĤ¤
ãģĮåı ĸ
ãĤŃãĥ¥ ãĥªãĥ¼
åįģåĪĨ ãģª
Ġå¤ĸ ãģ«åĩº
ãģ«ä¼ļãģĦ ãģ«æĿ¥ãģŁ
!! !
¤ľ ç´¢
ãĥ¼ãĥĭ ãĥ³ãĤ°
ãĥĲãĤ¹ ãĥģãĥ£ãĥ³
Ġå¥´ãĤī ãģ¯
ãĥŁãĥ¥ ãĥ©ãĥ¼
ç´ł æķµãģª
åĢĻ è£ľ
èĪĪåĳ³ æ·±ãģĦ
æ¬² ãģĹãģĭãģ£ãģŁ
èĲ½ ãģ¨
ãĤ¯ãĥ¬ ãĥ¡ãĥ³ãĤ¿ãĤ¤ãĥ³
è¡Ľ æĺŁ
ãģ®çī© èªŀ
Ġãģ¾ãģļ ç¬¬
ĠãĤıãģĭãģ£ãģŁ ãĤĪ
Ġæľ¬æ°Ĺ ãģłãĤĪ
éĿŀå¸¸ ãģ«
Ĭł çī²
ãģ®å¼ Ł
Ġæ¯į ãģķãĤĵ
ãĤıãĤĮ ãģ¾ãģĻ
çĻ¾ ä¸ĩ
ãĤĴæīĭä¼Ŀ ãģ£ãģ¦ãģıãĤĮ
¿ł èªł
è§ Ĵ
ĠåĲį åīįãģ¯
ãĤĴåŃ¦ ãģ¶
ãĤĴåŃ¦ ãģ³
ãĤ¿ãĥ« ãĥĵãĥ¼
åĪĨãģĭ ãĤĭãģĭ
ãĤĴç¤º ãģĻ
ãģ®èĩª çĶ±
éĽ» æ°Ĺ
é³ ¥
Ġè¨Ģãģ£ãģŁ ãĤĪãģĨãģ«
ãĤĴæģĲ ãĤĮãģ¦
ãĤĴæģĲ ãĤĮãģ¦ãģĦãĤĭ
ãĥīãĥ© ãĥķãĥĪ
ãĤ«ãĥ« ãĥĵãĥ³
è²´ éĩį
è²´ æĹı
ãģ®çĬ¶ æħĭ
¥² ãĤıãĤĮãģŁ
ĠãģĬãĤĦãģĻ ãģĬ
Ġ19 6
èģĸ ãģª
ãģĮèī¯ ãģĭãģ£ãģŁ
Ġåĳ ½
çŁ¥ãĤĬ ãģŁãģĮ
ãģ«æĬ ķãģĴ
ãģ«æĬ ¼ãģĹ
ãģĵãģ¨ãĤĴé¡ĺ ãģ£ãģ¦ãģĦãģ¾ãģĻ
çµĲæ§ĭ ãģ§ãģĻ
ãĤ¹ãĥĪãĥ© ãĥĥãĤµãĥ¼
Ġåı¯æĦĽãģĦ ãĤıãģŃ
Ġå®¶ãģ«å¸° ãĤĮ
ãģ®ãĥģãĥ£ ãĥ³ãĤ¹
ãģ«åĲĳãģĭ ãģ£ãģ¦ãģĦãĤĭ
ĠåĮ Ĺ
ãĤ¹ãĤŃ ãĥĥãĥĳãĥ¼
ãģ®æ°Ĺ æĮģãģ¡
ĠãĤıãģĭãĤīãģªãģĦ ãĤı
¦ģ æŃ¢
å» ¶
æĢĿãģĦ åĩº
éĢĶ ä¸Ńãģ§
Ġè¥¿ åģ´
ãĥ»ãĥ»ãĥ»ãĥ» ãĥ»ãĥ»ãĥ»ãĥ»
Ġä½ķãĤĴè¨Ģ ãģ£ãģ¦ãĤĭãģ®ãģĭãĤıãģĭãĤīãģªãģĦ
ļĹ éĹĩ
èªł å®Ł
ãģ©ãģ¡ãĤī ãĤĤ
ãģ®è¾ ²åł´
ĠãģĭãĤıãģĦãģĿãģĨ ãģ«
æ¿ Ģ
Ġè³ ¢ãģĦ
ĠãĤ¦ãĤ§ ãĤ¤ãĥī
ãģ®æī Ģ
ãģ®ç¾© åĭĻ
ãĤ¤ãĥ³ãĤ¿ ãĥĵãĥ¥ãĥ¼
åĬ¹ æŀľ
ļĸ ãģĭãģĦ
ĠãĤµãĤ¤ ãĥ¢ãĥ³
ãģ«åĢ¤ ãģĻãĤĭ
ĩ¸ å¿µ
ãģĨãĤĮ ãģĹãģĦ
ãĤĴåĢ ŁãĤĬ
ãĤ¤ãĥ¯ ãĤ¤ãĥ¤ãĥ¼
ĠãģĿãĤĮãģ«ãģ¤ãģĦãģ¦ãģ¯ è©±ãģĹãģŁãģıãģªãģĦ
ãģĮæ¬² ãģĹãģĭãģ£ãģŁ
ãĤĴèĲ½ ãģ¨
Ġç¥ŀãģ«æĦŁè¬Ŀ ãģł
£²æĺ¥ å©¦
ĠæĢĿãģĦ åĩº
åł±åĳĬ æĽ¸
è¸ ª
ãģ¯ãģĭ ãģĭãĤĬãģ¾ãģĽãĤĵ
ãģ¨ä»ĺãģį åĲĪ
ãĥĥãĤ± ãĥ¼ãĤ¸
ãĤĴæµ´ ãģ³
©ļç´Ħ èĢħ
ãĤ·ãĥ£ãĥ¯ãĥ¼ ãĤĴæµ´ãģ³
ĠãĤ·ãĥ¼ãĥ ĥ
ĠãĥĻãĥ« ãĥªãĥ³
Łºæľ¬ çļĦãģª
±ĭ æł¹
ĠãĤĨ ãģ£ãģıãĤĬ
ãĥŃãĤµãĥ³ ãĤ¼ãĥ«ãĤ¹
ä¼ģ æ¥Ń
ãĤĴèµ· ãģĵ
ãĤ¹ãĤ³ãĥĥãĥĪ ãĥ©ãĥ³ãĥī
ãĥīãĥ¢ãĤ¢ ãĤ¼ãĥ«
ãĤ·ãĤ¹ãĤ¿ ãĥ³ãĥĪ
2 2
> </
A C
A LL
B ALL
M BALL
S T
e d
e n
e s
g g
o m
o p
£ ¨
£ ãĤī
¥ ãģķãĤĵ
¥ èĢħ
§ Ĵ
¨ İ
ª å¯©
« ¦
¬ æĦı
® ®
® éĿĻ
² ©
² Ī
² åĲį
³ ãĤĭ
´ ©
´ æĹı
· åķı
¸ ĩ
¹ ĭãģĮ
º Ń
º »èĸ¬
» ãĤĦ
¼ åħ¥
½ ²åĲį
¾ åĲĳ
¿ «
¿ Į
¿ į
å ĩ
å İ³
å ³¶
æ ¦
æ Ĺħ
æ §ĭ
æ ¤ľ
æ ¤į
ç Ī
ç ŃĶ
ç ²¾
è Ĩ
è Ķ
è Ĳ½ãģ¡çĿĢ
è ¤ĩéĽĳ
é ¼»
é ī±
é ®®
Ġ Y
Ġ b
Ġ f
Ġ â
Ġ è¨ĢãģĨ
Ġ ä¹Ĺ
Ġ éĢļãĤĬ
Ġ èĢ³
Ġ ä¼ĳæĨ©
Ġ éĸĭãģĳ
Ġ ä½¿çĶ¨
Ģ Ĵ
ģ ĸ
ĥ ½
ħ éļľ
ħ Ļèįī
Ī Ĵ
ī å¤§
Ĭ åŃĲ
Ĭ éĩį
ĭ ©
Į ħ
Į äºĨ
į å¾Ĺ
İ ãģĪ
İ ĥéĻ¤
ı ĭäºº
Ĳ å¾ħ
ĳ ãģĦ
Ķ ¹
Ķ ãĤīãģĭ
ĸ °
ĸ åĩº
Ĺ ©
Ļ çĲĨ
Ľ ĩ
Ŀ ¡
Ŀ ±
ŀ Ń
ł çī²
ãģĦ ãģĮ
ãģĦ ãģªãģĳãĤĮãģ°
ãģ® ãĥ¬
ãģ® ãģĵãģ¨ãģĮ
ãģ® éĢļãĤĬ
ãģ® è¨ĪçĶ»
ãģ® ãģ»ãģ¨ãĤĵãģ©
ãģ® ãĥªãĤ¹ãĥĪ
ãģ® ä¾¡åĢ¤
ãģ® ä¼ļèŃ°
ãģ¯ äºº
ãģ¯ ãĥ¬
ãģ¯ ãģĿãĤĮãĤĴ
ãģ¯ ãĤĪãģı
ãģ¯ ãģ»ãģ¨ãĤĵãģ©
ãģ¯ ãģ§ãģįãģ¦
ãģ¯ ãģ©ãģĵãģ«ãģĤãĤĭ
ãģª ãģªãģĦ
ãģŁ ãģĭ
ãģŁ æĻĤ
ãģ¦ ãģªãģĦ
ãģ¦ å¬īãģĹãģĦãĤĪ
ãģ« ãģĦãģªãģĦ
ãģ« ãģŁãģĦ
ãģ« è¨ĢãģĨ
ãģ« éĬĥ
ãģ« èª¬æĺİ
ãģ« ä¼¼
ãĤĴ è¨Ģãģ£ãģŁ
ãĤĴ ä¹Ĺ
ãĤĴ ãģĦãģıãģ¤ãģĭ
ãĤĴ èĢĥãģĪãĤĭ
ãĤĴ è©°
ãĤĴ ãĤ«ãĥĲãĥ¼
ãĤĴ éĿŀéĽ£
ãĤĴ éĢ£ãĤĮ
ãĤĴ ãĤĪãģĵãģĽ
ãĤĭ ãģĦ
ãĤĭ æĻĤ
ãĤĭ ãģŀ
ãĤĭ æĸ¹æ³ķ
ãģĹ ãĤĤ
ãģĹ ãĤģ
ãģĹ ãģıãģª
ãģĹ ãģªãģĳãĤĮãģ°ãģªãĤīãģªãģĭãģ£ãģŁ
ãĢĤ ãĢį
ãģĭ ãģĻ
ãģĭ ãĤĮãģ¦
ãģ¨ ãģ®
ãģ¨ ãģĻãĤĭ
ãģ¨ ãģªãĤĭ
ãģ¨ ãĤŃãĥ£
ãģĮ è¡Įãģı
ãģĮ ãģ¨ãģ¦ãĤĤ
ãģĮ å®¶
ãģĮ èī¯ãģĦ
ãģĮ ãģĵãģ®
ãģĮ ãĤıãģĭ
ãģĮ é«ĺãģĦ
ãģł ãģŃ
ãģł ãģŀ
ãģł ãģ¨ãģĹãģ¦ãĤĤ
ãģ§ ãģ¯æ
ãģ§ åĲĽ
ãģ§ å½¼ãĤī
ãģ§ ãģĿãĤĮãĤĴ
ãģ§ æľīåĲį
ãģĻ ãģ°
ç§ģ ãģ®ãģŁãĤģãģ«
ç§ģ ãģ®ä»ķäºĭ
ç§ģ ãģ®äººçĶŁ
ç§ģ ãģ®çĪ¶
ç§ģ ãģ®åıĭäºº
ãģĨ ãĤĪ
ãģĵ ãĤĵ
ãģĵ ãģ®ç
ãģĵ ãģĨãģ¨
ãģĵ ãģ®å°ĳå¥³
Ġå ĸ
Ġå §ĭ
Ġå £°
Ġå ¦¹
ãģ¾ ãģķ
ãģ¾ ãģ¿
ãģ¾ ãģ¨ãĤĤ
ãĤī ãĤĮãģ¦ãģĦãģŁ
ãĥ³ ãĥĲ
ãĥ³ ãĤŃ
ãĥ³ ãĤŃãĥ¼
ãĥ³ ãĥĢãĥ¼
Ġç§ģ ãĤĴå
Ġç§ģ ãģ®æģ¯åŃĲ
Ġç§ģ ãģ®æ¯į
ãģı ãģĻ
ãģĹãģ¦ ãĤĤãģĦãģĦ
ãģĹãģ¦ ãģĦãģªãģĭãģ£ãģŁ
ĠãģĿ ãģ®æĻĤ
ãĤ¹ ãĥŃãĥ¼ãĥ³
ãģĵãģ¨ ãģ§
ãģĵãģ¨ ãģķãģĪ
ãĥ¼ãĥ Ľ
ãģį ãĤī
ãĥĥ ãĤº
ä½ķ ãģĮãģ§ãģįãĤĭ
ãĤĴæ Ķ¯æīķ
ãĤĴæ Ń©
ãĤĴæ Ķ¯éħį
ãģ®å ¸
ãģ®å Ĭ
ãģ®å ¥½
ãģ®å ł±
ãģ®å Ń¦æł¡
ĠãģĤ ãģ®å¥³
ãģ¯å ħ¨
ãģ¯å ħ¨éĥ¨
Ġå½¼ ãģ¯ãģĦãģ¤ãĤĤ
Ġå½¼ ãģ¨è©±
Ġå½¼ ãģ¯æľĢ
Ġå½¼ ãģ¯æŃ»ãĤĵãģł
ãģĹãģŁ ãģĵãģ¨ãĤĴ
ãģĹãģŁ ãģĵãģ¨ãģĮãģªãģĦ
ãģĹãģŁ ãģıãģªãģĭãģ£ãģŁ
ãģķ ãģ¾
Ġæ Ī»ãģ£ãģ¦
Ġæ Įĩ
Ġæ ĦŁè¬Ŀ
Ġæ ģĭ
Ġæ Ń¦è£ħ
Ġæ ģ¥ãģļãģĭãģĹãģĦ
ãĤ¯ ãĥĪãĥ«
ãĤĴå ģ
ãĤĴå ĳ
ãĤĴå İ»
ãĤĴå ¼¾
ãĤ¤ ãĤ«
ãĤ¤ ãĤ¿ãĥªãĤ¢
ãĤı ãģĸ
ãĤı ãĤĮãģ¦ãģĦãģ¾ãģĻ
ãĤı ãģĭãĤīãģªãģĭãģ£ãģŁ
ãģĪ ãģªãģĭãģ£ãģŁ
äºº ãģ®
äºº ãģ§
ãĥĪ ãĥ©ãĥ³
ãĥĪ ãĥªãĥĥãĥĹ
Ġç§ģãģ¯ ä»ķäºĭ
Ġç§ģãģ¯ ãģĿãģĨãģł
Ġç§ģãģ¯ èª°ãĤĤ
Ġç§ģãģ¯ è»Ĭ
Ġç§ģãģ¯ ãģĤãģ¾ãĤĬ
Ġç§ģãģ¯ æľ¬
Ġç§ģãģ¯ ãģļãģ£ãģ¨
Ġç§ģãģ¯ ãģĦãģıãģ¤ãģĭ
Ġç§ģãģ¯ æľ¬å½ĵãģ«
Ġç§ģãģ¯ ä»ĬæĹ¥
è¨ Ĺ
Ġ! !!
ãģ¡ ä¸ĬãģĴ
ãģ¡ å¯Ħ
ãģĻãĤĭ äºº
ãģĻãĤĭ ãĤĪãģĨãģ«
ãģĻãĤĭ æĻĤ
ãģĻãĤĭ ãģĵãģ¨ãģ¯
ãģĻãĤĭ ãģ®ãĤĪ
ãģĻãĤĭ æĻĤéĸĵ
ãĥ« ãģ¨
ãĥ« ãĥ³
ãģ¤ ãģ¾ãĤĬ
ãģĤãģªãģŁ ãģ¯ç§ģãģĮ
ãģĤãģªãģŁ ãģ¯ç§ģãģŁãģ¡
ãĥª ãĥł
ãĥª ãĤ¶
ãĥª ãĥĪãĥ«
ãĥª ãĥ´ãĤ£
ĠãģĿãĤĮ ä»¥ä¸Ĭ
ĠãģĿãĤĮ ä»¥å¤ĸ
ĠãģĿãĤĮ ãģĮçľŁå®Ł
ĠãģĤãģªãģŁ ãģ«
ĠãģĤãģªãģŁ ãģ®ä»ķäºĭ
ĠãģĤãģªãģŁ ãģ®ãĤĪãģĨãģª
ĠãģĤãģªãģŁ éģĶãģ¯
ãĤģ ãĤīãĤĮãģªãģĦ
ãģ«å ±
ãģ«å Ĥ
ãģ«å °ĳãģĹ
ãģ«å £²
èª Į
èª ĺ
ãĥ© ãĥ«
Ġãģĵ ãģ®é£Ľè¡Įæ©Ł
ãģ®æ ¨©
ãģ®æ µ·
ãģ®æ ³ķ
ãģ®æ Ķ»æĴĥ
ãģ®æ Ľ¸é¡ŀ
ãģĭãĤī éĽ»è©±
ãģĭãĤī å¤ĸ
æĢĿ ãģ£ãģ¦ãĤĭ
è¨Ģ ãģ£ãģ¦ãĤĭãģ®
è¦ĭ ãģĪãģ¾ãģĻ
ãģ¯æ ķ°
è¡Į ãģįãģ¾ãģĻ
ãģĤãĤĭ ãģĭ
ãĤ¢ ãĤ¯
ãĤ¢ ãĥª
ãĤ¢ ãĥªãĤ¹
ãģĿãĤĮ ãģĮç§ģ
ãģĿãĤĮ ãģłãģĳãģ§ãģĻ
ãĥī ãĥ¬ãĤ¹
ãĥī ãĥ¯ãĥ¼ãĥī
ãĥī ãĥ©ãĤ¤ãĥĸ
ãĤĪãģĨ ãģ«æ
ãĤĪãģĨ ãģłãģª
å¤ ª
Ġç ¾İ
Ġç ¬ĳ
Ġç ĩĥ
Ġç ĸ²
Ġç ĲĨçĶ±
Ġç ¶ļãģĳ
Ġä½ķ ãģ®ãģŁãĤģãģ«
Ġä½ķ ãģ§ãĤĤ
ãĤĦ ãĤĬãģ¾ãģĻ
ãĤĦ ãĤģãģŁ
ä¸Ģ èĩ´
ãģ«æ Ĥª
ãģ«æ ĦĽ
ãģ«æ ¶Ī
ãģ«æ ¨ª
ãģ«æ Ń©
ãģ¨æĢĿ ãĤıãģªãģĦ
ãģĬ ãģį
ãģĦãģ¦ ãĤĤ
éĢ Ļ
ãĥ¬ ãĤ°
ãĥ¬ ãĥĻ
ãĥ¬ ãĤ¯ãĤ·ãĥ§ãĥ³
ãĥĥãĤ¯ ãĤĴ
ãĥŃ ãĥĭ
ãĥŃ ãĥ¼ãĤº
ãĥŃ ãĤ¤ãĥī
ãĥŃ ãĥ¬ãĥĥãĤ¿
äºĭ ãģĮ
äºĭ ãĤĴãģĹãģŁ
äºĭ åĭĻæīĢ
ãĤ¸ ãĥł
ãĥķ ãĥĥãĤ¯
ãĥķ ãĥ©ãĤ¤
è©± ãģł
ãģ«ãģ¯ ä½ķãģĭ
ãģ«ãģ¯ ãģªãĤĬ
ãģ«ãģ¯ è¦ĭãģĪãģªãģĦ
ãģ®ç ļĨ
ãģ®ç łĶç©¶
ãģ®ç ĹĽãģ¿
ãģĮæ ĺ
ãģĮæ ®ĭ
ãģĮæ įķãģ¾
ãĤĵãģł ãģ®ãģĭ
ãģ¯ç§ģ ãģ®
ãģ¯ç§ģ ãĤĴ
ãģ¯ç§ģ ãģ«ãģ¯
Ġè ¾
Ġè Ļ
Ġè ±ļ
Ġè ħ¹
ãģ®ãĥ ´
ãģ° ãģĭ
ãĤĴç ĸĳ
ãĤĴç łĶç©¶
ãģĮãģĤãĤĭ ãģ¨æĢĿãģĨ
ãĤ« ãĥĩ
ãĤĴè¦ĭ ãģ¦ãģıãĤĮ
ãĤĴè¦ĭ ãģ«è¡Įãģı
ãĤĴè¦ĭ ãģªãģķãģĦ
ãĤĴè¦ĭ ãĤĭãģĵãģ¨ãģĮãģ§ãģįãĤĭ
ãĤ° ãĥĥãĥī
ãģ¯ãģĦ ãĤīãģªãģĦ
ãģĮå Ĳ
ãĥŀ ãĤ°
ãĥĹ ãĥĪ
ãĥĹ ãĥª
ãĥĹ ãĤ·ãĥ§ãĥ³
ãĥĹ ãĥ¬ãĤ¹
ãĥĹ ãĥ¬ãĥ¼
ãĥĩ ãĥ¼
ãĥĩ ãĥ©
ãĥĩ ãĤª
ãģ¯ç ´
ãģ¯ç °¡åįĺ
ĠãģĬ ãģĿãĤīãģı
ĠãģĬ èħ¹
ĠãģĵãĤĮ ãģ§ãģĻ
ãģłãģĳ ãģ§ãģ¯ãģªãģĦ
ãģłãģĳ ãģ¾ãģĻãģĭ
ãģĵãģ¨ãģĮ ãģŁãģıãģķãĤĵãģĤãĤĭ
ĠåĲĽ ãģ®å
Ġé ¦¬
Ġé ¡Ķ
ãĥĳ ãĥ¼
ãģĪãģ¦ ãģıãģłãģķãģĦ
ãĤĴè ī¯
ãĤĴè º«
ãĤĴè ¥²
ãĤĴè «¦
å¾ ģ
ãģĹãģ¦ãģĦãĤĭ ãģĮ
ãģĹãģ¦ãģĦãĤĭ ãģĵãģ¨ãĤĴ
ãģĹãģ¦ãģĦãĤĭ ãģ¨æĢĿãģĨ
ãģ©ãģĨ ãģŀ
ãģ©ãģĨ ãģĻãĤĮãģ°
ãģ®é ¢¨
ãģ®é §ħ
ãģ®è ¿
ãģ®è ¿ĳ
ãģ®è §Ĵ
Ġå½¼ãģ¯ ãģĦãģĦ
Ġå½¼ãģ¯ ãģ©ãĤĵãģª
ãĤ³ ãĥŁ
ãĤ³ ãĥ³ãĤ°
ãĤ³ ãĥĥãĤ¯ãĤ¹
ç§ģãģ¯ ãģĵ
ç§ģãģ¯ ãĤĤãģĨ
ç§ģãģ¯ ãģĿãĤĮãĤĴ
ç§ģãģ¯ ãģ¾ãģł
ç§ģãģ¯ ä½ķãĤĤ
ç§ģãģ¯ ãģĤãģªãģŁãģ®
åħ µå£«
çĶ· ãģĺãĤĥãģªãģĦ
åı Ķ
çŁ¥ãģ£ãģ¦ãĤĭ ãģĭ
ãĥĲ ãĥ¬ãĥ¼
ä¼ļ ãģ£ãģŁ
ä¼ļ åĲĪ
ãĥĥãĥĪ ãģ¨
ãĥĥãĥĪ ãģł
Ġç§ģãģŁãģ¡ ãģ¯åı
Ġç§ģãģŁãģ¡ ãģ¯çļĨ
ĠãģĿãģĨãģł ãģ£ãģŁ
ãĥģ ãĥ¼ãĥķ
ãĥģ ãĤ±ãĥĥãĥĪ
åĲ Ĳ
ãģłãģ£ãģŁ ãģ¨æĢĿãģĨ
ãĥł ãĤº
ãĤº åĪĳäºĭ
ãĤº ãĥľãĥ³
ãĤĭãģ® ãģĮ
æĦ īå¿«
ãĥĵ ãĤ¹
ãĥĵ ãĥªãĥ¼
ãĥĵ ãĤ¦ãĤ¹
ãĤµ ãĤ®
ĠãģĿãĤĮãģ¯ ãģŁãģł
ĠãģĿãĤĮãģ¯ éĩįè¦ģãģĺãĤĥãģªãģĦ
ãĤĪãģĨãģ« ãģĹãģ¦ãģıãģłãģķãģĦ
æĻĤ ãĢħ
æĻĤ è¨Ī
ãĥĭ ãĥ¼ãĤ¯
ãĥĭ ãĤ¬ãĥ¼
Ġä»Ĭ ãģĭãĤī
Ġä»Ĭ ãģ¯ç
ãģĵãģ¨ãģĮãģ§ãģį ãģ¾ãģĹãģŁ
°ĳ å¥³
èĩª ä¿¡
ĠãģĤãģªãģŁãģ¯ ãģĿãģĨ
ãĤª ãĥĸ
Ġãģ§ãĤĤ åĲĽ
Ġãģ©ãģĨ ãģĹãģŁãģ®
ãģ¨è¨Ģ ãģĦãģ¾ãģĹãģŁ
ãĥªãĥ¼ ãĤ¯
ä¿º éģĶ
æ°Ĺ ãģ«
æ°Ĺ ãģ§ãģ¯ãģªãģĦ
æ°Ĺ ãģ«ãģĻãĤĭ
è¡Įãģı ãģ¹ãģįãģłãģ¨æĢĿãģĨ
ãģ«ãģ¤ãģĦãģ¦ ä½ķ
ãģ«ãģ¤ãģĦãģ¦ ãģ¯ä½ķãĤĤ
ãĤ¹ãĥĪ ãĥª
ãĤ¹ãĥĪ ãĥ¼ãĥ³
ãĤ¹ãĥĪ ãĥ©ãĤ¤
ãĤ¹ãĥĪ ãĥ¼ãĤ«ãĥ¼
ãĥ¡ ãĤ¤ãĥ³
éĻ ¥
Ń¦ ãĤĵãģł
ĠãģĤãģĤ ãĤıãģĭãģ£ãģ¦ãĤĭ
åº ĥ
ãĤĵãģ§ ãģĹãĤĩ
ãģĹãģªãģĦ ãģ®ãģĭ
ãģ¨ãģĦãģĨ ãģ¨
åĩº ãģĹãģ¦
éĩĳ ãĤĴ
éĩĳ åº«
Ġãģªãģľ ãģĭ
Ġèª° ãģĮæ
ĠãģĦ ãģļãĤĮ
ãģ®ãģ¯ ãģªãģľ
ãģ®ãģ¯ èª°ãģł
ãģ«ãģªãĤĭ ãģŀ
ãģ«ãģªãĤĭ ãģŁãĤģãģ«
ä»ķäºĭ ãĤĴãģĹãģ¦ãģĦãĤĭ
Ĥª åĮĸ
æĢ§ çļĦ
çī© ãģĮ
çī© ãģ§ãģĻ
çī© è³ª
ãĥŁ ãĥ¼ãĥ«
ãĥŁ ãĥį
ĠãĤ¸ ãĥ¥
ĠãĤ¸ ãĥł
ĠãĤ¸ ãĥĭãĥ£ãĥ³
æĸ¹ åĲĳ
ç´ ³å£«
Ġäºº ãģł
Ġäºº ãģ¨ãĤĤ
ãĥĢ ãĤ¤
ãĥĢ ãĥĸãĥªãĥ³
ç§ģãģŁãģ¡ ãģ¯å
åį ´
åį µ
åį Ĺ
æ³ ³
ãĥĨãĤ£ ãĥĥãĤ¯
ãģĪãĤĭ ãģĭ
ãĤīãģªãģĦ ãģ¨
Ġç§ģãģĮ çŁ¥ãģ£ãģ¦ãģĦãĤĭ
åĲĽ ãģ¯å
å¤§ æĪ¦
ãĤ¬ ãĤ¤
ãĤ¬ ãĥ³ãĥĦ
ãĤ» ãĥ³ãĤ¹
Ġä¿º ãģŁãģ¡ãģ¯
Ġãģ¾ ãģģ
ãĤĴãģĻãĤĭ ãģŁãĤģãģ«
ī¯ å¤§çµ±éłĺ
ãģ«è ī¯ãģĦ
ãģĵãģĵ ãģ«ãģ¯
ãģĵãģĵ ãģ«æĿ¥ãģ¦
Ġãĥŀ ãĥ¼
Ġãĥŀ ãĥĥãĤ¯ãĤ¹
Ġãĥŀ ãĥ¼ãĥĨãĤ£
ãģķãģĽ ãĤĭãģĵãģ¨
ãģłãģĳãģł ãĤĪ
ãģĴ ãģ¦ãĤĭ
ãĥĶ ãĥ³ãĤ°
ãĥĶ ãĥ³ãĤ¯
ãĥĻ ãĥ³
Ġç§ģãģ¯å ¤§ä¸Īå¤«
Ġç§ģãģ¯å ¥³æĢ§
ãĥı ãĥ³ãĤ°
Ġç§ģãģŁãģ¡ãģ¯ ãģ¿ãĤĵãģª
ĠãģĿãĤĮãģ§ å½¼
ãĤĴæĮģãģ£ãģ¦ ãģªãģĦ
ãĤĴæĮģãģ£ãģ¦ ãģĦãģ¦
ãĤĴæĮģãģ£ãģ¦ ãģıãĤĭ
ãĤĦãģ£ãģ¦ ãģıãĤĮ
å¾Į ãĤį
ãģ¯ãģ©ãģĨ ãģªãģ®
ãģ¯ãģ©ãģĨ æĢĿãģĨ
ãģ«ç Ħ¡
ãģ«ç ģ«
ãģ«ç ©´
åł´ ãģ§
ä½ľ ãģ£ãģŁ
ĠãģĿãģĨãģĺãĤĥãģªãģĦ ãģ¨æĢĿãģĨ
ãĤĴçŁ¥ ãģ£ãģ¦
åħ¨ ãģı
ãģ«æĿ¥ ãģ¦ãģıãĤĮ
ãĥ¯ ãĤ¤
è¨ĢãģĨ ãĤĪãģĨãģ«
ãģ®ãģĵãģ¨ ãģ§
ãģ®ãģĵãģ¨ ãĤĴå¿ĥéħį
Ġç§ģãģ¯ãģĤãģªãģŁ ãģ®
Ġç§ģãģ¯ãģĤãģªãģŁ ãģ«
Ġç§ģãģ¯ãģĤãģªãģŁ ãģ¨
éļ £
å½¼ãģ¯ ãģĿãĤĮãĤĴ
å± ¤
ãģ«ãģĦãĤĭ ãĤı
Ġãĥī ãĥĬãĥ«ãĥī
æīĭ éħį
æīĭ ãģ«åħ¥ãĤĭ
è§£ æ±º
èī¯ ãģı
èī¯ ãģĭãģ£ãģŁ
ãĤĴæ®º ãģĽ
ãģķãĤĮãģ¦ ãģĦãģŁ
ãģķãĤĮãģ¦ ãģĦãģ¾ãģĽãĤĵ
ĠãĤ¹ ãĥĳ
ĠãĤ¹ ãĥļ
ãĥİ ãĥª
ãĥİ ãĥķãĤ¡
ãģ§ãģįãĤĭ ãģ®ãģĭ
ãģ§ãģįãĤĭ ãģĵãģ¨ãģ¯ä½ķãĤĤãģªãģĦ
ä½¿ ãģĨ
è³ ¢
ĠãĤ¯ ãĥ©ãĤ¹
å¸ ½åŃĲ
éģĭ ãģĮèī¯ãģĭãģ£ãģŁ
ä¸ĸ ç´Ģ
Ġä½ķãģĭ è¨Ģãģ£ãģŁãģĭ
ãĤĪãĤĬ å¤ļãģı
ãģ®å¤ ±
å¹´ ãģ¯
ĠãģĪ ãģĩ
Ġãĥĩ ãĥ¥
ãĥĽ ãĥĥãĥĪ
ãĥĽ ãĥ¼ãĤ¹
æĽ ²å®¶
ãģ®åı ³
ä½ĵ éĩį
èĥ Į
Ġãĥı ãĥ³
Ġãĥı ãĥ¼ãĥī
Ġãĥı ãĥŃãĥ¼
éĸ¢ ãĤı
ãĤ·ãĥ§ ãĥĥãĥĹ
æĬ ķ
ç§ģãģĮ ãģĿãĤĮ
ĠåĪĨ ãģĭãĤĭãĤĪ
ãģ©ãģĵ ãģĭãĤī
ãģ©ãģĵ ãģ§ãģĻãģĭ
ãģ©ãģĵ ãģ¸
ãĤ¯ãĤ½ ãģł
ĠãĤĦ ãĤģãģ¦
ãĤ¸ãĤ§ ãĤ¤
ãĥķãĤ£ ãĤ¢
ãĥķãĤ£ ãĥĥãĥĪ
æĮģ ãģ£ãģ¦ãģªãģĦ
éķ· å®ĺ
ãĥĲãĥ¼ ãĤ°
ĠãģĤãģªãģŁãģ¯ç§ģ ãĤĴçŁ¥ãĤīãģªãģĦ
æľĢ å¤§
±º æĸŃ
ãģ¦ãĤĭ ãĤĵãģł
ĠãģĶ åŃĺçŁ¥
ãĥªãĥ³ ãĤ«ãĥ¼ãĥ³
ĠãģĪãģĪ ãĤĤãģ¡ãĤįãĤĵ
ãĤ·ãĥ¥ ãĥ¼ãĤº
è² ¡çĶ£
Ġãģł ãģĮåĲĽ
Ġå¹´ ãģł
Ġå¹´ å¾Į
Ġå¹´ åīįãģ«
ãģ®æľ ¨
ĠãĥŃ ãĤ·ãĤ¢
ĠãĤ¦ ãĤ½
ĠãĤ¦ ãĤ¦ãĥ³
éħį ç½®
ãĥªãĤ¢ ãĤ¹
ãģ£ãģ¦ãģıãĤĮ ãģ¦ãģĤãĤĬãģĮãģ¨ãģĨ
ãĥķãĤ¡ ãĤ¤
Ġãĥª ãĥªãĤ¢ãĥ³
Ġãĥª ãĥ©ãĥĥãĤ¯ãĤ¹
ĠãĤ¤ ãĥ«
ĠãĤ¤ ãĤ§
ĠãĤ¤ ãĥģ
ãģĮç ©º
ĠãģĿãģĹãģ¦ å½¼ãģ¯
ãĥģãĥ£ ãĥĥãĤ¯
ãĥģãĥ£ ãĥ¼ãĥ«ãĤº
åĮ º
ãģ®ä¸Ģ èĩ´
ä¸ĸçķĮ å¤§æĪ¦
è« ¸åĲĽ
Ġå½¼ãģ¯å ¤
Ġæĺ Ķ
ãĤĴçŁ¥ãģ£ãģ¦ãĤĭ ãģłãĤį
ãĤĴèģŀ ãģįãģŁãģĦ
ãĥļ ãĤ¹
èĪ ŀ
ĠãĥĪ ãĤ¥
Ġåı °
åĥ ļ
ãĥ¼ãĤº ãĥ³
æĻĤéĸĵ ãģł
ĠãĤĤãģĹ å½¼
ãĤ¦ãĤ§ ãĤ¶ãĥ¼
ĠæĪĳãĢħ ãģ«ãģ¯
ãģ©ãģĵãģ« ãģ§ãĤĤ
éĢĥ ãģĮ
æĦŁ æĥħ
Ġç§ģãģ® è¦ªæĦĽãģªãĤĭ
Ġæ°Ĺ ä»ĺ
åĬĽ ãģ®ãģĤãĤĭ
ãģłãĤĪ ãģª
ĠãĤ³ ãĥ¼ãĥĪ
ãģ«æĪ» ãĤĭãģ®
ãĤ·ãĥ£ ãĥ¼ãĤ¯
Ħı åĽ³
ãĤ¸ãĥ§ ãĥ¼ãĤ¤
Ġãģ¡ ãĤĩãģĨãģ©
é£Ľ è¡Į
ãĤĴæĮģãģ£ãģ¦ãĤĭ ãģ¨æĢĿãģĨ
åĭĻ åĵ¡
Ġãģĵãģ® ä»¶
Ġãģĵãģ® è¡Ĺ
äºĮ ãģ¤
Ġèĩª çĶ±
¼ķ çĶ¨
ãĤĭãģ¨ ãģį
Ķ¾ çģ«
ĠãĤ« ãĥ«
å· Ŀ
ç¥ŀ ãĤĪ
Ġç¥ŀ ãĢħ
Ġãģ¡ãĤĩãģ£ãģ¨ å¤±ç¤¼
ãĥĴ ãĥĥãĥĪ
ãĥĴ ãĤ®
ãģłãģ¨æĢĿ ãģ£ãģ¦ãģĦãģ¾ãģĻ
Ġãĥ© ãĥ³ãĥĩãĤ£
éģ¸ æīĭ
åĳ¼ åĲ¸
ŃĶ æ³ķ
ĠãĥĨ ãĥ¼ãĥĹ
ãĥŀãĥ³ ãĤ¿ãĥ³
ãĤĴåĲ ĳ
ĠæĹ¥ ãģ«
ãĤĴåıĹãģĳ ãģ¦ãģĦãĤĭ
Ġãĥĸ ãĥ«ãĥ¼
¬¡ ãģ®
éģħ ãģĦ
Ġè¦ĭ ãģ¤ãģĳ
ĠãĤŃ ãĤ¹
ãģķãĤĮ ãģªãģĭãģ£ãģŁ
çĲĨçĶ± ãģ¯
çĲĨçĶ± ãģ§ãģĻ
ãģ®äººçĶŁ ãģ¯
ãĤĪãĤĬãĤĤ å¤ļãģı
ãĤĪãĤĬãĤĤ ãģļãģ£ãģ¨
ãĤ´ ãĥ¼ãĥīãĥ³
èŃ° åĵ¡
çĿĢ éĻ¸
Ġãĥģ ãĥ¼ãĥķ
ĠãģĿãĤĵãģª ãģ«
åħ¥ ãģ£ãģ¦
åĽ½ äºº
æħ İéĩį
ãģĵãģ¨ãģĮãģĤãĤĭ ãģ®
äººãģ¯ èª°ãģ§ãĤĤ
ĠèĩªåĪĨ ãģ§
åľ Ĵ
ä¼ĳ æģ¯
ĠãģĿãĤĮãģ¯æ ®ĭå¿µ
æĤª æĦŁ
ãĤĴæİ¢ ãģĹãģ¦ãĤĭ
ãģ¯ãģ©ãģĵ ãģ§ãģĻãģĭ
ãģ¯å® ŁéļĽ
Ġãģĭ ãĤĤãģĹãĤĮãģªãģĦ
ĳ¼ ãģ³
ĠãĥŁ ãĤ»ãĤ¹
ãģĭãģ©ãģĨãģĭ ãģ¯ãĤıãģĭãĤīãģªãģĦ
ãģ«ä½ķ ãģĮãģĤãģ£ãģŁ
Ġåį ģåĪĨ
Ġåį ±éĻº
ãĥĸãĥ« ãĥ¼
ãĥĸãĥ« ãĥ¼ãĥł
Ġä½ķãĤĴ ãģĹãģŁãģ®
æĭ ¶
Ġå½¼ãģ¯æ ±ºãģĹãģ¦
ãĥĪãĥ© ãĥĻãĥ«
ãģ«åĲ Ī
ĠãģĬé¡ĺãģĦ ãģłãģĭãĤī
åĸ ªå¤±
Įåħ¨ ãģª
ĠæĢ Ĵ
ãģ©ãĤĵãģª ãĤĤãģ®ãģĭ
ãĥ¬ãĥ³ ãĤ¸
ãĥ¬ãĥ³ ãĤ¿ãĤ¤ãĥ³
ãĥģãĤ§ ãĤ¹
Ġãĥŀãĥŀ ãģĮ
ç«ĭ ãģ¦
ãģĮå½¼ ãģ«
å¤ī ãģª
ãĤĴçĲĨè§£ ãģĹãģ¦ãģĦãģªãģĦ
ãĤĴæ®ºãģĻ ãģ®
ãĤĴæ®ºãģĻ ãģ®ãĤĪ
ĺĺ ãģ¤ãģį
Ġãģ©ãģĨãģĹãģ¦ ãģĿãĤĵãģª
æ´ Ĺ
ä¸Ģçķª ãģĦãģĦ
ãĥ´ãĤ£ ãĥ«
è©¦ é¨ĵ
æĪ¦ äºī
ç¶ļ ãģį
æİ ¨
æİ Ľ
ãĤ¼ ãĥŃ
ãģ«ãģĦãģŁ ãģ®ãģĭ
ãģ«è©± ãģĹãģŁ
Ġå¥ ĩ
ãģ®åķıé¡Į ãģł
ãģ®æĻĤ ä»£
ãģ¯ç§ģãģŁãģ¡ ãģĮ
ãģ¹ãģįãģł ãģ¨æĢĿãģĦãģ¾ãģĻ
ĠãĤ° ãĥ©
è¨ĢãĤı ãģªãģĳãĤĮãģ°ãģªãĤīãģªãģĦ
Ġä»Ĭãģ¯ ãĥĢãĥ¡ãģł
èµ·ãģĵ ãĤĬãģ¾ãģĽãĤĵ
ãģĵãģ¨ãģ«ãģªãĤĭ ãģ§ãģĹãĤĩãģĨ
ãģ§ãģįãģ¾ãģĽãĤĵ ãģ§ãģĹãģŁ
ãģ®ãĥĲ ãĥĥãĤ°
ĠãĤ¿ ãĤ¤
ĠãĤ¿ ãĤ¤ãĥł
°¡åįĺ ãģ§ãģĻ
ĠéĢ±éĸĵ ãģł
ĠæŃ ¤å¥´ãĤī
ãģ®æĻĤéĸĵ ãģł
è¦ĭãģ¦ ãģĦãģªãģĦ
ãģķãģĪ ãĤĤ
è¦ĭãģŁ ãģĵãģ¨ãģĮãģªãģĦ
ãĥĸãĥ© ãĤ¦ãĥ³
æĪĲ åĬŁ
ãģĹãģı ãģªãĤĭ
ãĤĴæ°Ĺ ãģ«ãģĻãĤĭ
æľŁ éĸĵ
å¼· çĽĹ
ãģ®æľĢ å¾Į
ãģĹãģ¾ ãģĨ
ãĤĴæĴĥ ãģ¡
ç´ĦæĿŁ ãģĻãĤĭ
ĠçķªçĽ® ãģ®ãĥĵãĥ¼ãĥĪ
Ġ9 0
ãĤĴãģ¤ãģĳ ãĤį
ãĤĴè¦ļãģĪãģ¦ ãģĦãģ¾ãģĻ
ĠãģĿãĤĮãģ¯ç ´łæĻ´ãĤīãģĹãģĦ
ãģĮæĿ¥ ãĤĭ
ãģĮæĿ¥ ãĤĭãģ®
ãģ®ãĥģ ãĤ§
ľŁå®Ł ãĤĴè©±
ãĤĴæīķ ãģĨ
çĹ Ľãģ¿
é¦¬é¹¿ ãģł
ãģ¯åı ĸå¼ķ
Ġæīĭ ä¼Ŀ
ãĥ«ãĥ¼ ãĤµãĥ¼
ãģ®ãĥĩ ãĥ¼ãĥĪ
æŃ¢ ãĤģ
ãĤĴå¾ħ ãģ¡
ãĤĴå¾ħ ãģ£ãģ¦ãĤĭ
ãĤĴå¾ħ ãģ£ãģ¦ãģĦãĤĭ
ãĤĴå¾ħ ãģ£ãģ¦ãģĦãģŁ
ãģªãģĹ ãģ§ãģ¯
ãĥ¼ãĥĬ ãĥ³
ĠãģĤãĤĭ ãģĦãģ¯
ãģ¯æĺ łçĶ»
ãģ¯æĺ ¨å¤ľ
åł´åĲĪ ãģ«ãģ¯
èŃ¦å®ĺ ãģĺãĤĥãģªãģĦ
ĠéĽ»è©± ãģĻãĤĭãĤĪ
ģĭ ãģ«èĲ½ãģ¡
ãģĵãĤĵãģª æĦŁãģĺ
åı£ ãĥĵãĤ¶
Ġä½ķãģł ãģ£ãģ¦
ĠãģĻãģĲ ãģ«
è¨ĺæĨ¶ åĸªå¤±
ãĥ¬ãĤ¤ãĥ³ ãĤº
éģĭè»¢ æīĭ
ãĤĴè¿½ãģĦ åĩº
æ¯ Ĵ
æľį ãĤĴçĿĢ
ãģ®ãĤ« ãĤ¦
ãģ®ãĤ« ãĥ¼ãĥī
ãģĹãģ¾ãģĹãĤĩãģĨ ãģĭ
ĠãĥĬ ãĤªãĥŁ
æŃ³ ãģªãģ®
èģŀãģĦãģŁ ãģĵãģ¨ãģĮãģªãģĦ
ç® ¡
éĮ Ĩ
ãĤĴæ¶Ī ãģĹãģ¦
ãģ®ãĥĨ ãĤ¹ãĥĪ
ãģ¯çµ Ĳå©ļ
ãģĿãģĨãģ¨ ãģĹãģŁ
èģŀãģĵ ãģĪãģªãģĦ
ĠãĥķãĤ¡ ãĤ¤ãĤ¢
ĠC B
ãĤĴéĢļ éģİ
ãģ£ãģ¦ãģĬ ãĤĬ
ãĤĴæĦıåĳ³ ãģĻãĤĭãģ®ãģĭ
ãĤĴæĢĿãģĦ åĩºãģĻ
çı¾ éĩĳ
çı¾ å®Ł
Ġãģ» ãģ£ãģ¨
ä½Ļ è£ķ
ãģ®åľ° åŁŁ
è¡Įãģ£ãģ¦ ãģıãģłãģķãģĦ
è¡Įãģ£ãģ¦ ãĤĤãģĦãģĦ
Ġéł ĳ
Ġè¦ĭãģ¦ ãģ¿ãĤį
£Ĭ ãĤĮãģŁ
ãĥ³ãĤ¸ ãĥ³
ãģ®ãĥĵ ãĤ¸ãĥįãĤ¹
Ġæķ° æĹ¥
ãģ®å°ĳå¹´ ãģŁãģ¡
ĠãĤĪãģı åĪĨãģĭãĤīãģªãģĦ
ĠãĤĪãģı èģŀãģĳ
Ħļ ãģĭ
ãģ®ãģĽãģĦ ãģł
ãģ®ãģĽãģĦ ãģĺãĤĥãģªãģĦ
ãĤĴè¨± ãģĹãģ¦ãģıãĤĮ
ãĤĴå½¼ ãĤī
ãĥĹãĥ©ãĤ¤ ãĤº
ãĤµãĤ¤ ãĥĢãĥ¼
è³ĩ éĩĳ
æŀ Ĳ
Ġç§ģãģ¯æ ±ºãģĹãģ¦
å¤§ä¸Īå¤« ãĤĪ
ŀ¬ éĸĵãģ«
ãģ®è¨ĢãģĨ ãģ¨ãģĬãĤĬ
é¦ĸ åĪĳ
ãĤĴè¨ĢãģĨ ãģ¨
ãģĹãģĭ ãģĦãģªãģĦ
ãĤĴæ®ĭ ãģĹãģŁ
ãģ¯å®¶ æĹı
ãģ®éĿ ¢
İĩ çĽ´ãģ«
Ġãĥļ ãĥĭãĥ¼
ãĤĴæ¸¡ ãģĻ
ãģ¯åĪĨ ãģĭ
æĢĴ ãĤĬ
ãģ§åĥįãģĦãģ¦ ãģĦãĤĭ
ãģ§åĥįãģĦãģ¦ ãģĦãģ¾ãģĻ
ç« ¶äºī
èĦ ħ
ãĤ¾ ãĥ«
ãĤĴãģĭ ãģ¶
ãĤĤãĤī ãģ£ãģŁ
åĪ¶ å¾¡
Ġè² ¡å¸ĥ
ãģ®èĭ ¦
æķĻãģĪãģ¦ ãģĤãģĴãĤĭ
ãĥįãĥ« ãĤ®ãĥ¼
å®ŁéļĽ ãģ«
ł±åĳĬ æĽ¸
Ġãĥģãĥ£ ãĥ¼ãĥªãĥ¼
ãģ£ãģıãĤĬ è¿Ķ
·± åĪ»
ãĥĮ ãĥĭãĤ§ãĤ¹
ãģ®éĸ¢ä¿Ĥ ãĤĤãģªãģĦ
Ġåīį ãģ«ãĤĤ
ãĥ¼ãĥĭ ãĥ¼
éĽĨ ä¸Ń
ãģ«è¿ ½ãģĦ
éł¼ãĤĵãģł ãģ®
èĭ± éĽĦ
é§ ħ
ãĤĴæ®´ ãģ£ãģŁ
ãĥŁãĥ¥ ãĥĭ
ĠçµĲå©ļ å¼ı
æ¬¡ ä¸ĸçķĮå¤§æĪ¦
ãģ«åĢ ŁãĤĬãģĮãģĤãĤĭ
ĠãģĵãĤĵãģª äºĭ
è©ķ ä¾¡
è©ķ èŃ°ä¼ļ
ãģ®èħ ¸
ĠãĤ·ãĥ£ ãĥ¯ãĥ¼
Ġåįĥ ãĥīãĥ«
Ġæľ¬æ°Ĺ ãĤĪ
ĺĺãĤĴãģ¤ ãģı
è¶ ħ
é¤ ¨
å¤ļ ãģĻãģİãĤĭ
Ġãĥŀãĥ³ ãĥ¬ãĤ¤
æĥĳ æĺŁ
ãģ§æŃ» ãģ¬
Ġéķ·ãģĦ éĸĵ
é¢¨ åĳĤ
Ġåľ° çĲĥ
ãĤ¹ãĥĶ ãĥ¼ãĥī
ãĤĴæ±Ĥ ãĤģ
ĠãĤ¯ãĥªãĤ¹ ãĥĨãĥ³
¼ķãģ£ è¶Ĭ
Ġèª¿åŃĲ ãģ¯ãģ©ãģĨ
¾Ĺ ãģŁ
éĹ ĺ
ãģ¯å¿ħè¦ģ ãģªãģĦ
Ġéħ į
Ġãģ©ãģĨãģĭ ãģĹãģŁãģ®
ãĤĴåıĸå¾Ĺ ãģĹãģ¾ãģĻ
ĠKI MBALL
çħ Ļ
ãģ®ãĥķãĤ¡ ãĤ¤ãĥ«
ĠãģĤãĤĮ ãģ¯
ĠãģĤãĤĮ ãģ¯ä½ķãģłãģ£ãģŁãģ®
ĠæģĲ ãĤįãģĹãģĦ
å®¹ æīĢ
ãĥ¡ãĥªãĥĥãĤ¯ ãģķãĤĵ
ãģ«è² ¬ä»»
å¤ĸãģ«åĩº ãģ¦
èª¤ è§£
ãĥĩãĤ¤ ãĥĵãĥĥãĥī
ĠãĥīãĤ¤ãĥĦ èªŀ
ãĤĴæīĭãģ«åħ¥ãĤĮ ãģ¾ãģĻ
èĭ¦ çĹĽ
Ġä¸ĭ ãģĮ
ľ§ åĬĽ
łĤ æ¼
ãĥ³ãĥĢ ãĥ«
è¦³ å®¢
ãĤĴçĻº è¦ĭ
æĦļ ãģĭèĢħ
ĠåĢĭäºº çļĦãģª
°¸éģł ãģ«
ä½ķåº¦ãĤĤä½ķåº¦ãĤĤ ä½ķåº¦ãĤĤä½ķåº¦ãĤĤ
Ľº å®ļ
Ġåħ¨ãģı ãģĿãģĨãģĺãĤĥãģªãģĦ
ãģ®æĦı è¦ĭ
Ġé« ª
çµ¦ æĸĻ
ç´ļ ãģ®é»Ĵäºº
éļİ æ®µ
æĬĢ è¡ĵ
Ġæĺ¨æĹ¥ ãģ®å¤ľ
ä»£ãĤı ãĤĬ
ç¹ Ķ
ç¶Ļ ãģĮ
ãģ®ãĤ· ãĥ¼ãĥ³
ĠèĦ ±
ĠèĪ¹ éķ·
ãģ®èµ ¤ãģ¡ãĤĥãĤĵ
Ġãģ§ãģĻ ãģĭãĤī
åĭĿ åĪ©
ãĤĴèªį èŃĺ
ĠãģĭãĤıãģĦãģĿãģĨ ãģª
æ¿ ¯
ç¢ºãģĭ ãģ«
éĤª éŃĶ
Ġd un
ãģĮæķ ĻãģĪãģ¦ãģıãĤĮ
èĢĲ ãģĪ
ãģ®ãĥ¯ ãĥ¼ãĥł
ãĤĴæĮģãģ¡ ä¸ĬãģĴ
åį±éĻº ãģł
éĸīãģĺ è¾¼ãĤģ
å¹¸éģĭ ãĤĴç¥Ī
çĭ ¼
èĲ½ãģ¡ ãģŁ
éľ Ĭ
ãģ¨ãģĦãģĦ ãģĳãģ©
åĭĩ æķ¢
ãģ«èĭ¦ åĬ´
éļľ å®³
ĠãĤ¹ãĤ³ãĥĥãĥĪ ãĥ©ãĥ³ãĥī
ãģ«è¡ĮãģĭãģªãģĦ ãģ¨
ĠãĥĨãĤ£ ãĥ¼ãĤºãĥĩãĥ¼ãĥ«
éģ©åĪĩ ãģª
ãĤĴèĩªåĪĨ ãģ§
ãģŁãģ³ ãģ«
ãĥ¼ãĤ« ãĤ¹
ĠæĴĥ ãģ¦
ãĤıãģĽãģ¦ ãģıãģłãģķãģĦ
ãģĮæ®º ãģķãĤĮãĤĭ
ãģ®ãĥĭ ãĥ¥ãĥ¼ãĤ¹
ãĤĴçĪĨ çł´
ãģ®éŃ Ĥ
ãģ®èĦ ³
ãĤŃãĤ· ãĤ³
åį° è±¡
çĻ» éĮ²
èĪª ç©º
ãĤĴåıĹãģĳåħ¥ ãĤĮãĤĭ
Ġç´ł æķµ
æŃ£çĽ´ ãģª
Ġãģµãģĸ ãģĭãģ£ãģ¦ãĤĭãģ®ãģĭ
¥ĩ è·¡
Į¨ æĭ¶
ãĤĴåĩ¦ çĲĨ
çŁ¥ãĤī ãģ¬
ãĤĴçĽ® æĴĥ
ãģ§ãģ¯ãģĦ ãģĳãģ¾ãģĽãĤĵ
ĠãĤ¸ãĤ§ãĤ¤ ãĤ½ãĥ³
ĠæĢ¥ ãģĴ
Ġãĥ¡ãĥªãĥĥãĤ¯ ãģķãĤĵ
ŀį è³ĩ
ãĤĴæ¬² ãģĹãģĮ
ãĤĴæ··ä¹± ãģķãģĽ
å¿Ļ ãģĹãģĦ
ãĤĪãģĨãģ«æĢĿ ãģĪãĤĭ
ĠæķĻ ä¼ļ
ãĥĴãĥ¥ ãĥ¼ãĤ¤
æļĹ éĹĩ
Ġèĭ± èªŀ
ãĤĴãĤĤãģŁãĤī ãģĻ
ç³» ãĤ¢ãĥ¡ãĥªãĤ«
¥ĸ çĪ¶
éĬ ĺ
ãĥ¼ãĥŁ ãĥ³ãĤ°
ãģ¯ãģĦãģıãĤī ãģ§ãģĻãģĭ
ãģ®éħ į
ãģ®è»į éļĬ
ĠãĥīãĤ¥ ãĥ¼ãĥªãĥĪãĥ«
å·¡ æŁ»
æ½ Ķ
èĸ ¦
īå ¦¬
èªķçĶŁ æĹ¥
ãĤ¤ãĥ³ãĥĩãĤ£ ãĤ¢ãĥ³
ĠãĤ¢ãĥĥãĥĹãĥ« ãĤ¸ãĥ£ãĥĥãĤ¯
ãĥ¯ãĤ¤ãĥĪ ãĥıãĤ¦ãĤ¹
Ġç§ģãģ¯ãģĤãģªãģŁãĤĴè¨± ãģĻ
Ġéķ·ãģı ãģ¯ãģĭãģĭãĤĬãģ¾ãģĽãĤĵ
Ġãģ¾ãģļç¬¬ ä¸Ģãģ«
®éĿĻ åī¤
çĪ µ
èĨ ļ
ãģĵãĤĵ ãģ«ãģ¡ãģ¯
ãģ¾ãģ¿ ãĤĮ
ãģ«ãģ¯ãģªãĤĬ ãģŁãģıãģªãģĦ
ãĤ«ãĥĩ ãĥŁãĥ¼
ãĤĴèī¯ ãģı
łĤæ¼ ł
Ġdun no
ĠãĥĨãĤ£ãĥ¼ãĤºãĥĩãĥ¼ãĥ« ãģķãĤĵ
A T
H O
N A
O D
S E
a v
e l
i s
u r
£ ®
£ åĳ³
§ åĺ
§ Ĳè»Ĭ
¨ çī©
¨ å®³
¨ ãĤĬãģ«
© į
ª åĬĽ
ª äº¡
« ãģ¶
¬ ¢
¬ ¦
¬ çī©
° çĿĢ
± ª
± éĢļ
² ¸
² ãģ©
² åŃ¦
² å¾Ĺ
³ åĦª
³ ¥æ£Ĵ
µ æĬĹ
¸ ãģ°
½ ľ
½ ãģı
¾ ®
å ľŁåľ°
å ¬¢
æ Ĳ
æ įķãģ¾
æ ıĲæ¡Ī
æ Ń¦åĻ¨
æ ģĭäºº
æ ĵįä½ľ
ç ĩ
ç ı
ç ĺ
ç ¥ĪãĤĬ
ç £¨
é ĭ
Ġ 0
Ġ :
Ġ =
Ġ X
Ġ _
Ġ ãģ¯æ
Ġ ãģªãĤī
Ġ çĶŁ
Ġ è¡Ģ
Ġ è¡ĮãģĭãģªãģĦ
Ġ è¡Įãģĳ
Ġ ä¼ļç¤¾
Ġ çĶº
Ġ éĸĵéģķãģĦ
Ġ in
Ġ è¨ĢãģĦãģŁãģĦãģĵãģ¨ãģĮãģĤãĤĭ
Ġ ä¿¡ä»°
ģ ©
ģ ãĥ£
ģ åį°
ģ ãģ¡ãĤĥãģıãģ¡ãĤĥ
Ĥ ãģĹãģĦ
Ĥ å¿µ
Ĥ çħ§
Ħ è³
Ħ èī²
ħ ãģĦ
ħ éĥ
Ĩ Ĺè«ĩ
Ĩ åĢĻ
Ī ª
Ī è¾±
Ī ªæµ·
ī ãģª
Ĭ å¤ĸ
Į »
Į ¿
Į ĳ
Į æĪĲ
į Ľ
į ²å¾Ĺ
İ çĻ½
İ ¨æ¸¬
ı ´åĬ©
ĳ ç´Ħ
ĳ åĬ£
ĵ ģ
Ķ åĵ¡ä¼ļ
ĸ ĩ
ĸ Ń
ĸ ç·łå½¹
Ĺ ©ãģı
ĺ æ³ķ
Ļ Ĵ
Ļ èĻ
ļ ãģķ
ľ ģ
ľ ĩ
Ł ĭèĳ¬
ł ²
ãģĦ ãĤı
ãģĦ ãĤĮãģ°
ãģ® è¦ĭ
ãģ® ãģ¯æ
ãģ® ãģĦãģĦ
ãģ® ãĤŃ
ãģ® ãĤµ
ãģ® ãģĶ
ãģ® ãģ»
ãģ® ä¸»
ãģ® ãģ²
ãģ® çĶº
ãģ® éĢŁ
ãģ® ãĤŃãĤ¹
ãģ® ãģ¾ãģ¾
ãģ® éģĭåĳ½
ãģ® ãģµãĤĬ
ãģ® ä»£ãĤıãĤĬ
ãģ¯ ãĤ¹
ãģ¯ ãģĿãģĨ
ãģ¯ ãĥĲ
ãģ¯ ãģĵãĤĮ
ãģ¯ èī¯ãģĦ
ãģ¯ ãģĵãģĵãģ«
ãģ¯ ãģĤãģ¾ãĤĬ
ãģ¯ ãĤĤãģ£ãģ¨
ãģ¯ ä¸Ģãģ¤
ãģ¯ ãģ©ãĤĵãģª
ãģ¯ ãģĻãģĲãģ«
ãģ¯ ãģ©ãģĵãģ«ãģĦãĤĭ
ãģ¯ ãģ¿ãĤĵãģª
ãģ¯ ãģįãĤĮãģĦ
ãģ¯ ãģĵãģĵãģ«ãģĤãĤĭ
ãģª çĶ·ãģł
ãģ« ãĥĳ
ãģ« çĽ´
ãģ« éģ©
ãģ« ä¼ĿãģĪãģ¦ãģıãĤĮ
ãģ« éĢ£çµ¡
ãģ« ä½ıãĤĵãģ§ãģĦãĤĭ
ãģ« ä¾µåħ¥
ãĤĴ ãģ¯
ãĤĴ ä½ķ
ãĤĴ ãģĿ
ãĤĴ ãģĹãģªãģĳãĤĮãģ°ãģªãĤīãģªãģĦ
ãĤĴ ãģ©ãģĨãĤĦãģ£ãģ¦
ãĤĴ ãģŁãģıãģķãĤĵ
ãĤĴ ãĤªãĥ³
ãĤĴ è¨ĵç·´
ãĤĴ è¨¼æĺİ
ãĤĴ èĢĥæħ®
ãĤĴ éģĶæĪĲ
ãĤĴ ãĤ»ãĥĥãĥĪãĤ¢ãĥĥãĥĹ
ãĤĴ è¨ª
ãĤĭ ãģĭãĤĤãģĹãĤĮãģªãģĦ
ãĤĭ å¿ħè¦ģãģĮãģĤãĤĬãģ¾ãģĻ
Ġãģ ²ãģ©
ãģĹ ãĤī
ãģĹ ãĤĵãģł
ãģĹ ãģıãģłãģķãģĦ
ãģĹ å±ĭ
ãģĭ ãģı
ãģĭ ãĤĴçŁ¥
ãģĭ çŁ¥ãģ£ãģ¦ãģĦãģŁ
ãģ¨ ãģ®å
ãģ¨ ãģ¤
ãģ¨ ãģĹãģ¦ãģĦãĤĭ
ãģ¨ å¤§
ãģ¨ ãģ¯ä½ķãģł
ãģ¨ éĸ¢ä¿Ĥ
ãģ¨ ç§ģãģ¯ãģĤãģªãģŁ
ãģ¨ æĤªãģĦ
ãģ¨ åŃĲä¾Ľ
ãģ¨ èģŀãģĦãģ¦
ãģ¨ ä»®å®ļ
ãģ¨ çķ¥å¥ª
ãģĮ è
ãģĮ ä»Ĭ
ãģĮ ãĥŀ
ãģĮ ãģ¤ãģĦãģ¦
ãģĮ ãģĻãģ¹ãģ¦
ãģĮ ãĤıãģĭãĤīãģªãģĦ
ãģĮ ä¸į
ãģĮ ãĤĪãģı
ãģĮ ãģĵãģĵãģ«ãģĦãĤĭ
ãģĮ ãģĭãĤĬ
ãģĮ ãĤĤãģ£ãģ¨
ãģĮ ãģĦãģıãģ¤ãģĭ
ãģĮ éĻį
ãģĮ ãģ©ãģĵãģ«ãģĦãĤĭ
ãģĮ è²·
ãģĮ é³´
ãģ£ ãģĭ
ãģł ãģ¨ãģĦãģĨ
ãģł ãģ¨ãģ¯
ãģł ãģ¨ãģ¯æĢĿãĤıãģªãģĦ
ãĤĮ ãģ«
ãĤĮ ãĤį
ãĤĮ æĽ¿
ãģ§ ãģĦãģıãģ¤ãģĭ
ç§ ĭ
ãģĻ ãģĻ
ç§ģ ãģ«æ
ç§ģ ãģ¯åĲĽ
ç§ģ ãģ¨ä¸Ģç·Ĵãģ«
ãĥ¼ ãĤŃãĥ¼
ãģĨ ãģĭ
ãģĨ ãģ®ãģĭ
ãģĵ ãģĦ
ãģĵ ãģ®åķıé¡Į
Ġå ħ¥
Ġå Ń¦
Ġå ¼ķãģį
Ġå ¼·
Ġå Ħª
Ġå ¹¸ãģĽ
Ġå ĦĦ
ãĤĤ ãģĦãģªãģĦ
ãĤĤ ãģĤãĤĬãģ¾ãģĻ
ãĤĤ ãģĿãģĨãģłãģ£ãģŁ
ãģĤ ãĤĵãģª
ãģ£ãģ¦ ä½ķãģł
ãģ£ãģ¦ ãģ¯ãģĦãģĳãģ¾ãģĽãĤĵ
Ġç§ģ ãģ¨ä¸Ģç·Ĵ
Ġç§ģ ãģ®ä»ķäºĭ
Ġç§ģ ãĤĴä¿¡ãģĺãģ¦
ãĤĵ ãģ®å
ãĤĵ ãģ§ãģĻ
ãĤĵ ãģ§ãģ¯
ãĤĵ ãģ§ãģįãģŁ
Ġãĥ Ħ
ãģĹãģ¦ ãģªãģĦãģ®
ĠãģĿ ãĤĬ
ĠãģĿ ãģ®ç
ĠãģĿ ãģ®éĸĵ
ãĤĬ æĬ
ãģ£ãģŁ ãģłãģĳãģł
ãĤĪ ãģª
ãĤĪ ãĥĳãĥĳ
ãĤ¹ ãĥ³
ãĤ¹ ãĥł
ãĤ¹ ãĥ¼ãĥĹ
ãģĵãģ¨ ãģĭ
ãģĵãģ¨ ãĤĴæ
ãģĵãģ¨ ãģ«ãģªãĤĬãģ¾ãģĻ
ãģĵãģ¨ ãĤĴç¥Ī
ãĥ¼ãĥ ¡
ãĥ¼ãĥ İ
ãģį ãģķ
ãģį ãģ¦ãģıãĤĮ
ãĥĥ ãĥĨãĤ£
ãĥĥ ãĤŃãĥ³
ãĤĴæ ĳ
ãĤĴæ ¸Ľ
ãĤĴæ Ĥ©
ãĤĴæ ĵįç¸¦
ãģĿ ãģ®ä»ķäºĭ
ãģĿ ãģ®æĻĤ
ãģĿ ãģ®éĥ¨åĪĨ
ãģ®å ĩ¦
ãģ®å İŁ
ãģ®å Ńĺåľ¨
ãģ®å »ºçī©
ãģ®å ¹³åĴĮ
ãģ®å ¦¹
ãģ®å ¸ĮæľĽ
ãģ®å İŁåĽł
ãģ®å ¢ĵ
ãģ®å ĭķãģį
ĠãĤ ģãģ¡ãĤĥãģıãģ¡ãĤĥ
ĠãģĤ ãģ£
ĠãģĤ ãģĿãģĵ
ãģ¯å °
ãģ¯å ·
ãģ¯å ľ°
ãģ¯å ¿ĥéħį
ãģ¯å ĲĮãģĺ
ãģ¯å ĲĪ
Ġå½¼ ãģ¨
è¦ Ĩ
ãģĹãģŁ ãĤĬ
ãģĹãģŁ ãģĭãĤĤãģĹãĤĮãģªãģĦ
ãģĹãģŁ ãģĵãģ¨ãģł
ãģķ ãĤĵãģł
ãģķ ãĤīãģ«
Ġæ ¸
Ġæ İ¢
Ġæ ĦŁãģĺ
Ġæ ··ä¹±
Ġæ ¶Īéĺ²
Ġæ ³¨æĦı
Ġæ Ħļãģĭãģª
Ġæ ´Ĺ
Ġæ Ŀ±
ãĤ¯ ãĥ¼ãĥ«
ãĤ¯ ãĤµ
ãĤ¯ ãĥĢ
ãĤ¯ ãĥ©ãĤ¤
ãĤ¯ ãĥ¬ãĤ¤
ãĤ¯ ãĥŃãĥ³
ãĤ¯ ãĥ«ãĥ¼
ãĤ¯ ãĥĭãĥĥãĤ¯
ãĤ¯ ãĥ«ãĥ¼ãĤ¬ãĥ¼
ãģĳ ãģ¦
ãĤĴå Ļ
ãĤĴå īį
ãĤĴå ĪĨ
ãĤĴå Ĺħ
ãĤĴå ½ĵ
ãĤĴå ĪĳåĭĻæīĢ
ãĤĴå §Ķ
ãĤĴå ĨĴ
ãĤ¤ ãĥģ
ãĤ¤ ãĤ¹ãĥĪ
ãĤ¤ ãĥİ
ãĤ¤ ãĥ¼ãĥĸãĥ«
ãĤı ãģĦãģĦ
ãģĪ ãģŁãģ®
äºº ãĤĴ
äºº ãģ§ãģĻãģĭ
äºº ç¨®
ãĥĪ ãĥŁãĥ¼
ãĥĪ ãĥªãĥ³ãĤ°
Ġç§ģãģ¯ ä¸Ģ
Ġç§ģãģ¯ ãģĻãģ¹ãģ¦
Ġç§ģãģ¯ ãģĿãģĵ
Ġç§ģãģ¯ ãĥīãĤ¢
Ġç§ģãģ¯ æľ¬å½ĵ
Ġç§ģãģ¯ è¡ĮãģıãĤı
Ġç§ģãģ¯ æ°Ĺãģ«ãģĹãģªãģĦ
Ġç§ģãģ¯ è¡ĮãģĭãģªãģĳãĤĮãģ°ãģªãĤīãģªãģĦ
Ġç§ģãģ¯ ãģ©ãģĵãģ§ãģĻãģĭ
ãģ¡ ãĤĵ
ãģ¡ ãĤīãģĭ
ãģĻãĤĭ ãģĵãģ¨ãģĮãģ§ãģįãģŁ
ãĥ« ãĥĲ
ãĥ« ãĥĦ
ãģ¤ ãģ¶
ãģĤãģªãģŁ ãĤĤ
ãģĤãģªãģŁ ãĤĴæĦĽ
ãģĤãģªãģŁ ãģ®å®¶
ãģĤãģªãģŁ ãģ®äººçĶŁ
ãĥª ãĤ¸
ãĥª ãĥĥãĥĪ
ãĥª ãĤµ
ãĥª ãĤ·ãĥ£
ãĥª ãĤ³ãĥ³
ãĥª ãĥķãĥĪ
ãĥª ãĥ©ãĥĥãĤ¯ãĤ¹
ãĥª ãĥĹãĥªãĥ¼
ĠãģĿãĤĮ ãģ¯ä½ķ
ĠãģĿãĤĮ ãģ¯ãģĦãģ¤ãĤĤ
ĠãģĿãĤĮ ãģłãģĳãģ§ãģĻ
ĠãģĤãģªãģŁ èĩªèº«
ĠãģĤãģªãģŁ ãģ®å¨ĺ
ĠãģĤãģªãģŁ ãģ¯å¤§ä¸Īå¤«
ĠãģĤãģªãģŁ ãģ«ä¼ļãģĦãģŁãģĦ
ãĤģ ãģ£ãģŁ
ãĤģ ãĤĪ
ãģ«å °
ãģ«å ·
ãģ«å ¿ĥéħį
ãģ«å ¼ķãģį
ãģ«å ¹¸ãģĽ
ãģ«å ĥįãģĦãģ¦
ãģ«å ½¹
ãģ«å Ľº
ãģ«å ½±éŁ¿
ãģ«å ľ°çįĦ
èª ²
ãĥ© ãĤ¸
ãģ© ãģį
Ġãģĵ ãģ®åŃĲ
Ġãģĵ ãģ®ä»ķäºĭ
Ġãģĵ ãģ£ãģ¡
Ġãģĵ ãģ®ç¨®
åĪ °çĿĢ
ãģ®æ Ŀ
ãģ®æ Ī¦äºī
ãģ®æ ŃĮ
ãģ®æ Ĥ£èĢħ
ãģ®æ ĦŁæĥħ
å½¼ ãģĭãĤī
å½¼ ãģ¯å½¼
ãģĺ ãģŁ
ãģ®ãģĭ ãĤĤ
ãģ®ãģĭ åĪĨãģĭãĤīãģªãģĦ
ãģ®ãģĭ ãĤĤãģĹãĤĮãģªãģĦ
ãģĭãĤī ç§ģ
ãģĭãĤī ä½ķãģĭ
æĢĿ ãģ£ãģŁ
çŁ¥ ãĤĭå¿ħè¦ģãģĮãģĤãĤĭ
çŁ¥ ãģ£ãģ¦ãģĬãģı
è¦ĭ éĢĥ
ãģ¯æ ĤªãģĦ
ãģ¯æ ®ºäºº
è¡Į ãģįãģŁãģĦ
è¡Į æĸ¹ä¸įæĺİ
ãĤ£ ãĥ³
ãģĿãĤĮ èĩª
ãģĿãĤĮ ãĤĴè¦ĭãģŁ
ãģĦãģĦ ãģª
ãģĦãģĦ åŃĲ
ãĥī ãĥ¼ãĥĹ
ãĥī ãĥ¬ãĥĥ
å¤ ļåĪĨ
å¤ ªéĻ½
Ġç ĭĤ
Ġç ¨®
Ġç ½ª
Ġç ªĵ
Ġç ĲĨè«ĸ
Ġç ¶ºéºĹ
Ġç Ĩ±ãģĦ
Ġä½ķ ãĤĴçŁ¥ãģ£ãģ¦ãĤĭ
Ġä½ķ ãĤĴãģĹãģŁ
Ġä½ķ äººãģł
Ġä½ķ ãģ¨è¨Ģãģ£ãģ¦
Ġä½ķ æŃ³ãģªãģ®
ãĤĦ ãĤĮ
ä¸Ģ èĪ¬
ãĤį ãģĹãģı
ãģ«æ ĪĳãĢħ
ãģ«æ ķ°
ãģ«æ ºĢè¶³
ãģ«æ İĥéĻ¤
ãģĦãģŁ ãģĮ
ãģĦãģŁ ãģ®ãģĭ
ãģ¨æĢĿ ãģ£ãģ¦ãĤĭãģ®ãģŃ
ä¿ ³åĦª
ãģĬ ãģĭãģĹ
ãģĬ ãģĭãģĹãģĦ
ãģĬ è¨±ãģĹ
ãģĬ ä¸ĸè¾ŀ
ĠãģĿãģĨ ãģĭãĤĤãģĹãĤĮãģªãģĦ
ãģĦãģ¦ ãģĦ
ãģĦãģ¦ ãģªãģĦ
ãģĦãģ¦ ãģĦãģ¾ãģĻ
ãĤ· ãĥĥãĤ¯
ãĤ· ãĥĬ
ãĥ¬ ãĥŀ
ãĥ¬ ãĤ¨
ãĥ¬ ãĥ¼ãĤ¿ãĥ¼
ãĥĥãĤ¯ ãĥªãĥ³
ãĥŃ ãĤ°
ãĥŃ ãĤ³
ãĥŃ ãĥĥãĥĹ
ãĥŃ ãĥ³ãĤ°
ãĥŃ ãĥĭãĥ¼
ãĥŃ ãĥŀãĥ³
ãĥŃ ãĥĥãĤ³
äºĭ ãĤĴãģĻãĤĭ
äºĭ æ¥Ń
ãĤ¸ ãĥŁãĥ¼
è©± ãģĹãģŁ
ãģ«ãģ¯ ãģª
ãģ«ãģ¯ ãģ©ãĤĵãģª
ãģ«ãģ¯ ãģĦãĤīãĤĮãģªãģĦ
å® ĮçĴ§
ãģĤãĤĬ ãģ¾ãģĹãģŁ
ãĤ¿ ãĥł
ãĤ¿ ãĤ¤ãĥĹ
èª° ãģ¨ãĤĤ
ãģ®ç Ĺ
ãģ®ç ¥ŀ
ãģ®ç Ļº
ãģ®ç Ĭ¯ç½ª
ãģ®ç ³ŀ
ãģ®ç ©´
ãģ®ç ¤¾ä¼ļ
åĪĨ ãģĭãĤīãģªãģĭãģ£ãģŁ
ãģĮæ İ¢
ãģĮæ ģĭ
ãĤĵãģł ãģĮ
Įģ ãģ£ãģ¦ãĤĭ
Ġè ¬
Ġè £ı
Ġè ĪĮ
ãģ®ãĥ ¦
ãģ®ãĥ Ĵ
ä»Ĭ ãģ¯æ
ãĤĴç ¶ļ
ãĤĴç ¿Ĵ
ãĤĴç īĩ
ãĤĴç Ĭłçī²
ãĤĴç į²å¾Ĺ
ãģĹãģ¦ãĤĭ ãģĭ
ãĤ« ãĥ³
ãĤ« ãĤ¦ãĥ³
ãĤĴè¦ĭ ãģ¾ãģĹãģŁ
ãĤĴè¦ĭ éĢĥ
ãĤĴè¦ĭ ãģĽãĤĭ
ãģ«ãģª ãģ£ãģ¦ãģĦãģªãģĦ
ãĤ° ãĥ©ãĥ³ãĥĪ
æľ ¨
ãģŃ ãģĺ
ãģ£ãģ¦ãģĦãĤĭ ãģĭ
ãģĮå ħ
ãģĮå ¾ħ
ãģĮå ĩºæĿ¥
ãģĮå İŁåĽł
ãĥŀ ãĥĪ
ãĥŀ ãĥ«
ãĥŀ ãĤ¤ãĤ¯
ãĥŀ ãĥīãĥ¢ãĤ¢ãĤ¼ãĥ«
ãĥĹ ãĥ«
ãĥĹ ãĥ¬ãĤ¤
ãĥĩ ãĥĥãĥī
ãĥĩ ãĤ¿ãĥ©ãĥ¡
ãģ¯ç ¥ŀ
ãģ¯ç Ĺħæ°Ĺ
ãģ¯ç ī©
ĠãģĬ ãģĬ
ĠãģĵãĤĮ ãģĮæ
ĠãģĵãĤĮ ãģĮå
ĠãģĵãĤĮ ãģ¾ãģ§
ãģłãģĳ ãģłãģ£ãģŁ
ãģłãģĳ ãģ§ãģ¯ãģĤãĤĬãģ¾ãģĽãĤĵ
ĠåĲĽ ãģĮå
ĠåĲĽ ãģ¯ä½ķ
ĠåĲĽ ãģ®ä»ķäºĭ
ãĤĤãģ® ãģ§ãģĹãģŁ
ãĤĤãģ® ãģ§ãģ¯ãģĤãĤĬãģ¾ãģĽãĤĵ
Ġé ©ļ
Ġé ¢¨
Ġé īĦéģĵ
ãĤ¦ ãĥ«
ãĤ¦ ãĥŀ
ãĤ¦ ãĤ¬ãĥ«
ãģĪãģ¦ ãģĹãģ¾ãģ£ãģŁ
ãĤĴè £
ãĤĴè Ĥ²
ãĤĴè ¾ŀ
ä¸Ń ãģłãģ£ãģŁ
ãģĹãģ¦ãģĦãĤĭ ãģ®ãģ§
ãģ©ãģĨ ãģĹãģŁ
ãģ©ãģĨ ãģªãĤĭ
ãģ®é Ĥª
ãģ®é įµ
ãĥ¼ãĥ« å¤«äºº
ãģ®ãģŁãĤģ ãģ®ãĤĤãģ®
ãģ®è ĸ¬
ãģ®è ĪĮ
ãģ®è ·Ŀ
ãģĿãģĨ ãģ§ãģªãģĦ
ãģĿãģĨ ãģ«ãģªãģĦ
Ġå½¼å¥³ ãģ®
Ġå½¼å¥³ ãģ«ãģ¯
Ġå½¼å¥³ ãģ®åĲįåīįãģ¯
Ġå½¼å¥³ ãģĮæĪ»ãģ£ãģ¦
Ġå½¼ãģ¯ ä»Ĭ
Ġå½¼ãģ¯ ãģĤãģªãģŁãģĮ
Ġå½¼ãģ¯ ä½ķãĤĴ
Ġå½¼ãģ¯ ãģĿãĤĮãĤĴ
ãĤ³ ãĥĸ
ãĤ³ ãĥł
ç§ģãģ¯ ä»Ĭ
ç§ģãģ¯ ãģ¨ãģ¦ãĤĤ
ç§ģãģ¯ ãģ¡ãĤĩãģĨãģ©
ãĥĸ ãĥĥãĤ¯
ãĥĸ ãĥ¼ãĥĦ
ãģ¿ åĩºãģĻ
åı Ĺ
çŁ¥ãģ£ãģ¦ãĤĭ ãĤı
çŁ¥ãģ£ãģ¦ãĤĭ ãģ®ãģĭ
çŁ¥ãģ£ãģ¦ãĤĭ ãģłãĤį
ãĥĲ ãĤ¤ãĥ«
ãĥĲ ãĥ¼ãĥĬ
ãĥĲ ãĤ¸ãĥ«
ä¼ļ ãģĪãĤĭ
ãĤĤãģĹ ãģªãģĭãģ£ãģŁ
ĠãģĿãģĨãģł ãģ¨æĢĿãģĨ
ãĤŃ ãĤ¢
ãĤŃ ãĥĥãĥĳãĥ¼
ãĤĮãģŁ ãģĦ
ãĥģ ãĥ¼ãĤº
ãĥģ ãĥ¥ãĥ¼
Ġãģ§ ãģŁãĤīãĤģ
ãģłãģ£ãģŁ ãģ«éģķãģĦãģªãģĦ
ãģ¯ä½ķ æĻĤ
ãĥł ãģ¯
Ġãģª ãĤĵãģ§
ãĤĭãģ® ãĤĴ
ãĥĵ ãĤ¢
ãĤµ ãĤ¤ãĥī
ãĤµ ãĥªãĤ¨ãĥª
ĠãģĿãĤĮãģ¯ ãģŁãģłãģ®
ãĤĪãģĨãģ« ãģĹãģ¾ãģĻ
ãĥĭ ãĥ¥ãĥ¼
ãĥĭ ãĥ¥ãĥ¼ãĥĪ
ãģĵãģ¨ãĤĴ çŁ¥ãģ£ãģ¦ãģĦãģ¾ãģĻ
ãģĵãģ¨ãĤĴ çŁ¥ãģ£ãģ¦ãģĦãģŁ
Ġä»Ĭ ãģ®
Ġå½¼ãĤī ãģĮå
Ġå½¼ãĤī ãģ¯å½¼
Ġå½¼ãĤī ãģ¯ç§ģãģŁãģ¡
Ġå½¼ãĤī ãģ¯æĪĳãĢħ
Ġå½¼ãĤī ãģ¯å½¼ãĤĴ
ãģĵãģ¨ãģĮãģ§ãģį ãĤĭãģ¨
ãģĦãģªãģĦ ãģ¨
°ĳ å¹´
Ġæľ ¨
èĩª å·±
ãģĹãģ¾ãģĻ ãĤĪ
ł´ æīĢ
ãĤĤãģĨ äºĮåº¦ãģ¨
ĠãģĤãģªãģŁãģ¯ ä»ķäºĭ
ĠãģĤãģªãģŁãģ¯ ãģ¾ãģł
ĠãģĤãģªãģŁãģ¯ èī¯ãģĦ
ãĤª ãĥ¼ãĥĹãĥ³
Ġãģ§ãĤĤ ä»Ĭ
Ġãģ§ãĤĤ ãģĤãģªãģŁãģĮ
Ġãģ§ãĤĤ å½¼ãĤīãģ¯
Ġãģ§ãĤĤ ãģ©ãģĨãĤĦãģ£ãģ¦
Ġãģ©ãģĨ ãģĻãĤĭãģ®
ãģ¨è¨Ģ ãģ£ãģ¦ãĤĭãģ®ãģĭ
ãģ¨è¨Ģ ãĤıãģªãģĳãĤĮãģ°ãģªãĤīãģªãģĦ
ãĥªãĥ¼ ãĤ¹
æ°Ĺ ãģĮãģĻãĤĭ
è¡Įãģı ãģĭ
ãĥ¡ ãĥ¢
ãĥ¡ ãĥ³ãĤ¹
ãĥ¡ ãĤ¤ãĥī
ãĥ¡ ãĤŃãĤ·ãĤ³
ĠãģĤãģĤ ãģıãģĿ
ãĤĵãģ§ ãģªãģĦ
ãģĹãģªãģĦ ãĤı
é£ ¼
åĩº ãģĹãģ¾ãģĻ
éĩĳ ãĤĴå¼ķ
Ġãģªãģľ ãģĿãĤĵãģª
Ġãģªãģľ ç§ģãģ«
çļĦ ãģ§
ĠãģĦ ãģ¤ãģĭ
ãĤ¨ ãĥ³
ãĤ¨ ãĥĥãĥĪ
ãģ«ãģªãĤĭ ãģ¹ãģį
ãģ«ãģªãĤĭ ãģ¾ãģ§
ãģ®ãģŁãĤģãģ« ãģĵãģĵãģ«ãģĦãĤĭ
ä»ķäºĭ ãģĮãģĤãĤĭ
ä»ķäºĭ ãĤĴãģĹãģ¦ãĤĭ
ç· ĬæĢ¥
ç· Ĭå¼µ
ãĥĬ ãĥĢ
ä¿¡ èĢħ
ķı æĦŁ
çĽ £çĿ£
æĢ§ æĦĽ
æĢ§ æł¼
çī© åľĴ
ãĥŁ ãĥĭ
ãĥŁ ãĥ«ãĤ¯
ãĥŁ ãĥłãĤº
ãģ«åħ¥ ãĤĮãĤĭ
ĠãĤ¸ ãĥ«
éģķ åıį
ãĥ©ãĥ³ ãĥĩãĤ£
æĸ¹ ãģ§ãģĻ
ãģĵãĤĮ ãģ¯ç§ģ
ãģĵãĤĮ ãģ¾ãģ§
Ġäºº ãģ®çĶ·
å¼ ±
ãĥĢ ãĥ³ãĤ¹
ç§ģãģŁãģ¡ ãģ«
ç§ģãģŁãģ¡ ãģĮå
ç§ģãģŁãģ¡ ãģ¯å½¼
åį ±
åį ¿
æīĢ æľī
ãĢį ãĢĤ
Ī¶ è¦ª
ãĥĨãĤ£ ãĥ«
ãģĪãĤĭ ãģ¨
èµ ¤
èµ ¤ãģĦ
ãģ®ä¸Ń ãģł
ãģ®ä¸Ń ãģ§æ
çĲĨ åŃ¦
çĲĨ è«ĸ
çĲĨ çļĦãģ«
Ġç§ģãģĮ ä½ķ
æĺ ĵ
æĺ ¨æĻ©
ãĤ± ãĤ¤ãĥªãĥ¼
ãĤ± ãĤ¹ãĥ©ãĥ¼
åĲĽ ãģ«è©±
å¤§ ä½Ĳ
ãĤ¬ ãĥį
ãĤ¬ ãĥ«ãĥī
ãĤ¬ ãĥĨãĤ£ãĥĸ
ãĤ» ãĥ©ãĥ¼
ãĤ» ãĤ¯ãĤ·ãĥ§ãĥ³
ãĥĩãĤ£ ãĥİ
ãĥĩãĤ£ ãĤ¯ãĤ½ãĥ³
ãĥĩãĤ£ ãĥ¼ãĥ©ãĥ¼
Ġä¿º ãģ®
Ġä¿º ãģ¯æ
éł ħ
ĠãģĤãģªãģŁãģĮ ç§ģãģ«
ĠãģĤãģªãģŁãģĮ ãģĿãģĨè¨ĢãģĨ
ãģ§ãģ¯ãģªãģĦ ãģ¨
ãĤĴãģĻãĤĭ ãģ®ãģ¯
ãĤĴãģĻãĤĭ ãģĵãģ¨ãģĮãģ§ãģįãģ¾ãģĻ
ä¸ĭ ãģķãģĦ
ä¸ĭ å®¤
ãģ«è »Ĭ
ãģ«è ¶³
ãģ®äºº ãģŁãģ¡
å£ ģ
Ġãĥŀ ãĤ¤ãĥ³
ĠãĤ¢ ãĥ©
ĠãĤ¢ ãĥī
ä»ĸ ãģ«ä½ķ
ãģĴ ãģªãģĦ
ãĥĻ ãĤ¢
Ġç§ģãģ¯å ħ¨ãģ¦
ãĥľ ãĥĥãĥĪ
ãĥľ ãĥ¼ãĤ¤
ãĥľ ãĤ¿ãĥ³
ãĥľ ãĤ¹ãĥĪãĥ³
ãģªãģ® ãģŃ
å½¼ãĤī ãģĮä½ķãĤĴ
ãĥı ãĥ³ãĤ¯
ãĥı ãĥ¼ãĥīãĤ³ãĤ¢
Ġãģĵãģĵ ãģ«æĿ¥ãģ¦
Ġãģĵãģĵ ãģ«å±ħ
éĥ¨ éĸĢ
æŃ ´åı²
ãģļ ãĤī
å¿ħè¦ģ ãģĮãģĤãģ£ãģŁ
è» ½
ĠãģĿãĤĮãģ§ ä½ķ
ãģĻãģ¹ãģ¦ ãģ§ãģĻ
ãģĻãģ¹ãģ¦ ãģ®æ¨©åĪ©
ãģ«ç ŃĶ
ãģ«ç ©º
ãģ«ç ŃĶãģĪ
ãģ«ç ¹ĭãģĮ
¬² æľĽ
ä½ľ å®¶
ãĥį ãĤº
ãĥį ãĥ¼ãĤ¸ãĥ£ãĥ¼
®¶ æĹı
ĠãģĦãĤĦ å½¼ãģ¯
æĿ¥ ãģªãģķãģĦ
ãĥ¯ ãĥ¼ãĥł
ãĥ¯ ãĤ·ãĥ³ãĥĪãĥ³
ãĥ´ ãĤ©
ãģ¹ãģį ãĤĪ
ãģ¹ãģį ãģĺãĤĥãģªãģĦ
ãģ®ãĤĪãģĨãģ« èģŀãģĵãģĪãĤĭ
éħ ¸
è¨ĢãģĨ ãģĵãģ¨
è¨ĢãģĨ ãģ¨ãģĬãĤĬ
èģŀ ãģĭãģªãģĦ
èģŀ ãģĦãģ¦ãģĦãĤĭ
ãĥ¼ãĤ¯ ãĤ¹
Ġç§ģãģ¯ãģĤãģªãģŁ ãĤĴåĬ©ãģĳ
éļ Ķ
éĢļ éģİ
å± ķ
ãĥ¢ ãĤ°ãĥ©
ãĥ¢ ãĥĩãĥ«
ãģĤãģ£ãģŁ ãģ®
è¦ļ ãģĪ
Ġãĥī ãĤ¯ãĤ¿ãĥ¼
Ġå¤ ªéĻ½
æīĭ ç´Ļ
æĦı èŃĺ
Ġãĥķ ãĤ©
ĠãĤĤãģĨ ä¸Ģäºº
ĠãĤĤãģĨ è¡ĮãģĭãģªãģĦãģ¨
ãģ§ãģįãģªãģĦ ãģ®
ãģ§ãģįãģªãģĦ ãĤı
ãĤĴæ®º ãģĹãģ¦ãģªãģĦ
å¤« äººãģ¯
Ġå½¼ãĤīãģ¯ ãģĤãģªãģŁãĤĴ
ĠãĤ¹ ãĥ©
ĠãĤ¹ ãĥĶ
ĠãĤ¹ ãĥ¯
ĠãĤ¹ ãĤ¦ãĤ§
ãĥİ ãĥŁ
ãģ§ãģįãĤĭ ãĤĪãģĨãģ«
ãģªãģı ãģª
ãģ«è¡Į ãģĳ
ãģ«è¡Į ãģįãģªãģķãģĦ
ãĥĿ ãĤ¸
ãĥĿ ãĥ¼ãĥĪ
ãĥĿ ãĤ±ãĥĥãĥĪ
ãĥĿ ãĥ¼ãĤ¶ãĥ¼
ä½¿ ãģ£ãģŁ
ä½¿ åĳ½
ĠãĤ¯ ãĥŃ
éĿ ©
ä¹ ħ
å¹´ ãĤĤãģ®éĸĵ
ãģ¨ãģ¯ éĸ¢ä¿Ĥ
ãĥĽ ãĥ¼
ãĥĽ ãĥ¡
ãĥĽ ãĥ¼ãĥ³
ãĥĽ ãĥ¼ãĤ¯
ãĥĽ ãĥ¼ãĥ«ãĥī
ãģ«ãĤĤ ãģ£ãģ¨
ä¸į æŃ£
ä¸į å®ī
ãģ®åı ¯æĦĽãģĦ
ãĤĴè¦ĭãģ¤ãģĳ ãģ¾ãģĹãģŁ
ãĤĴè¦ĭãģ¤ãģĳ ãĤīãĤĮãģªãģĭãģ£ãģŁ
å¾ħ ãģ¦
ãģ¯ãģªãģĦ ãģ®ãģĭ
ä½ĵ ãģ¯
ä½ĵ ãģĮ
åĭķ ä½ľ
èĥ ¸
Ġãĥı ãĥ¼ãĥĩãĤ£
Ġãĥı ãĥªãĤ±ãĥ¼ãĥ³
ãģ«ä¼ļ ãģĬãģĨ
ç§ģãģĮ ãģĤãģªãģŁ
ç§ģãģĮ å½¼
Ġä¸Ģ éĥ¨
åĲĪ è¡Ĩ
ãĤ·ãĥ¼ ãĤº
ĦŁ éĬĺ
ãģ«ãģ¯å ħ¥
ãģ«ãģ¯å įģåĪĨ
ãģ®ä»ķäºĭ ãģł
ĠãĤĦ ãģ£ãģŁãģ®ãģĭ
ãĥķãĤ£ ãĥ¼ãĥ«ãĥī
ãĥķãĤ£ ãĥ«ãĥł
ãģ¨è¨Ģãģ£ãģŁ ãĤı
ãģ¨è¨Ģãģ£ãģŁ ãĤıãģŃ
Ń£ çĽ´
ãģĦãģ¾ãģĽãĤĵ ãģĭ
ĠãĥĢ ãĥ¼ãĥªãĥ³
èĢĥãģĪ ãĤį
æľĢ æĤª
æľĢ åĸĦ
ĠãģĦãģĦãģĪ ãģ§ãĤĤ
ĠãĤª ãĤ¦
éĽ»è©± ãĤĴ
éĽ»è©± ãģĹãģ¦
¯į è¦ª
ãĤ¶ ãĤ¤ãĥ³
ãĥĥãĤ¯ãĤ¹ ãĥŁãĤ¹
å®¶ ãģł
ãĤ·ãĥ¥ ãĤ¿
è² »
Ġå¹´ ãģ«
ãģ®æľ ¬å½ĵ
ĠãĥŃ ãĥĬãĥ«ãĥī
åĤ ¾åĲĳ
ãģĻãĤĭãģ® ãģ¯æ
ãĥªãĤ¢ ãĥ«
¾Į ãĤį
ãĥ³ãĤ¹ ãĥŃãĥ¼
èĥ½ åĬĽ
Ġãĥª ãĥ³
Ġãĥª ãĤµ
Ġãĥª ãĥĥãĤŃãĥ¼
ĠãĤ¤ ãĤ«
ĠãĤ¤ ãĥ³ãĥĩãĤ£
ĠãĤ¤ ãĥ³ãĤ¿
ĠãĤ¤ ãĥ©ãĤ¯
ãĤīãĤĮãģªãģĦ ãģ®ãģĭ
åĪĩ ãĤĮ
ãģĮç ¥ŀ
ãģĮç ľŁ
ãģĮç ĭĤãģ£ãģŁ
ĠãģĿãģĹãģ¦ ç§ģ
ãģŁãģ® ãģ¯åĲĽ
ãģłãģ¨ ãģĹãģŁãĤī
çŁ¥ãĤīãģªãģĦ ãģĮ
çŁ¥ãĤīãģªãģĦ ãĤı
ãĥģãĥ£ ãĥ¼
ãĥģãĥ£ ãĥĥãĥĪ
ãĥģãĥ£ ãĥ¼ãĥªãĥ¼
åĮ ħ
åĮ Ĺ
ãģ®ä¸Ģ äººãģł
èº« ãģ§ãģĻ
Ġå½¼ãģ¯å į
Ġæĺ İãĤīãģĭãģ«
ãģ®è©± ãĤĴèģŀãģĦãģŁ
è¦ļãģĪãģ¦ ãģĦãģªãģĦ
ãĥ¼ãĤ¸ ãĥ§
ĠãĥĪ ãĥ¬
ĠãĥĪ ãĥŁãĥ¼
ĠãĥĪ ãĥªãĥĥãĥĹ
ĠãĥĪ ãĥ«ãĤ³
èĢĥãģĪãģ¦ ãĤĭ
èĢĥãģĪãģ¦ ãģĦãģ¾ãģĻ
èĢĥãģĪãģ¦ ãĤĭãģ®
ãģĮãģĦãģĦ ãģ®ãģĭ
Ġåı ¤ãģĦ
ĠæľĢ æĤª
ãģ®ä¸Ĭ åı¸
ãģ®æĸ °
æĻĤéĸĵ ãģĮãģĤãĤĭ
æĻĤéĸĵ ãĤĴãģıãĤĮ
ãģĿãĤĵãģª ãģĵãģ¨ãģ¯
å° Ĭæķ¬
ãĤīãģĽ ãģ¦
ãĤīãģĽ ãģªãģĦ
ãĤīãģĽ ãģ¦ãģıãĤĮ
éĢĥ èµ°
ãĤĴãģĹãģ¦ ãģŁ
ãĤĴãģĹãģ¦ ãģĦãģ¾ãģĹãģŁ
ãĤĬãģŁãģĦ ãģ®
ĠãĤ³ ãĥ³
ãģ«æĪ» ãĤĮ
æĦĽ ãģĹãģ¦ãĤĭ
ãģ§æ Ĵĥ
ãģ§æ įķãģ¾
Ġå® īåħ¨
Ġå® ĹæķĻ
ãĤĪãģı ãĤĦãģ£ãģŁ
ĠãģĿãĤĮãģĮ ä½ķãģĭ
ãĤ·ãĥ£ ãĥĥãĥĪ
ãĤ·ãĥ£ ãĥ¼ãĥĹ
ãĤ·ãĥ£ ãĥ³ãĤ¯ãĤ¹
ãģĮå¿ħè¦ģ ãģªãĤĵãģł
Ħı è¦ĭ
ĠãĤ· ãĥ¼
ãĤĪãģĨãģ¨ ãģĹãģŁ
ãĤ¸ãĥ§ ãĥ¼
ãĤ¸ãĥ§ ãĥ¼ãĤ¯
ãĤĴè¦ĭãģ¦ ãģįãģŁ
ãĤ¤ãĥ« ãĤº
ãĤ¤ãĥ« ãĥ©ãĥ³ãĥī
ãģĮæľ Ľ
çĻº ä½ľ
ãģ¨ãģĵãĤį ãģł
ãĤ² ãĤ¤
ãĥ¼ãĥĹ ãĥ«
ä½ķãĤĤ çŁ¥ãĤĬãģ¾ãģĽãĤĵ
ãģ¯åĲĽ ãģ«
äºĮ éĩį
ĠãĤµ ãĥ³ãĥĩãĤ£
ĠãĤµ ãĥ³ãĥĹãĤ½ãĥ³
Ġèĩª çĻ½
ç§ģãģ« çŁ¥ãĤīãģĽ
ãģĵãģĵãģ« ãģĦãģ¦
ĠãĤ« ãĥĥãĥĪ
ĠãĤ« ãĥ¡ãĥ©
ãģ®ä¸Ńãģ§ æľĢãĤĤ
ãĤĴä½ľ ãĤįãģĨãģ¨
Ġçµ Į
Ġçµ ĤãĤı
éĢģ ãĤĬ
Ġèª°ãģĭ ãģĮç§ģ
éĥ Ĭå¤ĸ
æĸ¹æ³ķ ãģĮãģĤãĤĭ
ãĤĬãģ¾ãģĽãĤĵ ãģĭ
ãģ«åĩº ãģĭãģĳ
ĭĤ ãģ£ãģ¦ãģĦãĤĭ
ãĤĴèª ĵ
ãĤĴèª ĺ
ãĤĴèª ĩãĤĬãģ«
ãĥ¤ ãģ¯
ãĤģãĤĭ ãģĵãģ¨
ĠãĤ¸ãĤ§ ãĥ¼ãĥłãĤº
ãĤĴå¾Ĺ ãĤĭãģĵãģ¨ãģĮãģ§ãģįãģ¾ãģĻ
ĠçŁ¥ãģ£ãģ¦ãĤĭ ãĤı
ãĥĴ ãĥł
ãĥĴ ãĥ¼ãĥŃãĥ¼
ãģĮå¥½ãģį ãģª
ãģĮå¥½ãģį ãģªãĤĵãģł
ãģłãģ¨æĢĿ ãģ£ãģ¦ãģĦãĤĭ
ãģłãģ¨æĢĿ ãģ£ãģ¦ãĤĭãģ®
Ġãĥ© ãĤº
çĶŁãģį çī©
æĦıåĳ³ ãģĮãģªãģĦ
ãĥŀãĥ³ ãģ¯
ãĥŀãĥ³ ãĥĢ
éĸĭ å§ĭ
éł¼ ãģ¾ãĤĮãģŁ
ãĤĴåĲ «
åĽŀ ãĤĤ
èŃ¦ åĳĬ
ĠãģĿãĤĮãģ¯å ħ
ĠãģĿãĤĮãģ¯å ķıé¡Į
åıĸ ãĤĭ
Ġãĥľ ãĤ¹ãĥĪãĥ³
Ġèģŀ ãģĳ
Ġèģŀ ãģĦãģŁ
ãĤ³ãĥ³ ãĥĿãĥ¼ãĤ¶ãĥ¼
åĤĻ åĵ¡
Ġç§ģãģ« ä½ķãģĭ
ĠãĤŃ ãĥĨãĤ£
ĠãĤŃ ãĥªãĤ¹ãĥĪ
é£² ãĤĢ
ĠæĻĤéĸĵ ãģ¯
ĠæĻĤéĸĵ å¾Įãģ«
ãģĬåīį ãģł
Ġèª°ãĤĤ çŁ¥ãĤīãģªãģĦ
çĲĨçĶ± ãģ§
ĠãģķãģĤ è¡Įãģĳ
ãĥ´ãĤ¡ ãĥ¬ãĥ³ãĤ¹
ãĤ´ ãĥł
Ġãĥĵ ãĤ¢ãĥ³ãĤ«
ĠéĽ ¨
ĠéĽ ¢å©ļ
çĿĢ ãģı
ĠãģĿãĤĵãģª ãģĵãģ¨ãģ¯ãģĹãģªãģĦ
ãĤĴè² ¸
ãĤĴãģĬ è¦ĭãģĽ
Ġãĥ¬ ãĥĥãĥī
ĠãĤ¸ãĥ§ ãĥ¼ãĤ¤
ãģ®åł´æīĢ ãģ§
ãģ®éĸĵ ãģ«
èªį ãĤģãĤĭ
è»į éļĬ
ãĤīãĤĮãĤĭ ãģĭ
ãĤĤãģ£ãģ¨ èī¯ãģĦ
ãĤ¯ãĥ© ãĥĵãĤ¦ãĤ¹
ŃĲä¾Ľ ãģ®éłĥ
ãģ¨ãģĦãģĨãģĵãģ¨ãģ§ãģĻ ãģŃ
ĠãģĿãĤĮãģ¯æ ĪĳãĢħ
ĠãģĿãĤĮãģ¯æ Ń£ãģĹãģĦ
¹³ æ°ĹãĤĪ
æĤª å¤¢
ãģĭãģĳ ãģ¦
ãģ¨åĳ¼ ãĤĵãģ§
ãģ¨åĳ¼ ãģ³
Ġä¸ĩ äºº
Ġä¸ĩ ãĥķãĥ©ãĥ³
Ġä¸ĩ ãĥĿãĥ³ãĥī
æ¸ ©
ãģ¸ ãģ®æ
ĠãĥĻ ãĥ³
ĠãĥĻ ãĤ¤
ĠãĥĻ ãĤ¤ãĥĪãĥŀãĥ³
ãģ®ãĥĳ ãĥĥãĤ±ãĥ¼ãĤ¸
åķıé¡Į ãģł
æŁ Ħ
æ¯į æ§ĺ
ĠãĥĽ ãĥ¯ãĤ¤ãĥĪãĥıãĤ¦ãĤ¹
å¥³æĢ§ ãģł
ä¾¡ æł¼
ĬĢ è¡ĵ
ĠãĥŁ ãĥ¥ãĥ¼ãĥ©ãĥ¼
ãģĵãģ¨ãģ¯ãģªãģĦ ãģłãĤįãģĨ
ãģĭãģ©ãģĨãģĭ ãģ¯
ãģĿãģ® è¨Ģèĳī
ãģĿãģĵãģ« ãģĤãĤĭ
åįĺ ç´Ķ
éĢ±éĸĵ ãĤĤ
é«ĺ æł¡
Ġåį ĬåĪĨ
ãĥ³ãĥĲãĥ¼ ãĤ¬ãĥ¼
Ġãĥĭ ãĤ¬ãĥ¼
ãģĹãģ¦ãģĦãģªãģĦ ãģ®
ãģ¯å¤ ¢
Ġãģ©ãģĵãģ« ãĤĤ
å§ĭ ãĤģãģŁ
ãģłãģĭãĤī ãģł
Ġå½¼ãģ¯æ ĺ
ç¤¾ ä¼ļ
ãĤīãĤĮ ãģ¾ãģĻãģĭ
Ġç§ģãģ«ãģ¯ ãģĿãĤĮãģĮ
æķ° æĸĻ
è¨ĪçĶ» ãģĹãģŁ
ãĤĴåĩº ãģĹãģ¦
ãģ®åıĭäºº ãģł
Ġåħ ¬
Ġåħ ĥæ°Ĺ
ãĤ¤ãĤ¹ ãĤŃãĥ¼
ãģ¨ãģĦãģĨãģĵãģ¨ ãģ«ãģªãĤĭ
ĠãģĻãģ¹ãģ¦ ãģ®æ¨©åĪ©
ķ° å¸¸
Ľŀ å¾©
ãĤĴä¿¡ãģĺ ãģ¦ãģıãĤĮ
ĠãģĤãģªãģŁãģ¯ç ´łæĻ´ãĤīãģĹãģĦ
ĠãģĤãģªãģŁãģ¯ç ĭĤãģ£ãģ¦ãģĦãĤĭ
Ġãĥŀãĥŀ ãģ¨
æĽ¸ ãģį
ãģ«ãģ¨ãģ£ãģ¦ ãģ¨ãģ¦ãĤĤ
ãģĮå½¼ ãĤĴ
Ġãĥ¡ ãĥĥãĥĦ
Ġãĥ¡ ãĥ¼ãĥĪãĥ«
å¤ī åĮĸ
ãĤĴçĲĨè§£ ãģĻãĤĭ
åįļå£« ãģ¯
ãĤĴå¤± æľĽ
ãĥ¥ãĥ¼ãĥ Ĳ
ãĥ¥ãĥ¼ãĥ ģãĥ£
Ĭ¯ äºº
ãĤĴéĢ£ãĤĮãģ¦ ãģıãĤĭ
è©¦ ãģĹãģ¦ãģ¿
å¼µ ãĤĬ
Ġå®Ł ãĤĴè¨ĢãģĨãģ¨
ĺ² ãģĲ
ãĥ¼ãĥķ ãĤ¡
ãģ®åį Īå¾Į
ĠæĦĽ ãģĹãģ¦ãĤĭãĤı
æľĿ é£Ł
æĸĻ çĲĨ
æİ ¨æ¸¬
ãĥĺ ãĥ¬ãĥ³
ãĥĺ ãĥ³ãĥªãĥ¼
Ġå¥ ½ãģį
éģ¸æĬŀ ãģĹãģŁ
ãĤĴæĬ ¼ãģĹ
ĠãĤ° ãĥŃ
ãĥ©ãĤ¹ ãĥģãĥĥãĤ¯
ãĥŃãĥ¼ ãĤ¼
ãĥŃãĥ¼ ãĤ¬ãĥ³
Ġä»Ĭãģ¯ ãģ¾ãģł
ãģĵãģ¨ãģ«ãģªãĤĭ ãģłãĤįãģĨ
ãģ®ãĥĲ ãĥ¼
åħĪ ãģ«
ãģ®ãģĬ çĪ¶ãģķãĤĵ
ãģ®ãģĬ æ°Ĺãģ«åħ¥ãĤĬ
ãĤĴåĳ¼ ãģ¹
Ġç§ģãģ¯ç ľł
Ġæľ¬å½ĵãģ« ãģĶãĤģãĤĵãģªãģķãģĦ
ãģ®åħ Ī
ĠæŃ ©
ĠæŃ Į
ãģ¯ä½ķãĤĤ çŁ¥ãĤīãģªãģĦ
Ġãĥ¯ ãĥ¼ãĥł
Ġãĥ¯ ãĤ·ãĥ³ãĥĪãĥ³
ãģ®å¤§ ãģįãģķ
ãĥ¬ãĥ¼ ãĤ·ãĥ§ãĥ³
ãģĮæŃ» ãĤĵãģ§ãĤĭ
ãĤĴçĽ £è¦ĸ
Ġç§ģãģ¯å½¼å¥³ ãģ«
Ġå¾ħ ãģ£ãģ¦
Ġãĥ« ãĥİãĥ¼
ãģĹãģ¦ãģªãģĦ ãĤı
ãģĻãĤĭãģ¤ãĤĤãĤĬ ãģ§ãģĻ
Ġä½ķãģĮãģĤãģ£ãģŁ ãģ®ãģĭ
ãĥĸãĥ© ãĥĥãĤ¯ãĤ¹ãĥŁãĤ¹
ĠãģĦãģ¤ ãģĭãĤī
ĠæĺİæĹ¥ ãģ¯
æĪĲ ãģĻãĤĭ
æĪĲ éķ·
ãĤĴé Ĥª
ãĤĴé ĺ²ãģĲ
å¼· åĪ¶
æĽľ ãģ®å¤ľ
ç§ģãģ¯æ Ŀ¥
ĠãĥĿ ãĥ«ãĥİ
äºĪ åĤĻ
ãģ«ä¹Ĺ ãĤĬ
ãĤĴè¦ļãģĪãģ¦ ãģĦãĤĭ
Ġç§ģãĤĴ ä¿¡çĶ¨
ĠãĤ» ãĥĥãĤ¯ãĤ¹
ĠãģĿãĤĮãģ¯ç ľŁå®Ł
ãģĮæĿ¥ ãģŁ
ãĤĴçµ Įé¨ĵ
ãĤĴçŁ¥ãĤīãģªãģĦ ãģ®ãģĭ
é¦¬é¹¿ ãģĺãĤĥãģªãģĦ
ĠçĶ· ãģł
ĠçĶ· æĢ§
ãĤĴé£² ãĤĢ
Ġæīĭ éģħãĤĮ
Ġæ¬¡ ãģ®
éĻ¢ èŃ°åĵ¡
éŁ³ ãģĮ
ç§ģãģ¯ç Ĺħæ°Ĺ
ãĥ¼ãĥĬ ãĥĥãĥĦ
ãĤĴæĦŁãģĺ ãģŁ
ãģ¯æĺ İãĤīãģĭ
ãģ«æīĭ éħį
ãĤĴç½® ãģįåİ»ãĤĬãģ«ãģĹãģŁ
ãģ®è² ¡å¸ĥ
ĠæľĢåĪĿ ãģ®
ĠæľĢåĪĿ ãģ¯
ç¨® é¡ŀ
ãĤĴå¿ĺ ãĤĮãĤĭãģª
ãĥķãĤ© ãĥ¼ãĥī
ãĥķãĤ© ãĥ¼ãĤ¹
ãĥķãĤ© ãĥ¼ãĥł
ĠéĿ ŀ
æ°ĳ åľ°
ç¾© åĭĻ
èħ Ĳ
ĠD NA
ãģ®ä¸ĭ ãģ§
ãģ«ãģĬ ãģĳãĤĭ
ãģ£ãģ ½ãģĦ
ĠåŃĲä¾Ľ éģĶ
ãģ®å® Ł
ãĤ¯ãĥª ãĥĥãĥĹ
æħĭ åº¦
éŃ Ĥ
Ġä¸Ń æµģ
Ġä¸Ń ãģ«åħ¥ãģ£ãģ¦
ģ¥ ãĤĴãģĭ
äº¤ å·®
äº¤ æıĽ
ãĥ¼ãĥŃ ãĤª
ãĥĪãĥ¬ ãĥ¼ãĥĢãĥ¼
ãģ®ãĥĿ ãĤ¹ãĥĪ
ãģłãģĳãģ§ ãģªãģı
ãĤĴè¿½ãģĦ æīķ
µģ ãĤĮ
¼Ķ æĬĢ
æ¯ İæĹ¥
éĺ² è¡Ľ
Ġéĩĳ åº«
ãģĤãģĴ ãĤĭãĤı
ãĤĴå¼ķãģį ãģļ
äººãĢħ ãģĮ
æ±º ãĤģ
ãģĭãĤı ãĤīãģļ
Ġç§ģãģĮæ Įģ
ãĤ¯ãĥŃ ãĥĹãĤ¹
ĠéĻ į
æŃ³ ãģ®æĻĤ
ãĤĴå¿ħè¦ģãģ¨ ãģĹãģ¦ãģĦãĤĭ
ãĤĴå¿ħè¦ģãģ¨ ãģĹãģªãģĦ
éĮ ł
Ġç§ģãģ®å ¿ĥ
äºĭãĤĴ ãģĹãģªãģĦ
ãģ®ãĥĨ ãĥ¼ãĥŀ
ĠãĥķãĤ¡ ãĤ¤ãĥ«
®ĭãĤĬ ãģ®äººçĶŁ
Ġä¸Ģä½ĵ ä½ķ
æľĢå¾Į ãģ«
Ġå°ĳ å¹´
è¨Ģãģ£ãģ¦ãĤĭ ãĤĵãģł
ä¼ļãģĦ ãģ¾ãģĹãĤĩãģĨ
çµĤãĤı ãģ£ãģ¦ãģªãģĦ
ãĤĴçĽĹ ãĤĢ
ĠãģĺãĤĥ ãģªãģľ
ĠãģĺãĤĥ ä½ķãģł
ĠM I
Ġè¡Įãģĭ ãģĽãģ¦
ĠåĢ ĭ
ãĤĴçĿĢ ãģ¦
Ġéł ¼
ãģ«ä¼ļãģĨ ãģĵãģ¨
ºĢ ãģŁ
ç¬ĳ ãģĹãģĦ
Ġè©± ãģĮãģĤãĤĭ
Ġç§ģãģĮå ¿ĥéħį
ãģ¯åħ Ī
ĠçĪ¶ ãģ¯
ĠçĪ¶ è¦ª
æĸ° é®®
ãĥĶãĥ³ ãĤ«ãĥ¼ãĥĪãĥ³
ĠãĤŃãĥ£ ãĥĹãĥĨãĥ³
ãģ®å°ĳå¹´ éģĶ
å§ Ķåĵ¡ä¼ļ
ĠãĤĪãģı ãĤĦãģ£ãģŁ
ãĤĴå½¼ ãģ«
ãĤĴå½¼ å¥³
ãģ®ãĥ¡ ãĥ¢
ãĥĹãĥ©ãĤ¤ ãĥĻãĥ¼ãĥĪ
çµ¶ æľĽ
éĸĵéģķãģĦ ãģł
½ĵ çĦ¶
æŀ ¶
é©ļ ãģĦãģŁ
ãĤĴãĤĦ ãĤģ
Ġãĥł ãĥĥãĤ·ãĥ¥ãĥ¼
ĠãĤ² ãĥ¼ãĥł
è¦ĭãģ¤ãģĳ ãģŁ
çĨ Ł
èĬ Ŀ
éŃĶ å¥³
ãģĦãģ¤ ãģ§ãĤĤ
ĠåĬ©ãģĳ ãģ¦
ãĥ¼ãĥ¬ ãĥĥãĥĪ
ãĥ¼ãĥĩ ãĥ³
ãĤĴæĶ¾ ãģĽ
ãģ«ç«ĭ ãģ¡
ĠåĨĹè«ĩ ãģłãĤĪ
éĻįãĤĬ ãĤĭ
ãĤĴè¨ĢãģĨ ãģª
ãĤĴæİ Ĵ
ãģ¯å®¶ ãģ«å¸°
Ġç§ģãģ¯ãģĤãģªãģŁãģĮ å¥½ãģįãģ§ãģĻ
ãģ«åĪ ĩãĤĬ
ãģ¯æľ¬ çī©ãģł
Ġä¸Ģäºº ãģ®çĶ·
ãģ¨åĳ¼ãģ° ãĤĮãģ¦ãĤĭ
ãĤĴãģĹ ãĤĪãģĨ
ãĥ³ãĥĹ ãĤŃãĥ³
Ġãĥ´ ãĤ¡
ãĤĴæ¸¡ ãģĽ
ãģ®éĽ Ĩ
ãģ«åĲĳ ãģĭãģ£ãģ¦ãĤĭ
éĢ®æįķ ãģķãĤĮãģŁ
Ġä¸į æĢĿèŃ°
ãĤ¾ ãĥ¼ãĥ³
ãĤ·ãĤ§ ãĥ¼ãĥī
ãģ®èĭ ±
Ġå¤ī ãģª
Ġè¦ļãģĪãģ¦ ãĤĭãĤı
ãģ¯ãģļ ãģłãģ£ãģŁ
Ġåīį ãģ«
Ġä½ķãģ¦ ãģĵãģ¨ãģł
åħ¬ å¼ı
ãģ®ãĤĪãģĨãģ«æ ĦŁãģĺ
ĠãģĻãģ¿ãģ¾ãģĽãĤĵ ãģĮ
æľĢåĪĿ ãģ¯
èĭ± åĽ½
°¸ ä¹ħ
æ» ŀåľ¨
ĠãĥĴ ãĥ¥
ĠãĥĴ ãĥĥãĤ¯ãĤ¹
ãģ®åĪ ĩ
ä¾ĭ å¤ĸ
èĪĪåĳ³ ãģĮãģĤãĤĭ
ĠèģŀãģĦãģ¦ ãĤĭãģĭ
ãģĭãĤīåĩºãģ¦ è¡Įãģĳ
±¡ å¾´
æģĲ æĢĸ
ĠO K
Ĩį ãģ³
Łº åľ°
ãģ®èĥ Į
ãĤªãĤ« ãĥ¡ãĥ©
ĠãĤ·ãĥ£ ãĥĦ
ĠãĤıãģĭãģ£ãģŁ ãĤı
ĠãĤıãģĭãģ£ãģŁ ãģŀ
ĺĺãĤĴãģ¤ ãģıãģª
æĶ¿ å©¦
æĶ¿ åºľ
Ġå¯ Ŀ
Ġç§ģãģ®äººçĶŁ ãģ§
Ġä½ķãģĮèµ· ãģį
ãĤĴè§£ æĶ¾
ãģ®é« ĺãģĦ
åıİ å®¹æīĢ
å¯Ŀ ãģŁ
Ġéķ·ãģĦ æĻĤéĸĵ
ãģ«ä»» ãģĽãĤį
Ġå· ¦
ãĤĤãģ¡ãĤį ãĤĵãģł
ĠæĿ¥ éĢ±
ãĤĴåħ¥ ãĤĮãģŁ
ãĤĴåħ¥ æīĭ
Ġçī¹ ãģ«
ä»Ĭãģ¾ãģ§ ãģ«
ãĥ´ãĤ§ ãĥ³
ĠãĤ¯ãĥªãĤ¹ ãĥŀãĤ¹
ĠãĥģãĤ§ ãĤ³
æĪ»ãģ£ãģ¦ ãģıãĤĭ
ãģ®ãģ¯ç °¡åįĺ
ãģ¯ãģĤãĤĭ ãģ®ãģĭ
ãĤĴä¿Ŀ æĮģ
ãĤĴä¿Ŀ è¨¼
ãģĹãĤĪãģĨ ãģ¨ãģĹãģ¦ãģĦãģŁ
ä½İ ãģĦ
ãģ®å° »
ãģ®æĮĩ ç¤º
Ġèµ ¤ãģĦ
åħī æłĦãģ§ãģĻ
ãĥĲãĥĥãĤ¯ ãĤ¢ãĥĥãĥĹ
çµĲ ãģ³
ĠåĪĨãģĭãģ£ãģŁ ãģĭ
Ġæ°ĹåĪĨ ãģĮèī¯
Ľ´ æİ¥
ãģ®ãĥķãĤ¡ ãĥ³
Ġå¼ ¾
Ġå¼ ģèŃ·å£«
ãĤĴæľŁå¾ħ ãģĹãģ¦ãĤĭãģ®
ãĤĴå° İ
ãģĦãģĦãģ®ãģĭ ãĤıãģĭãĤīãģªãģĦ
Ġç¬¬ äºĮ
å¿ĺ ãĤĮãģŁ
ãĤĴæīĵ ãģ¡
ãĤĴæīĵ ãģ¤
å¤īãĤı ãĤĭ
å¤īãĤı ãĤīãģªãģĦ
ĠãĥĹãĥŃ ãĥł
ãĤĴæĢĿãģĦåĩº ãģĽãģªãģĦ
é» ĴãģĦ
Ġç§Ĵ ãģ§
ãĤ¹ãĥĬ ãĥĥãĥķ
èª¤ åĭķä½ľ
çŁ¥ãĤĬ ãģŁãģıãģªãģĦ
ãģ®ç´ °èĥŀ
Ġå½¼ãģ¯ä½ķ ãģ¨
Ġå½¼ãģ¯ä½ķ ãģ¨è¨Ģãģ£ãģŁ
ä¾µ çķ¥
ĠäººãĢħ ãģ¯
ãĤĴåıĹãģĳåıĸ ãģ£ãģŁ
ãģ«å¤ī ãĤı
ãģ«åĲĳãģĭ ãģ£ãģ¦
ĥæ°Ĺ ãģ§ãģĻ
ãĤĴçĶŁ ãģĭ
ãģĻãģ§ ãģ«
ĠåĮ ĸåŃ¦
ãĥ³ãĥĢ ãĥ¼ãĥ©ãĥ³ãĥī
ãĤĴå£Ĭ ãģĻ
ãĤĴå¥ª ãģ£ãģŁ
ãģ«æŃ» ãĤĵãģł
ãģ«æģĭ ãĤĴãģĹãģ¦ãģĦãĤĭ
ãģĵãģĵãģ«æĿ¥ ãģŁãģ®
ãĥĶãĤ¢ ãĥİ
ãĥĿãĥĥãĥĹ ãĤ¹
ä¸įæĢĿèŃ° ãģ«æĢĿ
ãģ©ãģĵãģĭ ãģ§
Ġä»ĸãģ® èª°ãģĭ
Ġçµ¶ æľĽ
å·® ãģĹ
å·® åĪ¥
ãĤĴåıĸãĤĬæĪ» ãģĻ
ĠåĢĭäºº çļĦãģ«ãģ¯
le s
å» ·
ç¨ ¿
ç¯ Ģ
ãģ¯ãģ©ãģĵãģ« ãģĦãģŁãģ®
ãģĹãģ¦ãģ¿ ãģ¦ãģıãģłãģķãģĦ
ãģ®æ©Ł æ¢°
ãģ®ãĥĽ ãĥĨãĥ«
Ġé¦¬é¹¿ ãģªãģĵãģ¨ãĤĴ
ãĥĢãĤ¦ãĥ³ ãĤ¿ãĤ¦ãĥ³
å¯Ħ ãĤĬ
éļİ ç´ļãģ®é»Ĵäºº
ä¹¾ çĩ
åī² ãĤĬå½ĵãģ¦
¤į æ°ĳåľ°
ç³ ĸ
ãĤĴãģķãģĽ ãģ¦ãģıãģłãģķãģĦ
ĠãģĤãģ¾ãĤĬ ãģ«ãĤĤ
Ġçī© äºĭ
ãĤĴç«ĭ ãģ¦
ãĥĨãĥ¼ãĥĸãĥ« ãģ®ä¸Ĭ
ãĥıãĥ« ãĥĲãĥ¼ãĤ¹
åĬ©ãģĳ ãģ¦ãģıãĤĮ
ĠãĤ¯ãĥ© ãĥĸ
ãģ©ãģĵãģ«ãĤĤ è¡ĮãģĭãģªãģĦ
ãĤĴèªį ãĤģ
ãĤĴçł´å£Ĭ ãģĻãĤĭ
ļ® ãĤī
ãĤĴè¡Į ãģĨ
ãģ§ãģĦãģ£ãģ±ãģĦ ãģ§ãģĻ
ãģ¾ãģ£ãģŁ ãģı
ãģ®å°ı åĪĩæīĭ
æĢªæĪĳ ãĤĴãģĻãĤĭ
ãģ«æ² ¿
ãģ«æ² Ī
ãĤ¿ãĥĲãĤ³ ãĤĴåĲ¸
Ġèµ· ãģį
ĠãĥīãĤ¢ ãĤĴéĸĭãģĳ
Ġãĥıãĥ¼ ãĤ³ãĥ¼ãĥĪ
ĠãģĺãĤĥãģĤ ãģŃ
ãģ¨ç¢ºä¿¡ ãģĹãģ¦ãĤĭ
ãĥ¼ãĥ¼ ãĥ¼ãĥ¼
Ġå¿ĥ èĩĵ
ãģ®åĮ ĤãģĦ
Ġæģ¯åŃĲ ãĤĪ
Ġæ®ĭå¿µ ãģªãģĮãĤī
çµĤ çļĦãģ«ãģ¯
åĭĩ æ°Ĺ
è¿· åŃĲ
ãĤĴæīĢæľī ãģĹãģ¦ãĤĭ
ãģĮæŃ»ãģ¬ ãģ®
éŃħåĬĽ çļĦ
éŃħåĬĽ çļĦãģª
¶çĦ¶ ãģ®ä¸Ģèĩ´
ç² ī
Ġå½ĵ ãģ¦ãģ¦
ãĤ¹ãĥĿ ãĥ¼ãĥĦ
ãģ®å½¢ ãģ§
ãĤĴå¼· ãģı
æĢª çī©
æĢ¥ãģĦ ãģ§
ãĥªãĥĲ ãĥĨãĤ£
ĠæľĿ é£Ł
ãĤ¨ãĤ¢ ãĥķãĤ©ãĥ¼ãĤ¹
è¿« ãģ£ãģŁ
ĠãģĶãĤģãĤĵ ãģŃ
ãģĮçĦ¡ äºĭ
ãĤĴæĬķãģĴ ãģ¦
èĬ¸è¡ĵ å®¶
æºĸåĤĻãģĮãģ§ãģįãģ¦ ãģĦãģ¾ãģĻ
è£ģåĪ¤ æīĢ
ãĤĴãģ¨ ãģ£ãģ¦ãģĦãĤĭ
Ġãĥ¦ ãĥĭãĥĥãĥĪ
ãģ®åĩº èº«ãģ§ãģĻ
ãģ®æŃ ¯
ĠãģªãģľãģĿãĤĵãģªãģĵãģ¨ãĤĴ è¨ĢãģĨãģ®
ĠãĤıãģĭãģ£ãģ¦ãĤĭ ãĤı
ãĤ¦ãĤ£ãĥ« ãĥĲãĥ¼
ãģ¯å¤ī ãĤı
åĸľ ãģ³
Ġæ¯İ æĻ©
Ġçµ¶å¯¾ ãģ«
Ġæ®ºäºº çĬ¯
ãĤıãģļ ãģĭ
ãģ«å¿ ľ
åħĦ ãģķãĤĵ
çļ® èĨļ
ĠãĤ¹ãĤ« ãĤ¤ãĥ¯ãĤ¤ãĥ¤ãĥ¼
å¸Ŀ åĽ½
ä¸įåħ¬å¹³ ãģł
ãģ®ãģĬãģĭãģĴ ãģ§
ĠãĥĹãĥ©ãĤ¤ ãĤ¹
ãĤĴæĽ¸ãģį çķĻ
ãĤĴçµĤãĤı ãĤīãģĽ
ãģĭãĤĮæĹ© ãģĭãĤĮ
ĸĦèī¯ ãģķ
ãģĨãĤĵãģĸ ãĤĬ
Ĭĩ åł´
ãģĮèģŀãģĵ ãģĪãģŁ
ãģ®ç¯ ĦåĽ²
ãģ®çī¹ æ¨©
ãģ°ãģĭãĤĬ ãģ§ãģĻ
çµŀ é¦ĸåĪĳ
ãģ¨ãģ¯éĻĲ ãĤīãģªãģĦ
ĠãĤ¨ãĤ¤ ãĥŁãĥ¼
åĶ¯ä¸Ģãģ®æĸ¹æ³ķ ãģ¯
ä½ĻåĪĨ ãģª
ãĥ´ãĤ§ãĥŃ ãĥ¼ãĥĬ
Ġãĥıãĥ¼ãĤ·ãĥ¥ åįļå£«
ãĤĴåį±éĻºãģ«ãģķãĤī ãģĻ
¿ħãģļ ãģĹãĤĤ
ãģ®æ¨ Ļ
ãĤ¢ãĤ¹ ãĤ¬ãĥ«ãĥī
ãĥŃãĥĲ ãĤŃãĤ¢
ãĥŃãĥ¼ãĥ¬ ãĥ³ãĤ¹
ä»ĬåĽŀ ãģ¯
ĠãģĬãģ°ãģĤ ãģ¡ãĤĥãĤĵ
ĠéŁ³ æ¥½
ãĤ±ãĥ³ãĤ¸ ãĥ³ãĥĪãĥ³
ãģ¨ãģ¯è¨ĢãģĪ ãģ¾ãģĽãĤĵ
é¨Ĵ ãģİ
æĨİ ãģĹãģ¿
ãģ®ãĤ¢ãĤ¤ ãĥĩãĤ¢
ªå¯© åĵ¡
¿į èĢĲ
åĩ ¡
ĥ½ å¸Ĥ
Ŀ¡ çľł
ãģĻãģ° ãĤīãģĹãģĦ
ĠãģĿãĤĮãģĮçľŁå®Ł ãģł
Ġç¶ļãģĳ ãĤį
ãĥ¬ãĥĻ ãĥ¼ãĤ¿ãĥ¼
ãĤ¹ãĥĪãĥ©ãĤ¤ ãĤ«ãĥ¼
ĠãģĦãģļãĤĮ ãģ«ãģĹãģ¦ãĤĤ
æĸ¹åĲĳ ãģ«
ãģ®å¤± è¸ª
ĠãĤ¤ãĥ« ãĤµ
Ġå¥ĩ å¦Ļ
Ġãģ»ãģ£ãģ¨ ãģĦãģ¦
Ġéłĳ å¼µãĤĮ
ãģ®éĿ¢ åĢĴ
ãģĮæķĻãģĪãģ¦ãģıãĤĮ ãģŁ
èĢĲãģĪ ãĤīãĤĮãģªãģĦ
¥ĩè·¡ ãģł
ãĥĴãĥ¥ãĥ¼ãĤ¤ ãĥĥãĥĪ
§åĺ ©
çĺ į
Ħè³ Ĥ
ħéĥ ·
ãĤĬæĬ ķãģĴ
ãĤĴå§Ķ è¨Ĺ
ĠçĲĨè«ĸ çļĦãģ«ãģ¯
Ġä½ķãģ¨è¨Ģãģ£ãģ¦ ãģĦãģĦãģĭ
ãĤĴç¶ļ ãģĳãĤĭ
ãĤ¦ãĤ¬ãĥ« ãĥĨ
ãģ®è·Ŀ éĽ¢
ãĥĲãĥ¼ãĥĬ ãĥ¼ãĥī
ĠãģĤãģªãģŁãģĮãģĿãģĨè¨ĢãģĨ ãģªãĤī
åĲĪè¡Ĩ åĽ½
Ġä¸Ńæµģ éļİç´ļãģ®é»Ĵäºº
ä¹¾çĩ ¥
Ġå½ĵãģ¦ãģ¦ ãģ¿ãĤĪãģĨ
2 0
A G
A R
I G
O N
O V
P C
R I
T UM
b er
d o
e w
h an
i on
i me
l a
m er
p p
p t
r o
¡ å¤§
¢ ãģ«
£ º
£ è¨Ģ
¤ ¼
¤ Ĵ
¤ ļãģı
¥ Ŀ
¥ åł´
¦ ¨å®³
§ ãĤģ
§ ãģĹãģĦ
© ãĤĬ
ª çĨŁ
« ĸ
« ãģł
« ãģ¾
« çħĻ
¬ ä½¿
® ãĤī
® ´ãĤī
® è¾±
® å»·
¯ İ
¯ ãģª
¯ åľ°
¯ å®ļ
° åĪ
° è¬Ģ
± ³
³ ³
³ æĻĤ
´ ¾
´ ħ
´ ĩ
´ ãģĨ
µ ¶
µ Ĳå©ļ
¸ ãģĦ
¸ ãģ«
¸ è»į
¸ åŀĭ
¹ ²
¹ »
º Ĭ
¼ é£Ł
¼ ģèŃ·å£«
½ ł
½ è·¡
½ éľĬ
¾ ½
å ĦŁ
å »º
å łĤ
å ¡Ķ
å ķĨ
æ ¹
æ ĥ¨
æ īįèĥ½
æ °·
æ Ķ¯æīķãģĦ
æ ºĢè¶³
æ ¬ł
æ ±ļãģĦ
ç ĩĥ
ç ĭ¬èº«
ç Ŀ£
ç ¬¦
ç ł²
è ĵ
è Ľ®
è ¤ĩ
é Ĩ
Ġ &
Ġ V
Ġ m
Ġ n
Ġ t
Ġ y
Ġ ~
Ġ éĩį
Ġ éĢ±
Ġ è©±ãģĻ
Ġ è¨ĢãĤı
Ġ èª¬æĺİ
Ġ ç§ĺå¯Ĩ
Ġ è¦ıåīĩ
Ġ è¨ĢãģĪãģªãģĦ
Ġ è¦ģçĤ¹
Ġ ä»¥åīį
Ġ èªĵãģĨ
Ġ éĸ£å¤ĸ
Ġ éģİåİ»
Ġ è©Ĳæ¬º
Ġ äº¤æ¸ī
Ġ çĶ³ãģĹè¨³ãģªãģĦ
Ģ ç´Ħ
ģ °
ģ ·
ģ åŃĹ
Ĥ è
Ĥ ãģĳ
Ĥ äºĨ
ħ §
Ĩ æĿ¥
ī µ
ī ãģĦ
ĭ ¤
ĭ ¼
ĭ æĥħ
ĭ Ľå¾ħ
Į éģĵ
Į ®èº«
į Ĵ
į éĢĨ
İ Ī
İ ®éĿĻåī¤
ı ãĤĦ
ĳ èįī
ĳ ¬å¼ı
ĳ åľ§
ĳ èªĮ
Ĵ ¸
Ĵ éĻº
ĵ ¶
ĵ ²åŃ¦
ļ ĩ
ļ ĳ
ļ ç¾©
Ľ Ĺ
Ľ çĽ
Ŀ ¶
Ł ·
Ł éĩĳ
ł ¹
Ń ãģĳãĤĭ
Ń ©ãģı
Ń ´åı²
Ń ¤å¥´ãĤī
ãģĦ ãģ«
ãģĦ ãģ¨
ãģĦ ãģ£ãģ¦
ãģĦ ãģªãĤĭ
ãģĦ ãģªãģķãģĦ
ãģ® ãĤ¹ãĥĪ
ãģ® ä»ķ
ãģ® ãģ§ãģįãĤĭ
ãģ® ãĤ¯ãĤ½
ãģ® ãģĻãģĲ
ãģ® ãĤ®
ãģ® ãĤŃãĥ¼
ãģ® ä»£
ãģ® ãģĦãģıãģ¤ãģĭ
ãģ® ä¼ļç¤¾
ãģ® è¨ĺæĨ¶
ãģ® ãĥ¬ãĥĥ
ãģ® ãĤ²ãĥ¼ãĥł
ãģ® ãĥŃãĥĥãĤ¯
ãģ® ãĤ·ãĥ§ãĥ¼
ãģ® ãĤ»ãĥĥãĤ¯ãĤ¹
ãģ® è¡ĮçĤº
ãģ® ãĤ¬ãĥ¼ãĥ«ãĥķãĥ¬ãĥ³ãĥī
ãģ® ãĥªãĤ¹ãĤ¯
ãģ® è©³ç´°
ãģ® ä¾¡åĢ¤ãģĮãģĤãĤĭ
ãģ® éģº
ãģ® ãģĦãģ¨ãģĵ
ãģ® ãĤ¯ãĤ½éĩİéĥİãģł
ãģ® çŁ¥èŃĺ
ãģ® è¡ĽæĺŁ
ãģ¯ ãĥŃ
ãģ¯ ãĤ«
ãģ¯ ãĥĨ
ãģ¯ ä¸Ń
ãģ¯ çĶŁ
ãģ¯ ãĥĬ
ãģ¯ ä¸Ģç·Ĵ
ãģ¯ ãģ§ãģįãģªãģĦ
ãģ¯ éģķãģĨ
ãģ¯ ãģĹãģ¦ãģªãģĦ
ãģª ãģĽ
ãģª åķıé¡Į
ãģŁ ãģļ
ãģ¦ ãģįãģŁ
ãģ« ãģĦãģ¦
ãģ« ãĤĦãģ£ãģ¦
ãģ« ãģķãĤĮãģŁ
ãģ« ãģĿãĤĵãģª
ãģ« ãģĹãģ¾ãģĹãģŁ
ãģ« éłŃ
ãģ« ãģĦãģªãģĭãģ£ãģŁ
ãģ« éĢ²
ãģ« ãģĹãĤį
ãģ« é£Ľãģ³
ãģ« ãģĦãĤį
ãģ« ç´¹ä»ĭ
ãģ« ä¼ĿãģĪãĤĭ
ãģ« éĸīãģĺè¾¼ãĤģ
ãĤĴ ãģ¾
ãĤĴ éģ
ãĤĴ è¡Įãģı
ãĤĴ éħį
ãĤĴ ãĤĦãģ£ãģŁ
ãĤĴ ä¿¡éł¼
ãĤĴ ãĤĤãģĨä¸Ģåº¦
ãĤĴ ãĥĨãĤ¹ãĥĪ
ãĤĴ éĽĨ
ãĤĴ ãĤ³ãĥ³ãĥĪãĥŃãĥ¼ãĥ«
ãĤĴ é£Ľãģ³
ãĤĴ ãģķãĤī
ãĤĴ ãĥ¬ãĤ¤ãĥĹ
ãĤĴ è¡¨ç¤º
ãĤĴ ãģ¾ãģ£ãģĻãģĲ
ãĤĴ é¨Ļ
ãĤĴ ä¿®çĲĨ
ãĤĭ ãģ¨æĢĿãģĨ
ãĤĭ ãģłãģĳãģł
ãĤĭ çĲĨçĶ±
ãĤĭ å¿ħè¦ģãģ¯ãģªãģĦ
ãģĹ ãģ«è¡Įãģı
ãģĹ ãĤĵãģ§ãģĦãĤĭ
ãģĭ ãĤıãģĭãĤīãģªãģĦ
ãģĭ ãģ£ãģ¦ãĤĭãģ®
ãģĭ ãģĽãģ¦
ãģĭ ãģĭãĤĭ
ãģĭ åĪĨãģĭãĤĭ
ãģĭ ãģĮãģ§ãģĻãģĭ
ãģ¨ ä½ķãģĭ
ãģ¨ ãĥķãĤ£
ãģ¨ èĢĥãģĪ
ãģ¨ æļ
ãģ¨ æľ¬å½ĵãģ«
ãģ¨ èģŀãģĦãģŁ
ãģĮ ãģ¨
ãģĮ ãģĿ
ãģĮ ãĤ¤
ãģĮ èĩªåĪĨ
ãģĮ èª°ãģĭ
ãģĮ çĻº
ãģĮ ãģĤãģªãģŁãģ®
ãģĮ ãģĤãģªãģŁãģ«
ãģĮ ãģĬåīį
ãģĮ ãģĿãģ®
ãģĮ ãģĿãģĵ
ãģĮ éĢĥãģĴ
ãģĮ ãģ§ãģįãģ¾ãģĽãĤĵ
ãģĮ ãģĿãģĵãģ«ãģĦãĤĭ
ãģĮ ãģĦãģªãģı
ãģĮ èª°ãģªãģ®ãģĭ
ãģĮ ãģ£ãģĭãĤĬ
ãģĮ ãĤĪãģĦ
ãģĮ ãģ¤ãģĦãģŁ
ãĤĮ ãĤĴ
ãģ§ ãĤĤãģĹ
ãģ§ ãģĤãģªãģŁãģ¯
ãģ§ è²·
ãģ§ æľĢé«ĺ
ãģ§ ãģŁãĤīãĤģ
ç§ Ģ
ãģĻ ãģŁãĤģ
ãģĻ ãĤĵãģł
ãģĻ ãģłãģĳãģł
ç§ģ ãĤĪ
ç§ģ ãģ¯æľ¬å½ĵãģ«
ç§ģ ãģ®æģ¯åŃĲ
ç§ģ ãģ®çĽ®
ãĥ¼ ãģ£
ãĥ¼ ãĤ»
ãĥ¼ ãĤ²
ãĥ¼ ãĤ¸ãĤ§ãĥ³ãĥĪ
ãģĵ ãģ£ãģ¡
ãģĵ ãģ®åł´åĲĪãģ¯
Ġå Ĳ
Ġå ¥½
Ġå ĭĿ
Ġå £ģ
Ġå ĲĮ
Ġå Į»èĢħ
Ġå ģ½
Ġå ¸Ĥ
Ġå ¹³åĴĮ
Ġå ¸ĮæľĽ
Ġå ĭĩ
Ġå Ī¶æľį
Ġå ģ¥åº·
Ġå ĺĺãĤĴãģ¤ãģĦãģŁ
ãģ¾ ãģ£ãģ¦ãĤĭ
ãģ¾ ãģ¾ãģ§
ãģ¾ ãģģ
ãĤĤ ãģĤãĤĬãģ¾ãģĽãĤĵ
ãĤī ãĤĮãģ¦ãģĦãģ¾ãģĻ
ãģ£ãģ¦ ãģĵ
ãģ£ãģ¦ ãģįãģ¦
ãģ£ãģ¦ ãĤĤãģĦãģĦãģ§ãģĻãģĭ
Ġç§ģ ãģ®æīĭ
Ġç§ģ ãģ®æĹ¥
Ġç§ģ ãģ®éĥ¨å±ĭ
Ġç§ģ ãģ®éłŃ
ãĤĵ ãģĶ
ãģı ãģ®ãģĭ
ãģı ãģ¾ãģ§
ä½ µ
Ġãĥ Į
ãģĹãģ¦ ãģĹãģ¾ãģ£ãģŁ
ãģĹãģ¦ ãģĬãģı
ãģĹãģ¦ æŀľ
ãĤĬ ãģ§ãģĻ
ãĤĬ ãģŁãģıãģªãģĦ
ãĤĬ åı£
ãĤĬ ãĤĵãģĶ
ãģ£ãģŁ ãģĦ
ãģ£ãģŁ ãģĵãģ¨ãģĮãģªãģĦ
ãĤ¹ ãĤº
ãĤ¹ ãĥĨãĤ£ãĥ³
ãĤ¹ ãĥ©ãĤ°
ãģĵãģ¨ ãģ§ãģĻãģĭ
ãģĵãģ¨ ãģ«ãģªãģ£ãģ¦ãģĦãĤĭ
ãģĵãģ¨ ãĤĴæľŁå¾ħ
ãĥ¼ãĥ Į
ãĥ¼ãĥ ı
ãĥ¼ãĥ Ķ
ãģį ãĤĮãģªãģĦ
ãģį ãģ¤ãģĦ
ãģį åı«ãģ¶
ãĥĥ ãĥĩ
ãĥĥ ãĥı
ãĥĥ ãĤ·ãĥ§
ä½ķ ãģĮèµ·
ä½ķ ãĤīãģĭ
ä½ķ ãĤĴãģĻãĤĭãģ®
ä½ķ åįĥ
ä½ķ å¹´ãĤĤ
ãĤĴæ ¥½
ãĤĴæ ±º
ãĤĴæ ŃĮ
ãĤĴæ ļĹ
ãĤĴæ ¬ł
ãĤĴæ ´Ĺ
ãĤĴæ ĤªåĮĸ
ãĤĴæ ĸŃ
ãģĿ ãģ°
ãģĿ ãģ®ãĤĪãģĨãģª
ãģĿ ãģ®åķıé¡Į
ãģĿ ãģ®æĹ¥
ãģ®å ¨
ãģ®å £²
ãģ®å ĩºæĿ¥
ãģ®å £ģ
ãģ®å ºĥ
ãģ®å Īĳäºĭ
ãģ®å ºĹ
ãģ®å ±ħåł´æīĢ
ãģ®å Łºæľ¬çļĦãģª
ĠãĤ ¶
ĠãĤ º
ĠãĤ į
ĠãģĤ ãģ®äºº
ãģ¯å ¯
ãģ¯å °ıãģķãģª
ãģ¯å Ń¦æł¡
ãģ¯å ħ¨ãģı
ãģ¯å Ńĺåľ¨
ãģ¯å ¸¸
ãģ¯å ¸¸ãģ«
ãģ¯å «ĮãģĦãģł
Ġå½¼ ãģ®å
Ġå½¼ ãģĮæ
Ġå½¼ ãģ¯å½¼
Ġå½¼ ãģ«ä¼ļ
Ġå½¼ ãģ«ä½ķ
Ġå½¼ ãģ¯ãģĦãģ¤
Ġå½¼ ãĤĴæŃ¢ãĤģ
ãģĹãģŁ ãģªãĤī
ãģĹãģŁ ãĤĤãģ®
ãģĹãģŁ ãĤĪãģĨãģ«
ãģĹãģŁ ãģĵãģ¨ãģ¯
ãģĹãģŁ ãģłãģĳãģł
ãģĹãģŁ ãģ®ãĤĪ
ãģĹãģŁ ãģĵãģ¨ãģ¯ãģªãģĦ
ãģĹãģŁ æĸ¹ãģĮãģĦãģĦ
ãģķ ãģĤ
ãģķ ãģķ
ãģĦãĤĭ ãģ®ãģĭ
Ġæ ¶Ī
Ġæ įķãģ¾
Ġæ ¹¿
Ġæ ±ºå®ļ
Ġæ ±Ĺ
ãģĳ ãģ¾ãģĻ
ãĤĴå ĲĽ
ãĤĴå ĸľ
ãĤĴå ĭīå¼·
ãĤĴå ¼ķãģ£å¼µ
ãĤĴå ĭĿãģ¡
ãĤ¤ ãĥĢ
ãĤ¤ ãĥįãĤ¹
ãĤ¤ ãĥ©ãĥł
ãĤ¤ ãĥ¬ãĤ¤ãĥ³
ãĤ¤ ãĥ¡ãĥ¼ãĤ¸
ãĤı ãģĹãģĦ
ãĤı ãģĽãģ¦ãģıãĤĮ
ãĤı ãģļãģ«
ãģĪ ä¸ĬãģĮ
äºº ãĤĴå
äºº ãģ®ãĤĪãģĨãģ«
äºº ãģªãģ®ãģĭ
äºº è³ª
ãĥĪ ãĤ³
ãĥĪ ãĤ¥
ãĥĪ ãĤ²ãĥ³
Ġç§ģãģ¯ ç§ģ
Ġç§ģãģ¯ ãĤ¹
Ġç§ģãģ¯ ä½ķãģĭ
Ġç§ģãģ¯ çĪ¶
Ġç§ģãģ¯ ä¸Ģåº¦
Ġç§ģãģ¯ æŃ»
Ġç§ģãģ¯ ãģĵãģĵãģ«ãģĦãĤĭ
Ġç§ģãģ¯ çµĲå©ļ
Ġç§ģãģ¯ ãģĿãģĵãģ«
Ġç§ģãģ¯ ãģĹãģŁãģıãģªãģĦ
Ġç§ģãģ¯ èµ¤ãģ¡ãĤĥãĤĵ
Ġç§ģãģ¯ äººçĶŁãģ§
Ġç§ģãģ¯ ç½ªãĤĴçĬ¯
ãģĽ ãģļ
ãģĽ ãģļãģ«
è¨ º
Ġ! !
æĢ ¯
æĢ ł
ãģĻãĤĭ ãģ¨ãģĦãģĨ
ãģĻãĤĭ ãģ¾ãģ§
ãģĻãĤĭ å¥³æĢ§
ãģĻãĤĭ ãģ¨æĢĿãģ£ãģŁ
ãģĻãĤĭ ãģĵãģ¨ãģ¯ãģ§ãģįãģ¾ãģĽãĤĵ
ãĥ« ãģ¯
ãĥ« ãĤ·
ãĥ« ãĥ¼ãĥªãĥ¼
ãģ¤ ãģ¤
ãģ¤ ãģĭãģªãģĦ
ãģ¤ ãģªãģĮ
ãģĤãģªãģŁ ãģ¯ä½ķ
ãģĤãģªãģŁ ãģ®ä»ķäºĭ
ãģĤãģªãģŁ ãģ®æīĭ
ãģĤãģªãģŁ ãģ®æľĢ
ãģĤãģªãģŁ ãģ¯ä½ķãģĭ
ãĥª ãĥ¥
ãĥª ãĥĬ
ãĥª ãĥ¼ãĥł
ĠãģĿãĤĮ ãģ¯ä½ķãģĭ
ĠãģĿãĤĮ ãģ¯å½¼ãģĮ
ĠãģĿãĤĮ ãģ«åĲĽ
ĠãģĤãģªãģŁ ãģ®åĲįåīį
ĠãģĤãģªãģŁ ãģ®åĨĻçľŁ
ĠãģĤãģªãģŁ ãģ¯æľ¬çī©
ĠãģĤãģªãģŁ ãģ¨è©±ãģĹãģŁãģĦ
ãĤģ ãģł
ãĤģ ãĤĭãģ®
ãĤģ è¨Ģèĳī
ãĤģ ãģªãģĦãģ®
ãĤģ ãģ¡ãĤĥãģıãģ¡ãĤĥ
çĶ °
ãģ«å ħ
ãģ«å Ļ
ãģ«å ¿ħè¦ģ
ãģ«å ŃĲä¾Ľ
ãģ«å ĭĿ
ãģ«å ĥį
ãģ«å ºĥ
ãģ«å ¡Ĺ
ãģ«å °ĳå¥³
ãģ«å ¼ķãģ£è¶Ĭ
è¡ Ŀ
ãĥ© ãĥĥãĤ¯
ãĥ© ãĥĥãĥĹ
ãĥ© ãĥĶãĥ¼
ãĥ© ãĤ¸ãĤª
Ġãģĵ ãģ®ãģĵãģ¨
Ġãģĵ ãģ®æĻĤ
Ġãģĵ ãģ®æĻĤéĸĵ
Ġãģĵ ãģ¡ãĤīãģ¯
ãģ®æ Ĭ
ãģ®æ ¶Ī
ãģ®æ ³¨æĦı
ãģ®æ ¬ł
ãģ®æ Ķ¿æ²»
ãģ®æ ĥħåł±
ãģ®æ ¤ľç´¢
å½¼ ãģ¨
å½¼ ãģ«ãģ¯
å½¼ ãģ®ç
å½¼ ãģĮç
å½¼ ãģ¯ç§ģãģŁãģ¡
å½¼ ãģ¯ãģ©ãģĨãĤĦãģ£ãģ¦
çŁ ĽçĽ
ãģĭãĤī ãģĿãĤĮ
ãģĭãĤī ãģ¨ãģĦãģĨ
æĢĿ ãģ£ãģ¦ãģĦãĤĭ
æĢĿ ãģĦãģ¾ãģĻãģĭ
æĢĿ ãģ£ãģ¦ãĤĭãģ®ãģĭ
ãģ£ãģ¦ãĤĭ ãģªãĤī
è¨Ģ ãģĪãĤĭ
è¨Ģ ãģĦãģ¾ãģĹãģŁ
è¨Ģ ãģ£ãģ¦ãģĦãĤĭãģ®ãģĭ
çŁ¥ ãģ£ãģŁ
è¦ĭ ãģ¦ãģıãĤĮ
è¦ĭ ãģĽãģ¦
è¦ĭ çŁ¥ãĤīãģ¬
ãģ¯æ Ŀ¥
ãģ¯æ Ī»
ãģ¯æ ¶Ī
ãģ¯æ Ī»ãģ£ãģ¦
ãģ¯æ ĸ°ãģĹãģĦ
è¡Į ãģ£ãģ¦ãģıãĤĮ
è¡Į ãĤıãĤĮãģ¦ãģĦãĤĭ
ãģĤãĤĭ ãģĦ
ãģĤãĤĭ ãĤı
ãģĤãĤĭ ãģ®ãģĭ
ãģĤãĤĭ æĹ¥
ãģĤãĤĭ ç¨
ãĤ¢ ãĥ¼ãĥĪ
ãĤ¢ ãĥľ
ãĤ¢ ãĤ¯ãĤ·ãĥ§ãĥ³
ãĤ¢ ãĥ¬ãĤ¯
ãĤ¢ ãĤ«ãĤ¦ãĥ³ãĥĪ
ãĤ¢ ãĤ«ãĥĩãĥŁãĥ¼
ãĤ¢ ãĤ¤ãĥ«ãĥ©ãĥ³ãĥī
ãģĿãĤĮ ãģł
ãģĿãĤĮ ãĤĴçŁ¥
ãģĿãĤĮ ãģ¯ç§ģãģĮ
ãģĿãĤĮ ãĤĴçŁ¥ãģ£ãģ¦ãģĦãĤĭ
ãģĿãĤĮ ãģ¯æľ¬å½ĵ
ãģĿãĤĮ ãĤĴç½®ãģı
ãģĦãģĦ ãģ§ãģĻ
ãģĦãģĦ ãģĪ
ãģĦãģĦ èĢĥãģĪ
ãģĦãģĦ ãģ®ãģ«
ãģĦãģĦ ãģĦãģĭ
ãĥī ãĤ¦
ãĤĪãģĨ ãģ«å½¼
Ġç Ĺ
Ġç ½®
Ġç ĲĨè§£
Ġç ²¾
Ġç ĭ¬
Ġç ĭĤãģ£ãģ¦ãĤĭ
Ġç ªģçĦ¶
Ġç Ĩ±
Ġç īĽ
Ġç Ļ¾
Ġç İĩçĽ´ãģ«
Ġä½ķ ãģ«ãģ¤ãģĦãģ¦
Ġä½ķ ãģłãĤĪ
Ġä½ķ ãĤĴãģĻãĤĭãģ®
Ġä½ķ å¹´ãĤĤ
Ġä½ķ ãģ§ãĤĤãģªãģĦ
Ġä½ķ ãģ®çĤºãģ«
ãĤĦ ãĤīãģªãģĦ
ãĤĦ ãĤīãģĽ
ä¸Ģ æĻĤ
ä¸Ģ ç¨®
ä¸Ģ æĻ©ä¸Ń
ãĤį ãģĦ
ãĤį ãģĻ
ãĤį ãģĹãģ¦
ãģ«æ Įĩ
ãģ«æ µģ
ãģ«æ ĸ°ãģĹãģĦ
ãģ«æ īķ
ãģ«æ İ¥
ãģ«æ ³Ĭ
ãģĦãģŁ ãģļãĤī
ãģ¨æĢĿ ãĤıãĤĮãĤĭ
ãģĬ ãģįãģ¾ãģĻ
ãģĬ ãĤģãģ§ãģ¨ãģĨ
ãģĬ ãĤĤãģ¡ãĤĥ
ãģĬ ãģĺãģķãĤĵ
ãģĬ å¬¢
ĠãģĿãģĨ ãģ§ãģĻ
ĠãģĿãģĨ ãģĻãĤĭ
ĠãģĿãģĨ ãģĹãģªãģĦãģ¨
ĠãģĿãģĨ ãģ¯æĢĿãģĦãģ¾ãģĽãĤĵ
ãģĦãģ¦ ãģıãģłãģķãģĦ
ãĤ· ãĤ¹
ãĥ¬ ãĤ«
ãĥ¬ ãĤªãĥ³
ãĥĥãĤ¯ ãĤ¤ãĥ³
ãĥŃ ãĤ¤
ãĥŃ ãĥķ
ãĥŃ ãĤ¦
ãĥŃ ãĤ¤ãĥ³
ãĥŃ ãĥ¼ãĥŀ
ãĥŃ ãĥ«ãĥī
ãĥŃ ãĤ¹ãĥĪãĥ³
äºĭ ãģ§
äºĭ ä¼ļ
ãĤ¸ ãĥĥãĤ¯
ãĤ¸ ãĥ³ãĤ°
ãĥķ ãĥĥãĥī
è©± ãģĹ
è©± ãĤĴãģĻãĤĭ
è©± ãģĹãģŁãģĦ
è©± ãĤĴãģĹãģŁãģĦ
è©± ãģĽãģªãģĦ
ãģ«ãģ¯ ãģªãģĦ
ãģ«ãģ¯ ãģ©ãģĨ
ãģ«ãģ¯ çĲĨçĶ±
ãģ«ãģ¯ ãģĤãģ¾ãĤĬãģ«ãĤĤ
ãģ«ãģ¯ éĸ¢ä¿ĤãģªãģĦ
ãģªãĤī éĽ»è©±
ãģıãĤĮ ãģŁ
å® ĩå®Ļ
å® ĿçŁ³
ãģĭãģ£ãģŁ ãģ®
ãģŁãĤģ ãģł
ãģĤãĤĬ ãģ¾ãģĹãģŁãģĭ
ãģĤãĤĬ å¾Ĺ
ãĤ¿ ãĥķ
ãĤ¿ ãĥĥãĥĹ
ãĤ¿ ãĤ¯ãĤ·ãĥ¼
ãĤ¿ ãĥŁãĥ³
èª° ãģĮç§ģ
ãģ®ç ¢º
ãģ®ç ĭĤ
ãģ®ç Ĺħæ°Ĺ
ãģ®ç ŃĶãģĪ
ãģ®ç ²¾ç¥ŀ
ãģ®ç Ļ½
ãģ®ç ı¾éĩĳ
ãģ®ç ŀ¬éĸĵãģ«
ãģ®ç Ŀ¡çľł
éĸĵ äºº
åĪĨ ãģĭãĤĬãģ¾ãģĻãģĭ
ãģĮæ ľŁå¾ħ
ãģĮæ ®ºãģķãĤĮãģŁ
ãģĮæ Ĥªãģĭãģ£ãģŁ
ãģĮæ ¸ĩ
ãģĺãĤĥãģªãģĦ ãģªãĤī
ãģĺãĤĥãģªãģĦ ãģĳãģ©
Ġè Ĥ
Ġè ĳ
Ġè ¸Ĭ
Ġè ¤ĩ
Ġè ¾ŀ
Ġè ĪĪå¥®
Ġè ±ª
ãģ®ãĥ İ
ä»Ĭ ãģĻãģĲãģ«
åīį ãģ«å
åīį ãģ«ãģ¯
ãĤĴç ¯
ãĤĴç ·
ãĤĴç ī¹
ãĤĴç ¦ģæŃ¢
ãģĮãģĤãĤĭ ãģĵãģ¨ãĤĴ
ãģĮãģĤãĤĭ ãģłãģĳãģł
ãģĹãģĦ åıĭäºº
ãĤ« ãĤ´
ãĤ« ãĥ«ãĥī
ãĤ« ãĥĥãĥĹãĥ«
ãĤĴè¦ĭ ãģ¤
ãĤĴè¦ĭ ãĤĭãģ¨
ãĤĴè¦ĭ åĽŀ
ãĤĴè¦ĭ ãĤĭãģĵãģ¨
ãĤĴè¦ĭ ãģĽãģ¦ãģıãĤĮ
ãĤĴè¦ĭ ãĤĭãģĵãģ¨ãģĮãģ§ãģįãģ¾ãģĻ
ãģ«ãģª ãĤĭãģ®ãģ¯
éĩ £
Ġãģ© ãģ£ãģ¡
ãģ£ãģ¦ãģĦãĤĭ éĸĵãģ«
ãģĮå ľ°
ãģĮå §ĭ
ãģĮå ĭķ
ãģĮå Ħª
ãģĮå ĲĮãģĺ
ãĥĨ ãĥ¬
ãĥĨ ãĥ©ãĤ¤ãĥĪ
ãĥŀ ãĥ¼ãĥ«
ãĥŀ ãĥ³ãĥĪ
ãĥŀ ãĤ¤ãĥ³ãĥī
ãĥŀ ãĥªãĤªãĥ³
ãĥŀ ãĤŃãĥ£ãĥķãĥªãĥ¼
ãĥĹ ãĥ¼ãĥ«
ãĥĹ ãĥ¬ãĥĥ
ãĥĹ ãĥ¬ãĤ¼ãĥ³ãĥĪ
ãĥĹ ãĥ©ãĤ¹ãĥģãĥĥãĤ¯
ãĥĩ ãĥĸ
ãĥĩ ãĥĥãĥĪ
ãĥĩ ãĥ¢
ãĥĩ ãĥ¥ãĥ¼ãĤ¹
ãĥĩ ãĤ¦ãĤ¹
ãĥĩ ãĤ¸ãĤ¿ãĥ«
ãĥĩ ãĤ«ãĥ«ãĥī
ãģ¯ç ĭĤ
ãģ¯ç ģ«
ãģ¯ç ©º
ãģ¯ç ĲĨè§£
ãģ¯ç ī¹
ãģ¯ç ŃĶãģĪ
ãģ¯ç ĭĤãģ£ãģ¦ãĤĭ
ãģ¯ç ĹħéĻ¢
ãģ¯ç Ļ½
ĠãģĬ æīĭä¼ĿãģĦ
ĠãģĬ çĪ¶æ§ĺ
ĠãģĵãĤĮ ãģ¯å½¼
ĠãģĵãĤĮ ãĤĴè¦ĭãģ¦
ĠãģĵãĤĮ ãģĮå½¼
ãĤĮãģ¦ ãģŁ
ãĤĮãģ¦ ãģĦãģªãģĦ
ãģłãģĳ ãģªãĤī
ĠåĲĽ ãģ®æ
ĠåĲĽ ãĤĴçŁ¥ãģ£ãģ¦ãĤĭ
ĠåĲĽ ãģ¯ãģĦãģ¤ãĤĤ
ĠåĲĽ ãģ¯çĦ¡
ãĤĤãģ® ãģ«
ãĤĤãģ® ãģ«ãģªãĤĭ
ãĤĤãģ® ãĤĴæīĭãģ«åħ¥ãĤĮãģŁ
ãĤĤãģ® ãĤĤãģĤãĤĭ
Ġé ĺ²
Ġé ¦ĸ
Ġé ľĩ
ãĤ¦ ãĥ¢
ãĤ¦ ãĤµãĤ®
æī ¿
æī ±ãģĦ
ãĥĳ ãĤ¤
ãĥĳ ãĥ³ãĤ¯
ãĥĳ ãĤ¤ãĥŃãĥĥãĥĪ
ãĥĳ ãĥŃãĥĥãĥĪ
ãģĪãģ¦ ãģĦãģªãģĦ
ãĤĴè Ń¦
ãĤĴè ĪĲ
ä¸Ń æ¯Ĵ
å¾ Ħ
ãģĹãģ¦ãģĦãĤĭ ãģĭãĤĤãģĹãĤĮãģªãģĦ
ãģĹãģ¦ãģĦãĤĭ éĸĵãģ«
ãģĹãģ¦ãģĦãĤĭ ãĤĪãģĨãģ«è¦ĭãģĪãĤĭ
ãģ©ãģĨ ãģĦãģĨæĦıåĳ³
ãģ©ãģĨ ãģĹãģ¾ãģĻãģĭ
ãģ©ãģĨ ãģĹãģŁãĤĵãģł
ãģ©ãģĨ ãĤĤãģĤãĤĬãģĮãģ¨ãģĨ
ãģ©ãģĨ æĢĿãģĦãģ¾ãģĻãģĭ
ãģ®é Ĺ
ãģ®é ĺ²
ãģ®é ¼»
ãģ®é Į¨
ãĥ¼ãĥ« ãģ§
ãĥ¼ãĥ« èĪ¹éķ·
ãģ®ãģŁãĤģ ãģłãģ£ãģŁ
ãģ®ãģŁãĤģ ãģ«å½¼
ãģ®ãģŁãĤģ ãģ«æĿ¥ãģŁ
ãģ®è ī¯
ãģ®è º«
ãģ®è ī²
ãģ®è £ģ
ãģ®è £ı
ãģ®è ¢ĭ
ãģ®è Ĥī
ãģ®è ĨĿ
ãģ®è ĬĿ
ãģ®è ĳ¬å¼ı
ãģ¯å½¼ ãĤĴæĦĽ
ãģĿãģĨ ãģĭ
ãģĿãģĨ ãģĺãĤĥãģªãģĭãģ£ãģŁ
Ġå½¼å¥³ ãĤĴ
Ġå½¼å¥³ ãĤĤ
Ġå½¼å¥³ ãģ¯ãģ©ãģĨ
Ġå½¼å¥³ ãģ¯æľ
Ġå½¼å¥³ ãģ¯åĲĽ
Ġå½¼ãģ¯ ãĤĤãģĨ
Ġå½¼ãģ¯ ä½ķãģĭ
Ġå½¼ãģ¯ ãģĵãģĵ
Ġå½¼ãģ¯ ãģĻãģ¹ãģ¦
Ġå½¼ãģ¯ ãģŁãģł
Ġå½¼ãģ¯ ãģĤãģªãģŁãģ«
Ġå½¼ãģ¯ èª°ãģ§ãģĻãģĭ
Ġå½¼ãģ¯ èĩªåĪĨãģ®
ãĤ³ ãĥĥãĤ¯
ãĤ³ ãĤ¤ãĥ³
ãĤ³ ãĥ¢
ãĥĸ ãĥ³
ãĥĸ ãĤº
ãĥĸ ãĥīãĤ¥
ãĥĸ ãĤ·ãĥ£ãĥ¼
ĠãģĦãģĦ ãĤĪ
ĠãģĦãģĦ åŃĲãģł
åħ ħ
åħ ļ
çĶ· ãģ®ãģŁãĤģãģ«
ãģ¿ ãĤĴ
åı ¯æĦĽãģĦ
ãĥĲ ãĤ¤
ãĥĲ ãĥĥãĥĪ
ãĥĲ ãĥĨãĤ£
ãĥĲ ãĥ©ãĥ³ãĤ¹
ä¼ļ ãģĨ
ä¼ļ ãĤıãģªãģĦ
ä¼ļ è¨Ī
Ġç§ģãģŁãģ¡ ãģ¯ä½ķ
Ġç§ģãģŁãģ¡ ãģ¯å½¼ãĤĴ
ãģķãĤĵ ãģ§ãģĻ
ãĤĤãģĹ ãĤįãģĦ
ĠãģĿãģĨãģł ãĤįãģĨ
ãĤŃ ãĥĦ
ãĤŃ ãĥ³ãĤ¹
ãĤĮãģŁ æĻĤ
ãĥģ ãģł
åĲ ¹ãģįé£Ľãģ°
ãģłãģ£ãģŁ ãĤĵãģł
ãģ¯ä½ķ æŃ³
ãģ¯ä½ķ ãģ§ãĤĤãģĹ
å¿ ł
ãĤº ãĥ¼ãĥª
ãĤº ãĥľãĥ¼ãĥ³
å½ ±éŁ¿
Ġãģª ãĤĵãģ§ãĤĤ
ãĤĭãģ® ãĤĴæŃ¢ãĤģ
ãĥĵ ãĥ¥
ãĥĵ ãĥ¼ãĥ³
ãĥĵ ãĤ¢ãĥ³
ãĥĵ ãĤ¢ãĥ³ãĤ«
ãĤµ ãĥ©
ãĤµ ãĥ³ãĥĩãĤ£
ãĤµ ãĥ¤ãĤ¤ãĥ³
ĠãģĿãĤĮãģ¯ ãģĭãģªãĤĬ
ĠãģĿãĤĮãģ¯ ãĥ«ãĥ¼ãĥ«
ĠãģĿãĤĮãģ¯ ãģĻãģĶãģĦ
ãĤĪãģĨãģ« ãģŃ
ãĤĪãģĨãģ« èģŀãģĵãģĪãĤĭ
éĽ ħ
Ġ2 4
Ġ2 7
æĻĤ ãģł
æĻĤ ç§ģãģ¯
æĻĤ å½¼ãģ¯
æĻĤ ãģ¾ãģ§
æĻĤ æľŁ
ãĥĭ ãĥ³
ãĥĭ ãĥ§
ãĥĭ ãĥ¼ãĤ¹
ä¸Ĭ ãĤĮ
ãģĵãģ¨ãĤĴ ãģĻãģ¹ãģ¦
ãģĵãģ¨ãĤĴ è¨Ģãģ£ãģŁ
ãģĵãģ¨ãĤĴ çŁ¥ãĤīãģªãģĦ
ãģĵãģ¨ãĤĴ çŁ¥ãģ£ãģ¦
ãģ¨æĢĿãģĨ ãģ®ãģ¯
Ġä»Ĭ ãģ®ãĤĪãģĨãģ«
çī Ī
ãģĦãģªãģĦ ãģ®ãģĭ
°ĳ ãģª
Ġæľ ī
çµ µ
ãĤĤãģĨ ãģ¨
ĠãģĤãģªãģŁãģ¯ ãģĵ
ĠãģĤãģªãģŁãģ¯ ãģ©ãģĨ
ĠãģĤãģªãģŁãģ¯ ãģŁãģł
ĠãģĤãģªãģŁãģ¯ ãĤıãģĭ
èĢħ ãĤĦ
èĢħ ãģ«ãģªãĤĭ
ãĤª ãĥ¼ãĥĲ
ãĤª ãĥ¼ãĥĲãĥ¼
Ġãģ§ãĤĤ å½¼å¥³
Ġãģ§ãĤĤ ãģĿãĤĮãģ¯
Ġãģ§ãĤĤ åĲĽãģ¯
Ġãģ©ãģĨ ãģĹãģŁ
Ġãģ©ãģĨ ãģĻãĤĮãģ°
ãģ¨è¨Ģ ãĤıãĤĮãģ¦ãģĦãģ¾ãģĻ
ãĥªãĥ¼ ãģ¯
ä¿º ãģĮ
ä¿º ãģł
ãĥ¼ãĥĪ ãģ«
ãĥ¼ãĥĪ ãģ¨
æ°Ĺ ãģł
æ°Ĺ ãģĺãĤĥãģªãģĦ
è¡Įãģı ãģªãĤī
ãģ«ãģ¤ãģĦãģ¦ ãģ§ãģĻ
ãģ«ãģ¤ãģĦãģ¦ èĢĥãģĪãĤĭ
ãģ«ãģ¤ãģĦãģ¦ èŃ°è«ĸ
ãĤ¹ãĥĪ ãĥ¬ãĥ¼ãĥĪ
ãĤ¹ãĥĪ ãĥ¬ãĥ¼ãĤ¸
ãĥ¡ ãĤ¤
ãĥ¡ ãĤ¿ãĥ³
ãĥ¡ ãĥŃãĥ³
ãĥ¡ ãĤ¬ãĥį
ãĥ§ ãĥ«ãĥ³
®º ãģĹ
åº Ĭ
æĹ¥ ãģł
é£ ¾
åĩº ãģķãĤĮãĤĭ
åĩº ãģĭãģĳ
Ġãģªãģľ ç§ģãģ¯
Ġãģªãģľ ä¿º
Ġãģªãģľ ãģĤãģªãģŁãģ¯
Ġãģªãģľ éĽ»è©±
Ġãģªãģľ ãģĵãģĵãģ«ãģĦãĤĭãģ®
Ġãģªãģľ æ°Ĺãģ«ãģĻãĤĭ
ãĤĮãĤĭ ãģĭ
ãĤĮãĤĭ ãģ®ãģĭ
ãģĵãģ¨ãģ¯ è¨±
ä¾ ®è¾±
¹´ é½¢
ãĤ¨ ãĥ¬
ãĤ¨ ãĥŀ
ãĤ¨ ãĥ¼ãĥ«
ãĤ¨ ãĥł
ãĤ¨ ãĥĩãĤ£
ãģ®ãģ¯ ãĤĦãĤģãģ¦
ãĤ½ ãĥªãĥ³
ãĤ½ ãĥ¼ãĤµãĥ¼
ãģ«ãģªãĤĭ ãģ¨æĢĿãģĨ
ãģ«ãģªãĤĭ ãģ¨æĢĿãģĦãģ¾ãģĻ
ãĤĴåı ³
ãĥĬ ãĥ³
ãĤ¤ãĥ³ ãģ§
ãĤ¤ãĥ³ ãĤ¿ãĥ¼ãĥ³
ãģŁãģĦ ãģ¨æĢĿãģ£ãģ¦ãĤĭ
æĢ§ ãģ®ãģĤãĤĭ
æĢ§ äº¤
çī© ãĤĦ
çī© èªŀ
åĭ §ãĤģ
ãĥŁ ãĥ¥ãĥ¼ãĥ©ãĥ¼
ãģ«åħ¥ ãģ£ãģ¦ãģĦãĤĭ
ãģ«åħ¥ ãĤĮãģ¦
ãģ«åħ¥ éļĬ
ãģ«åħ¥ ãģ£ãģ¦ãģįãģŁ
ĠãĤ¸ ãĥŁãĥ¼
å½¼å¥³ ãģ¨
å½¼å¥³ ãģł
å½¼å¥³ ãģ¯æ
éģķ ãģĦãģ¾ãģĻ
ãĥ©ãĥ³ ãĤ°
ãģĵãĤĮ ãģ¯æľ¬å½ĵãģ«
ç´ ĭ
Ġäºº ãģĦãĤĭ
Ġäºº ãģ®äººãģĮ
å¼ ģ
ãģıãģł ãģķ
ãĥĢ ãĥ³ãģ¯
ãĥĢ ãĥ¼ãĥªãĥ³ãĤ°
ç§ģãģŁãģ¡ ãģĮæ
åį Ĵ
åį ł
åį ĬåĪĨ
æ³ ¥æ£Ĵ
ãĥĨãĤ£ ãģ¨
ãĥĨãĤ£ ãĤ¹
ãĥĨãĤ£ ãĤ¢
èµ ¤ãĤĵåĿĬ
ãģ®ä¸Ń ãģ®æ
ãģ®ä¸Ń ãģ«ãģĦãģŁ
ãĤ± ãĤ¹
ãĤ± ãĥ¼ãĥĸãĥ«
å¤§ åŃ¦
ĪĨ éĩİ
ĪĨ å¼¾
ãĤ¬ ãĥ©ãĤ¹
ãĤ¬ ãĥ³ãģķãĤĵ
ãĤ» ãĥ¼ãĥ«
ãĤ» ãĤŃãĥ¥ãĥªãĥĨãĤ£
ãĥĩãĤ£ ãĥ¬ãĤ¯ãĤ¿ãĥ¼
Ġãģ¾ ãĤĭ
ä½ķãģĭ çŁ¥ãģ£ãģ¦ãĤĭ
ãĥ¼ãĥ³ ãĤĴ
éł Ĳéĩĳ
ĠãģĤãģªãģŁãģĮ å½¼
ĠãģĤãģªãģŁãģĮ å¥½ãģį
ãģ§ãģ¯ãģªãģĦ ãģĮ
ãĤĴãģĻãĤĭ ãģŁãĤģ
ãĤĴãģĻãĤĭ ãģĵãģ¨ãģ¯ãģ§ãģįãģªãģĦ
ä¸ĭ ãĤĬ
ä¸ĭ ãģ«ãģĤãĤĭ
ãģ«è º«
ãģ«è ¸Ĭ
ãģ«è ħ¹
ãģ«è ¥²ãĤıãĤĮãģŁ
ãģ®äºº ãģĮå
ãģĵãģĵ ãģĭãĤīåĩº
ãģĵãģĵ ãģ«æ»ŀåľ¨
Ġãĥŀ ãĥªãĤªãĥ³
Ġãĥŀ ãĥ¼ãĤ«ãĤ¹
ãĥ³ãĤ° ãĥ«
ĠãĤ¢ ãĥ¬
ĠãĤ¢ ãĤ¦ãĥĪ
ĠãĤ¢ ãĥķãĥªãĤ«
ãģķãģĽ ãģ¾ãģĹãģŁ
ãģķãģĽ ãģŁãģıãģªãģĦ
èĩªåĪĨ ãģŁãģ¡
ä»ĸ ãģ®çĶ·
ä»ĸ ãģ®çļĨ
ãĥĶ ãĥ¼ãĥĬãĥĥãĥĦ
ãĥĻ ãĥĥãĥĪ
ãĥĻ ãĥ¼ãĤ¹
ãĥĻ ãĥĥãĤŃãĥ¼
Ġç§ģãģ¯å ħ
Ġç§ģãģ¯å ĲĽ
Ġç§ģãģ¯å ¿ĥ
Ġç§ģãģ¯å Į»èĢħ
Ġç§ģãģ¯å ¹³æ°ĹãĤĪ
å½¼ãĤī ãģ®
ä¸Ģç·Ĵ ãģ«ãģĦãĤĭ
åĳ³ ãģĹãģĦ
ãĥı ãĥ©
ãĥı ãĥ¼ãĥĩãĤ£
çĻ Ĵ
éĥ¨ è£ľ
æŃ ´
æŃ ĵè¿İ
Ġãģ¤ ãģ®ãģĵãģ¨
Ġç§ģãģŁãģ¡ãģ¯ èŃ¦å®ĺ
Ġç§ģãģŁãģ¡ãģ¯ ãģ¡ãĤĩãģĨãģ©
Ġç§ģãģŁãģ¡ãģ¯ ãģĬäºĴãģĦ
å¯ Ĵ
ĠãģĿãĤĮãģ§ ç§ģ
ĠãģĿãĤĮãģ§ å½¼ãģ¯
ľŁ éĻĲ
ľŁ åī£
åĬ ĩ
ãģıãģªãģĦ ãģ®
ãĤĦãģ£ãģ¦ ãģįãģŁ
å¾Į ãģ«ãģ¯
æ³ķ èĢħ
æ³ķ å¾ĭ
ãģ¯ãģ©ãģĨ ãģĦãģĨæĦıåĳ³
ãģĻãģ ŀ
ãģ«ç ı¾
ãģ«ç ľł
ãģ«ç ²¾
ãģ¨ãģĹãģ¦ çŁ¥
ãģ¨ãģĹãģ¦ ãģĦãģªãģĦ
ãĥ³ãĥī ãĥ«
ä½ľ æĪ¦
ä½ľ åĵģ
ĠãģĿãģĨãģĺãĤĥãģªãģĦ ãģĭ
ãģĭãĤĤãģĹãĤĮãģªãģĦ ãģ¨æĢĿãģ£ãģŁ
ãĥį ãĥ¼ãĤ·ãĥ§ãĥ³
ãģĹãģŁãģĦ ãģłãģĳãģł
Ġãģķ ãĤĵ
Ġãģķ ãĤīãģ«
ä½ķãĤĴ ãģĹãģ¦ãĤĭãģ®
ä½ķãĤĴ ãģĹãģ¦ãĤĭãĤĵãģł
ãģ¨ãģ¦ãĤĤ è¦ªåĪĩ
ãģ¨ãģ¦ãĤĤ å¿ĥéħį
ãģĦãģ¾ãģĹãģŁ ãģĮ
ĠãģĦãĤĦ ãģ¾ãģł
ĠãģĦãĤĦ åĲĽãģ¯
èµ· çĪĨ
èµ· è¨´
ãģ§ãģĹãĤĩãģĨ ãģŃ
ĠãģĹ ãĥ¼ãģ£
æĿ¥ ãģªãģĦ
æĿ¥ ãģ¾ãģĹãģŁ
ãĥ¯ ãĤ¤ãĥ³
è¨ĢãģĨ ãģ¨
ãģ®ãģĵãģ¨ ãģłãĤĪ
Ġç§ģãģ¯ãģĤãģªãģŁ ãģ¨ä¸Ģç·Ĵãģ«
Ġç§ģãģ¯ãģĤãģªãģŁ ãĤĴä¿¡ãģĺ
Ġç§ģãģ¯ãģĤãģªãģŁ ãģ«ãģĿãĤĮ
ãĤĴåıĸ ãģ£ãģ¦ãģıãĤĮãģªãģĦãģĭ
ãģĿãĤĮãĤĴ çŁ¥ãģ£ãģ¦ãĤĭ
ãģ«ãģĦãĤĭ ãģ¨æĢĿãģĨ
ãģ«ãģĦãĤĭ éĸĵãģ«
ãģĤãģ£ãģŁ ãĤī
è¨Ģãģ£ãģŁ ãģ®
ĠåĲĽãģ¯ èĩªåĪĨ
Ġå¤ «
æīĭ ãģł
æīĭ ãģ§
æīĭ è¡ĵ
æīĭ ãģ«åħ¥ãĤĮ
æīĭ æķ°æĸĻ
æĦı å¿Ĺ
ãģ¤ãĤĤãĤĬ ãģĭ
ãģ¤ãĤĤãĤĬ ãĤĪ
ãģ¤ãĤĤãĤĬ ãģ§ãģĻãģĭ
ãģ¤ãĤĤãĤĬ ãģ¯ãģªãģĭãģ£ãģŁ
Ġãĥķ ãĥ©
Ġãĥķ ãĥ©ãĤ¤ãĥĪ
ãĥªãĥĥãĤ¯ ãģ¨
ĠãĤĤãģĨ ãģĦãģĦ
ĠãĤĤãģĨ å¯Ŀ
ĠãĤĤãģĨ çµĤãĤıãĤĬãģł
ĠãĤĤãģĨ åįģåĪĨãģł
èī¯ ãģıãģªãģ£ãģŁ
ãĤĴæ®º ãģķãģªãģĳãĤĮãģ°ãģªãĤīãģªãģĦ
ãģķãĤĮãģ¦ ãģŁ
ãģķãĤĮãģ¦ ãĤĭãģ®ãģĭ
Ġå½¼ãĤīãģ¯ ãģĿãĤĮ
Ġå½¼ãĤīãģ¯ ãĤĤãģĨ
Ġå½¼ãĤīãģ¯ è¡Įãģı
ĠãĤ¹ ãĤŃãĥĥãĥĳãĥ¼
ãĥİ ãĤ¹
ãģ£ãģ¦ãģŁ ãĤĵãģł
ãģ§ãģįãĤĭ ãģĭ
ãģ§ãģįãĤĭ ãģĵãģ¨
ãģ§ãģįãĤĭ ãģĭãģ©ãģĨãģĭ
ãģªãģı ãģ¦ãĤĤãģĦãģĦ
ãģ«è¡Į åĭķ
ãģ«è¡Į ãģ£ãģŁãģ®ãģĭ
ãģ«è¡Į ãģįãģ¾ãģĹãģŁ
ãĥ¼ãĥł ãĤ¹
ãĥĿ ãĥĥãĥĪ
ãĥĿ ãĥ¼ãĥĦ
ãĥĿ ãĥ¼ãĤ¿ãĥ¼
å¤ľ ãĤĴ
°ı åĪĩæīĭ
è³ ŀ
ĠãĤ¯ ãĥŃãĥĥãĤ¯
ĠãģĵãĤĮãģ¯ èī¯ãģĦ
ĠãģĵãĤĮãģ¯ èª°ãģł
ãģ«ãģĻãĤĭ ãģĵãģ¨ãģĮãģ§ãģįãĤĭ
ãģ«ãģĻãĤĭ å¿ħè¦ģãģĮãģĤãĤĬãģ¾ãģĻ
ãģ«ãģĻãĤĭ ãģªãĤĪ
ĠãģĻ ãģ¾
ĠãģĻ ãģĦãģ¾ãģĽãĤĵ
éģĭ è³ĥ
ä¹ ı
ãĥ©ãĤ¤ ãĤª
ãĥ©ãĤ¤ ãĥĴ
ãĥ©ãĤ¤ ãĤ¢ãĥ³ãĥĪ
Ġä½ķãģĭ è¨ĢãģĨ
Ġä½ķãģĭ é£Łãģ¹
å®Ł è¡Į
å®Ł é¨ĵ
ãĤĪãĤĬ å¤§ãģįãģª
ãģ®å¤ ķé£Ł
å¹´ ãģ®
å¹´ åīį
å¹´ å¯ĦãĤĬ
Ġãĥĩ ãĥ¼ãĥĪ
ãģ¨ãģ¯ çŁ¥ãĤīãģªãģĭãģ£ãģŁ
ãģ¨ãģ¯ è¨Ģãģ£ãģ¦ãģªãģĦ
ãģ£ãģ¦ãģĦãģŁ ãģ®
ãģ£ãģ¦ãģĦãģŁ ãģĮ
ãĥĽ ãĥĥ
ãģ«ãĤĤ ãģªãĤĭ
ãģ«ãĤĤ åĲĮãģĺ
Ġç§ģãģ¯å½¼ ãĤĴ
Ġç§ģãģ¯å½¼ ãĤīãģ«
ãģ®åı Ķ
ãģ®åı ĸãĤĬ
ãģ®åı įå¯¾åģ´
ãģ®åı ĭæĥħ
éĢ£ ç¶ļ
éĢ£ éĤ
å¾ħ ãģŁ
å¥½ãģį ãģª
ãĤ¸ãĥ£ ãĥ³
ãĤ¸ãĥ£ ãĤ¯ãĤ½ãĥ³
Ġãĥı ãĥĸãĥªãĥ¼
Ġãĥı ãĥ¼ãĥĲãĥ¼ãĥī
éĸ¢ éĢ£
Ġå¤§ äºº
Ġå¤§ å¥½ãģį
Ġå¤§ ãģĹãģŁãģĵãģ¨ãģĺãĤĥãģªãģĦ
æĻ ´
Ġãĥĳ ãĥ³
Ġãĥĳ ãĥ¼ãĥĪãĥĬãĥ¼
ãģ¾ãĤĬ ãģ¾ãģĻ
ãĤ·ãĥ§ ãĥĥãĤ¯
ãĤ·ãĥ§ ãĥ¼ãĥ«
å©ļ ç´Ħ
çĶ¨ æĦı
çĶ¨ ç´Ļ
æĬ ±
æĬ ĺ
ĠåĪĨ ãģł
ãģĹãģ¦ãģıãĤĮ ãģ¾ãģĽãĤĵãģĭ
åĲĪ æ³ķ
ãģ«ãģ¯å ı
ãģ«ãģ¯å ħ¨ãģı
ãģ«ãģ¯å ¤§ãģįãģª
çĽ® ãģł
çĽ® ãģ§
çĽ® æ¨Ļ
çĽ® è¦ļãĤģ
¥½ ãģĹãģĭãģ£ãģŁ
ãģ®ä»ķäºĭ ãģ§ãģĻ
ĠãĤĦ ãĤĮ
ĠãĤĦ ãģ£ãģ¨
ãĤ¸ãĤ§ ãĥķãĥª
ãĥķãĤ£ ãĥ©ãĥĩ
ãģ¨è¨Ģãģ£ãģŁ ãģª
ãģ¨è¨Ģãģ£ãģŁ ãģ®ãģĭ
ãģ¨è¨Ģãģ£ãģŁ ãģłãĤį
ãĤĴæīĭ éħį
ĠãģĤãĤĬ ãģĿãģĨãģ«ãģªãģĦ
ãģ®ãĤĤãģ® ãģ¯
ãģ®ãĤĤãģ® ãģĺãĤĥãģªãģĦ
æĮģ ãģ£ãģ¦ãģĦãĤĭ
ãģĭãģªãģĦ ãĤı
ãģ«è¡Įãģı ãĤĵãģł
ãģ«è¡Įãģı ãģĵãģ¨ãģĮãģ§ãģįãģ¾ãģĻ
ãģ®äºĭ å®Ł
ãģ®äºĭ ãĤĴè©±
ãĥĲãĥ¼ ãĤ¹ãĥĪ
ĠãĥĢ ãĥ³ãĤ¹
ãģ®åĲį å£°
ĠãģĤãģªãģŁãģ¯ç§ģ ãģ®å
æľĢ è¿ĳ
ç½ °
ãĤ® ãĥªãĤ¹
ãģ¦ãĤĭ ãĤı
ĠãĤª ãĥ¼ãĥ«ãĥī
ĠãĤª ãĥļãĥ©
ãĤ¶ ãĤ¯
ãģĮãģĤãģ£ãģŁ ãģ®ãģĭ
æĺİ çĻ½
æĺİ ãĤĭãģĦ
ãģĹãģŁãģ® ãģ§ãģĻãģĭ
ãĤ·ãĥ¥ ãĥ¼
ãĤ·ãĥ¥ ãĤ¿ãĤ¤ãĥ³
«ĭ æ±Ĥ
è² »çĶ¨
Ġãģł ãģĮæĪĳãĢħ
Ġå¹´ ä»£
ä¸İ ãģĪãģŁ
å¤ĸ ãģ«
ĠãĥŃ ãĥĸ
ĠãĥŃ ãĥĲãĥ¼ãĥĪ
ĠãĤ¦ ãĥ«ãĥķãĤ£
Ķ¯ æĮģ
ãģĻãĤĭãģ® ãģ¯ç§ģ
ãģĻãĤĭãģ® ãĤĴè¦ĭãģŁ
ãĥ³ãĤ¹ ãģł
ãĥ³ãĤ¹ ãĤŃãĥ¼
ãĥķãĤ¡ ãĥĥãĥĪ
ãĥķãĤ¡ ãĥ¼ãĤ¹ãĥĪ
è¾ ²å®¶
Ġãĥª ãĤ¹ãĥĪ
Ġãĥª ãĥĥãĥģ
Ġãĥª ãĥĪãĥ«
Ġãĥª ãĥģãĥ£ãĥ¼ãĥī
Ġãĥª ãĥĹãĥªãĥ¼
Ġãĥª ãĥ¼ãĥŃãĤª
ĠãĤ¤ ãĤ®ãĥªãĤ¹
éĩį ãģª
åĪĩ æĸŃ
ãģĮç ĩĥ
ãģĮç ªģçĦ¶
ĠãģĿãģĹãģ¦ ä»Ĭ
ãģ®ä¸Ģ äººãģĮ
åĵ ĢãĤĮ
Ġå½¼ãģ¯å ŃĲä¾Ľ
ãģ®è©± ãĤĴãģĻãĤĭ
ãģ®è©± ãĤĴèģŀãģĦãģ¦
ãĤĴæķ ´
ĠãĤ¨ ãĥī
ĠãĤ¨ ãĥł
ĠãĤ¨ ãĥĩãĤ£
ĠãĤ¨ ãĥªãĥĥãĤ¯
ĠãĤ¨ ãĥĩãĤ£ãĥ¼
ĠãĤ¨ ãĥ¬ãĥĻãĥ¼ãĤ¿ãĥ¼
ãĤĴèģŀ ãģĦãģ¦ãģĦãĤĭ
ãĥļ ãĥ¼ãĥ«å¤«äºº
è¦ļãģĪãģ¦ ãģĦãģ¾ãģĻ
åľ° çĲĥ
èĪ İ
Ġ4 00
Ġãģ¨ è¨Ģãģ£ãģŁ
ãĥ¼ãĤ¸ ãĤ·ãĥ£ãĥ³
ĠãĥĪ ãĥª
åĲĮãģĺ ãĤĪãģĨãģ«
èĢĥãģĪãģ¦ ãģŁ
èĢĥãģĪãģ¦ ãģĦãģŁ
èĢĥãģĪãģ¦ ãģŁãĤĵãģł
Ġåı ¯
Ġåı ·
éģķãģĨ ãĤı
ãĥ¼ãĥĸ ãģł
èª°ãģĭ ãģ«
èª°ãģĭ ãĤĴæ®ºãģĻ
Ġ10 00
æĻĤéĸĵ ãģĮãģĭ
æĻĤéĸĵ ãģĮãģĭãģĭãĤĭ
ĠãĤĤãģĹ å½¼å¥³
ĠãĤĤãģĹ ç§ģãģŁãģ¡ãģĮ
å®ĺ åĢĻè£ľ
ãĤĴè¦ĭãģŁ ãģĵãģ¨ãģĮãģĤãĤĭ
ĠæĪĳãĢħ ãģ¯å½¼ãĤī
ĠæĪĳãĢħ ãģ¯çļĨ
ãĤĦãģ£ãģŁ ãģĵãģ¨
ãĤĦãģ£ãģŁ ãģ®ãģĭ
éĢĥ äº¡
ãĤĴãģĹãģ¦ ãĤĤãģĦãģĦ
ãĤĴãģĹãģ¦ ãĤĤãģĦãģĦãģ§ãģĻãģĭ
Ġæ°Ĺ æĮģãģ¡
ĠãĤ³ ãĥ¼ãĤ¹
ãģ«æĪ» ãģĹãģ¦
ãģ«æĪ» ãĤĬãģŁãģĦ
ãģ«æĪ» ãĤĭãĤĵãģł
ãģ«æĪ» ãĤĬãģªãģķãģĦ
ãģªãģ®ãģĭ ãĤĤ
ãģªãģ®ãģĭ ãĤĤãģĹãĤĮãģªãģĦ
Ġå® ĩå®Ļ
ãĤĪãģı çŁ¥ãģ£ãģ¦ãģĦãĤĭ
ĠãģĿãĤĮãģĮ ç§ģãģŁãģ¡
éĩİ çĶŁ
éĩİ èĽ®
ãĤĴãģĹãģŁ ãģıãģªãģĦ
ĠãĤ· ãĤ¢
Ġå½¼ãģĮ ãĤĦãģ£ãģŁ
ä¿Ŀ æĮģ
ä¿Ŀ éĩĪ
ãĤ¸ãĥ§ ãĥ¼ãĥ³ãĤº
æ©Ł èĥ½
ãĤĴè¦ĭãģ¦ ãģĦãģŁ
Ġç§ģãģ¯ãģĿãĤĮ ãĤĴå¾ĹãĤĭ
ãĤ² ãĥĨãĤ£ãĥ³
Ġãģĵãģ® çĶº
Ġãģĵãģ® ãĤ¯ãĤ½éĩİéĥİ
Ġä»ĸ ãģ®äºº
Ġä»ĸ ãģ«ä½ķ
Ġä»ĸ ãģ«ä½ķãģĭ
ĠãĤµ ãĥ³ãĤ¯
ĠãĤµ ãĥªãĤ¨ãĥª
¼ķ éĢĢ
åĨ ¬
åĨ ¶
åĨ ·
åĨ ł
åŃ¦ ãģ³
ãĤĭãģ¨ ä¿¡ãģĺ
ãĤĭãģ¨ ãģĹãģŁãĤī
ç§ģãģ« è¨Ģãģ£ãģŁ
ç§ģãģ« ãģ¨ãģ£ãģ¦
Ķ¾ å°Ħ
ãģ«ãĤĪ ãĤįãģĹãģı
ãĤĴä½ľ ãĤĮãĤĭ
ãĤĴä½ľ ãĤĬãģ¾ãģĹãģŁ
Ġæķ µ
Ġæķ ĳ
Ġæķ ĻãģĪãģ¦
Ġçµ Ĳæ§ĭ
Ġçµ ¦æĸĻ
Ġçµ ĤäºĨ
éĢģ ä¿¡èĢħ
Ġèª°ãģĭ ãģĮãģĤãģªãģŁ
ãĤĴæīĭãģ«åħ¥ ãĤĮãģªãģĦ
éĥ µ
ãģ«å½¼ ãģĮ
æĸ¹æ³ķ ãģ¯
æĸ¹æ³ķ ãģ§ãģĻ
ãģ«åĩº å¸Ń
ĠãĥĲ ãĥ¼
ĠãĥĲ ãĥĲ
ĠãĥĲ ãĥ³ãĥī
å½¼ãĤīãģ¯ ãģĤãģªãģŁ
Ġç¥ŀ èģĸãģª
Ġæľ¬å½ĵ ãģªãģ®ãģĭ
ĠãĤ¸ãĤ§ ãĥªãĥ¼
ĠãĤ¸ãĤ§ ãĥķãĥª
ãĥĴ ãĥ«
ãĥĴ ãĥĥãĥĹ
ãģĮå¥½ãģį ãģ§ãģ¯ãģªãģĦ
åĳ¼ ãģ°
çĶŁãģį å»¶
ĠãĥĨ ãĥ¼ãĥĸãĥ«
ĠãģĿãĤĮãģĭãĤī ç§ģãģ¯
ãģ¯æŃ» ä½ĵ
ãģĹãģ¾ãģĹãģŁ ãģĮ
è¨± ãģĹãģ¦ãģıãĤĮ
ãĤŃãĥ£ ãĥĥãĥĹ
ãĤŃãĥ£ ãĥ³ãĥĩãĤ£
ç§ģãģ¯å °ĳãģĹ
ãĤĴåĲ ¹ãģį
ĠæĹ¥ ãģł
å¿ĥ åľ°
è¬ İ
èŃ¦ åł±
è¨¼ äºº
åıĸ ãģ£ãģ¦
åıĸ ãģ£ãģŁ
æŃ» ãģł
æŃ» èĢħ
ıĲ åĩº
Ġãĥĸ ãĥª
Ġãĥľ ãĤ¤
Ġãĥľ ãĥ¼ãĥī
ä»ĺ ãģĦãģŁ
Ġèģŀ ãģįãģŁãģĦ
è»Ĭ ãĤĴéģĭè»¢
Ġç§ģãģ« è©±
Ġè¦ĭ ãģĽãģ¦
ĠãĤŃ ãĥ³
ĠãĤŃ ãĥ³ãĤ°
ĠãĤŃ ãĥ¼ãĥĨãĥ«
ĠãĤŃ ãĥĥãĥģãĥ³
ãģ®æĸ¹ ãģĮãģĦãģĦ
ãĤĴä¸İ ãģĪãģªãģĦ
ãģķãĤĮ ãģ¾ãģĽãĤĵ
ãģķãĤĮ ãģªãģĳãĤĮãģ°ãģªãĤīãģªãģĦ
ĠæĻĤéĸĵ ãģł
ĠæĻĤéĸĵ ãĤĤ
ĠæĻĤéĸĵ åīį
ĠæĻĤéĸĵ ãģĮãģªãģĦ
Ġç´ ³å£«
ãģĬåīį ãģĮ
ãģĬåīį ãģ¯æ
è©±ãģĻ ãĤĪ
ãĤĪãĤĬãĤĤ ãĤĤãģ£ãģ¨
ãĤĪãĤĬãĤĤ å¤§ãģįãģª
Ġãĥĵ ãĥĽãĥ¼ãĥ«ãĥī
ĠéĽ ª
ç§ģãģ® è¦ª
ç§ģãģ® è¦ªæĦĽãģªãĤĭ
Ġãĥģ ãĤ±ãĥĥãĥĪ
ãĤĴè² ł
ãĤĴè² »ãĤĦ
åħ¥ æīĭ
ĠãĤ¸ãĥ£ ãĥł
åĵ¡ ãģł
ãĤĴãģĬ æ¸¡
ãĤĴãģĬ è²·ãģĦ
Ġãģı ãģŁãģ°
ãģ£ãģŁãģ® ãģŃ
æħ £
ãĤĭãģĵãģ¨ ãģ«ãģªãģ£ãģ¦ãģĦãĤĭ
ãĤ¹ãĤ¿ ãĥ¼ãĥĪ
ãĤ¹ãĤ¿ ãĥĥãĥķ
ãģĦãģ¦ãģıãĤĮ ãģªãģĦãģĭ
çĽ´ æİ¥
ãģ®éĸĵ ãģ«ãģĤãĤĭ
æ®º ãģķãĤĮãģŁ
æ®º ãģĹãģ¦ãĤĦãĤĭ
æ¬²ãģĹãģĦ ãģ®ãģĭ
ģĲ æĢĸ
ĠãģĤãģªãģŁãģ® ãģĵãģ¨ãģ¯
ĠãģĤãģªãģŁãģ® ä¸¡è¦ª
ãģ®éł Ĩ
Ħıåĳ³ ãģĮãģĤãĤĭ
ãģ®æīĭ ãģ§
ãģ®æīĭ ç¶ļãģį
Ġãģ¾ãģł çµĤãĤıãģ£ãģ¦ãģªãģĦ
ĠãģłãģĭãĤī ä½ķ
æ¥½ ãģĹ
ãĤ¯ãĥ© ãĤ¹
ãĤ¯ãĥ© ãĥĥãĤ¯
ãĤ¯ãĥ© ãĤ¤ãĥ³
ãĤ¯ãĥ© ãĥ¬ãĥ³ãĤ¹
ãĤĤãģĦãģĦ ãģĭãģª
ĠãģĿãĤĮãģ¯æ Ń£
ĠãģĿãĤĮãģ¯æ ĤªãģĦ
ä¸Ģãģ¤ ãģłãģĳ
ãĥ¼ãĥĨãĤ£ ãĥ³ãĤ°
æĤª åĮĸ
æĤª ãģıãģªãĤĭ
Ńĺ åĪ¥
ãģ² ãģĸ
ãģ² ãģ£ãģıãĤĬè¿Ķ
ãģ² ãģ¨ãģ¤
ãģ¨åĳ¼ ãĤĵãģł
ãģ¨åĳ¼ ãĤĵãģ§ãģĦãĤĭ
ãĤĴæİ¢ ãģĹãģ¦ãĤĭãģ®ãģĭ
ãĤĴæİ¢ ãģĹãģ¦ãĤĭãĤĵãģł
ãģ¨è¨ĢãģĨ ãģ®
åĮĸ ãģķãĤĮãģŁ
ãģ¸ ãĤĪãģĨãģĵãģĿ
ãģ¯ãģ©ãģĵ ãģ§
ĠãĥĻ ãĤ¹ãĥĪ
ĠãģĿãģ® éĢļãĤĬ
ĠãģĿãģ® è¨Ģèĳī
ĠæĻĤ åįĬ
è¨ĺ èĢħ
è¨ĺ åħ¥
èª¿ æķ´
æŃ£ ç¢ºãģ«
åķıé¡Į ãģĮãģĤãĤĭãģ®ãģĭ
ĠãĥĽ ãĥ³ãĥĪ
ãģ¯ãģĦãģ¤ãĤĤ ç§ģãģ«
ä¾¡ ãģª
ĠãģŁ ãģĦãģ¦ãģĦ
ãĥķãĥ¬ ãĥĥãĥī
ãĤ¦ãĤ£ ãĥ³
ãĤ¦ãĤ£ ãĥ³ãĤ¹ãĥŃãĥ¼
è¾¼ ãĤĵãģ§
è¾¼ ãģ¾ãĤĮãģŁ
ãģĭãģ©ãģĨãģĭ ãģ¯åĪĨãģĭãĤīãģªãģĦ
ãĤ¹ãĥĨ ãĥªãĥ¼
ãĤ¹ãĥĨ ãĥ¼ãĤ·ãĥ§ãĥ³
ãĥĥãĤ° ãĤ¹
åįĺ ãģªãĤĭ
åįļ è¦§
éĢ±éĸĵ åīį
å°ĳ ãģªãģĦ
æĴĥ ãģŁãĤĮãģŁ
ãģ¯ãģĤãģªãģŁ ãĤĴ
Ġåį ĺç´Ķ
Ġãĥĭ ãĥ¥ãĥ¼
ãĥĸãĥ« ãĤ¯
Ġ20 1
ãģĭçŁ¥ãģ£ãģ¦ãĤĭ ãĤı
ãģĭçŁ¥ãģ£ãģ¦ãĤĭ ãģłãĤį
ãģ¯å¤ ľ
Ġå½¼ãģ¯ç§ģ ãģ«
Ġãģ©ãģĵãģ« ä½ıãĤĵãģ§
å§ĭ ãĤģãĤĭ
æĭ Ĳ
æĭ Ŀ
ãģĻãĤĭãģĵãģ¨ ãģ§
ãĤĴåıĸãĤĬ éĻ¤
ãĤĴåıĸãĤĬ åĩºãģĹãģŁ
éĢĥãģĴ ãģŁ
ºĸåĤĻ ãģĮãģ§ãģįãģ¦
«Į ãģł
ĭķ æıº
ãĤīãĤĮ ãģ¾ãģĽãĤĵ
ãĤīãĤĮ ãĤĭãģ®ãģ¯
æķ° æĹ¥
æķ° å¹´
ãĤĴåĩº çĻº
ãĥĪãĥ© ãĤ¦ãĥŀ
ãģ«åı į
ãģ«åĲ Įãģĺ
ĠãģĬé¡ĺãģĦ ãĤĦãĤģãģ¦
ĠãĥĩãĤ£ ãĥĥãĤ¯
ĠãĥĩãĤ£ ãĤ¹ãĤ³
ãģ®åıĭäºº ãģłãģ£ãģŁ
éĩįè¦ģ ãģªãģĵãģ¨
æĦŁãģĺ ãģĮãģĻãĤĭ
çĤ¹ ãģ§
Įåħ¨ ãģ«ç
Ġåħ Ħå¼Ł
ãģ®åīį ãģ§æ
è¡Ģ ãĤĴæµģ
æĸ¹ãģĮãģĦãģĦ ãģĭãĤĤ
éłŃ éĥ¨
éłŃ ãģĮãģĦãģĦ
å¯¾ åĩ¦
ķ° æĹ¥
ãĤĴä¿¡ãģĺ ãģªãģĦ
ĠãģĤãģªãģŁãģ¯ç ¥ŀ
ĠãģĤãģªãģŁãģ¯ç ĲĨè§£
çĻ½ äºº
èĩ £
Ġãĥ¡ ãĥĥãĤ»ãĥ¼ãĤ¸
ãģ®åĳ ¨ãĤĬãģ«
å¤ī æĽ´
Ġçķª åı·
ãĤĴçĲĨè§£ ãģĹãģ¦ãģĦãĤĭ
å¿ħè¦ģãģĮãģĤãĤĬãģ¾ãģĻ ãģĭ
ãĥ¬ãĤ¹ ãģ§
Ġãģ©ãģĨãģĹãģ¦ ç§ģãģĮ
ãĤĴå¤± ãģ£ãģŁãģ®
æ´ ĭ
æĢĸ ãģĭãģ£ãģŁ
ãĤ½ãĥ³ ãģķãĤĵ
ãĥ´ãĤ£ ãĥ³
ãĥ´ãĤ£ ãĤ¹
ãģ®åĲįåīį ãģ§ãģĻ
ãģ®ãĤ¢ ãĥ¡ãĥªãĤ«
ãĤĴéĢ£ãĤĮãģ¦ è¡Į
è©¦ è¡Į
å¼ķ çĶ¨
Ġå®Ł ãģ®ãģ¨ãģĵãĤį
æĪ¦ ãģĨ
ç¶ļ ãģĳãĤĭ
èĸ¬ ãĤĴé£²
ãģ«ãģ¯æ ĻĤéĸĵ
ãģ«ãģ¯æ Ń£
ãģ£ãģŁãģ®ãģĭ ãĤĤãģĹãĤĮãģªãģĦ
ãĥ¼ãĥķ ãĤ§
ãĥ¼ãĥķ ãĤ©ãĥ¼ãĥī
ãĥ¼ãĥķ ãĤ£ãĥ³
ãģ®åį ±éĻº
ĠæĦĽ ãģ¯
ĠæĦĽ ãĤĴ
æİ ĥ
ãĥĺ ãĤ¢
Ġå¥ ¥ãģķãĤĵ
ãģ®æĻĤ ãģĭãĤī
ãģ¯å½¼ãĤī ãģĮ
Ġä»ĬæĹ¥ ãģ®åįĪå¾Į
å½¼å¥³ãģ¯ ãģ¨ãģ¦ãĤĤ
ãģĵãĤĮãĤī ãģ®ãģĻãģ¹ãģ¦
Ġãĥīãĥ« ãģ§
é£Łãģ¹ ãģŁ
åİ» ãģ£ãģŁ
æļ ĸ
ãĤĴæĬ ķ
ĠãĤ° ãĥª
ãĥ©ãĤ¹ ãģ¯
ãĥ©ãĤ¹ ãĤ«
ãģ®æĹ¥ ãģł
è¨ĢãĤı ãģªãģĭãģ£ãģŁãģ®
ãĤ¢ãĥĥãĥĹ ãĥ«
ãģķãģĽãĤĭ ãģłãģĳãģł
ãģķãģĽãĤĭ ãģŁãĤģãģ«
ãĤĪãģĨãģª æ°ĹãģĮãģĻãĤĭ
ä¸ĬãģĴ ãģ¦
Ġèª°ãģĮ ãĤĦãģ£ãģŁãģ®
æĤªãģĦ ãģĵãģ¨ãģ¯ãģªãģĦ
ãģ®ãĤ¹ ãĥĹ
ãģĹãģ¾ãģĽãĤĵ ãģĭ
ãģĹãģ¾ãģĽãĤĵ ãģ§ãģĹãģŁãģĭ
ĠãĤ¿ ãĤ¯ãĤ·ãĥ¼
Ġæĸ ĻçĲĨ
ãĤĴåĳ¼ ãĤĵãģ§
Ġç§ģãģ¯ç ģ«
Ġãģĵãģĵãģ« ãģĦãģ¦
å¤± ãģ£ãģŁ
åŃĲä¾Ľ ãģŁãģ¡
åŃĲä¾Ľ éģĶ
ãĤĴæ®ºãģĹãģŁ ãģ®ãģĭ
è¿ĳ æīĢ
ãĤĴæľĽ ãĤĢ
ãĤĴæľĽ ãĤĵãģ§ãģĦãģªãģĦ
ĠéĢ±éĸĵ ãģ§
ãģ®åħ ¬
ĠæŃ ¯
ĠæŃ ´åı²
ãģ¯ä½ķãĤĤ ãģĤãĤĬãģ¾ãģĽãĤĵ
ç½® ãģĦãģ¦
Ġãĥ¯ ãĤ¤
Ġãĥĺ ãĥ«
ãĤĴæĽ¸ ãģıãģ®
ĠãģĿãĤĮãģ¯ç§ģ ãģ®
ãģ®æĻĤéĸĵ ãģ¯
è¦ĭãģ¦ ãģ¿ãģ¾ãģĹãĤĩãģĨ
ãĤĴçĽ ´
ãĤĴè²· ãģ£ãģ¦
ãĤĴè²· ãģ£ãģŁ
ãĤĴè²· ãģĦãģŁãģĦ
æĪ» ãĤĬ
Ġãĥ« ãĥ¼ãĥĪ
ãģķãģĪ ãģ§ãģįãģªãģĦ
ãģķãģĪ åĪĨãģĭãĤīãģªãģĦ
ĠãģĤãģªãģŁãģ¯æ Ń£ãģĹãģĦ
èªŃ æĽ¸
ãĥĸãĥ© ãĤ·
ĠãģĦãģ¤ ãģ§ãĤĤ
Ġé»Ļ ãģ£ãģ¦
å© Ĩ
ãģĦãģªãģĭãģ£ãģŁ ãĤī
ãĤĴé ³
ãĤĴé ¦ĸ
ãĤĴæ°Ĺ ãģ«ãģĹãģªãģĦ
ãĤĴæ°Ĺ ãģ«ãģĹãģ¦
ãĤĴæıĲ åĩº
ãģ«å¤ ¢
ãģ«å¤ ±æķĹ
ãģŁãģıãģķãĤĵ ãģĤãĤĬãģ¾ãģĻ
ç©º æ°Ĺ
ç©º æ¸¯
Ľ½ å®¶
ĠãĥĿ ãĥ³ãĥī
äºĪ æĥ³
äºĪ æ¸¬
ãĤĴæĭ ĺ
ãĤĴæĭ ħå½ĵ
ãĤĴæŃ¢ ãĤģãģ¦
Ġãģ©ãĤĵãģª æĦŁãģĺ
Ġãĥĳãĥĳ ãģ¯
Ġãĥĳãĥĳ ãģĮ
ç´ĦæĿŁ ãģĹãģ¦
ç´ĦæĿŁ ãģĹãģ¦ãģıãĤĮ
ãģ«ä¹Ĺ ãģĽãģ¦
ãģĹãģªãģĭãģ£ãģŁ ãģ®
Ġç§ģãĤĴ è¨±ãģĹãģ¦
ãģĹãģ¦ãģŁ ãģ®ãģĭ
ĠãĤ± ãĥ¼ãĤŃ
ĠãĤ» ãĥĲãĤ¹ãĥģãĥ£ãĥ³
ĠãģĿãĤĮãģ¯ç Ĺħæ°Ĺ
ãģĬé¡ĺãģĦ ãģłãģĭãĤī
ãĥŃãĥ³ ãĥľãĥ¼ãĥ³
ãģĮæĿ¥ ãģ¦
ãģ®ãĥģ ãĥĥãĥĹ
ãĤĴçµ ŀ
ãĤĴçµ Ĳå©ļ
Ġå¤ļåĪĨ ãģĤãģªãģŁãģ¯
ãĤĴæīķ ãģ£ãģŁ
ĠçĶ· ãģ®åŃĲ
ãģ¯åı ¤ãģĦ
Ġæ¬¡ ãģ®æĹ¥
ãĤĴå¾ħ ãģ¤
ãĤĴåĪĩ ãģ£ãģ¦
åŁ ĭèĳ¬
è¶³ ãĤĴ
Ķ¿ åºľ
ãģ«éĽ»è©± ãģĹãģ¦
ãĥ¼ãĥĬ ãĥ¼
ãĤĴæĦŁãģĺ ãģ¦
ãĤĴæĦŁãģĺ ãģ¦ãģĦãĤĭ
ĠãģĤãĤĭ ç¨®
è¦ĸ çķĮ
è¦ĸ çĤ¹
ãĤĴç½® ãģĳ
ãģ«ãģªãĤĬ ãģ¾ãģĻãģĭ
ãģ«ãģªãĤĬ ãģŁãģıãģªãģĦ
ãģ«ãģªãĤĬãģ¾ãģĻ ãĤĪ
ãģ¯çĦ¡ å®Ł
ãģ®ãģŁãĤģãģ«å ĥį
èµ° ãģ£ãģ¦
èµ° ãĤĬåĽŀ
ãĤĴæķĻãģĪãģ¦ãģıãĤĮ ãģ¾ãģĻ
èŃ¦å®ĺ ãģł
ĠéĽ»è©± çķªåı·
ãĤĴéĸĭ ãģı
ãģĵãĤĵãģª äºĭ
ãģĵãĤĵãģª ãģĵãģ¨ãĤĴ
ãģĵãĤĵãģª äºĭãĤĴ
ĠãģĤãģªãģŁãģ¯å ģ½
ãĥķãĤ© ãĥ«
ãĥķãĤ© ãĥ¼ãĤ¯
ãģ®çĽ® çļĦ
ãĥŀãĥŀ ãģ«
ĠéĿ Ĵ
ãģ®è»Ĭ è¼ª
ĠæľĪ ãģ«
ãģ¯æľĢ æĤª
ãģ¯æľĢ é«ĺ
ä¿¡ãģĺãĤīãĤĮãģªãģĦ ãģ»ãģ©
çģ« äºĭ
çİĭ å®¤
è¼ ī
ãģ£ãģ ½
ãģ®ãĥŀ ãĥ³
ãģ®ãĥŀ ãĥŀ
ãģ®ãĥŀ ãĥ¼ãĤ¯
ãĤ±ãĥ¼ ãĤ·ãĥ§ãĥ³
ç¤¼ åĦĢ
èª¬æĺİ ãģĹãģŁ
Ġä¸Ń ãģ«ãģĦãĤĭãģ®ãģĭ
ãĤĴéĢģ ãģ£ãģŁ
ãĤĴéĢģ ãĤĬãģ¾ãģĻ
ç§ĺ æĽ¸
äº¤ äºĴ
ãĥ¬ãĤ¤ãĥ³ ãĥľãĥ¼
ãĥŀãĥ¼ ãĤŃãĥ¥ãĥªãĥ¼
ãĥĢãĥ¼ ãĤ½ãĥ³
çľł ãĤĮ
çľł ãĤĮãģªãģĦ
Ġéĩĳ æĽľæĹ¥
ãĤĭãģ¤ãĤĤãĤĬ ãģłãģ£ãģŁ
ãĤĴå¼ķãģį éĽ¢
ãĤĴå¼ķãģį è£Ĥ
ãĤĴå¼ķãģį ç¶ĻãģĮ
ĠãģĿãĤĮãĤĴ ãģ©ãģĨæĢĿãģĦãģ¾ãģĻãģĭ
èªĵ ãģĦãģ¾ãģĻ
è¨ĢãģĦãģŁãģĦ ãģĵãģ¨ãģ¯
è¨ĢãģĦãģŁãģĦ ãģ®ãģ¯
ãģ¯æ°Ĺ ãģ«åħ¥ãĤīãģªãģĦ
Ġä½ķãĤĤ èµ·ãģį
å®¤ ãģ«
ãģ®ãĥĹ ãĥ¬ãĥ¼ãĥĪ
ãĤ°ãĥĬ ãĥ³ãģ¯
Ġãģ§ãģį ãģªãģĭãģ£ãģŁ
é¡Ķ ãĤĴãģĹãģ¦ãģĦãĤĭ
³¨ å°Ħ
ç© ´
ãģ®ãĤ³ ãĥ¬ãĤ¯ãĤ·ãĥ§ãĥ³
ãģĮè¦ĭ ãģ¤
ãģĮè¦ĭ ãģĪãģ¾ãģĻ
ãģĮè¦ĭ ãģ¤ãģĭãĤīãģªãģĦ
Ġç§ģãģĮæ °Ĺ
ĠãĥĬ ãĥ¼ãĤ¹
ãģ«åº§ ãĤĬ
è¡Ĺ ä¸Ń
ãĤĴç¢º ä¿¡
ãĤĴç¢º ä¿Ŀ
éķ·ãģĦ éģĵ
åĤ· ãģ¤ãģĳ
¥½ãģį ãģª
åĶ¯ä¸Ģ ãģ®çĲĨçĶ±
æ£ Ħ
æ£ ļ
ç® ¡çĲĨ
ãĥ³ãĥĸ ãĥ©ãĥ¼
äºĴãģĦ ãģ«
ãĤĴæ¶Ī ãģĹãģŁ
ãģ¡ãĤĩãģ£ãģ¨ å¾ħãģ£ãģ¦
ãģ¯çµ ¶
Ġä¸Ģä½ĵ ä½ķãĤĴãģĹãģ¦ãĤĭ
åĵģ ãģł
ĠæľĢå¾Į ãģ®æĻĤ
ãĤĴå®Ī ãĤĭãģŁãĤģãģ«
å¹³ åĴĮ
ĠC N
Ġå¾Į ãģ§ä¼ļ
ĠåĽŀ ãĤĤ
ãĥ¼ãĥģ ãĥ³
ĠæŃ» ãģł
ĠæŃ» ä½ĵ
ĠæŃ» äº¡
éģĬ ãĤĵãģ§ãģĦãĤĭ
ãģ®ãģŁãĤģãģ«æ Ń»
ãģ®ãģŁãĤģãģ«æ ³£
ãģ¿ãģŁãģĦ ãģł
ãĤĴæĢĿãģĦ ãģ¤ãģĦãģŁ
çı¾ åł´
ĠM AN
ĸ² ãĤĮãģŁ
ãģ«éĸ¢ ãĤı
ãģ«éĸ¢ ä¸İ
ãģĻãģ¹ãģį ãģĭãģª
Ġå¿ĺ ãĤĮãģªãģĦ
ãģ®åľ° ä½į
ãģ®åľ° çįĦ
è¡Įãģ£ãģŁ æĸ¹ãģĮãģĦãģĦ
ãĤĴçĿĢ ãģ¦ãģĦãĤĭ
ãĤĴè¦ĭãĤĭ ãģŁãĤģ
ĠãĤ¦ãĤ£ ãĤ¹ãĤŃãĥ¼
Ġè¦ĭãģ¦ ãģ¿ãĤĪãģĨ
Ġè¦ĭãģ¦ ãģĶãĤīãĤĵ
ĺĺãĤĴ ãģ¤ãģĦãģ¦
®æ ®
Ġè©± ãģĽ
ãģ®åĨ ħ
ãģ®åĨ Ĺè«ĩ
ãģ¯åħ ī
ãģ¯åħ ¬å¼ı
ĠæŃ£ ç¢ºãģ«ãģ¯
ĠãģĤãģªãģŁãģ¨ ç§ģãģ¯
éģ© ãģª
ĠçĪ¶ ä¸Ĭ
ãģ®ãĥĵ ãĥĥãĤ°
ĠãģĬéĩĳ ãģł
ãĤµãĥ³ ãĥģãĤ§ãĤ¹
æĺŁ éĽ²
ãĥĶãĥ³ ãĥĲãĥĥãĤ¯
·· ãģĸ
å§ «
ĠãĤĪãģı èĢĥãģĪãĤį
Ħļ ãģĭèĢħ
ãĤĴè¨± åı¯
ãģ¯åį ĺç´Ķ
ãģ«æľ ¬å½ĵãģ«
ãĤ°ãĥŃ ãĥ¼ãĥ´
ãĥĵãĤ¸ãĥįãĤ¹ ãĥŀãĥ³
ãĤµãĤ¤ ãĤ³
ãĤµãĤ¤ ãĥ¢ãĥ³
ãĤµãĤ¤ ãĤŃãĥĥãĤ¯
ãģ«èģŀ ãģĵ
è³ĩ æľ¬
éĸĵéģķãģĦ ãģªãģı
½ª ãĤĴçĬ¯
ãģ®ãĤĦãĤĬæĸ¹ ãģł
ãĤĴãĤĦ ãĤģãģŁ
ãĤĵãģĺãĤĥãģªãģĦ ãģĭ
Ġãĥł ãĥĥãĤ·ãĥ¥
Ġãĥł ãĥ¼ãĥĬãĥ³
ãĤĴå«Į ãģ£ãģ¦ãĤĭãģ®
ãģĤãģªãģŁãģ¨ ç§ģãģĮ
ãģ¨ãģĦãģĨãģĵãģ¨ãĤĴ çŁ¥ãģ£ãģ¦ãģĦãĤĭ
å¤§ä¸Īå¤« ãģĭ
å¤§ä¸Īå¤« ãģł
ãģ®å¤« ãģ¯
åĦª ãĤĮãģŁ
åĦª åĭ¢
çĨ ±ãģĦ
éŃĶ æ³ķ
ãģĦãģ¤ ãĤī
ĠãĤ½ ãĥİãĥķãĤ¡
ĠæĤª ãģıãģªãģĦ
ĠæĤª éŃĶ
ĠçĽ® ãĤĴè¦ļ
åı¯èĥ½æĢ§ ãģĮãģĤãĤĬãģ¾ãģĻ
ãģ«ç«ĭ ãģ¡ä¸ĬãģĮ
èģŀãģĦãģ¦ ãĤĭ
ãģ®åŃĲä¾Ľ éģĶ
è·¯ ãĤĴ
éĻįãĤĬ ãĤĭãģ®
ĠB i
ãĤĴéĽ¢ ãģĽ
ãĤĴæİ ¡
ĠãģĿãĤĮãģĮç§ģ ãģ®
ĠãģĿãĤĮãģĮç§ģ ãģĮ
å½¼ãģ« è©±ãģĻ
ãĥīãĤ¥ ãĥ¼ãĤ¬ãĥ³
çĽ¸ å¿ľ
ãģ«ç½® ãģĦãģ¦
ãģ«ç½® ãģįãģªãģķãģĦ
ãģ¨åĳ¼ãģ° ãĤĮãģ¦ãģĦãģ¾ãģĻ
ãĤĴåĤ·ãģ¤ãģĳ ãĤĭ
æ¨ ª
ĠP T
ãĥ¼ãĤ¿ ãĥ«
Ġãĥļ ãĥªãĥ¼
ĠæĤªãģĦ ãĥĭãĥ¥ãĥ¼ãĤ¹
ãĤĴåħ ±
ãĤĴåħ ĥ
æĢĴ ãģ£ãģ¦ãģĦãĤĭ
è¦ĭãģĽ ãģŁ
ãĤĴèĦ ±
ãĤªãĥ¼ ãĤ±ãĥ¼
ĠãĤ¦ãĤ© ãĥĥãĤ«
ãģ®ä¸Ģäºº ãģ§
éĩįè¦ģãģª ãģ®ãģ¯
ãģ§åĥįãģĦãģ¦ ãģŁ
ç« ¥
ç« ł
èĦ ±
ĠI n
ãģ¥ ãģĦãģ¦
ãĤ¹ãĥĳ ãĥ¼
åĪ¶ åıİå®¹æīĢ
ãģ®èĭ ¥ãģĦçĶ·
ãģ«åħ¥ãĤĮ ãģ¾ãģĻ
Ġå¤ī æĽ´
Ġç´łæĻ´ãĤīãģĹãģĦ ãģĺãĤĥãģªãģĦãģĭ
Ġãĥģãĥ£ ãĥĥãĤ¯
ãģ®å°ĳå¥³ ãģ¯
Ġè¦ļãģĪãģ¦ ãģĦãģ¾ãģĽãĤĵ
ãģ®ãĥĪ ãĥ©ãĥ³ãĤ¯
ãĤĴãģĹãģŁãģĦ ãģ®ãģ§ãģĻãģĮ
ĠãģĤãģªãģŁãģ¯ä½ķ ãģªãģ®
ãģĬåīįãģ¯ ä¿º
ä¸Ńãģ§ ä¸Ģçķª
ä¸Ńãģ§ æľĢãĤĤ
æ°ĹåĪĨ ãģĮãģĦãģĦ
ãģ«è¿ Ķ
ãĥģãĥ£ãĥ³ãĤ¹ ãĤĴ
ãĥģãĥ£ãĥ³ãĤ¹ ãģł
æ» ĳ
ãģĮãģĤãĤĬ ãģ¾ãģĹãģŁ
ãģĮãģĤãĤĬ ãģ¾ãģĹãģŁãģĭ
ãģ®åĪ ©
ãĥĻãĥĥãĥī ãģ§
èµ·ãģį ãģ¦ãĤĭ
ãģĭãĤīåĩºãģ¦ è¡Įãģı
åĩ¦ çĲĨ
ãģĻãĤĭãģŁãĤģ ãģ®
è¡Ľ çĶŁ
ãģĮæ°Ĺ ãģ«åħ¥ãĤīãģªãģĦ
ãģ®èĥ ¸
ĠãĤĤãģĨä¸Ģãģ¤ ãģĬè¨±ãģĹ
ä»¥å¤ĸ ãģ«
éĿŀå¸¸ ãģ«å
æĶ¿ æ²»
çĸĳ åķı
è¶ £åĳ³
è¸Ĭ ãĤĭ
é¤ ĵ
é¤ ĬåŃĲ
ãģ®ãĤ¿ ãĥĲãĤ³
Ġå¯ ĤãģĹãģĦ
ãģ®å¿ĥ ãģ®ä¸Ńãģ§
ãģ¯å°ĳãģĹ éĮĨ
ãĤıãĤĮ ãģ¾ãģĹãģŁ
ãĤıãģĳ ãģ§ãģ¯ãģĤãĤĬãģ¾ãģĽãĤĵ
å¥¥ ãģķãĤĵ
ãĤ¸ãĥ¥ ãĥĭãĤ¢
ãģ®çķª çµĦ
Ġèĭ ¥ãģĦ
ãĤĴç´ ĦæĿŁ
ãĤĴç´ įå¾Ĺ
ãĤĴè§£ éĽĩ
ãģ®é« ĺ
ãĤĴãģĻãĤĭãģ¤ãĤĤãĤĬ ãģ§ãģĻãģĭ
ĠãĤ¢ãĥ¡ãĥªãĤ« äºº
ĠãĤ¢ãĥ¡ãĥªãĤ« åĲĪè¡ĨåĽ½
èĩªåĪĨèĩªèº« ãģ§
ĠãĤ¯ãĤ½ éĩİéĥİ
ãĤĴèªŃ ãĤĵãģ§
ãĤ³ãĥ³ãĥĶ ãĥ¥ãĥ¼ãĤ¿
éģİãģİ ãĤĭ
ãģ¯å¤§ä¸Īå¤« ãģł
ãģ®çĪ¶è¦ª ãģł
ãģĮæľĢåĪĿ ãģ«
ãĤĴæĢĸãģĮ ãĤīãģĽãĤĭ
ĠL OV
ãĤĴä¸ĭ ãģĴ
ãĤĴä¸ĭ ãĤĬãģ¦
Ġå· Ŀ
Ġå· ŀ
Ġåľ° çįĦ
Ġãĥ¨ ãĥ¼ãĥŃãĥĥãĥĳ
ãĤ¹ãĥĶ ãĤ¢
ãĤ¹ãĥļ ãĥ¼ãĤ¹
Ġçī¹ åĪ¥
Ġçī¹ ãģ«ãģªãģĦ
ãģ®ç¨® é¡ŀ
ãĤ³ãĤ¹ ãĤ°ãĥŃãĥ¼ãĥĸ
ãĤ³ãĤ¹ ãĥŃãĥĲãĤŃãĤ¢
ãĤ³ãĤ¹ ãĤ°ãĥŃãĥ¼ãĥ´
åº§ ãģ£ãģ¦
ĠãģĦãģıãĤī ãģ§ãģĻãģĭ
Ġç§ģãģ¯å¤ ¢
ĠãĤ¯ãĥªãĤ¹ ãĥģãĥ£ãĥ³
é£Ľè¡Įæ©Ł ãģ«ä¹Ĺ
ãģ®åĳ½ ãĤĴæķĳãģ£ãģŁ
æĮĩ è¼ª
ĸľ ãĤĵãģ§
Ġå¿ħè¦ģ ãģªãģĦ
ãģ®å° Ĭæķ¬
ãĤ¤ãĤ® ãĥ³ãĤ¹
ãĤįãģĨãģ¨ ãģĹãģ¦ãĤĭãģ®ãģĭ
ãģ®ãĥĢ ãĤ¦ãĥ³
ãģ®è³ Ńãģĳ
åĲĮ æĻĤãģ«
Ġãģ©ãģĨãģĭ ãģĹãģŁãģ®ãģĭ
ãģ®ãģ¯çŁ¥ãģ£ãģ¦ãĤĭ ãģ§ãģĹãĤĩ
æķ¬ æĦı
Ġå¤© çļĩ
ĠåĪĨãģĭãģ£ãģŁ ãĤĪ
ĠåĪĨãģĭãģ£ãģŁ åĪĨãģĭãģ£ãģŁ
ç½² åĲį
ãĤĴèª¿ æŁ»
èĭ¥ãģĦ å¥³æĢ§
æĢĸãģĦ ãģ®
æİ¥ è§¦
ãĤ®ãĥ£ãĥ³ãĤ° ãģ¯
åŃĹ éĢļãĤĬ
ãģ®èĢĥãģĪ ãģł
ãģ¯ãģĿãĤĮ ãģ»ãģ©
ãģĮè¨Ģãģ£ãģŁ ãģ®
Ġå¼ Ł
ãģįãĤĮãģĦ ãģª
ãģ¯å¥½ãģį ãģĭ
ĠæģĲ ãĤīãģı
ãĤĴå° Ĭæķ¬
ĠãģĿãĤĮãģ«ãģ¤ãģĦãģ¦ èĢĥãģĪãĤĭ
ãģ«ãģ¯ä½ķãĤĤ ãģªãģĦ
ãĥĹãĥ© ãĥı
ĠãģĬãĤĦãģĻ ãģĹ
Ġ19 22
ãĤŃãĥªãĤ¹ãĥĪ æķĻå¾Ĵ
ãĤĴçŁ¥ãģ£ãģ¦ãģĦãģ¾ãģĻ ãģĭ
ĠãĥķãĤ§ ãĤ¢
è²ł ãģĳ
è²ł ãģĳãģŁ
Ġæĺ¨å¤ľ ãģ¯ãģ©ãģĵãģ«ãģĦãģŁãģ®
çķªåı· ãģĮ
å·¥ åł´
ä¸¡æĸ¹ ãģ¨ãĤĤ
è¨ĢãĤıãģªãģĦãģ§ ãģıãĤĮ
ãĥĳãĥ¯ãĥ¼ãĤº ãģķãĤĵ
çľ ĭèŃ·
ĠE at
ãģ®åĢ ¤
ãģ®åĢ ĭäºº
ãĥ«ãĥķãĤ£ ãĤ¢
ãģ¯æķ ĳ
ãģ¯æīĭ ç´Ļ
Ġç· ĬæĢ¥
Ġç· Ĭå¼µ
ãĥĵãĥĩ ãĤªãĤ«ãĥ¡ãĥ©
ãģĵãģ¨ãĤĴé¡ĺ ãģ£ãģ¦ãĤĭ
ãģ®ãģ¯ãģĿãĤĮ ãģłãģĳãģł
ãĥİãĥ¼ ãģ¨è¨Ģãģ£ãģŁ
ãĤĴå¤ĸ ãģ«åĩº
ãģ®çµĲå©ļ å¼ı
Ġå®¶ãģ«å¸° ãģ£ãģ¦
ãģĨãģ¾ãģıãģĦ ãģ£ãģŁ
¿Ļ ãģĹãģı
Ġä¸Ĭ åĩºæĿ¥
īåĲį ãģª
ľ§ åĢĴ
ãĤĴçĶŁ ãģ¿åĩºãģĻ
Ġæ®º ãģĹå±ĭ
ãĤ¤ãĥ¬ ãĥ«
äººãĤĤ ãģĦãĤĭ
ĠãģĤãģªãģŁãģ®å £°
å¥ĩ å¦Ļãģª
ãģ®æ°Ĺ åĪĨ
ãģĿãĤĮãģ¯å ķıé¡Į
Ġçı¾ éĩĳ
ãĤĴçĻº æĺİ
ĠãģĵãĤĮãģ¯ç ´łæĻ´ãĤīãģĹãģĦ
æĦļ ãģĭãģª
ãģ«èŃ¦ å®ĺ
ãģĵãģĵãģ«æĿ¥ãģŁ ãĤĵãģĺãĤĥãģªãģĦ
ä½ķãĤĴãģĹãģŁ ãģĭçŁ¥ãģ£ãģ¦ãĤĭ
Ġä»ĸãģ® èª°ãģĭãģ¨
ĠåħĪ çĶŁ
éģłãģı ãģ¾ãģ§
ãĤĴéĸĭãģĳ ãĤį
Ġãĥ¢ãĥ¼ãĥĦãĤ¡ãĥ«ãĥĪ ãģķãĤĵ
¯Ŀ å®¤
¸Ĥ åĨħ
ç¯ ī
ĠH O
ãĤĴãģ¤ãģĭ ãģ¾
ãĤĴéģ¸ ãĤĵãģł
ãĤĴéģ¸ ãģ¶
Ġãģį ãĤĮãģĦ
Ġåº§ ãĤĮ
ĠåĪ¥ ãģ®ãĤĤãģ®
ãģĹãģ¦æ¬²ãģĹãģĦ ãģ®
ãĤ¹ãĥ¼ãĥĦ ãĤ±ãĥ¼ãĤ¹
ãĤ¯ãĥªãĤ¹ ãĥŀãĤ¹
åĪº ãģĹãģŁ
ãģ®æ©Ł èĥ½
ãģ®æĦı åĽ³
ãģ®æĦı å¿Ĺ
è¡ĮçĤº ãģł
Ġçİĭ ãģ¯
ĠçļĨ ãģķãĤĵ
Ġé¦¬é¹¿ ãģĴãģ¦ãĤĭ
ä¹¾ æĿ¯
ĠãĥĪãĥ© ãĥĸãĥ«
èĳ¬ å¼ı
ãĤĴåĲ¹ãģįé£Ľãģ° ãģĹãģŁ
ãĤ¦ãĤ£ãĥ¼ãĥ³ ãģ§
Ġä½ķãĤĴè¨Ģ ãģ£ãģ¦ãĤĭãģ®
ãĤĴæĭ¾ ãģĨ
ãĤĴæĭ¾ ãģĦä¸ĬãģĴ
ģ¥ãģļ ãģĭãģĹ
ãĥĪãĥ¬ãĥĻãĤ¹ ãģķãĤĵ
ç°¡åįĺ ãģªãģĵãģ¨
è¥¿ åģ´
Ġä¿Ŀ è¨¼
Ġä¿Ŀ éĻº
Ġä¿Ŀ åŃĺ
ãĤĴéģĭ ãģ¶
ãĤĴæ¼Ķ å¥ı
ãĥĪãĥ³ ãĥįãĥ«
ãģ¯æ®ĭå¿µ ãģ§ãģĻ
ãģ¯æ®ĭå¿µ ãģłãģ£ãģŁ
ĠèĦ ³
ĠãĤ¯ãĥ© ãĥ¬ãĥĥãĥĪ
ĠãĥĢãĥ³ ãĤ¦ãĤ£
ĠãģĿãĤĵãģªãģĵãģ¨ è¨ĢãģĨ
ãĤĴãģĬæĮģãģ¡ ãģ§ãģĻãģĭ
æıĽ ãģĪ
ER S
ç¥ ĿãģĦ
çĮ «
çĮ Ł
ĠåĪ ĿãĤģãģ¦
ĠæºĸåĤĻ ãģ¯ãģĦãģĦ
çŁ¥ãĤĬãģ¾ãģĽãĤĵ ãģ§ãģĹãģŁ
Ġç©º æ¸¯
Ġèµ· ãģįãģ¦
ãĤĴè¦ĭãģŁãģĦ ãģ®ãģĭ
ãģ¦ãĤĤãģĦãģĦ ãģ§ãģĻãģĭ
ãĤĴæ®ºãģĿãģĨãģ¨ ãģĹãģŁ
è³Ľ è¾ŀ
Ġä¸Ģåº¦ ãģłãģĳ
ä¼ĿãģĪ ãĤį
Ġå®ĮçĴ§ ãģª
æ¯İ éĢ±
Ġå¤±ç¤¼ ãģ§ãģĻãģĮ
çĭ ©ãĤĬ
éľ ĩ
ĠJ AG
ãģ¯ãģĵãģĵ ãģ§ãģ¯
ãģ¨ç¢ºä¿¡ ãģĹãģ¦ãģĦãĤĭ
ãģĮãģ§ãģį ãģ¦ãģĦãĤĭ
Ġåĺĺ ãģł
ä¸ī å¸ĿåĽ½
ãĤĴæĺ İãĤīãģĭ
ãĤĴåĭķ ãģĳ
ãģ«å°ĭãģŃ ãģŁ
ãģ®æĤª å¤¢
ãģĭãĤīéĢĥãģĴ ãģŁ
ãĤ¿ãĤ¤ãĥł ãĥĪãĥ©ãĥĻãĥ«
ãģĮæĴĥ ãģŁãĤĮãģŁ
ãģĮæ¶Ī ãģĪãģŁ
ãĥĩãĥ¥ ãĥ¼ãĥī
çµĤ äºĨ
çķ° ãģªãĤĭ
Ġå¤ļãģı ãģ®äººãģĮ
ĠãĤ¯ãĥ¬ ãĥ¡ãĥ³ãĤ¿ãĤ¤ãĥ³
ĠãĤ¯ãĥ¼ãĥ« ãģł
ãģ®åı£ åº§
ĦŁæĥħ çļĦãģª
è£ı åĪĩãĤĬ
ãĤĴæīĢæľī ãģĹãģ¦ãģĦãĤĭ
ãģ®å¾ĮãĤĴè¿½ ãģĨ
ãĤĴåĩºãģ¦ è¡Įãģ£ãģŁ
ãģ«æľĢ ãĤĤ
é©ļãģı ãģ»ãģ©
ãģ«åĪ° çĿĢ
ãģĮãģ©ãģĵãģ«ãģĤãĤĭ ãģĭçŁ¥ãģ£ãģ¦ãģĦãģŁ
ãģ¾ãģļ ãģĦ
ãģĵãģ¨ãĤĴæľĽ ãĤĵãģ§ãģĦãĤĭ
ãĥĥãĥģãĥ£ ãĥ¼
ĠæĹ ©ãģı
ãĤ¯ãĤ¿ ãĤ¤
ãĤĴå· ®ãģĹ
ãĤıãģĭãģ£ãģŁ ãģ®
ãĥ©ãĥĥãĤŃãĥ¼ ãģł
ãĤĦãĤģ ãģªãģķãģĦ
Ġèī¯ ãģıãģªãģ£ãģŁ
ãĤĴçĦ¡ é§Ħ
ãĥŀãĤ¤ãĥ« ãĤĤ
æķĳ æĢ¥
ãģ«è³ ŃãģĳãĤĭ
æīĭãģ«åħ¥ ãĤĮãĤĭ
Ġãĥķãĥ¬ ãĥĩãĤ£ãĥ¼
è¿½ åĬł
è¿½ãģĦ åĩºãģķãĤĮãģŁ
ä¼Ŀçµ± çļĦãģª
å°İ èĢħ
Ġç§ģãģ¯ãģĿãĤĮãģ«ãģ¤ãģĦãģ¦ ä½ķãĤĤçŁ¥ãĤĬãģ¾ãģĽãĤĵ
ãģĮæľĽãĤĢ ãģªãĤī
Ġç´ł æķµãģª
ĠåĨ· éĿĻ
ãģ¨åĳ¼ãģ°ãĤĮãĤĭ ãĤĤãģ®
ãĤĴèª¬æĺİ ãģĹãģ¾ãģĻ
ãĤĴè¶ħ ãģĪãģ¦
ac k
å¹ £
Ĩħ éĥ¨
ĭĺ æĿŁ
ãģĭãĤĮãĤĭ ãģ¾ãģ§
ãģĭè¦ĭãģ¦ ãģ¿ãģ¾ãģĹãĤĩãģĨ
ãģ¯åĪ ĿãĤģãģ¦
ĠæĪ» ãĤĮ
Ġæ·± åĳ¼åĲ¸
ãĤ¯ãĥĵ ãģł
ãģ®æŃ ´åı²
ãģ«æĺ İ
ãģ®çľŁ ãĤĵ
ãģ®é¦ĸ éĥ½
ãĥĭãĥ¼ãĥ« ãĤ»ãĥ³
ä¾Ŀ éł¼
ä¾Ŀ åŃĺ
ãģ®ãģ¯ãĤıãģĭãģ£ãģ¦ãĤĭ ãģ§ãĤĤ
Ġç§ģãģ¯å®¶ãģ«å¸° ãĤĬãģŁãģĦ
Ġç§ģãģ¯å®¶ãģ«å¸° ãĤĭãĤı
éĥ½ å¸Ĥ
ĠãĤ¸ãĤ§ãĤ¤ ãĤ³ãĥĸ
ãģłãģ¨æĢĿãĤıãģªãģĦ ãģĭ
Ġãĥ¬ãĤ¤ ãĥİãĥ«ãĤº
ãĤĴåĳ¼ãģ³ åĩº
åŁº åľ°
ĠãĤ®ãĥ£ ãĥ³ãĥĦ
ãģ«åıĸãĤĬçµĦ ãĤĵãģ§ãĤĭ
ãģ«åıĸãĤĬçµĦ ãĤĵãģ§ãģĦãģ¾ãģĻ
»ĳ ãĤĬ
¾¤ ãĤĮ
èı ¯ãģª
ħĪ æĤ²
Ĭķ ç¨¿
ãģĹãĤĥ ãģ¹
ãģĹãģĻãģİ ãģ¦
ãģ¨èĢĥãģĪãģ¦ ãģıãģłãģķãģĦ
ĠçĽ Ĺ
Ġç°¡åįĺ ãģª
ãģ«æĸ ¹æ³ķ
Ġè¿ ·
ĠéŃ ļ
ãģ®éķ· ãģķ
ãĤ¨ãĥ¼ ãĤ¸ãĤ§ãĥ³ãĥĪ
ãĤ¨ãĤ¤ ãĥªãĤ¢ãĥ³
ãĤ¤ãĥ³ãĤ° ãĥ©ãĥ³ãĥī
ãĤ»ãĤ¯ãĤ·ãĥ¼ ãģª
¥ŀçµĮ è³ª
ä»¥åĨħ ãģ«
ĠãĥĲãĤ« ãģª
ĠãģĨãģ¾ãģı ãģĦãģı
Ġãĥ«ãĥ¼ãĤµãĥ¼ ãģ¯
ĠãĥĶãĥ³ ãĤ«ãĥ¼ãĥĪãĥ³
æ²¢ å±±
ãĤĴçµĤãĤı ãĤīãģĽãĤĭ
ãģ«æīĭç´Ļ ãĤĴæĽ¸
æĥ³åĥı ãģĹãģ¦ãģ¿ãģ¦ãģıãģłãģķãģĦ
ãģ®éļİ ç´ļ
ãĥĵãĥĩãĤª ãĥĨãĥ¼ãĥĹ
ĠãģĬä¼ļãģĦãģ§ãģįãģ¦ å¬īãģĹãģĦãģ§ãģĻ
ĠãģĬä¼ļãģĦãģ§ãģįãģ¦ åħīæłĦãģ§ãģĻ
²» çĻĤ
ĤéĸĢ å®¶
ľĭèŃ· å©¦
ãģĦãģĭ ãģĮãģ§ãģĻãģĭ
ãģŁãģ° ãģĵ
ãģ¨åħ± ãģ«
ãģ£ãģĵ ãģĦãģĦ
ãĤĴæ¨ª åĪĩ
ãĤĴåĽ° ãĤīãģĽ
ãģ®æķĻ ä¼ļ
ĠçĪĨ çĻº
Ġèĩ ³ãĤĭ
ãĤ«ãĥĭ ãĥ³ãĤ¬
ãĥŀãĤ¶ãĥ¼ ãĤ·ãĤ§ãĥ¼ãĥī
ãĤĴæĮģãģŁ ãģªãģĦ
åįĶ åĬĽ
å¯Ĥ ãģĹãģıãģªãĤĭ
ãĤ¦ãĤ§ãĥ«ãĤº ãģķãĤĵ
ãģ©ãģĵãģ«ãģĦãģŁ ãĤĵãģł
ãģĵãģĵãģ«éĢ£ãĤĮãģ¦ ãģįãģŁ
ãĤĴåĲ¹ ãģ£é£Ľãģ°
ãģ«ä½ķãģĮèµ·ãģĵ ãĤĭãģĭ
èªŃãģ¿ åıĸ
ĠãĥĶãĥ¼ãĥ« ãģķãĤĵ
ãģ«è¿· æĥĳ
¯¾ åĩ¦
å« ģ
æ¨©åĪ© ãģĮãģĤãĤĭ
İĦ éĸ¢
ãģ«éģİãģİ ãģªãģĦ
ãĤĴéĢļãĤĬ æĬľãģĦãģŁ
ãģ¨ãģĬ ãĤĬãģ«
Ġåĥķ ãģ¯
ãģ®å· ŀ
ãĥ©ãĥĲ ãĥŀ
ãĤįãģıãģ§ãģªãģĹ éĩİéĥİ
ãģ«æ±º ãĤģãģŁ
ãģ®ç¾İ ãģĹãģķ
ãĤĴç¹°ãĤĬè¿Ķ ãģĻ
æĸ½ è¨Ń
ãĤµãĤ¤ãĤ¯ ãĤ¹
ãģ«è§£ æ±º
ãĥĶãĥĥãĤ¯ ãĤ¢ãĥĥãĥĹ
ĠãĤ¹ãĤ¿ãĥ³ ãĤ¸
ãĤĴå¤¢ è¦ĭ
Ġå½¼ãģ¯åħ ĥæ°Ĺãģ§ãģĻ
ĠçµĲ å±Ģ
ãĥĥãĥģãĤ§ ãĥ«
ãģ®éłĺ ä¸»
Ġãĥĺãĥ³ãĥªãĥ¼ ãģķãĤĵ
ãģĭãĤıãģĦ ãģĿãģĨãģª
æ¶Īéĺ² å£«
èªłå®Ł ãģķ
ãģ¨ä»ĺãģįåĲĪ ãģ£ãģ¦ãĤĭ
´© å£Ĭ
èĶ µ
éī± å±±
Ġâ ĪĴ
ĭ© çĮŁ
ĶãĤīãģĭ ãģĦ
ãģ¾ãģ¨ãĤĤ ãģª
ãĥ³ãĥĲ ãĥ¬ãĥ³
ãģıãģĻ ãģı
ãĤĴæĶ¯æīķ ãģĨ
ãĤĴåĳ ³
ãĥªãĤ¶ ãĥĻãĤ¹
ãģ°ãģĭ ãģ°
ãĤĴçĸĳ ãģĨ
ãĤ°ãĥĥãĥī ãĥŀãĥ³
ãĤ¹ãĥĪãĥ¼ãĤ«ãĥ¼ ãģĺãĤĥãģªãģĦ
Ġç§ģãģĮçŁ¥ãģ£ãģ¦ãģĦãĤĭ ãģ®ãģ¯
ãģ«ç©´ ãĤĴãģĤ
è§£æ±º çŃĸ
å¸½åŃĲ ãĤĴãģĭãģ¶
æĬķ è³ĩ
ĠãģĶåŃĺçŁ¥ ãģ®ãĤĪãģĨãģ«
ĠãĥĪãĤ¥ ãĥ«ãĥ¼ãĥªãĥ¼
ĠãĤ«ãĥ« ãĥĵãĥ³
ãĥĴãĤ® ãĥ³ãĤº
ĠãģĿãĤĮãģ¯æ®ĭå¿µ ãģ§ãģĻ
ĠåįģåĪĨ ãģª
æİĽ ãģĭãĤĬ
ĠãĤ°ãĥ© ãĥĩãĤ£ãĤ¹
ãģ®ãĥģãĤ§ ãĥĥãĤ¯
ç®¡ å·¥
ĠãĥķãĤ¡ãĤ¤ãĤ¢ ãĥķãĥ©ãĤ¤
Ħļãģĭ ãģłãģ£ãģŁ
èĦħ å¨ģ
ãĤ¾ãĥ« ãĤ°
Ġéħį ç®¡å·¥
ãģ«è²¬ä»» ãģĮãģĤãĤĭ
Ġä¸ĭãģĮ ãĤĮ
æ½Ķ ãģª
éĭ ŃãģĦ
įĽ åĨ¶
ĳåĬ£ ãģª
ãĤĴè¨ª ãģŃ
ãĤĵãģ®å °ĳãģĹ
ĠãģĿãĤĬ ãĥ¼
ãĤĴæĤ© ãģ¾ãģĽ
ĠæĿ± ãĥ¨ãĥ¼ãĥŃãĥĥãĥĳ
ãĤ¯ãĥĢ ãĥ¼ãĥ¢
ãĥªãĤ¸ ãĥĬãĥ«
ãĤģãģ£ãģŁ ãģ«
ãģ«åĽº åŁ·
Ġãģĵãģ£ãģ¡ ãģ«æĿ¥
Ġç¨® é¡ŀ
ãĥ¬ãĥŀ ãĤ¤ãĤ¢
ãģ«ãģ¯ãģª ãĤĮãģªãģĦ
ãģĮæģĭ ãģĹãģĦ
ãĤĴçīĩ ä»ĺãģĳ
ãĤĴèĤ² ãģ¦ãĤĭ
ãģ¯ä½ķæĻĤ ãģ§ãģĻãģĭ
ãģĵãģ¨ãģĮãģ§ãģįãĤĭãģ¨ ç¢ºä¿¡
ĠãĤ¹ãĥ¯ ãĥ¤
ĦŁéĬĺ ãĤĴåıĹãģĳ
ãĤ·ãĥ¥ãĤ¿ ãĥĿ
åĤ¾åĲĳ ãģĮãģĤãĤĭ
ãĤ·ãĥ£ãĥĥãĥĪ ãĥĢãĤ¦ãĥ³
ãģ¨åĳ¼ãģ³ ãģ¾ãģĻãģĭ
Ġãĥŀãĥŀãģ¨ ãĥĳãĥĳ
ãĥ¥ãĥ¼ãĥģãĥ£ ãĥ¼
ĠãĤ°ãĥŃ ãĥªãĤ¢
½ĵçĦ¶ ãģ®åł±
ãĤĴæİĴ éĻ¤
ĠãĥģãĤ§ãĤ³ ãģ®å¥³ãģ®åŃĲ
Ġé¦¬é¹¿ãģªãģĵãģ¨ãĤĴ ãģĻãĤĭãģª
ãĥıãĥ«ãĥĲãĥ¼ãĤ¹ ãĤ¿ãĥł
ãģĨãĤĵãģĸãĤĬ ãģĹãģ¦ãģĦãĤĭ
ĠãģĬãģ°ãģĤãģ¡ãĤĥãĤĵ ãģĮæŃ»
Ġä½ķãģ¨è¨Ģãģ£ãģ¦ãģĦãģĦãģĭ åĪĨãģĭãĤīãģªãģĦ
¤Ĵ ãĤģè¨Ģèĳī
¯å®ļ çļĦ
°åĪ ·
´ħ æ²¢
´ĩ æĭĿ
èĵ ĭ
ģåŃĹ æŀ¶
ãģ®ä»ķ æĸ¹
ãģ®ãĥ¬ãĥĥ ãĤ¹ãĥ³
ãģ¨æļ ®ãĤī
Ġå¥½ å¥ĩå¿ĥ
ãģķãģķ ãĤĦ
çŁĽçĽ ¾
ãģĤãĤĭç¨ ĭåº¦
Ġç½® ãģıãĤĵãģł
ãģ®ç¢º çİĩ
Ġè±ª èı¯ãģª
ãĤĴçī¹ å®ļ
ãĥĭãĥ§ ãĥ¼ãĥ«
ĠãģĦãĤĦãģ¾ãģł ãģł
éĢ£éĤ ¦
ãĥķãĤ£ãĥ©ãĥĩ ãĥ«ãĥķãĤ£ãĤ¢
å®ĺåĢĻè£ľ çĶŁ
ĠãģıãģŁãģ° ãĤĮ
åįļè¦§ ä¼ļ
ĠçĽ®ãĤĴè¦ļ ãģ¾ãģĽ
ĠãĤĤãģĨä¸Ģãģ¤ãģĬè¨±ãģĹ ãģıãģłãģķãģĦ
ĠLOV E
Ġä¸ĬåĩºæĿ¥ ãģł
' s
' t
1 8
2 1
5 0
E E
I L
I T
L a
L AC
M W
O T
O U
S ãģł
S ãĥĪãĥ¬ãĥ¼ãĥĢãĥ¼
T AN
U T
a g
a s
a y
c k
d r
d er
e c
e La
h e
i l
i v
i st
l d
r y
r an
t e
u b
u m
v an
¡ «
¡ æĶ¿
¢ Ĺ
¢ ľ
¢ å±±
£ ¢
£ «
£ ãģ¦
£ å¸ĥ
¤ ¢
¤ ä»£
¤ å¥´
¤ çĭ¬
¥ ãģĮ
¦ Ļ
¦ ãĤģ
¦ ä¸İ
§ ¦
§ ª
§ ãģĪ
§ äº¤
§ å¦Ļ
¨ åĽ²
© ¶
© åĴĮ
© å£²
ª ãģ£ãģŁ
ª å¼ı
« èĮ¶
« īå¦¬
¬ Ľ
¬ ãģ«
¬ åº¦
® ŁéļĽ
¯ çĪµ
° è±¡
° å¢ĥ
° Ĭéĩį
± ±
± åĲĪ
² ī
² åĩº
² ¢å±±
´ »
´ ł
´ å¼¾
´ åĥį
´ éĩįãģª
µ ¸
¶ ļãģı
¶ æķ°
¶ æľŁ
· ¹
¸ «
¸ ħ
¸ Ĩ
¸ ı
¸ ãģĹ
¸ æ£ļ
¹ å¤ľ
º »
» ĥ
» ãģ©
» ãĤĦãģĻ
» ¶æľŁ
¼ ¶
¼ ı
¼ Ł
¼ éı¡
¾ ãģ£ãģŁ
¿ ¡
å ł
å ĻĤ
å ĺĺ
å ĺĺãĤĴãģ¤
å ī¯å¤§çµ±éłĺ
å ²¸
å ¡«
æ Īĳ
æ įķ
æ ··ä¹±
æ Į¯
æ į¨ãģ¦
æ ©ĭ
æ ĵįç¸¦
æ ģĭãģ«èĲ½ãģ¡
ç ĥ
ç ŀ¬
ç ĩĥãĤĦ
ç łĶç©¶
ç ³ŀ
ç ªĵ
ç ģ½
ç łĤ
ç ĭĤãģ£ãģŁ
ç ªģãģį
ç ¶ºéºĹ
ç ¿Į
ç ŀŃ
ç ¼¶
è ī
è ¢ĭ
è ¢«å®³
é Ī
é ĬĢ
é īĦ
é ŀŃ
é ·¹
Ġ /
Ġ Q
Ġ Z
Ġ ]
Ġ a
Ġ p
Ġ Ġ
Ġ ãģ®æ
Ġ çŁ¥
Ġ ãģ«ãģªãĤĭ
Ġ ãģ®çĶ·
Ġ ä»¥
Ġ çĶ»
Ġ éĸ¢ä¿Ĥ
Ġ ä¼ĳ
Ġ ãģ«ãĤĪãģ£ãģ¦
Ġ éģ¸æĬŀ
Ġ ç§»åĭķ
Ġ èªŃ
Ġ éģł
Ġ çŁ¥ãĤĬãģŁãģĦ
Ġ è¨Ģãģ£ãģ¦ãĤĭ
Ġ ä½į
Ġ éĩı
Ġ è¨Ģãģ£ãģ¦
Ġ è¨¼æĭł
Ġ è¨ĵç·´
Ġ éģłãģı
Ġ è¨±åı¯
Ġ éĢĢå±Ī
Ġ è©³ç´°
Ġ äºĭæħĭ
Ġ éģº
Ġ éĩİçĲĥ
Ġ ç§»æ°ĳ
Ġ ãģ®ãĥģãĤ±ãĥĥãĥĪ
Ġ èĢĥãģĪãģ¦ãģ¿
Ġ ä½įç½®
Ġ ä¸ĸç´Ģ
Ġ è¦³å®¢
Ġ è©¦ãģĹãģ¦ãģ¿
Ġ è¡Įãģ£ãģŁæĸ¹ãģĮãģĦãģĦ
Ġ ä¹¾æĿ¯
Ġ çŁ¥ãĤĬãģ¾ãģĽãĤĵãģ§ãģĹãģŁ
ģ ľæŃ¢
Ĥ ĺ
Ĥ Ń
Ĥ ãģ¿
Ĥ èĢĥ
Ĥ åıĸ
ĥ ĳ
ĥ éĢ²ãģĻãĤĭ
Ħ ãģĦ
Ħ ä»ĺ
ħ ãģĨ
ħ äºķ
Ĩ è·¡
ĩ æĸŃ
ĩ ĦãģĦ
Ī ãģª
Ī åīį
Ī ¸æ£ļ
ī ãģĮæ¸ĩ
Ĭ ©
Ĭ é«
Ĭ çĻº
Ĭ ķãģĴ
Ĭ ãģ¼
Ĭ åİ³
Ĭ µæĬĹ
ĭ ħå½ĵ
ĭ ¾ãģ£ãģŁ
Į Ĺ
Į Ł
Į ãģĮ
Į ĤãģĦ
Į ĸåŃ¦
į ãģĹãģĦ
į ±éĻº
į ä¹±
İ ī
İ ç©
Ĳ è¨Ģ
Ĳ å±
Ĳ æķĹ
ĵ åĽ½
Ķ ĩ
Ķ è¼
ķ è·¡
ĸ ī
ĸ ¹æ³ķ
Ĺ ¢
Ĺ åĲį
Ĺ ãĤ¢ãĥķãĥªãĤ«
Ļ ©
Ļ éĩĳ
ļ ä½ı
Ľ Ľ
ľ º
ľ èģ·
Ŀ æĹ¥
Ŀ èĩĵ
ŀ ļ
Ł ĭ
Ł ĶãĤīãģĭãģĦ
Ń ¯
Ń Ĩè·¡
ãĤ ħãģĨ
ãģĦ çī©
ãģĦ ãĤīãĤĮãĤĭ
ãģĦ ãģĭãģł
ãģ® ãģĮ
ãģ® ç§ģ
ãģ® ä½ķ
ãģ® è¡Į
ãģ® ãģªãĤī
ãģ® çĶŁ
ãģ® èĢħ
ãģ® ãĤĴçŁ¥ãģ£ãģ¦ãĤĭ
ãģ® ãĤ¸ãĥ§
ãģ® èª°ãĤĤ
ãģ® ä¹Ĺ
ãģ® ãĤ³ãĥ³
ãģ® ãĤ´
ãģ® ãĤ¸ãĥ£ãĥĥãĤ¯
ãģ® éģ¸æĬŀ
ãģ® èª¬æĺİ
ãģ® ãĥĪãĥ¬
ãģ® ãĤ¯ãĤ½éĩİéĥİ
ãģ® ãĥŃãĥ¼ãĥ³
ãģ® ä¿¡éł¼
ãģ® èĢ³
ãģ® éĩįè¦ģãģª
ãģ® ãĥķãĥ©ãĥ³ãĤ¹
ãģ® è¨¼æĭł
ãģ® è¨ĵç·´
ãģ® ä¸¡è¦ª
ãģ® ä¿ĿèŃ·
ãģ® ä»»åĭĻ
ãģ® ä¼ĳæļĩ
ãģ® ãĥ©ãĤ¤ãĥ³
ãģ® è¦ıåīĩ
ãģ® ãĤ³ãĥ³ãĥĶãĥ¥ãĥ¼ãĤ¿ãĥ¼
ãģ® ãģĮè¦ĭãģĪãĤĭ
ãģ® ãĤ±ãĥ¼ãĤ¹
ãģ® ãĥĪãĥ©ãĥĥãĤ¯
ãģ® è¨ĢãģĦè¨³
ãģ® ä¼ļè©±
ãģ® ä¼Ŀçµ±
ãģ® è¨ĺéĮ²
ãģ® ãģĤãĤīãĤĨãĤĭ
ãģ® ä½ķäººãģĭ
ãģ® ãĤĴå¿ĺãĤĮãģªãģĦ
ãģ® èªĵãģĦ
ãģ® è©¦é¨ĵ
ãģ® æĢĴãĤĬ
ãģ¯ ãģ§ãģį
ãģ¯ ãģĬ
ãģ¯ ãĥĵ
ãģ¯ ä¸Ĭ
ãģ¯ ãĤª
ãģ¯ ä»ĸ
ãģ¯ ãģŁãģł
ãģ¯ ä½¿
ãģ¯ ãģ»
ãģ¯ éĽ»è©±
ãģ¯ ãģĬéĩĳ
ãģ¯ ãģĵãģ®
ãģ¯ ãģĵãģĵãģ§
ãģ¯ çŁ¥ãģ£ãģ¦ãģĦãĤĭ
ãģ¯ éĢĥãģĴ
ãģ¯ ãĥĹãĥŃ
ãģ¯ ãģĹãģ¾ãģĽãĤĵ
ãģ¯ ãģĨãģ¾ãģı
ãģ¯ ãģĹãģªãģĦãģ§
ãģ¯ ãģªãĤĬãģ¾ãģĽãĤĵ
ãģ¯ ãĤ¢ãĥ¡ãĥªãĤ«
ãģ¯ ãģĬäºĴãģĦ
ãģ¯ ä»ĬæĹ¥
ãģ¯ ãĥķãĥ©ãĥ³ãĤ¹
ãģ¯ ãģ²ãģ©ãģĦ
ãģ¯ ãģŁãģłãģ®
ãģ¯ ãģ©ãĤĮãģıãĤīãģĦ
ãģ¯ éŃļ
ãģ¯ ãģĻãģ§
ãģ¯ ãĥĩãĥ¼ãĥĪ
ãģ¯ ãģĤãĤĬãģ¾ãģĹãģŁãģĭ
ãģ¯ èī¯ãģıãģªãģ£ãģŁ
ãģª äºº
ãģª ãģ£ãģ¦ãĤĭ
ãģª è©±
ãģª ãģĵãģ¨ãģĮ
ãģª æĻĤ
ãģª ãĤĵãģ§
ãģª ä»ķäºĭ
ãģª åľ°
ãģª æŃ»
ãģª ãĤĤãģ®ãģ§ãģĻ
ãģª äººãģ¯
ãģª å¥³æĢ§
ãģª åł´åĲĪ
ãģª æ°ĹåĪĨ
ãģª çĬ¶æ³ģ
ãģŁ ãģª
ãģŁ æĸ¹ãģĮãģĦãģĦ
ãģ¦ ãģĦãģªãģĦ
ãģ« ãĥª
ãģ« ãģĻãģ¹ãģ¦
ãģ« ãģ§ãģįãĤĭ
ãģ« ãģĭãģª
ãģ« ãģĹãģ¦ãģĦãģ¾ãģĻ
ãģ« çĽ®
ãģ« ãģĬéĩĳ
ãģ« ãģĵãģ®
ãģ« ãģĹãģ¦ãģĦãģŁ
ãģ« ç§ģãģ®
ãģ« æĢĿãģĨ
ãģ« ä½ı
ãģ« çĲĨè§£
ãģ« ç§»åĭķ
ãģ« éĽĩ
ãģ« éĩįè¦ģãģª
ãģ« ä¸ĬãģĮ
ãģ« è¨ĢãģĦ
ãģ« ä½ıãĤĵãģ§
ãģ« è©°
ãģ« ä¸İãģĪ
ãģ« çīĩ
ãģ« èªĵãģĨ
ãģ« éĽĨä¸Ń
ãģ« çĻ»éĮ²
ãģ« çµĲãģ³
ãģ« äº¤äºĴ
ãĤĴ ãĥĳ
ãĤĴ ãĤ³
ãĤĴ ãĥĸ
ãĤĴ ãĤŃ
ãĤĴ ãĤ¨
ãĤĴ ãĥį
ãĤĴ ãģ¾ãģł
ãĤĴ ä»»
ãĤĴ éĸĵéģķ
ãĤĴ ãģĹãģ¾ãģĹãģŁ
ãĤĴ ãģĤãģªãģŁãģ«
ãĤĴ ãģĤãģ¾ãĤĬ
ãĤĴ ä¸Ģãģ¤
ãĤĴ é«ĺ
ãĤĴ ä¸Ģäºº
ãĤĴ è¨ĪçĶ»
ãĤĴ ãģļãģ£ãģ¨
ãĤĴ è¨ĢãĤı
ãĤĴ ãĤĦãĤĭ
ãĤĴ ç§»åĭķ
ãĤĴ ãģĹãģ¾ãģĹãĤĩãģĨ
ãĤĴ ãģĹãģªãģĦãģ¨
ãĤĴ çĶ£
ãĤĴ ä»ĺãģĳ
ãĤĴ ãĤªãĥķ
ãĤĴ è¦ģæ±Ĥ
ãĤĴ ãĥıãĤ¤
ãĤĴ ä¸Ģç·Ĵãģ«
ãĤĴ ä¸»å¼µ
ãĤĴ ãĤ¹ãĥĹ
ãĤĴ ãĤ¹ãĤ±
ãĤĴ è¨´
ãĤĴ è¨Ģãģ£ãģ¦ãģıãĤĮ
ãĤĴ ãĥķãĤ¡ãĥĥãĤ¯
ãĤĴ éĢĥãģĹãģŁ
ãĤĴ ä»ĺãģĳãĤĭ
ãĤĴ äº¤æıĽ
ãĤĴ ãģĦãģĭãģĮãģ§ãģĻãģĭ
ãĤĭ ãĤĤãģ®
ãĤĭ ãģ¹ãģįãģł
ãĤĭ ãģĵãģ¨ãģ¯ãģ§ãģįãģ¾ãģĽãĤĵ
Ġãģ ¸
Ġãģ Ĳ
Ġãģ £ãģ¦
ãģĹ ãģ§ãģĻ
ãģĹ ãģªãģĳãĤĮãģ°
ãģĹ ãģ«æĿ¥ãģŁ
ãģĹ ç¤º
ãĢĤ </
ãģĭ ãģ¯
ãģĭ ãģ¾
ãģĭ ãģ£ãģ¦ãģĦãĤĭ
ãģĭ ãĤĮãģªãģĦ
ãģĭ ãĤĬãģ¾ãģĻ
ãģĭ ãģ¨ãģĦãģĨãģĵãģ¨ãģ§ãģĻ
ãģĭ ãģĹãģŁãĤī
ãģĭ æķĻãģĪãģ¦ãģıãĤĮ
ãģĭ ãģªãģĳãĤĮãģ°ãģªãĤĬãģ¾ãģĽãĤĵ
ãģĭ ãģĭãĤĬãģ¾ãģĻãģĭ
ãģĭ ãģ¯æ°Ĺãģ«ãģĹãģªãģĦ
ãģĭ ãģĭãĤıãĤīãģļ
ãģ¨ ä½ķ
ãģ¨ ãģĤãģªãģŁ
ãģ¨ ãĤ«
ãģ¨ èĩªåĪĨ
ãģ¨ å½¼ãģ¯
ãģ¨ ç§ģãģĮ
ãģ¨ æĦŁãģĺ
ãģ¨ ãģ¯ä½ķãģ§ãģĻãģĭ
ãģ¨ çģ«
ãģ¨ ãģĹãģ¾ãģĹãĤĩãģĨ
ãģ¨ é¡ĺ
ãģ¨ éł¼ãĤĵãģł
ãģ¨ çŁ¥ãģ£ãģ¦ãģĦãģŁ
ãģ¨ å¦»
ãģ¨ ãĥĩãĥ¼ãĥĪ
ãģ¨ ç§ģãģ¨
ãģ¨ èªĵãģĨ
ãģ¨ åĪĨãģĭãģ£ãģ¦ãĤĭ
ãģ¨ ç«¶äºī
ãģ¨ ç¾©åĭĻ
ãģĮ è¦ģ
ãģĮ ãģ©ãģĨ
ãģĮ ãģªãģĳãĤĮãģ°ãģªãĤīãģªãģĦ
ãģĮ ãģĬéĩĳ
ãģĮ éģķãģĨ
ãģĮ ãģĿãĤĵãģª
ãģĮ ãģĵãģĵãģ§
ãģĮ çŁ¥ãģ£ãģ¦ãģĦãĤĭ
ãģĮ ä¸Ģãģ¤
ãģĮ èª°ãģł
ãģĮ ãĥīãĤ¢
ãģĮ éļł
ãģĮ ãģĤãģ¾ãĤĬãģ«ãĤĤ
ãģĮ çĽ¸
ãģĮ å¤ļ
ãģĮ ãģĹãģŁãģĦãģ®
ãģĮ è²ł
ãģĮ å®¶æĹı
ãģĮ ãģ©ãģ®ãĤĪãģĨãģ«
ãģĮ è¦ģãĤĭ
ãģĮ å¤±æķĹ
ãģĮ éĸīéİĸ
ãģĮ éģħãģĦ
ãģ£ ãģ¡ãĤĥ
ãģł ãģĮå
ãģł ãģ¨è¨Ģ
ãģł ãģ¨è¨Ģãģ£ãģ¦ãģŁ
ãĤĮ ãģł
ãĤĮ ãģ¾ãģĻ
ãĤĮ ãģ¾ãģĹãģŁ
ãĤĮ ãģļ
ãĤĮ ãĤīãĤĮãģªãģĦ
ãģ§ ãĤ¹
ãģ§ çĶ·
ãģ§ ãģªãģĳãĤĮãģ°
ãģ§ ä»ĸ
ãģ§ åħ¨éĥ¨
ãģ§ åĦªåĭ¢
ãģĻ ãģĦ
ãģĻ ãģ®ãģĭ
ãģĻ ãģ¨ãģĦãģĨ
ãģĻ ãģĵãģ¨ãģ¯ãģ§ãģįãģªãģĦ
ãģĻ ãģ¿ãģ¾ãģĽãĤĵ
ãģĻ ãģĵãģ¨ãģĮãģ§ãģįãģªãģĦ
ç§ģ ãĤĴæ
ç§ģ ãģ®ãģĵãģ¨ãĤĴ
ç§ģ ãĤĴæĦĽ
ç§ģ ãģ¯ãģĦãģ¤ãĤĤ
ç§ģ ãģ®æĻĤéĸĵ
ç§ģ ãģ¯æľ¬å½ĵ
ç§ģ ãģ®æ¯į
ç§ģ ãģ®éłŃ
ç§ģ ãģ¯å½¼ãģĮ
ç§ģ ãģ®ãĥĩãĤ£
ç§ģ ãĤĴç½®ãģĦãģ¦
ãĥ¼ ãģĦ
ãĥ¼ ãģ®
ãĥ¼ ãģĮ
ãĥ¼ ãĤ¤ãĥ³
ãĥ¼ ãĤŃãĥ³ãĤ°
ãĥ¼ ãĤ°ãĥ«
ãĥ¼ ãĤ·ãĥĥãĤ¯
ãģĨ ãģĿ
ãģĨ ãģ®ãģ¯
ãģĨ ãģŀ
ãģĨ ãģªãĤĬ
ãģĵ ãģ¡
ãģĵ ãģ®åŃĲ
ãģĵ ãģ®ãĤĪãģĨãģª
ãģĵ ãģ®å¥³æĢ§
ãģĵ ãģ®è²
ãģĵ ãģĦãģ¤
ãģĵ ãģ®ä¸Ģãģ¤
ãģĵ ãģ¡ãĤīãģ¯
ãģªãģĦ ãģªãĤī
Ġå ľŁ
Ġå İ»
Ġå ĩį
Ġå ¸¸
Ġå ½¹
Ġå Ĳĳ
Ġå Īĳäºĭ
Ġå «ĮãģĦãģł
Ġå ĻĽãģ¿
Ġå §Ķåĵ¡ä¼ļ
Ġå ĵĢãĤĮ
Ġå £²æĺ¥å©¦
Ġå ²©
Ġå ł±åĳĬæĽ¸
Ġå ĸľãĤĵãģ§
Ġå ¸Ĩ
ãģ¾ ãģĦ
ãģ¾ ãģĤ
ãģ¾ ãģ§ãĤĤ
ãģ¾ ãģĹãģł
ãĤĤ ãģĦãĤĭ
ãĤĤ ãģĦãģ¾ãģĻ
ãĤĤ ãģªãģĳãĤĮãģ°
ãĤĤ çĦ¡
ãĤĤ ãģĿãģĨãģ§ãģĻ
ãĤĤ ãģ®åħ¨ãģ¦
ãĤī ãģĦ
ãĤī ãģķ
ãĤī ãģĦãģĦãģĭ
ãĤī ãģªãģįãĤĥ
ãģĤ ãĥ¼
ãģĤ ãģ®æ
ãģĤ ãģ®å¥³æĢ§
ãĥ³ ãĥĨ
ãĥ³ ãĥįãĥ«
ãĥ³ ãĥĮ
ãģ£ãģ¦ ä½ķ
ãģ£ãģ¦ ãģĵãģ¨ãģł
ãģ£ãģ¦ èª°ãģł
ãģ£ãģ¦ ãģĦãģªãģĭãģ£ãģŁ
ãģ£ãģ¦ è¨Ģãģ£ãģ¦
ãģ£ãģ¦ ãģıãĤĭãģ¨
Ġç§ģ ãģ®ãĤĪãģĨãģ«
Ġç§ģ ãģ®å®¶
Ġç§ģ ãģ®å¾Į
Ġç§ģ èĩªèº«
Ġç§ģ ãģ®åĲįåīį
Ġç§ģ ãģ®çĽ®
Ġç§ģ ãģ®è»Ĭ
Ġç§ģ ãĤĴæĦĽãģĹãģ¦ãĤĭ
Ġç§ģ ãģ¨çµĲå©ļ
Ġç§ģ ãģ®èį·çī©
Ġç§ģ ãģĮæľ¬å½ĵ
Ġç§ģ ãĤĴæĶ¾ãģĽ
ãģı ãģŁãĤģ
ãģı ãģŃ
ãģı ãģķãĤĵ
ãģı ãģĤãĤĬãģ¾ãģĽãĤĵ
ãģı ãģ¹ãģį
ãģı ãģĵãģ¨ãģ¯ãģ§ãģįãģªãģĦ
ãģı ãĤĭãģ®ãģ¯
ä¸ ¦
ä¸ ĺ
ãģĹãģ¦ ãģĭãĤī
ãģĹãģ¦ ãģĦãģ¦
ãģĹãģ¦ å½¼ãĤī
ãģĹãģ¦ ãģ¯ãģĦãģªãģĦ
ãģĹãģ¦ ãģĬãĤĬ
äº Ģ
äº Ķ
äº Ľ
ĠãģĿ ãģ®äºº
ĠãģĿ ãģ®ãĤĪãģĨãģª
ĠãģĿ ãģ®æľ¬
ĠãģĿ ãģ®çĶ·ãģ¯
ãĤĬ ãģ¾ãģĻãģĭ
ãĤĬ ãģ¾ãģĹãģŁãģĭ
ãĤĬ çī©ãģł
ãĤĬ ãģıãģŃ
ãģ£ãģŁ ãĤı
ãģ£ãģŁ çĶ·
ãģ£ãģŁ ãģŀ
ãģ£ãģŁ ãĥ©ãĥł
ãģ£ãģŁ ãģ»ãģĨãģĮãģĦãģĦ
ãĤĪ ãĥŀãĥŀ
ãĤĪ ãĥľãĥĸ
ãĤĪ ãĤ¨ãĥ´ãĤ¡ãĥ³
ãĤĪ ãĥĩãĤ£ãĤ°ãĥĬãĥ³
ãĤ¹ ãĤĴ
ãĤ¹ ãĥ«
ãĤ¹ ãĥ¯
ãĤ¹ ãĤ³ãĥ³
ãĤ¹ ãĥªãĥ«
ãĤ¹ ãĥ¼ãĤ¶
ãĤ¹ ãĥŀãĥ¼ãĥĪ
ãĤ¹ ãĥ´ãĤ§ãĥ³
ãģĵãģ¨ ãģĭãĤī
ãģĵãģ¨ ãģĤãĤĭ
ãģĵãģ¨ ãģ§ãģĹãģŁ
ãģĵãģ¨ ãģ§ãģ¯ãģĤãĤĬãģ¾ãģĽãĤĵ
ãģĵãģ¨ ãģ§ãģĤãĤĭ
ãģĵãģ¨ ãģ«ãĤĪãģ£ãģ¦
ãģĵãģ¨ ãĤĴçĲĨè§£
ãģĵãģ¨ ãģ®ãģªãģĦ
ãģĵãģ¨ ãĤĴç¤º
ãĥ¼ãĥ ¤
ãĥ¼ãĥ Ŀ
ãģį ãĤĵ
ãģį ãģ¾ãģĻãģĭ
ãģį ãģ©ãģį
ãĥĥ ãĥĿ
ãĥĥ ãĥĢãĥł
ãĥĥ ãĤ·ãĥ³ãĤ°
ãĥĥ ãĤ·ãĥ£ãĥ¼
ãĥĥ ãĤŃãĥ£ãĥķãĥªãĥ¼
ãĥĥ ãĤ¹ãĥ«
ä½ķ æĻĤ
ä½ķ èĢħãģł
ä½ķ çĻ¾
ä½ķ ãģĮèµ·ãģįãģŁ
ä½ķ ãĤĴãģĻãĤĭãģĭ
ãĤĴæ §ĭ
ãĤĴæ ĪĲ
ãĤĴæ ģ¥
ãĤĴæ ±ļ
ãĤĴæ ĺłçĶ»
ãĤĴæ ı¡
ãĤĴæ Ńĵè¿İ
ãĤĴæ ¥½ãģĹãģ¿
ãĤĴæ ºĢãģŁ
ãģĿ ãģ®éĸĵ
ãģĿ ãģ®ä¸Ńãģ®
ãģ®å ¡
ãģ®å Ĳ
ãģ®å ī¯
ãģ®å Ľŀ
ãģ®å ¾ĵ
ãģ®å ĲĮ
ãģ®å £°
ãģ®å ¿łå®Ł
ãģ®å §Ķåĵ¡ä¼ļ
ãģ®å ĸľãģ³
ãģ®å ¡©
ãģ®å Ľ³
ãģ®å £²æĺ¥å©¦
ãģ®å ºŃ
ãģ®å £«
ĠãģĤ ãģ®æ
ĠãģĤ ãģ®åŃĲ
ĠãģĤ ãģ®å¤§ãģįãģª
ãģ¯å ĩº
ãģ¯å Ĭ©ãģĳ
ãģ¯å ¿ĺ
ãģ¯å ¼ķãģį
ãģ¯å ¼·
ãģ¯å ĭĿ
ãģ¯å įģåĪĨ
ãģ¯å ±ħ
ãģ¯å ĪĳåĭĻæīĢ
ãģ¯å ĩºæĿ¥ãģªãģĦ
ãģ¯å «ĮãģĦ
ãģ¯å ¾Ĺ
ãģ¯å ¦Ĭå¨ł
ãģ¾ãģĻ ãģĮ
ãģ¾ãģĻ ãģ¾ãģĻ
Ġå½¼ ãģĮç§ģ
Ġå½¼ ãģ®ä»ķäºĭ
Ġå½¼ ãĤĴéĢ£ãĤĮãģ¦
Ġå½¼ ãģ«è©±
Ġå½¼ ãģ®å¨ĺ
Ġå½¼ ãģĮæĪ»ãģ£ãģ¦
Ġå½¼ ãģĮåħ¥
Ġå½¼ ãģĮç§ģãĤĴ
Ġå½¼ ãģ¨å½¼
è¦ Ĺ
ãģĹãģŁ ãģ¨
ãģĹãģŁ äºĭ
ãģĹãģŁ æĹ¥
ãģĹãģŁ ãģĵãģ¨ãģĮãģĤãĤĭ
ãģĹãģŁ å¥³æĢ§
ãģĹãģŁ ãģ¨ãģĹãģŁãĤī
ãģĹãģŁ ãģĵãģ¨ãģĮãģĤãĤĬãģ¾ãģĻãģĭ
ãģĹãģŁ å¾Įãģ§
ãģķ ãģ§
ãģķ ãģªãģĦãģ§
Ġæ ĦŁ
Ġæ ¥½
Ġæ Ī¦
Ġæ Ĺħè¡Į
Ġæ ĥ³åĥı
Ġæ Ķ¿æ²»
Ġæ ©ĭ
Ġæ ±ļãģĦ
Ġæ ¥µ
Ġæ ļ´
Ġæ ļĹéĹĩ
Ġæ £º
Ġæ ³³
Ġæ Ķ¿åºľ
Ġæ ŀļ
ãĤ¯ ãĥ©ãĥ³
ãĤ¯ ãĥ¯
ãĤ¯ ãĥĨãĥ«
ãĤ¯ ãĥªãĥ¼ãĥ³
ãģĳ åĩºãģĻ
ãĤĴå Ĥ
ãĤĴå ¤§
ãĤĴå ®¶
ãĤĴå Ĳį
ãĤĴå ¥½
ãĤĴå £ģ
ãĤĴå ½¢
ãĤĴå Łº
ãĤĴå Į»èĢħ
ãĤĴå ¡Ĺ
ãĤĴå »ºè¨Ń
ãĤĴå ľ§åĢĴ
ãĤĴå ¢Ĺ
ãĤ¤ ãĥ¼ãĥĪ
ãĤ¤ ãĤ¢ãĥ³
ãĤ¤ ãĤ¬ãĥ¼
ãĤ¤ ãĥ¦
ãģ§ãģĻ ãģ¹ãģ¦
ãĤı ãĤĭ
ãĤı ãĤĮãģ¦ãĤĭ
ãĤı ãģªãģĳãĤĮãģ°ãģªãĤīãģªãģĭãģ£ãģŁ
ãĤı ãĥĸãĥ©ãĤ¤ãĤ¢ãĥ³
ãĤı ãģĶãģ¨
ãģĪ ãģ¾ãģĹãģŁ
ãģĪ ãĤĭãģ®
ãģĪ ãĤĭãģ®ãģ¯
äºº ãģ®å
äºº ãģ¯ãģĦ
äºº ãģĮå
äºº ãģ§ãģĹãģŁ
äºº ãĤĪãĤĬãĤĤ
äºº ãĤĴæ®ºãģĻ
äºº ãģ®å¥³æĢ§
äºº å½¢
äºº å·¥
äºº ãģ«ãģªãĤĭãĤı
äºº çĭ¼
ãĥĪ ãĥĥãĥĹ
ãĥĪ ãĥ©ãĥ³ãĤ¯
ãĥĪ ãĥ«ãĥĪ
ãĥĪ ãĤ¦ãĤ©
ãĥĪ ãĤ¤ãĥ¬
Ġç§ģãģ¯ è¦ĭ
Ġç§ģãģ¯ è¡Į
Ġç§ģãģ¯ ãģĦãģĦ
Ġç§ģãģ¯ ãĤ«
Ġç§ģãģ¯ çĶ·
Ġç§ģãģ¯ çī©
Ġç§ģãģ¯ ãĥı
Ġç§ģãģ¯ çŁ¥ãĤīãģªãģĦ
Ġç§ģãģ¯ æĦŁ
Ġç§ģãģ¯ ç¥ŀ
Ġç§ģãģ¯ æĤª
Ġç§ģãģ¯ ãģĭãģªãĤĬ
Ġç§ģãģ¯ æķ°
Ġç§ģãģ¯ ãģ©ãģĨãĤĦãģ£ãģ¦
Ġç§ģãģ¯ ãĤ¢ãĥ¡ãĥªãĤ«
Ġç§ģãģ¯ çī¹
Ġç§ģãģ¯ æľĢåĪĿ
Ġç§ģãģ¯ ãĥĭãĥ¥ãĥ¼ãĥ¨ãĥ¼ãĤ¯
Ġç§ģãģ¯ ãģ©ãģ®ãģıãĤīãģĦ
Ġç§ģãģ¯ éķ·ãģĦéĸĵ
Ġç§ģãģ¯ ãģ©ãģĨãģĹãģŁãģ®
Ġç§ģãģ¯ æĺ¨å¤ľ
Ġç§ģãģ¯ è³Ńãģĳ
Ġç§ģãģ¯ æĺİæĹ¥
Ġç§ģãģ¯ ãģ¨ãģ«ãģĭãģı
Ġç§ģãģ¯ æĮģãģ£ãģ¦ãģªãģĦ
ãģĽ ãģ¾ãģĽãĤĵ
ãģ¡ æŃ¢
ãģ¡ ãģįãĤĮãģªãģĦ
ãģ¡ ãĤħãģĨ
ãģ¡ ãģĵãģ¡
ãģĻãĤĭ ãģĵãģ¨ãĤĴ
ãģĻãĤĭ ä½ķãģĭ
ãģĻãĤĭ ãģ§ãģĹãĤĩãģĨ
ãģĻãĤĭ ãģ¹ãģį
ãģĻãĤĭ ãģĭãģ©ãģĨãģĭ
ãģĻãĤĭ ãģłãģĳãģ§
ãģĻãĤĭ ãģĵãģ¨ãģĮãģ§ãģįãģªãģĦ
ãģĻãĤĭ å®¶æĹı
ãģĻãĤĭ äººãģĮãģĦãĤĭ
ãģĻãĤĭ å¿ħè¦ģãģ¯ãģĤãĤĬãģ¾ãģĽãĤĵ
ãĥ« ãģ§ãģĻ
ãĥ« ãĥ«
ãĥ« ãģ«ãģ¤ãģĦãģ¦
ãĥ« ãĥ³ãĥī
ãĥ« ãĤ·ãĤ§
ãĥ« ãĥĶãĤ¢
ãĥ« ãĥĻãĥªãĥ¼
ãĥ« ãĥ¼ãĥģãĥ³
ãģ¤ ãĤĭ
ãģ¤ ãģłãĤįãģĨ
ãģĤãģªãģŁ ãģĭãĤī
ãģĤãģªãģŁ ãģ¯å½¼
ãģĤãģªãģŁ ãģ®ãĤĤãģ®
ãģĤãģªãģŁ ãĤĴæ®ºãģĻ
ãģĤãģªãģŁ ãĤĴåĬ©ãģĳ
ãģĤãģªãģŁ ãģ®æĹ¥
ãģĤãģªãģŁ ãģ®å¨ĺ
ãģĤãģªãģŁ ãģ®ãģŁãĤģãģ«å
ãģĤãģªãģŁ ãģ®ãģŁãĤģãģ«æ
ãģĤãģªãģŁ ãĤĴæĦĽãģĹãģ¦ãĤĭ
ãģĤãģªãģŁ ãĤĴåĤ·ãģ¤ãģĳ
ãģĤãģªãģŁ ãģ®çĪ¶è¦ª
ãĥª ãĥªãĥ¼
ãĥª ãĤ·ãĥ¼
ãĥª ãĥĥãĤŃãĥ¼
ãĥª ãĤ¦ãĤ¹
ãĥª ãĥ³ãĥĪãĥ³
ãĥª ãĥ¼ãĥĢãĥ¼
ãĥª ãĥĩãĤ¤
ãĥª ãĥ¼ãĥľ
ãĥª ãĥķãĤ©ãĥ«
ĠãģĿãĤĮ ãģĭ
ĠãģĿãĤĮ ãĤĤ
ĠãģĿãĤĮ ãĤĴçĲĨè§£
ĠãģĿãĤĮ ãģ¯ç§ģãģŁãģ¡
ĠãģĤãģªãģŁ ãģĭãĤī
ĠãģĤãģªãģŁ ãģ«ãģ¯
ĠãģĤãģªãģŁ éģĶ
ĠãģĤãģªãģŁ ãģĮå¿ħè¦ģ
ĠãģĤãģªãģŁ ãģ®çĪ¶
ĠãģĤãģªãģŁ ãģ¯ä½ķãĤĤ
ĠãģĤãģªãģŁ ãģ®æģ¯åŃĲ
ĠãģĤãģªãģŁ ãģ®è²
ĠãģĤãģªãģŁ ãģ¯å¤§ãģįãģª
ĠãģĤãģªãģŁ ãģĮå¿ħè¦ģãģªãģ®
ĠãģĤãģªãģŁ ãĤĴæĢĸãģĮãĤīãģĽ
ãĤģ ãģªãģĦãģ¨
ãĤģ ãĤĭãģĵãģ¨ãģĮãģ§ãģįãĤĭ
å¥ ¨
ãģ«å ¾Į
ãģ«å ħ¨ãģ¦
ãģ«å ĳ¼
ãģ«å ¼·
ãģ«å ĬĽ
ãģ«å Łº
ãģ«å ¼¾
ãģ«å ¼·çĽĹ
ãģ«å ¿łå®Ł
ãģ«å ī²ãĤĬå½ĵãģ¦
ãģ«å Įħ
ãģ«å Łĭèĳ¬
èª ĩãĤĬãģ«
ãĥ© ãģ§ãģĻ
ãĥ© ãĥªãĥ¼
ãĥ© ãĤ±ãĥĥãĥĪ
ãĥ© ãĤ¦ãĥ³ãĥī
ãģ© ãģ£ãģ¡
Ġãģĵ ãģĵãģ¨
Ġãģĵ ãģ®ä¸Ń
Ġãģĵ ãģ®å®¶
Ġãģĵ ãģ®éĥ¨å±ĭ
Ġãģĵ ãģ®ãĥĵ
Ġãģĵ ãģ®å°ıãģķãģª
Ġãģĵ ãģ®äºĭä»¶
Ġãģĵ ãģ®éĬĢè¡Į
Ġãģĵ ãģ®åĽ½
Ġãģĵ ãģ®è¾
åĪ Ĺ
ãģ®æ ²
ãģ®æ ®º
ãģ®æ Ī¦
ãģ®æ §ĺ
ãģ®æ ®ĭãĤĬ
ãģ®æ ıĲæ¡Ī
ãģ®æ ģĭäºº
ãģ®æ ı´åĬ©
ãģ®æ İĪ
ãģ®æ Ļ©
å½¼ ãģĮæ
å½¼ ãĤĴè¦ĭ
å½¼ ãģĮç§ģ
å½¼ ãģ¨è©±
å½¼ ãĤĴæ®ºãģĹãģŁ
å½¼ ãģ«ä¼ļãģĨ
å½¼ ãģĮåį
ãģĺ ãģ§
ãģĭãĤī ãģ¯
ãģĭãĤī ãģĵ
ãģĭãĤī ä½ķ
ãģĭãĤī ãģĺãĤĥãģªãģĦ
ãģĭãĤī å½¼å¥³
ãģĭãĤī å°ĳãģĹ
ãģĭãĤī æĪ»ãģ£ãģ¦
ãģĭãĤī éĢ£çµ¡
ãģĭãĤī å¼ķãģį
ãģĭãĤī æķĳ
ãģĭãĤī åı³
æĢĿ ãģĪãģŁ
ãģ£ãģ¦ãĤĭ ãģ¨æĢĿãģĨ
ãģ£ãģ¦ãĤĭ ãģ®ãĤĪ
è¨Ģ ãģĦãģŁ
çŁ¥ äºº
çŁ¥ ãģ£ãģŁãģ®
éģ £
éģ ¿
è¦ĭ ãģ¤ãģĭãĤīãģªãģĦ
è¦ĭ éĢĥãģĹãģŁ
å¥³ ãģ®äºº
å¥³ çİĭ
ãģ¯æ Ń¢
ãģ¯æ µ·
ãģ¯æ ®ºãģķãĤĮãģŁ
ãģ¯æ ĥ³åĥı
ãģ¯æ Ľ²ãģĮ
ãģ¯æ ºĢæľĪ
è¡Į ãģ£ãģ¦ãģĦãģªãģĦ
è¡Į ãĤıãĤĮãģŁ
è¡Į ãĤıãĤĮãĤĭ
ãģĤãĤĭ çĶ·
ãĤ¢ ãĤ¤ãĥ³
ãĤ¢ ãĥ¼ãĥł
ãĤ¢ ãĥ¼ãĥĨãĤ£
ãĤ¢ ãĥ¼ãĤµãĥ¼
ãĤ¢ ãĥ¬ãĥĥãĤ¯ãĤ¹
ãĤ¢ ãĤ·ãĤ¹ãĤ¿ãĥ³ãĥĪ
ãģĿãĤĮ ãģĮæ
ãģĿãĤĮ ãģ¯å½¼
ãģĿãĤĮ ãģ§ãĤĤ
ãģĿãĤĮ ãģ¯å¤§
ãģĿãĤĮ ãĤĴåıĸãĤĬ
ãģĿãĤĮ ãģ«å¯¾ãģĻãĤĭ
ãģĿãĤĮ ãĤĴæŃ¢ãĤģ
ãģĦãģĦ ãģ®ãĤĪ
ãģĦãģĦ äººãģł
ãĥī ãĥĭ
ãĥī ãĤ¤ãĥ³
ãĥī ãĤ½ãĥ³
ãĥī ãĥ¼ãĥªãĥ¼
ãĥī ãĥ¼ãĥĬ
ãĥī ãĥĬãĥ«ãĥī
ãĥī ãĥ¼ãĤ·ãĤ¢
ãĤĪãģĨ ãģ¨ãģĹãģ¦
ãĤĪãģĨ ãģ¨ãģĹãģ¦ãģĦãģŁ
Ġç Ľ¸
Ġç Ĭ¯ç½ª
Ġç ĩĥãĤĦ
Ġç ³ŀ
Ġç ĭĤãģ£ãģŁ
Ġç ¤¾
Ġç Ħ¼
Ġç ¾Ĭ
Ġç ĹĽ
Ġç ħĻèįī
Ġç łĤæ¼ł
Ġä½ķ ãģ®
Ġä½ķ ãĤĴæĮģãģ£ãģ¦ãĤĭ
Ġä½ķ ãģłãģ£ãģŁãģ®
Ġä½ķ ãģĮæĤªãģĦ
Ġä½ķ ãĤĴèģŀãģĦãģ¦
Ġä½ķ ãĥ¶æľĪ
Ġä½ķ ãĤĴç¬ĳ
Ġä½ķ ãĤĴæİ¢ãģĹãģ¦ãĤĭãģ®
Ġä½ķ å¹´ãĤĤãģ®éĸĵ
Ġä½ķ éĢ±éĸĵãĤĤ
ãĤĦ ãģķ
ãĤĦ æ°´
ãĤĦ ãĤģãĤį
ãģŁãģ¡ ãģ«
ãģ«æ Ń¢
ãģ«æ ķĻ
ãģ«æ ¤ľ
ãģ«æ ®ºãģķãĤĮãģŁ
ãģ«æ ³¨æĦı
ãģ«æ ³£
ãģ«æ Ľ²ãģĮ
ãģ«æ ħ£
ãģ«æ ©Łèĥ½
ãģ«æ ·±åĪ»
ãģ«æ ĻĴ
ãģ«æ ħĪæĤ²
è© «ãģ³
ãģĦãģŁ ãģª
ãģĦãģŁ ãģĵãģ¨
ãģĦãģŁ æĻĤ
ãģĦãģŁ ãģłãģĳãģł
ãģ§ãģį ãĤĭãģ®ãģ¯
ãģ¨æĢĿ ãģ£ãģ¦
ãģĦãģ¾ãģĻ ãģŃ
ä¿ ĥéĢ²ãģĻãĤĭ
ãģĬ æīĭ
ãģĬ ãģ³
ãģĬ æĮģãģ¡
ãģĬ éħĴ
ãģĬ èĮ¶
ãģĬ æ°Ĺãģ«åħ¥ãĤĬ
ãģĬ çĪ¶æ§ĺ
ãģĬ æ¯įæ§ĺ
ãģĬ ãĤĤãģĹãĤįãģĦ
ĠãģĿãģĨ ãģ¯æĢĿ
ĠãģĿãģĨ é¡ĺ
ĠãģĿãģĨ ãģ¯ãģªãĤīãģªãģĦ
ĠãģĿãģĨ ãģ§ãģªãģĦ
ĠãģĿãģĨ ãģ¯æĢĿãĤıãģªãģĦ
ãĤ· ãĥĨ
ãĤ· ãĥ¼ãĥ«
ãĤ· ãĤ¹ãĤ³
ãĤ· ãĥķãĥĪ
ãĤ· ãĥĭãĥ§ãĥ¼ãĥ«
ãģ¾ãģĽãĤĵ ãĤĪ
ãĥ¬ ãĥ¼ãĥī
ãĥ¬ ãĥĩãĤ£
ãĥ¬ ãĥĭãĥ¼
ãĥ¬ ãĥ´ãĤ£
ãĥ¬ ãĤ¸ãĥ¼
ãĥ¬ ãĥĩãĤ£ãĥ¼
ãĥ¬ ãĥ¼ãĥĢãĥ¼
ãĥĥãĤ¯ ãģ¯
ãĥĥãĤ¯ ãĥīãĥ©ãĥķãĥĪ
ãĥĥãĤ¯ ãĥ«ãĥĻãĥªãĥ¼
ãĥŃ ãĤ¯
ãĥŃ ãĤª
ãĥŃ ãĥ¼ãĤ¯
ãĥŃ ãĥ¼ãĥ©
ãĥŃ ãĤ¸ãĥ£ãĥ¼
ãĥŃ ãĤ¸ãĥ¼
ãĥŃ ãĥĻãĥªãĥ¼
ãĥŃ ãĥĩãĤª
ãĥŃ ãĥķãĤ£ãĤ¢
äºĭ ãģ«
äºĭ ãģ¯ä½ķãĤĤ
äºĭ éłħ
ãĤ¸ ãĥ³
ãĤ¸ ãĥ¼ãĥ³
ãĤ¸ ãĥ¥ãĥ¼ãĥ
ãĤ¸ ãĥ¬ãĥĥãĥĪ
ãĤ¸ ãĥ³ãĤ¯ãĤ¹
ãĥķ ãĤ¹
ãĥķ ãĥ¼ãĥī
è©± ãģĿãģĨ
è©± ãģĹãģŁãģ®
è©± ãģĹãģ¦ãģĦãģŁ
ãģ«ãģ¯ ãģĤãĤĬãģ¾ãģĽãĤĵ
ãģ«ãģ¯ ãģŁãģıãģķãĤĵ
ãģ«ãģ¯ çĦ¡
ãģ«ãģ¯ èĭ¥
ãģ«ãģ¯ è¡ĮãģĳãģªãģĦ
ãģ«ãģ¯ è¦ĭãģĪ
å® ĹæķĻ
ãĤ¿ ãĥĸ
ãĤ¿ ãĥŁ
ãģ®ç Ľ¸
ãģ®ç ¬¬
ãģ®ç ªĵ
ãģ®ç ļ®
ãģ®ç īĩ
ãģ®ç Į«
ãģ®ç īĽ
ãģ®ç «ĭåł´
ãģĮæ ĦĽ
ãģĮæ Ķ¯æīķ
ãģĮæ ®ºäºº
ãģĮæ ±ļ
ãģĮæ īķ
ãģĮæ ¸©
ãģĮæ ··ãģĸ
ãĤĵãģł ãĤĪ
ãĤĵãģł ãģĳãģ©
Įģ ãģ¡
ä¼ į
ä¼ ¯çĪµ
ãģĺãĤĥãģªãģĦ ãģ§ãģĻãģĭ
ãģ¯ç§ģ ãģ®ç
ãģ¯ç§ģ ãģ®ãĤĤãģ®
ãģ¯ç§ģ ãģ®åĲįåīįãģ¯
ãģ¯ç§ģ ãģ®ãĤĤãģ®ãģł
Ġè º«
Ġè Ĳ½
Ġè ¶³
Ġè °·
Ġè ĩŃãģĦ
Ġè į·çī©
Ġè ģĸ
ãģ®ãĥ ł
ä»Ĭ ãģł
ä»Ĭ ãģ¯å
ä»Ĭ æĻ©
åīį ãģ«æ
åīį ãģ«ãĤĤ
ãģ° ãģĽ
ãģ° ãĤĮãģ¦
ãĤĴç Ľ¸
ãĤĴç ½°
ãĤĴç Ĥ¹
ãĤĴç ĹĽ
ãĤĴç ħ§
ãģĹãģ¦ãĤĭ ãģ¨
ãģĹãģ¦ãĤĭ ãģªãĤī
ãģĹãģ¦ãĤĭ ãģ®ãģ¯
ãģĹãģ¦ãĤĭ ãģĭçŁ¥ãĤīãģªãģĦ
ãģĮãģĤãĤĭ ãģĭ
ãģĮãģĤãĤĭ ãģĮ
ãģĮãģĤãĤĭ ãģĭãĤĤãģĹãĤĮãģ¾ãģĽãĤĵ
ãģĮãģĤãĤĭ ç¨®
ãģĮãģĤãĤĭ åł´åĲĪãģ¯
ãģĮãģĤãĤĭ ãģ¯ãģļãģł
ãģĮãģĤãĤĭ ãģĵãģ¨ãģ«æ°Ĺ
ãģĹãģĦ ãĤı
ãĤ« ãĤ¹
ãĤ« ãĤ¤
ãĤ« ãĥĨ
ãĤ« ãĥĥãĥĹ
ãĤ« ãĥ¢
ãĤ« ãĥ¼ãĥ³ãĤº
ãĤ« ãĥĬãĥĢ
ãĤ« ãĤ¯ãĥĨãĥ«
ãĤĴè¦ĭ ãĤĪãģĨ
ãĤĴè¦ĭ ä¸ĭ
éĩ Ŀ
ãĤ° ãĥªãĥ¼
ãĤ° ãĥ¬ãĥ³
ãĤ° ãĥªãĥ¼ãĥ³
ãĤ° ãĥªãĥķ
Ġãģ© ãģ£ãģ¡ãģł
ĩº åı£ãĥĵãĤ¶
ãģ£ãģ¦ãģĦãĤĭ ãģĹ
ãģ£ãģ¦ãģĦãĤĭ ãģ®ãģ§
ãģ¯ãģĦ ãģĭãģĮãģ§ãģĻãģĭ
ãģĮå ±
ãģĮå ¦»
ãģĮå ĳ¼
ãģĮå ¼ķãģį
ãģĮå ¹¸ãģĽ
ãģĮå ł±åĳĬ
ãģĮå ĲĪ
ãģĮå ¼ķãģ£å¼µ
ãģĮå ĭĿãģ¤
ãĥĨ ãĤ¯
ãĥĨ ãĥĥãĥĪ
ãĥĨ ãĥĩãĤ£
ãĥĨ ãĥ³ãĥĦ
ãĥĨ ãĥ¼ãĤ·ãĥ§ãĥ³
ãĥŀ ãĤ·
ãĥŀ ãĥĥãĤ¯
ãĥŀ ãĥªãĥ¼
ãĥŀ ãĥ³ãĥī
ãĥŀ ãĥªãĤ¢
ãĥŀ ãĤ¤ãĥŃ
ãĥŀ ãĥ¼ãĤ¸ãĥ¼
ãĥŀ ãĤ·ãĥ¥ãĥ¼
ãĥĹ ãĥ¬
ãĥĹ ãĥĥãĤ·ãĥ¼
ãĥĹ ãĤŃãĥ³ãĤ¹
ãģ¹ ãģŁ
ãģ¹ ãĤĭãģ¨
ãĥĩ ãĥĥãĤ¯ãĤ¹
ãĥĩ ãĥ¼ãĤ¿
ãĥĩ ãĥĥãĤŃ
ãĥĩ ãĤ¶ãĤ¤ãĥ³
ãģ¯ç Ľ®
ãģ¯ç ¾İ
ãģ¯ç ľŁå®Ł
ãģ¯ç ´łæĻ´ãĤīãģĹãģĦ
ĠãģĬ ãģĺ
ĠãģĬ è¨±ãģĹ
ĠãģĬ éĤªéŃĶ
ĠãģĵãĤĮ ãģ¯ä½ķ
ĠãģĵãĤĮ ãģ¯ãģ©ãģĨ
ĠãģĵãĤĮ ãģ¨åĲĮãģĺãĤĪãģĨãģ«
ĠãģĵãĤĮ ãĤĴãģ©ãģĨ
ãĤĮãģ¦ ãģĦãģ¾ãģĽãĤĵ
ãĤĮãģ¦ çĶ³ãģĹè¨³ãģĤãĤĬãģ¾ãģĽãĤĵ
ãģªãģĭãģ£ãģŁ ãģ®ãģĭ
ãģłãģĳ ãģĭ
ãģłãģĳ ãģ§ãģ¯
ãģłãģĳ ãģ§ãģ¯ãģªãģı
ãģĵãģ¨ãģĮ èµ·
ãģĵãģ¨ãģĮ èµ·ãģį
ãģĵãģ¨ãģĮ ãģĤãĤĮãģ°
ãģĵãģ¨ãģĮ åĪĨãģĭãĤĭ
ĠåĲĽ ãģ¯ç§ģ
ĠåĲĽ ãģ®ãĤĪãģĨãģª
ĠåĲĽ ãģ®ãĥľ
ĠåĲĽ ãģ¯å®¶
ĠåĲĽ ãģ¯ãģ©ãģĨæĢĿãģĨ
ĠåĲĽ ãģ®è¨ĢãģĨãģ¨ãģĬãĤĬ
ãĤĤãģ® ãģĵãģ¨ãģł
ãĤĤãģ® ãĤĴä½ľ
ãĤĤãģ® ãģ¯ãģĤãĤĬãģ¾ãģĽãĤĵ
ãĤĤãģ® ãģ¯ä½ķãĤĤãģªãģĦ
ãĤĤãģ® ãģ§ãģªãģĳãĤĮãģ°ãģªãĤīãģªãģĦ
Ġé §ħ
Ġé º»èĸ¬
Ġé ŃĶæ³ķ
Ġé §Ĳè»Ĭ
Ġé £¢
ãĤ¦ ãĥī
ãĤ¦ ãĤº
ãĤ¦ ãĥĥãĥī
ãĤ¦ ãĤ¨ãĥ«
ãĤ¦ ãĤ¬ãĥ¼ãĥ«
ãĤ¦ ãĥ¬ãĤ«
ãĥĳ ãĥ³ãĥĦ
ãĥĳ ãĥĭãĥĥãĤ¯
ãĥĳ ãĥ¼ãĥīãĥ³
ãģĪãģ¦ ãĤĭãģ®ãĤĪ
ãĤĴè »
ãĤĴè ¾
ãĤĴè Ń
ãĤĴè »Ĭ
ãĤĴè Ĳ½ãģ¡çĿĢ
ãĤĴè ³ŀ
ãĤĴè »¢
ãĤĴè įĴ
ãĤĴè ¸ı
è¦ģ ç´ł
ä¸Ń åĽ½
ä¸Ń ç«ĭ
ä¸Ń ãģ«åħ¥ãĤĮ
å¾ ®
ãģĹãģ¦ãģĦãĤĭ ãģĵãģ¨ãģ¯
ãģĹãģ¦ãģĦãĤĭ ãģĵãģ¨ãģ§ãģĻ
ãģĹãģ¦ãģĦãĤĭ ãģĭãģ©ãģĨãģĭ
ãģĹãģ¦ãģĦãĤĭ ãģ¨æĢĿãģĦãģ¾ãģĻãģĭ
ãģĹãģ¦ãģĦãĤĭ ãģĵãģ¨ãĤĴçŁ¥ãģ£ãģ¦ãģĦãĤĭ
ãģĹãģ¦ãģĦãĤĭ ãģ¨ãģįãģ«
ãģ©ãģĨ ãģłãģ£ãģŁ
ãģ®é ¦¬
ãģ®é £²
ãģ®é īĦéģĵ
ãģ®é ŃĶæ³ķ
ãģ®é ĥ½å¸Ĥ
ãĥ¼ãĥ« ãĥķ
ãĥ¼ãĥ« ãĥĩãĥ³
ãģ®ãģŁãĤģ ãģ®ãĤĤãģ®ãģ§ãģĻ
ãģ®ãģŁãĤģ ãģ«æĪ»ãģ£ãģ¦ãģįãģŁ
ãģ®è ·
ãģ®è į
ãģ®è Ĥ©
ãģ®è ¤ĩéĽĳ
ãģ®è ¢«å®³
ãģ®è ģĸ
ãģ®è ŀįè³ĩ
ãģ®è Īªæµ·
ãģ®è ±¡å¾´
ãģ®è «ĸ
ãģ®è ģ·
ãģ¯å½¼ ãģł
ãģĿãģĨ ãģ§ãģĻãģĭ
ãģĿãģĨ ãģĭãĤĤãģĹãĤĮãģªãģĦ
ãģĿãģĨ ãģ§ãģ¯ãģĤãĤĬãģ¾ãģĽãĤĵ
ãģĿãģĨ ãģ¨ãģĹãģ¦ãģĦãģŁ
Ġå½¼å¥³ ãģł
Ġå½¼å¥³ ãģ¯å½¼
Ġå½¼å¥³ ãģ¯æŃ»
Ġå½¼å¥³ ãģĮåĲĽ
Ġå½¼å¥³ ãģ¯ç§ģãģŁãģ¡
Ġå½¼å¥³ ãģ¯åı
Ġå½¼å¥³ ãĤĴæĦĽãģĹãģ¦ãĤĭ
Ġå½¼å¥³ ãģ¯æŃ»ãĤĵãģ§ãĤĭ
Ġå½¼ãģ¯ çŁ¥ãģ£ãģ¦ãĤĭ
Ġå½¼ãģ¯ ãĥĲãĥ¼
Ġå½¼ãģ¯ ä½ķãĤĤ
Ġå½¼ãģ¯ èª°ãģł
Ġå½¼ãģ¯ ãģĿãģĵãģ«ãģĦãĤĭ
Ġå½¼ãģ¯ ãģĿãģĨãģĻãĤĭ
Ġå½¼ãģ¯ ä½ķãĤĴãģĹãģ¦ãĤĭ
Ġå½¼ãģ¯ ãģĭãĤıãģĦãģĦ
Ġå½¼ãģ¯ ãģ©ãģĵãģ¸
ãĤ³ ãĥŃ
ãĤ³ ãĤ¿
ãĤ³ ãĥ¬ãĥ¼ãĥĪ
ãĤ³ ãĤ°ãĥŃãĥ¼ãĥĸ
ãĤ³ ãĥŁãĥ¥ãĥĭ
ç§ģãģ¯ è¡Įãģı
ç§ģãģ¯ ãģĵãĤĮ
ç§ģãģ¯ ãģŁãģł
ç§ģãģ¯ ãĤ¢ãĥ³
ç§ģãģ¯ ãĤ´
ç§ģãģ¯ ãģĿãģĨæĢĿãģĨ
ç§ģãģ¯ ãģĹãģ¾ãģĽãĤĵãģ§ãģĹãģŁ
ç§ģãģ¯ éģķãģĨãĤı
ãĥĸ ãĤ¿
ãĥĸ ãĥ©ãĤ¹
ãĥĸ ãĥªãĥĥãĤ¸
ĠãģĦãģĦ ãģĭãĤī
ĠãģĦãģĦ ãģĭãģª
ĠãģĦãģĦ ãģ§ãģĻãĤĪ
åħ ±æľī
åħ ĨåĢĻ
çĶ· ãģĭ
ãģ¿ ãģ§ãģĻ
ãģ¿ ç®±
åı ¥
ãĥĲ ãĤ°
ãĥĲ ãĥģ
ãĥĲ ãĥł
ãĥĲ ãĥ¼ãĥī
ãĥĲ ãĥĩãĤ£
ãĥĲ ãĥ³ãĥī
ãĥĲ ãĥ³ãĥĩãĤ£
ãĥĲ ãĥ¬ãĤ¨
ä¼ļ ãģĪãģªãģĦ
ä¼ļ ãģĬãģĨ
ä¼ļ ãģ£ãģŁãģĵãģ¨
ãĥĥãĥĪ ãģ®ä¸Ńãģ§
Ġç§ģãģŁãģ¡ ãģĮæ
Ġç§ģãģŁãģ¡ ãģ¯å®Įåħ¨ãģ«
ãģķãĤĵ ãģ®ãģĵãģ¨
ãĤĤãģĹ ãģĤãģªãģŁãģĮ
ãĤĤãģĹ ãĤĮãģ¾ãģĽãĤĵ
ãĤĤãģĹ ãģªãģĦãģ§
ãĤŃ ãģł
ãĤŃ ãĤµ
ãĤŃ ãĤµãĤ¤
ãĤĮãģŁ ãģ®
ãĥģ ãĥ¼ãĥĲ
ãĥģ ãĤ¦ãĥł
ãĥ¥ ãĥ¼ãĤº
ãĥ¥ ãĤ¨ãĥ«
ãģłãģ£ãģŁ ãģ®ãĤĪ
ãģłãģ£ãģŁ ãģ¨ãģĹãģ¦ãĤĤ
ãģ¯ä½ķ ãģłãģ£ãģŁ
ãģ¯ä½ķ ãģªãģ®
ãĥł ãģ®
ãĥł ãģ«
ãĥł ãĥŃãĥ¼ãĥī
ãĤº ãĤ¦ãĤ§ãĥ«
ãĤº ãĥĵãĤ¢ãĥ³
é¡ §
ãĤĭãģ® ãģ«
ãĤĭãģ® ãģ§ãģĻ
ãĤĭãģ® ãģ¯æ
ãĤĭãģ® ãĤĴçŁ¥ãģ£ãģ¦ãĤĭ
ãĤĭãģ® ãĤĴè¦ĭãģŁ
ãĤĭãģ® ãģ«èĭ¦åĬ´
çĶŁ ãģ¾ãĤĮãģŁ
ãĥĵ ãĥ³ãĤ°
ãĥĵ ãĤ²
ãĤµ ãĤ¤ãĥ«
ãĤµ ãĥŃãĥ³
ãĤµ ãĥĹãĥ©ãĤ¤ãĤº
ãĤµ ãĥģãĥ¥ãĥ¼
ĠãģĿãĤĮãģ¯ ãĤ¹
ĠãģĿãĤĮãģ¯ èª°
ĠãģĿãĤĮãģ¯ ãģĿãģĨãģł
ĠãģĿãĤĮãģ¯ éģķãģĨ
ĠãģĿãĤĮãģ¯ ãģĤãģªãģŁãģ®
ĠãģĿãĤĮãģ¯ ãģ»ãģ¨ãĤĵãģ©
ĠãģĿãĤĮãģ¯ ãģĤãģ¾ãĤĬãģ«ãĤĤ
ĠãģĿãĤĮãģ¯ ãģ²ãģ©ãģĦ
ĠãģĿãĤĮãģ¯ è¨ĢãģĪãģªãģĦ
ĠãģĿãĤĮãģ¯ ãģ¾ãģķ
ãĤĪãģĨãģ« éł¼
Ġ2 2
ãģ¤ãģĦãģ¦ ãģĦãģŁ
æĻĤ åĪ»
ãĥĭ ãĥķãĤ¡ãĥ¼
ä¸Ĭ éĻ¢èŃ°åĵ¡
ãģĵãģ¨ãĤĴ ãģĬ
ãģĵãģ¨ãĤĴ ãĤĦãģ£ãģ¦
ãģĵãģ¨ãĤĴ éģ¸
ãģĵãģ¨ãĤĴ è¨¼æĺİ
ãģĵãģ¨ãĤĴ è¨±åı¯
Ġä»Ĭ å½¼ãģ¯
Ġä»Ĭ ãģ¯åĲĽ
Ġä»Ĭ è¡ĮãģıãĤı
çī §
Ġå½¼ãĤī ãģ¯çĦ¡
ãģĵãģ¨ãģĮãģ§ãģį ãĤĭãģĭ
ãģĵãģ¨ãģĮãģ§ãģį ãģ¾ãģĽãĤĵãģ§ãģĹãģŁ
°ĳ éĸĵäºº
Ġæľ Ł
Ġæľ ªæĿ¥
èĩª çĻº
Ġãģ¯ãģĦ åħĪçĶŁ
ĠãģĤãģªãģŁãģ¯ ãĤĤãģĨ
ĠãģĤãģªãģŁãģ¯ ãģĿãĤĮãĤĴ
ĠãģĤãģªãģŁãģ¯ ä¸ĸçķĮ
ĠãģĤãģªãģŁãģ¯ ãģĵãģ®
ĠãģĤãģªãģŁãģ¯ è»Ĭ
ĠãģĤãģªãģŁãģ¯ ãģĭãģªãĤĬ
ĠãģĤãģªãģŁãģ¯ ãģĿãĤĮãģ«ãģ¤ãģĦãģ¦
ĠãģĤãģªãģŁãģ¯ ä»Ĭãģ¾ãģ§ãģ«
èĢħ ãģĺãĤĥãģªãģĦ
èĢħ ãģłãģ£ãģŁ
èĢħ ãģ§ãģ¯ãģªãģĦ
èĢħ ãģĮãģĦãĤĭ
èĢħ ãģ«ãĤĪãģ£ãģ¦
èĢħ ãģ¯ãģĦãģªãģĦ
èĢħ ãģĮãģĦãģŁ
ãĤª ãĥ«
ãĤª ãĥ¼ãĥ«
ãĤª ãĥĭãĥ¼ãĥ«
ãĤª ãĤºãĥľãĥ¼ãĥ³
ãĤª ãĤ¤ãĤ®ãĥ³ãĤ¹
Ġãģ§ãĤĤ ãĥĳãĥĳ
Ġãģ§ãĤĤ å½¼ãģ¯æ
Ġãģ©ãģĨ ãģĽ
Ġãģ©ãģĨ ãģĻãĤĭ
Ġãģ©ãģĨ æĦŁãģĺ
ãģ¨è¨Ģ ãģĦ
ãĥªãĥ¼ ãĤ°
ãĥªãĥ¼ ãĤº
ãĥ¼ãĥĪ ãĥ³
æ°Ĺ ãĤĴ
æ°Ĺ ãģ«ãģªãĤĭ
æ°Ĺ åĳ³
æ°Ĺ åĬĽ
æ°Ĺ ãģ«åħ¥ãĤīãģªãģĦ
è¡Įãģı ãĤĪ
ãģ«ãģ¤ãģĦãģ¦ ãģł
ãģ«ãģ¤ãģĦãģ¦ ãģ®ç
ãģ«ãģ¤ãģĦãģ¦ ãĤĪãģı
ãģ«ãģ¤ãģĦãģ¦ å¤ļãģı
ãģ«ãģ¤ãģĦãģ¦ å°ĳãģĹ
ãģ«ãģ¤ãģĦãģ¦ æķĻãģĪãģ¦ãģıãĤĮ
ãģ«ãģ¤ãģĦãģ¦ æķĻãģĪãģ¦ãģıãģłãģķãģĦ
ãģ«ãģ¤ãģĦãģ¦ è¨ĢåıĬ
ãĤ¹ãĥĪ ãģ¨
ãĤ¹ãĥĪ ãĤ¢
ãĤ¹ãĥĪ ãĥ¬ãĤ¹
ãĤ¹ãĥĪ ãĥ¼ãĥªãĥ¼
ãĤ¹ãĥĪ ãĥ¼ãĥ³ãĤº
ãĥ¡ ãĥ«
ãĥ¡ ãĥ³ãĥĲãĥ¼
ãĥ¡ ãĤ«ãĥĭ
ãĥ¡ ãĥªãĥĥãĥĪ
éĻ ªå¯©åĵ¡
ĠãģĤãģĤ ãģ§ãĤĤ
®º ãģĹãģŁ
åº ı
æĹ¥ ãģ®å¤ľ
ãĤĵãģ§ ãģıãģłãģķãģĦ
ãģ¨ãģĦãģĨ ãģĵãģ¨ãģĮ
ãģ¨ãģĦãģĨ ãĤĪãĤĬ
ãģ¨ãģĦãģĨ ãģĵãģ¨ãģł
ãģ¨ãģĦãģĨ ãĤĪãĤĬãĤĤ
ãģ¨ãģĦãģĨ äºĭå®Ł
ãģ¨ãģĦãģĨ ãĥ¡ãĥĥãĤ»ãĥ¼ãĤ¸
åĩº è¡Ģ
åĩº ãģĭãģĳãĤĭ
éĩĳ ãģł
éĩĳ é¡į
Ġãģªãģľ ãģĤãģªãģŁ
Ġãģªãģľ åĲĽãģ¯
ãĤĮãĤĭ ãģ¨
ãĤĮãĤĭ ãģªãĤī
ãĤĮãĤĭ ãĤĪãģĨãģ«
ãĤĮãĤĭ ãģ¾ãģ§
ãĤĮãĤĭ ãģŀ
çļĦ ãģ«å
ãģĵãģ¨ãģ¯ ãģ§ãģįãĤĭ
ãģĵãģ¨ãģ¯ ãģĤãĤĬãģ¾ãģĻãģĭ
ãģĵãģ¨ãģ¯ ãĤıãģĭ
Ġèª° ãģĮç§ģ
Ġèª° ãģĮæ°Ĺ
ĠãģĦ ãģ¨ãģĵ
ĠãģĦ ãģ£ãģŁãģĦ
ãĤ¨ ãĥ©
ãĤ¨ ãĥŃ
ãĤ¨ ãĥ¬ãĤ¤ãĥ³
ãĤ¨ ãĥĥãĤ»
ãĤ¨ ãĥĩãĤ£ãĥ¼
ãĤ¨ ãĥ¼ãĥ«ãģ¯
ãĤ¨ ãĥŁãĥ¼ãĥ«
ãĤ¨ ãĥ³ãĤ¸ãĥ³
ãģ®ãģ¯ ãģ¨ãģ¦ãĤĤ
ãĢħ ãģ¨
ãĤ½ ãĥ¼
ãĤ½ ãĤ¿
ãĤ½ ãĥ¼ãĥī
ãĤ½ ãĥŀãĥ¼
ãģ«ãģªãĤĭ ãģ®ãģĭ
ãģ«ãģªãĤĭ ãĤĪãģĨ
ãģ«ãģªãĤĭ å¿ħè¦ģãģĮãģĤãĤĬãģ¾ãģĻ
ãģ«ãģªãĤĭ ãģ¹ãģįãģł
ãģ®ãģŁãĤģãģ« ç§ģ
ãģ®ãģŁãĤģãģ« ä½ķãĤĴ
ãģ®ãģŁãĤģãģ« ãĤĦãģ£ãģ¦ãĤĭ
ãģ®ãģŁãĤģãģ« ãģĬéĩĳãĤĴæīķ
ä»ķäºĭ ãĤĴãģĹ
ç· ĳ
ĥ¨ ãĤģ
ãĤĴåı £
ãĤĴåı ©ãģı
ãĤĴåı Ĥçħ§
ãĤĴåı Ĭãģ¼
ãĥĬ ãĥł
ãĥĬ ãĥ¼ãĥĪ
ãĥĬ ãĥĬ
ãĥĬ ãĥ«ãĤº
ä¿¡ åı·
ãĤ¤ãĥ³ ãĥģ
ãĤ¤ãĥ³ ãĤº
ãĤ¤ãĥ³ ãĥĢãĥ¼
ãģŁãģĦ ãģ®
ãģŁãģĦ ãģ¾
ãģŁãģĦ ãģ®ãģĭ
ãģŁãģĦ ãģ¨æĢĿãģĨ
çĽ £
çĽ ¤
çī© ãĤĴ
çī© çĲĨçļĦ
ãĥŁ ãĥĥãĥĪ
ãĥŁ ãĥĬãĤ¤
ãĥŁ ãĥĥãĥģãĤ§ãĥ«
ãĥŁ ãĤµãĤ¤ãĥ«
ãģ«åħ¥ ãĤīãģªãģĭãģ£ãģŁ
ãģ«åħ¥ ãģ£ãģŁãģ®ãģĭ
ãģ«åħ¥ ãĤĮãģªãģĦãģ¨
ĠãĤ¸ ãĥ¬ãĥĥãĥĪ
å½¼å¥³ ãģĮç§ģ
å½¼å¥³ ãģ«ä¼ļãģ£ãģŁ
ãĥ©ãĥ³ ãĥĭãĥ³ãĤ°
ãĥ©ãĥ³ ãĥĨãĥ¼ãĤ·ãĥ§ãĥ³
æĸ¹ å½¢
ãģĵãĤĮ ãģ¯ä½ķãģł
ç´ į
Ġäºº ãģĭ
Ġäºº ãģ¨
Ġäºº ãģ§ãģĻ
Ġäºº ãģłãģĳ
Ġäºº ãģ¯æŃ»ãĤĵãģ§ãĤĭ
å¼ ĺæ³ķ
ãĥĢ ãĤ¹
ãĥĢ ãĤ¤ãĤ¹
ãĥĢ ãĤ¤ãĥł
ç§ģãģŁãģ¡ ãģ¨
ç§ģãģŁãģ¡ ãģ¯æ
ç§ģãģŁãģ¡ ãģ«ãģ¯
ç§ģãģŁãģ¡ ãģ¯ç
ç§ģãģŁãģ¡ ãģ¯ä½ķ
åį Ĵæ¥Ń
ãĥ¼ãĥī ãĥ«
ãĥ¼ãĥī ãĥĭãĤ¢
ãĥ¼ãĥī ãĥīãĥĥãĤ°
Ī¶ éĻĲ
ãĥĨãĤ£ ãĥ¼ãĥ³
ãģłãĤįãģĨ ãģª
ãģłãĤįãģĨ ãģĮ
ãģĪãĤĭ ãģĭãĤĤãģĹãĤĮãģªãģĦ
ãģĪãĤĭ ãģ¾ãģ§
ãģ§ãĤĤ ãģĤãĤĬãģ¾ãģĻ
ãģ®ä¸Ń ãģ«ãģĦãĤĭãģ®
ãģ®ä¸Ń ãģ®ä¸Ģäºº
ãĤīãģªãģĦ ãĤı
ãĤīãģªãģĦ ãģ§ãģıãģłãģķãģĦ
çĲĨ æĥ³
ãģ¦ãĤĤ ãĤī
ãģ¦ãĤĤ ãģĦãģĦãĤĪ
Ġç§ģãģĮ ãģĤãģªãģŁãģ«
Ġç§ģãģĮ èģŀãģĦãģŁ
Ġç§ģãģĮ ä½ķãĤĴãģĹãģŁ
Ġç§ģãģĮ è¨Ģãģ£ãģŁãģĵãģ¨
Ġç§ģãģĮ è¨Ģãģ£ãģ¦ãģĦãĤĭ
Ġç§ģãģĮ ãĤĦãĤĬãģ¾ãģĻ
æĺ ĩ
ãĤ± ãĤ¢
ãĤ± ãĥ³ãĥĢãĥ«
åĲĽ ãģ«ãģ¯
åĲĽ ãģ®ãģŁãĤģãģ«
å¤§ ãģį
å¤§ å¥½ãģį
å¤§ å°ī
å¤§ å£°ãģ§
å¤§ é¨Ĵãģİ
ĪĨ çĻº
ãģĶ ãĤģãĤĵ
ãģĶ åŃĺçŁ¥
ãģĶ ä¸»äºº
ãĤ¬ ãĥŃ
ãĤ¬ ãĥ¡
ãĤ¬ ãĥ¼ãĥī
ãĤ¬ ãĥªãĤ¢
ãĤ¬ ãĥ«ãĥĪ
ãĤ¬ ãĥĪãĥªãĥ³ãĤ°
ãĤ¬ ãĥŀãĥĪ
ãĤ» ãĥķãĤ£
ãĤ» ãĥĥãĥĦ
ãĤ» ãĥ«ãĥķ
ãĤ» ãĥ«ãĤ¯
ãĤ» ãĥĲãĤ¹ãĥģãĥ£ãĥ³
ãĥĩãĤ£ ãĥ³ãĤ°
Ġä¿º ãģ®è¨ĢãģĨ
Ġãģ¾ ãģ£ãģŁ
ä½ķãģĭ ãĤĴãģĻãĤĭ
ä½ķãģĭ è¨ĢãģĦãģŁãģĦ
ä½ķãģĭ æīĭä¼Ŀ
åŃĲ ãģĮ
ĠãģĤãģªãģŁãģĮ ä½ķ
ĠãģĤãģªãģŁãģĮ çŁ¥ãģ£ãģ¦ãĤĭ
ĠãģĤãģªãģŁãģĮ å½¼ãĤī
ĠãģĤãģªãģŁãģĮ ãģĹãģŁãģĦãģªãĤī
ĠãģĤãģªãģŁãģĮ è¨Ģãģ£ãģŁãĤĪãģĨãģ«
ãĥĥãĥĹ ãģł
ãĥĥãĥĹ ãĤ¹
ãģ§ãģ¯ãģªãģĦ ãģ¨æĢĿãģĨ
ãģ§ãģ¯ãģªãģĦ ãģłãĤįãģĨ
ãģ§ãģ¯ãģªãģĦ ãģĭãĤĤãģĹãĤĮãģªãģĦ
ãĤĴãģĻãĤĭ ãģłãĤįãģĨ
ãĤĴãģĻãĤĭ ãģĵãģ¨ãĤĤ
ãĤĴãģĻãĤĭ ãģĵãģ¨ãģĮãģ§ãģįãĤĮãģ°
ä¸ĭ çĿĢ
ãģ«è ĥ
ãģ«è ĸ¬
ãģ«è ³ªåķı
ãģ«è ¾ŀ
ãģ«è ĪĪå¥®
ãģ«è §¦
ãģĵãģĵ ãģ§æ
ãģĵãģĵ ãģ«æ®ĭ
åº¦ ãģ§
Ī» ãĤĭ
Ġãĥŀ ãĤ¤
Ġãĥŀ ãĤ¸
Ġãĥŀ ãĥĢãĥł
Ġãĥŀ ãĥĥãĤŃãĥ£ãĥķãĥªãĥ¼
Ġãĥŀ ãĤµãĥģãĥ¥ãĥ¼
ĠãĤ¢ ãĤ¦
ĠãĤ¢ ãĥĥãĥĹ
ĠãĤ¢ ãĥĶ
ĠãĤ¢ ãĥĥãĤ·ãĥ¥
ĠãĤ¢ ãĤ¸ãĤ¢
ĠãĤ¢ ãĥŀãĥ³ãĥĢ
åĽ £
ãģķãģĽ ãĤīãĤĮãĤĭ
ãģķãģĽ ãĤĭãģĵãģ¨ãģĮãģ§ãģįãĤĭ
ãģķãģĽ ãģªãģĳãĤĮãģ°ãģªãĤīãģªãģĭãģ£ãģŁ
èĩªåĪĨ ãģ®äººçĶŁ
ä»ĸ ãģ®ãĤĤãģ®
ä»ĸ ãģ®åł´æīĢ
ä»ĸ ãģ®æĸ¹æ³ķ
ä»ĸ ãģ«ä½ķãĤĴ
ãģĴ ãģŁ
ãĥĶ ãĥ¼ãĥĹãĥ«
ãĥĶ ãĤ½ãĥ¼ãĥī
¢º å®Ł
ãĥĻ ãĥĪ
ãĥĻ ãĥ³ãĥĪ
ãĥĻ ãĤ¬ãĤ¹
ãĥĻ ãĥ¼ãĤ·ãĥĥãĤ¯
Ġç§ģãģ¯å ľ°
Ġç§ģãģ¯å Ĭ©ãģĳ
Ġç§ģãģ¯å įģåĪĨ
Ġç§ģãģ¯å ĲĮãģĺ
Ġç§ģãģ¯å Ĩ·
ãĥľ ãĥ«
ãĥľ ãĤ¤ãĥī
ãĥľ ãĥ¼ãĥ¢
ãĥľ ãĥ«ãĥľ
å½¼ãĤī ãģ«
å½¼ãĤī ãģ¯å
å½¼ãĤī ãģ¯ç
å½¼ãĤī ãģ¯æ±ºãģĹãģ¦
ä¸Ģç·Ĵ ãģ«åĥįãģĦãģ¦
ãĥı ãĥĪ
ãĥı ãĤ¦ãĥ³ãĥī
ãĥı ãĤ¹ãĥ©ãĥ¼
ãĥı ãĥ³ãĥĲãĥ¼ãĤ¬ãĥ¼
Ġãģĵãģĵ ãģ¯ä½ķãģł
Ġãģĵãģĵ ãģ«åº§
ãģĤãģªãģŁãģĮ å½¼
ãģĤãģªãģŁãģĮ ä½ķãĤĴ
ãģĤãģªãģŁãģĮ å¥½ãģįãģ§ãģĻ
éĥ¨ ãģĭãĤī
éĥ¨ æĹı
Ġãģ¤ ãģłãģĳ
Ġãģ¤ ãģĤãĤĬãģ¾ãģĻ
Ġãģ¤ ãģ®åįĺèªŀ
Ġãģ¤ ãģĦãģ«
Ġç§ģãģŁãģ¡ãģ¯ ãĤĤãģĨ
Ġç§ģãģŁãģ¡ãģ¯ ä¸Ģç·Ĵ
è» Įéģĵ
ĠãģĿãĤĮãģ§ ä»Ĭ
ĠãģĿãĤĮãģ§ å½¼å¥³ãģ¯
ĠãģĿãĤĮãģ§ ãģ©ãģĨãģĻãĤĭ
ãĤĴæĮģãģ£ãģ¦ ãģıãģłãģķãģĦ
ãĤĴæĮģãģ£ãģ¦ ãģĦãģ¾ãģĹãģŁ
ãĤĴæĮģãģ£ãģ¦ ãģįãģ¦
ãĤĴæĮģãģ£ãģ¦ ãģĦãģªãģĭãģ£ãģŁ
ãĤĴæĮģãģ£ãģ¦ æĿ¥ãģĦ
ãĤĴæĮģãģ£ãģ¦ ãģįãģ¦ãģıãĤĮ
å¾Į æĤĶ
æ³ķ çľģ
ãĥĦ ãĥ¼ãĥ«
ãģ¯ãģ©ãģĨ ãģĹãģŁ
ãģ¯ãģ©ãģĨ ãģĹãģ¦ãĤĭ
ãģ¯ãģ©ãģĨ ãģ§ãģĹãĤĩãģĨ
ãģ¯ãģ©ãģĨ ãģĻãĤĮãģ°ãģĦãģĦ
ãģĻãģ »ãģ©
ãģ«ç Ĩ±
ãģ«ç Į®èº«
ãĥ³ãĥĪ ãģ®
ãĥ³ãĥĪ ãĥ³ãģķãĤĵ
ãĥ³ãĥĪ ãĥıãĤ¦ãĤ¹
¬² ãģĹãģĭãģ£ãģŁ
¬² ãģĹãģıãģªãģĦ
åł´ éĿ¢
ãģ¨ãģĹãģ¦ ãģ¯
ãģ¨ãģĹãģ¦ ãģĹãģ¾ãģ£ãģŁ
ãĥ³ãĥī ãĥ©ãĥ¼
ãĥ³ãĥī ãģ®é«ª
ä½ľ çĶ¨
ä½ľ æĽ²å®¶
ĠãģĿãģĨãģĺãĤĥãģªãģĦ ãĤı
ĠãģĿãģĨãģĺãĤĥãģªãģĦ ãģĭãĤĤ
ãģĭãĤĤãģĹãĤĮãģªãģĦ ãģ¨æĢĿãģĨ
ãĥį ãĥĩãĤ£
ãĥį ãĤ·ãĥ¼
ãģĹãģŁãģĦ ãģ¨æĢĿãģ£ãģ¦ãģĦãģ¾ãģĻ
ãģĹãģŁãģĦ ãģ¨æĢĿãģĦãģ¾ãģĻãģĮ
ãĤĴçŁ¥ ãĤĭ
ãĤĴçŁ¥ ãĤĭå¿ħè¦ģãģĮãģĤãĤĭ
ãĤĴçŁ¥ ãģ£ãģ¦ãģĬãģı
Ġãģķ ãĤĤãģªãģĳãĤĮãģ°
ä½ķãĤĴ è¨Ģãģ£ãģŁ
ä½ķãĤĴ ãģĹãģ¦ãģĦãģŁ
ä½ķãĤĴ ãģĹãģ¦ãģĦãĤĭãģ®ãģĭ
ãģ¨ãģ¦ãĤĤ è¦ªåĪĩãģ«
ĠãģĦãĤĦ ãģĿãĤĮãģ¯
Ġ3 4
ãģ®çĶ· ãģłãģ£ãģŁ
ãģ®çĶ· ãģŁãģ¡ãģ¯
ĠãģĹ ãģ£ãģĭãĤĬ
æĿ¥ ãĤĭ
æĿ¥ ãĤĭãģ®ãģĭ
ãģ«æĿ¥ ãģ¾ãģĻ
ãģ«æĿ¥ ãĤĭãģ®
ãģ«æĿ¥ ãģ¦ãģıãģłãģķãģĦ
ãĥ¯ ãĥ¼ãĥĪ
ãĥ¯ ãĥ³ãĥĢãĥ¼ãĥ©ãĥ³ãĥī
ãģĭãģĹ ãĤī
ãģ¹ãģį ãģ§ãģĻ
ãģ®ãĤĪãģĨãģ« ãģŃ
ãģ®ãĤĪãģĨãģ« è¡Įåĭķ
ãģ®ãĤĪãģĨãģ« è¦ĭãģĪãģŁ
éħ ·
è¨ĢãģĨ éĢļãĤĬ
èģŀ ãģį
èģŀ ãģįãģŁãģıãģªãģĦ
ãģ®ãģĵãģ¨ ãĤĴèģŀãģĦãģ¦
ãĥ¼ãĤ¯ ãĥªãĥ³ãĤ°
Ġç§ģãģ¯ãģĤãģªãģŁ ãĤĴçŁ¥
Ġç§ģãģ¯ãģĤãģªãģŁ ãģ¨ä¸Ģç·Ĵ
Ġç§ģãģ¯ãģĤãģªãģŁ ãģ®ä»ķäºĭ
Ġç§ģãģ¯ãģĤãģªãģŁ ãĤĴä¿¡ãģĺãģ¦
éļ ·
ãĤĴåıĸ ãĤĮ
ãĤĴåıĸ ãģ£ãģ¦ãģıãĤĮ
ãĤĴåıĸ ãĤĬãģŁãģĦ
ãĤĴåıĸ ãĤĬãģ¾ãģĻ
ãĤĴåıĸ ãģ£ãģ¦ãģıãĤĭ
ãĤĴåıĸ ãĤĭãģĵãģ¨ãģĮãģ§ãģįãģªãģĭãģ£ãģŁ
Ĳį åĤ·
å½¼ãģ¯ ãģĤãģªãģŁãģĮ
å½¼ãģ¯ ãģĿãĤĮãĤĴå
ãģĿãĤĮãĤĴ ãĤĦ
ãģĿãĤĮãĤĴ ãĤĦãģ£ãģ¦
ãģĿãĤĮãĤĴ éĢļ
ãģĿãĤĮãĤĴ ãĤĦãģ£ãģŁ
éĢļ ä¿¡
å± Ĭ
ãĥ¢ ãĥ«
è¦ļ æĤ
è¨Ģãģ£ãģŁ ãģ®ãģ¯
è¨Ģãģ£ãģŁ ãģĵãģ¨ãģ§ãģĻ
ĠåĲĽãģ¯ ãģĿ
ĠåĲĽãģ¯ ãĤĤãģĨ
ĠåĲĽãģ¯ ãģ¨ãģ¦ãĤĤ
ĠåĲĽãģ¯ ãģŁãģł
ĠåĲĽãģ¯ ãģ¾ãģł
ĠåĲĽãģ¯ èī¯ãģĦ
ĠåĲĽãģ¯ ãģĭãģªãĤĬ
Ġå½¼å¥³ãģ¯ ãģĵ
Ġå½¼å¥³ãģ¯ ãģĿãĤĮ
Ġå½¼å¥³ãģ¯ ä»Ĭ
Ġå½¼å¥³ãģ¯ ãģĤãģªãģŁãģĮ
Ġå½¼å¥³ãģ¯ ä¸ĸçķĮ
Ġå½¼å¥³ãģ¯ ãģĿãģĨãģł
ãģ¦ãģıãĤĮ ãģªãģĦãģĭ
Ġãĥī ãĥ¼
Ġãĥī ãĤ¯
Ġãĥī ãĥ¬ãĤ¹
Ġãĥī ãĥ¬ãĥĥ
Ġãĥī ãĥ¼ãĤ·ãĤ¢
ãģ¯æľ Ī
æīĭ åĭķ
æīĭ æİĽãģĭãĤĬ
è§£ éĻ¤
Ġãĥķ ãĥªãĥ¼
Ġãĥķ ãĥ©ãĥ³ãĤ¹
ĠãĤĤãģĨ äºĮåº¦ãģ¨
ĠãĤĤãģĨ ãģĵãĤĮä»¥ä¸Ĭ
ãģ§ãģįãģªãģĦ ãģªãĤī
ãĤĴæ®º ãģķ
ãĤĴæ®º ãģĽãĤĭ
ãģķãĤĮãģ¦ ãģĦãģ¾ãģĹãģŁ
ãģķãĤĮãģ¦ ãģĦãģ¾ãģĻãģĭ
Ġå½¼ãĤīãģ¯ ä»Ĭ
Ġå½¼ãĤīãģ¯ ãģĿãĤĮãĤĴ
Ġå½¼ãĤīãģ¯ ãģ¾ãģł
Ġå½¼ãĤīãģ¯ ãģĬäºĴãģĦ
ĠãĤ¹ ãĤ®
ĠãĤ¹ ãĥ¼ãĥĦ
ĠãĤ¹ ãĤ¯ãĥ©ãĥĥãĥĹ
ãĥİ ãĥ³
ãģ§ãģįãĤĭ ãĤĪ
ãģ§ãģįãĤĭ ãĤı
ãģ§ãģįãĤĭ ãģĭãĤĤãģĹãĤĮãģªãģĦ
ãģªãģı ãģªãģ£ãģŁ
ãģ«è¡Į ãģ£ãģ¦ãģıãĤĮ
ãģ«è¡Į ãģĵãģĨ
çļĦãģª ãģ®ãģĭ
çļĦãģª è³ªåķı
ãģ¾ãģ§ ãģł
ãģ¾ãģ§ ãģ«ãģ¯
ãĥĿ ãĥ³
ãĥĿ ãĥ¼ãĤº
ãĥĿ ãĥ³ãĥĹ
ãģĮç§ģ ãģ«éĽ»è©±
ãģĮãģĤãĤĬãģ¾ãģĻ ãģĮ
ä½¿ ãģĦ
å¤ľ ãģ®
å¤ľ ä¸Ń
è³ Ĭ
è³ Ħè³Ĥ
ãģįãģŁ ãģĭãģ£ãģŁãģ®
ĠãĤ¯ ãĥŀãĥ¼ãĥ«
ĠãģĵãĤĮãģ¯ ãĤ²ãĥ¼ãĥł
ä¿¡ãģĺ ãģªãģĦ
éĿ ĴãģĦ
ãģ«ãģĻãĤĭ ãģĭ
ãģ«ãģĻãĤĭ ãģłãĤįãģĨ
ãģ«ãģĻãĤĭ ãģĵãģ¨ãģĮãģ§ãģįãģªãģĦ
éģĭ ãģª
éģĭ ãģĮæĤªãģĦ
ãģ¨ä¸Ģç·Ĵ ãģ«è¡Į
ãģ¨ä¸Ģç·Ĵ ãģ«è¡Įãģ£ãģŁ
ãģ¨ä¸Ģç·Ĵ ãģ«ãģĦãĤĭãģ®
ä¸ĸ ä»£
ãĥ©ãĤ¤ ãĥ©
ãĥ©ãĤ¤ ãĥī
ãĥ©ãĤ¤ ãĥĢãĥ¼
Ġä½ķãģĭ èī¯ãģĦ
Ġä½ķãģĭ è¨ĢãģĦãģŁãģĦãģĵãģ¨ãģĮãģĤãĤĭ
Ġä½ķãģĭ ãģĮèµ·ãģįãģŁ
ãĤĪãĤĬ ãģļãģ£ãģ¨
ãĤĪãĤĬ å¹´ä¸Ĭ
ãĤĪãĤĬ å°ĳãģªãģĦ
ãģ®å¤ ı
ãģ®å¤ ļ
å¹´ ãģ«
ãģĭãģª ãĤĭ
ãģĭãģª ãģįãĤĥ
Ġãĥĩ ãĥ¢
Ġãĥĩ ãĤ¤ãĥĸ
Ġãĥĩ ãĤ¿ãĥ©ãĥ¡
Ġãĥĩ ãĤ¸ãĤ¿ãĥ«
ãģŀ ãĤĮ
ãģ¨ãģ¯ è¨ĢãģĪãģªãģĦ
ãģ¨ãģ¯ éĸ¢ä¿ĤãģªãģĦ
ãģ£ãģ¦ãģĦãģŁ ãģ«éģķãģĦãģªãģĦ
ãĥĽ ãĥĹãĤŃãĥ³ãĤ¹
ãģ«ãĤĤ åįģåĪĨãģª
ãģ«ãĤĤ éĸ¢ãĤı
ãģ«ãĤĤ ãģĭãģĭãĤıãĤīãģļ
ä¸į æĦīå¿«
ãģ®åı įå¿ľ
ãģ®åŃĲ ãģł
ãĤĴè¦ĭãģ¤ãģĳ ãĤĭãģ¨
ãĤĴè¦ĭãģ¤ãģĳ åĩºãģĻ
å¾ħ ãģ£ãģ¦ãģĦãĤĭ
å¾ħ ãģ£ãģ¦ãģıãĤĮ
ãģ¯ãģªãģĦ ãĤı
ãĤ¸ãĥ£ ãĥ¼ãĤ¹
ãĤ¸ãĥ£ ãĥ³ãĤ¯
ãĤ¸ãĥ£ ãĤ±ãĥĥãĥĪ
ãĤ¸ãĥ£ ãĥŁãĥ³
ãĤ¸ãĥ£ ãĥ³ãĤ°ãĥ«
åĭķ çī©
åĭķ æıº
èĥ Ĩ
èĥ İ
Ġãĥı ãĥªãĥ¼
Ġãĥı ãĥ³ãĤ°
Ġãĥı ãĥīãĤ½ãĥ³
Ġãĥı ãĥĥãĤ¯ãĥ«ãĥĻãĥªãĥ¼
Ġãĥı ãĥ¼ãĥ«ãĥķ
ãģĤãģªãģŁãģ¯ ãģŁãģł
ãģĤãģªãģŁãģ¯ ãģĿãĤĮãĤĴ
ãĤĭãģĵãģ¨ãģĮãģ§ãģį ãģ¾ãģĽãĤĵãģ§ãģĹãģŁ
Ġå¤§ ãģĹãģŁ
Ġå¤§ æĬ
ä»¥ åīįãģ«
æĻ ¯
æĻ ¶
æĻ ®éĢļ
ãģ«ä¼ļ ãģĦãģŁãģĮ
Ġãĥĳ ãĥĥãĥĪ
Ġãĥĳ ãĥ³ãĥĦ
Ġãĥĳ ãĥ¡ãĥ©
Ġãĥĳ ãĤ¤ãĥĹ
Ġãĥĳ ãĥ³ãĥĹãĤŃãĥ³
ãĤ·ãĥ§ ãĥĬãĥ«
çĶ¨ å¿ĥ
æĬ ¼
ĠåĪĨ ãģ®
ĠåĪĨ ãĤĤ
ĠåĪĨ éĸĵ
ĠåĪĨ æŀĲ
ãģ©ãģĵ ãģĭãĤīæĿ¥
Ġä¸Ģ æĹ¥
Ġä¸Ģ å¹´
Ġä¸Ģ æĻ©ä¸Ń
åĲĪ ãĤıãģĽ
ãģĵãģ¨ãģł ãĤĪ
é£Ł åĻ¨
é£Ł äºĭãĤĴ
ĦŁ åĤ·
ãģ«ãģ¯å ħ¨ãģ¦
ãģ«ãģ¯å ŃĲä¾Ľ
ãģ«ãģ¯å ¤ļãģı
ãģĸ ãģ¨
ãĤıãģªãģĦ ãģ®
ãĤıãģªãģĦ ãģłãĤįãģĨ
ãĤıãģªãģĦ ãģ§ãģıãģłãģķãģĦ
çĽ® ãģ¨
çĽ® çļĦ
çĽ® æĴĥ
ãģ®ä»ķäºĭ ãģĺãĤĥãģªãģĦ
ãģ®ä»ķäºĭ ãĤĴãģĹãģŁ
ĠãĤĦ ãģ£ãģŁ
ĠãĤĦ ãĤĬãģŁãģĦ
ĠãĤĦ ãģ£ãģ¦ãĤĭãĤĪ
ãĤ¸ãĤ§ ãĥ³
ãĤ¸ãĤ§ ãĥ¼ãĥłãĤ¹
ãĥķãĤ£ ãĥ«
ãĥķãĤ£ ãĥĥãĤ¯ãĤ¹
ãģ¨è¨Ģãģ£ãģŁ ãĤĵãģł
Ń£ ãģĹãģĭãģ£ãģŁ
ãĤĴæīĭ ãģ«ãģĹãģ¦
ĠãģĤãĤĬ ãģ¾ãģĻãģĭ
ãĤ© ãĥ³ãĥĮ
ãģ®ãĤĤãģ® ãĤĴæīĭãģ«åħ¥ãĤĮãģŁ
æĮģ ãģ£ãģ¦ãģĦãģŁ
ãģ«è¡Įãģı ãģ¨æĢĿãģĨ
ãģ«è¡Įãģı å¿ħè¦ģãģĮãģĤãĤĭ
ãģ«è¡Įãģı äºĪå®ļ
ãģ®äºĭ ãģ§
ãģ®äºĭ ãĤĴèĢĥãģĪãģ¦
ãģ®äºĭ ãģ¯æ®ĭå¿µãģłãģ£ãģŁ
ãģ®ãĤĪãģĨãģª éŁ³
ãģ®ãĤĪãģĨãģª çĶ·ãģł
ĠãĥĢ ãĤ¤
èĢĥãģĪ ãģªãģĦ
èĢĥãģĪ ãģªãģĳãĤĮãģ°ãģªãĤīãģªãģĦ
ãģ®åĲį åīįãģ«
ĠãģĤãģªãģŁãģ¯ç§ģ ãģĮ
ĠãģĤãģªãģŁãģ¯ç§ģ ãĤĴè¨±ãģĹãģ¦ãģıãĤĮ
ãģĻãģĲ ãģ«ãģ¯
ãĤ® ãĤ°
ãĤ® ãĥ³ãĤ°
ãĤ® ãĥªãĤ·ãĥ£
ĠãģĶ ä¸»äºº
ĠãĤª ãĥ¼ãĥĪ
ĠãĤª ãĥ¬ãĤ°
éĽ»è©± ãģ§
éĽ»è©± ãģĹãģ¾ãģĻ
éĽ»è©± ãģĹãģŁãģ®
éĽ»è©± ãĤĴãģĹãģŁ
éĽ»è©± ãĤĴãģĭãģĳ
©Ł æ¢°
ãĤ¶ ãĤ¹
ãĤ¶ ãĥ¼ãĥ«
ãĥªãĥ³ ãĤ´
ĠãģĪãģĪ ãģĬé¡ĺãģĦ
ãģĹãģŁãģ® ãģ§ãģĻ
å®¶ ãģ«ãģĦãĤĭ
ä¼Ŀ ãģĪãģ¦
ä¼Ŀ ãģĪãģ¦ãģıãģłãģķãģĦ
ãĤĴæĮģãģ£ãģ¦ãģĦãĤĭ ãģĵãģ¨
ãĤĴæĮģãģ£ãģ¦ãģĦãĤĭ äºº
ãĤĴæĮģãģ£ãģ¦ãģĦãĤĭ ãģ®ãģĭ
ãĤĴæĮģãģ£ãģ¦ãģĦãĤĭ ãģ¨æĢĿãģĦãģ¾ãģĻ
«ĭ ãģ¡ä¸ĬãģĮ
è² ¬
è² ¨çī©
Ġãģł ãģĳ
ä¸İ ãģĪãģ¾ãģĻ
ãģ®æľ Ľãģ¿
ãģ®æľ ĽãĤĢ
ĠãģĤãĤĬãģĮãģ¨ãģĨ ãĥĳãĥĳ
ĠãĥŃ ãĥ¼ãĥ³
ĠãĥŃ ãĥ«ãĥķ
ĠãĥŃ ãĥ¬ãĥĥãĤ¿
ĠãĤ¦ ãĥ¼
ĠãĤ¦ ãĥł
ĠãĤ¦ ãĥ«ãĥķ
ĠãĤ¦ ãĤ¤ãĤ¹ãĤŃãĥ¼
Ķ¯ æı
ãģĻãĤĭãģ® ãģĮå
ãģĻãĤĭãģ® ãģ«åįģåĪĨãģª
ãĥªãĤ¢ ãĥ¼
ãģĬéĩĳ ãĤĴåıĸãĤĬ
ãģĬéĩĳ ãĤĴç¨¼
æł ¸
ãĥķãĤ¡ ãĤ°
ãĥķãĤ¡ ãĥĬ
è¾ ²
Ġãĥª ãĥªãĥ¼
ĠãĤ¤ ãĥ³ãĥī
ĠãĤ¤ ãĥ³ãĤ¹
ĠãĤ¤ ãĥ¼ãĤ¹ãĥĪ
éĩį å¤§ãģª
ãĤīãĤĮãģªãģĦ ãĤı
ãģĮç ¢º
ãģĮç İĭ
ãģĮç Ĺħæ°Ĺ
ãģĮç ¾İãģĹãģĦ
ãģĮç ĭĤãģ£ãģ¦ãĤĭ
ãģĮç ©į
ĠãģĿãģĹãģ¦ å½¼
ãģŁãģ® ãģ¨åĲĮãģĺ
ãģłãģ¨ ä¿¡ãģĺ
ãģłãģ¨ ç¢ºä¿¡
ãģłãģ¨ åĪĨãģĭãģ£ãģŁ
ãģłãģ¨ èģŀãģĦãģ¦ãĤĭ
çŁ¥ãĤīãģªãģĦ ãģ®ãģĭ
åĮ ¹
ä¸ĸçķĮ ãģ«
ä¸ĸçķĮ ãģ§æľĢãĤĤ
ä¸ĸçķĮ ãĤĴæķĳãģĨ
åĢ «
åĢ ŁãĤĬãģĮãģĤãĤĭ
è« ¦ãĤģ
Ġå½¼ãģ¯å ½ĵçĦ¶ãģ®åł±
Ġæĺ ¨æĻ©
ãģ®è©± ãģ§ãģĻ
ãģ®è©± ãĤĴèģŀãģı
ãĤĴçŁ¥ãģ£ãģ¦ãĤĭ ãģ¨æĢĿãģ£ãģ¦ãģŁ
ĠãĤ¨ ãĤ¢
ĠãĤ¨ ãĥĺ
ĠãĤ¨ ãĤ¹ãĤ³
ĠãĤ¨ ãĥĸãĥªãĥ³
ĠãĤ¨ ãĥ³ãĤ¸ãĥ³
ĠãĤ¨ ãĤ¦ãĥ¬ãĤ«
ãĤĴèģŀ ãģĭãģªãģĦ
ãĤĴèģŀ ãģįãģ¾ãģĹãģŁ
ãĤĴèģŀ ãģĭãģĽãģ¦ãģıãĤĮ
ãĥļ ãĥĭãĥ¼
åľ° åħĥ
èĪ ªæµ·
Ġ4 8
Ġãģ¨ ãģįãģ©ãģį
åĲĮãģĺ ãģıãĤīãģĦ
åĲĮãģĺ ãĤĪãģĨãģ«æ
èĢĥãģĪãģ¦ ãģĦãģ¾ãģĹãģŁ
èī¯ãģĦ æĻĤ
èī¯ãģĦ äºĭãģł
éĢ± ãģ«
ãģ£ãģ¦ãĤĭãģ® ãĤĴè¦ĭãģŁ
æĻĤéĸĵ ãģĮãģªãģĦ
ĠãĤĤãģĹ ãģĤãģªãģŁãģĮ
ĠãĤĤãģĹ ãģĭãģĹãģŁãĤī
Ĭ©ãģĳ ãģ¦ãģıãĤĮ
ãģĿãĤĵãģª ãģ«æĤª
ãģĿãĤĮãģ¯ ãģĤãģªãģŁ
ãģĿãĤĮãģ¯ ãģ§ãģįãģªãģĦ
ãģĿãĤĮãģ¯ ãģŁãģłãģ®
ãĤĴè¦ĭãģŁ ãģłãĤį
ãĤ¦ãĤ§ ãĥĲãĥ¼
ãĤ¦ãĤ§ ãĤ¤ãĥĦ
å° ĭåķı
ãĤīãģĽ ãģŁ
ĠæĪĳãĢħ ãģ®
ĠæĪĳãĢħ ãģĮ
ĠæĪĳãĢħ ãģ¯å
ãģ©ãģĵãģ« ãģĦãģŁãģ®
ãģ©ãģĵãģ« ä½ıãĤĵãģ§
ãģ©ãģĵãģ« ãģĦãģŁãģĭ
ãĤĦãģ£ãģŁ ãģĭ
ãĤĦãģ£ãģŁ ãĤĵãģł
ãĤĦãģ£ãģŁ ãģ®ãĤĪ
ãĤĴãģĹãģ¦ ãģĦãģ¦
ãĤĴãģĹãģ¦ ãģıãģłãģķãģĦ
ãĤĴãģĹãģ¦ ãģįãģŁ
ãĤĴãģĹãģ¦ ãģĦãģŁãģ®
Ġç§ģãģ® ãģĽãģĦ
åĬĽ ãģª
ãģłãĤĪ ãĥĳãĥĳ
ãģ«æĪ» ãĤĬ
ãģ«æĪ» ãģ£ãģ¦ãģıãĤĭ
ãģ§æ İ¢
Ġå® ¹çĸĳ
ãĤĪãģı è¦ĭ
ãĤĪãģı ãģªãĤĭ
ĠãģĿãĤĮãģĮ ãģ©ãģĨ
ĠãģĿãĤĮãģĮ çĲĨçĶ±
ĠãģĿãĤĮãģĮ ä¸Ģçķª
ãĤ·ãĥ£ ãĥĥãĤ¯
ãĤ·ãĥ£ ãĥĪãĥ«
ãģĮå¿ħè¦ģ ãģ¨ãģĻãĤĭ
ãĤĴãģĹãģŁ å¾Į
ãĤĴãģĹãģŁ ãģ¨ãģį
ãģĮãģªãģĦ ãģªãĤī
Ġãģ¡ ãģı
ãĤĴè¦ĭãģ¦ ãģŁ
ãĤĴè¦ĭãģ¦ ãģĦãģªãģĦ
ãĤĴè¦ĭãģ¦ ãģıãĤĭ
ãĤĴè¦ĭãģ¦ ãģĶãĤģãĤĵãģªãģķãģĦ
ãĤĴè¦ĭãģ¦ ãģ¿ãĤį
é£Ľ ãĤĵãģ§
é£Ľ ãģ¶
Ġç§ģãģ¯ãģĿãĤĮ ãĤĴçŁ¥ãĤīãģªãģĭãģ£ãģŁ
Ġç§ģãģ¯ãģĿãĤĮ ãĤĴçĲĨè§£ãģĹãģ¦ãģĦãģªãģĦ
Ġç§ģãģ¯ãģĿãĤĮ ãģ«åıĸãĤĬçµĦãĤĵãģ§ãģĦãģ¾ãģĻ
ãģĮæľ ĽãĤĵãģł
ãĤĴæĮģãģ£ãģ¦ãĤĭ ãĤı
ãģ¨ãģĵãĤį ãģłãģ£ãģŁ
ãģ¨ãģĵãĤį ãģ¸
ãĤ² ãĤ¤ãĥ«
ãĤ² ãĥ¼ãĥªãĥ¼
ãĤ² ãĤ·ãĥ¥ãĤ¿ãĥĿ
ãģ«ãģĤãĤĭ ãģ®ãģĭ
ãģĪãģªãģĦ ãģ¨
Ġãģĵãģ® ãĤ¯ãĤ½
Ġãģĵãģ® ä¼ļè©±
Ġä»ĸ ãģ®çĶ·
Ġä»ĸ ãģ«æĸ¹æ³ķ
ä½ķãĤĤ ãģĤãĤĬãģ¾ãģĽãĤĵ
ãģ¯åĲĽ ãģł
ãģ¯åĲĽ ãģłãģĳãģł
äºĮ æ¬¡ä¸ĸçķĮå¤§æĪ¦
ĠãĤµ ãĥ©
ĠãĤµ ãĤ¤ãĤ¯
ĠãĤµ ãĥĹãĥ©ãĤ¤ãĤº
èª°ãĤĤ çŁ¥ãĤīãģªãģĦ
èª°ãĤĤ ä½ķãĤĤ
Ġèĩª æ®º
çķª çµĦ
åĨ ĴéĻº
åŃ¦ ãģ®å
åŃ¦ çļĦ
åŃ¦ ãģ¶
ç§ģãģ« éĽ»è©±
ãģĵãģĵãģ« ãģĦãģ¾ãģĻ
ãģĵãģĵãģ« ç«ĭ
ãģĵãģĵãģ« ä½ıãĤĵãģ§ãĤĭ
Ġãģ©ãģĨãĤĦãģ£ãģ¦ ãģĵãģ®
ĠãĤ« ãĤ¦ãĤ¬ãĥ¼ãĥ«
ãģķãĤĮãĤĭ ãģĵãģ¨ãģ«ãģªãĤĭ
ãģĤãģªãģŁãģ® ãģĵãģ¨ãĤĴ
ãģĤãģªãģŁãģ® ãģĬçĪ¶ãģķãĤĵ
ãĤĴè¿ İãģĪ
åĲį èªī
ãģ®ä¸Ńãģ§ ä¸Ģçķª
ãģĵãģĵãģ§ ä½ķãģĹãģ¦ãĤĭãģ®
ãģĵãģĵãģ§ åĥįãģĦãģ¦
ãĤĴä½ľ ãģ£ãģ¦
Ġæķ £
Ġçµ Ħ
Ġçµ ĤãĤıãĤĬ
éĢģ ãģ£ãģŁ
Ġèª°ãģĭ ãģĮå½¼
ä¹Ĺ ãģĽãģ¦
ä¹Ĺ é¦¬
ä¹Ĺ åĭĻåĵ¡
å· §
å· ¨
æĸ¹æ³ķ ãĤĴçŁ¥ãģ£ãģ¦ãĤĭãģ®ãģĭ
ãģ«åĩº ãĤĪãģĨ
ãģ«åĩº ãģĭãģĳãĤĭ
ãĤĴèª ¤
ĠãĥĲ ãĥ¼ãĤ¯
ĠãĥĲ ãĥĥãĤ°
ĠãĥĲ ãĥĥãĤ¯ãĥīãĥ©ãĥķãĥĪ
ĠãĥĲ ãĥ¼ãĥīãĥīãĥĥãĤ°
å½¼ãĤīãģ¯ ãģĿãĤĮãĤĴ
ł± éģĵ
ãĥ¤ ãĥ¼ãĥī
ãĤģãĤĭ ãģª
ãĤģãĤĭ ãģ®ãģĭ
ãĤģãĤĭ åīįãģ«
Ġç¥ŀ ãģ¯
Ġç¥ŀ çµĮ
Ġæľ¬å½ĵ ãģ«è
Ġæľ¬å½ĵ ãģ«å½¼
Ġæľ¬å½ĵ ãģ«åĪĨ
Ġæľ¬å½ĵ ãģ«æľ¬å½ĵãģ«
ĠãĤ¸ãĤ§ ãĥ¬ãĥŀãĤ¤ãĤ¢
ãĤĴå¾Ĺ ãĤīãĤĮãģªãģĦ
ãĤĴå¾Ĺ ãĤĭãģĵãģ¨
ãĤĴå¾Ĺ ãĤĭãģĵãģ¨ãģĮãģ§ãģįãĤĭ
ĠçŁ¥ãģ£ãģ¦ãĤĭ ãģĭ
ãĥĴ ãĥ³ãĥĪ
ãģĮå¥½ãģį ãģ§ãģĻãģĭ
ãģłãģ¨æĢĿ ãģ£ãģ¦ãģĦãģŁ
ãģłãģ¨æĢĿ ãģ£ãģ¦ãĤĭãģ®ãģĭ
Ġãĥ© ãĥ³
Ġãĥ© ãĥªãĥ¼
Ġãĥ© ãĤ°ãĥĬ
Ġãĥ© ãĥĥãĤŃãĥ¼
Ġãĥ© ãĥ³ãĥģ
Ġãĥ© ãĤ¤ãĥķ
Ġãĥ© ãĤ¸ãĤª
Ġãĥ© ãĥªãĥ´ãĤ£
ãģĹãģ¦ãģĦãģŁ ãģ®
ãģĹãģ¦ãģĦãģŁ ãģłãģĳãģ¾ãģĻãģĭ
éģ¸ ãģ°
éĸĵéģķ ãģ£ãģ¦
éĸĵéģķ ãģĦãģªãģĦ
åĳ¼ ãģ³
łæĻ´ãĤī ãģĹãģĭãģ£ãģŁ
ĠãĥĨ ãĤ¯ãĥŃãĥ³
ĠãģĿãĤĮãģĭãĤī å½¼
ĠãģĿãĤĮãģĭãĤī å½¼ãĤī
ĠãģĿãĤĮãģĭãĤī å½¼ãģ¯
ãģ¯æŃ» äºº
ãĥŀãĥ³ ãģĮ
çĤ ī
çĤ İ
éĸĭ çĻº
éł¼ ãģ¿
ç§ģãģ¯å ¤
ç§ģãģ¯å ¤§ä¸Īå¤«
ãĤĴæĦĽ ãģĹãģ¦ãģŁ
ĠæĹ¥ ãģ§
ĠæĹ¥ åīįãģ«
ĠæĹ¥ ä»ĺ
åĽŀ åıİ
è¬ ĻèĻ
ãģ®å®¶ ãģł
ãģĤãģªãģŁãģ« è©±
ãģĤãģªãģŁãģ« ãģĬè©±
ãģĤãģªãģŁãģ« ãģĬéĩĳãĤĴæīķ
ĠãģĿãĤĮãģ¯å ¤§ãģįãģª
ĠãģĿãĤĮãģ¯å ¿ħè¦ģãģªãģĦ
ĠãģĿãĤĮãģ¯å ¥ĩè·¡ãģł
åģ īå¤§ãģª
åģ ľæŃ¢
æŃ» ãģĹãģŁ
Ġãĥľ ãĥĵãĥ¼
Ġãĥľ ãĥ¼ãĤ¤
Ġãĥľ ãĥ¼ãĤ¤ãĥķãĥ¬ãĥ³ãĥī
ãģĿãģĹãģ¦ å½¼
ãĤģãģ¦ ãģĦãģ¾ãģĻ
Ġèģŀ ãģĦãģŁãģĭ
åł´æīĢ ãģ§
çĬ łçī²
Ġè¦ĭ ãģĪãģªãģĦ
Ġè¦ĭ ãĤįãĤĪ
Ġè¦ĭ ãģĪãĤĭãģĭ
ãģ¨åĲĮãģĺ ãĤĪãģĨãģª
ĠãĤŃ ãĥ¥
ĠãģĬåīį ãģ«ãģ¯
ãģ®æĸ¹ ãģ¸
ãģ¯ãģĤãĤĬãģ¾ãģĽãĤĵ ãģĭ
ĠæĻĤéĸĵ ãģ§
ĠæĻĤéĸĵ ãģĮãģªãģĦãĤĵãģł
çŁ¥ãģ£ãģ¦ãģĦãĤĭ ãģ®
çŁ¥ãģ£ãģ¦ãģĦãĤĭ ãģĮ
è©±ãģĻ ãģĵãģ¨ãģĮãģ§ãģįãĤĭ
ãĤĤãģ®ãģ§ãģĻ ãģŃ
çĲĨçĶ± ãģĮãģĤãĤĭ
ãģ®äººçĶŁ ãĤĴ
ãĥ´ãĤ¡ ãĤ¤ãĥ³
ãĥ´ãĤ¡ ãĥªãĤ¨
ãĤ´ ãĥ¼ãĥī
ãĤ´ ãĥĥãĥĩ
ä¸» å©¦
ãĥ¬ãĤ¤ ãĥł
ãĥ¬ãĤ¤ ãĤ¢ãĤ¦ãĥĪ
ãĥ¬ãĤ¤ ãĥİãĥ«ãĤº
éĸ¢ä¿Ĥ èĢħ
ç§ģãģ® è¨Ģèĳī
Ġãĥģ ãĥ¼ãĤº
Ġãĥģ ãĤŃãĥ³
ĠãģĿãĤĵãģª ãģ¨ãģĵ
ĠãģĿãĤĵãģª è¨Ģèĳī
ĠãģĿãĤĵãģª æĦŁãģĺãģł
ĠãģĿãĤĵãģª ãģ¤ãĤĤãĤĬãģ¯ãģªãģĭãģ£ãģŁ
äººãģł ãģĭãĤī
åħ¥ ãĤĮãĤĭ
åħ¥ ãĤĮæĽ¿
ãĤĭãģ®ãģ¯ ãĤıãģĭãģ£ãģ¦ãĤĭ
ãĤĭãģ®ãģ¯ éĽ£ãģĹãģĦ
ĠãĤ¸ãĥ£ ãĥ³
ĠãĤ¸ãĥ£ ãĥĭ
ãģªãģľ ãģł
ãģªãģľ åĲĽãģ¯
ãĤĤãģªãģĦ ãģ¨
ãĤĵãģ¦ ä¿¡ãģĺãĤīãĤĮãģªãģĦ
ãĤĴåĪ ¤æĸŃ
è¡Įãģĭ ãģĽãģ¦
è¡Įãģĭ ãģªãģĳãĤĮãģ°ãģªãĤīãģªãģĭãģ£ãģŁ
è¡Įãģĭ ãģªãģĭãģ£ãģŁãģ®
åĳĬ çĻ½
»Ĭ ä¸ĭ
ãĤĭãģĵãģ¨ ãĤĤ
Ġãĥ¬ ãĥĭãĥ¼
Ġãĥ¬ ãĤªãĥ³
Ġãĥ¬ ãĤ¯ãĤ¤
Ġãĥ¬ ãĥŃãĤª
ãĤ¹ãĤ¿ ãĤ¤ãĥ«
ãĤ¹ãĤ¿ ãĤ¸ãĤª
ãĥĥãĤ·ãĥ¥ ãģł
ĠãĤı ãģ¡ãĤħãģĨ
ĠãĤı ãģĸãģ¨
ãĤĵãģ§ãĤĭ ãģ®ãģĭ
çĽ´ ãģĲ
ĠãĤ¸ãĥ§ ãĥĸ
ĠãĤ¸ãĥ§ ãĤ»
ĠãĤ¸ãĥ§ ãĤ¤ãĤ¹
ĠãĤ¸ãĥ§ ãĥ³ãģ¯
ãģ®åł´æīĢ ãģ«ãģĦãĤĭ
ãģ®éĸĵ ãģ«ãģ¯
ãĤĴä½¿ ãģ£ãģŁ
ãĤĴä½¿ ãģ£ãģ¦ãģĦãĤĭ
èªį ãĤģãģŁ
èªį èŃĺ
è»į ãģĮ
åī µ
æ®º ãģĹ
æ®º ãģķãĤĮãĤĭ
æ®º ãģķãĤĮãģ¾ãģĹãģŁ
ģĲ ãĤįãģĹãģĦ
ãĤīãĤĮãĤĭ ãĤı
Ħıåĳ³ ãģĮãģĤãĤĬãģ¾ãģĽãĤĵ
é¨ İ
äººãģ¯ ãģĤãģªãģŁ
äººãģ¯ èª°ãĤĤãģĦãģªãģĦ
ĠãģłãģĭãĤī ä½ķãģł
ĠèĩªåĪĨ ãģ®å¨ĺ
æ¥½ ãģ«
ãģıãģª ãģ£ãģ¦ãĤĭ
ãģıãģª ãģ£ãģ¦ãģĦãĤĭ
ãĤĴæľ īç½ª
ãĤ¯ãĥ© ãĥ«ãĤ¹
ãĤĴå® īåħ¨
ãĤĴå® £è¨Ģ
ãĤĴå® ļç¾©
¸° ãĤĭ
ãģ¯å¤§ çµ±éłĺ
ĠãģĿãĤĮãģ¯æ Ī¦äºī
ãģ² ãģĴ
ãĤĭãĤı ãĤĪ
ãģ¨åĳ¼ ãĤĵãģ§ãģıãĤĮ
ãĤĴæİ¢ ãģĹãģ¦ãģĦãĤĭ
ãĤĴæİ¢ ãģĹãģ¦ãģĦãģ¾ãģĻ
åĪ¥ ãĤĮãĤĴ
ãģ¨è¨ĢãģĨ äºº
ãģ¨è¨ĢãģĨ ãĤĵãģł
Ī»ãģ£ãģ¦ ãģįãģŁ
åĮĸ åŃ¦
Ġä¸ĩ äºĭ
Ġä¸ĩ åĽŀ
ĠãĥĻ ãĤ¹
ĠãĥĻ ãĥ©
ĠãĥĻ ãĤ°
ĠãģĿãģ® ä»ĸ
ãģ¯å® Ł
ãģ¯å® ĹæķĻ
ĠæĻĤ éłĥ
èª¿ çĹĩ
ãģ®ãĥĳ ãĥįãĥ«
æŃ£ å¸¸
æŃ£ ç¢ºãģ«ãģ¯
ãģĻãģİ ãģŁ
ãģĻãģİ ãģł
ãģĻãģİ ãģªãģĦ
ãģĻãģİ ãĤĭãĤı
åķıé¡Į ãģ§ãģĻ
åķıé¡Į ãģ¯ãģªãģĦ
æ¯į è¦ª
ãģ«ãģĹãģ¦ ãģįãģŁ
ãģ«ãģĹãģ¦ ãģĹãģ¾ãģ£ãģŁ
Ġãģĭ ãĤıãģĦãģĦ
ĠãĥĽ ãĥ¼ãĤ¯
ĠãĥĽ ãĥ¼ãĥł
ĠãĥĽ ãĥªãĥĩãĤ¤
¾ħ ãģ£ãģ¦ãģĦãĤĭ
ĠãĥŁ ãĥ«ãĤ¯
ĠãĥŁ ãĥŃãĤ¹
ãĥīãĥ« ãĥĵãĥ¼
ãĥķãĥ¬ ãĥĩãĤ£
ãĥķãĥ¬ ãĥ¼ãĥł
ãĥķãĥ¬ ãĥĥãĤ·ãĥ¥
ãĥķãĥ¬ ãĥĩãĥªãĥĥãĤ¯
ãĤ¦ãĤ£ ãĥ¼ãĤ¯
ãģĵãģ¨ãģ¯ãģªãģĦ ãĤı
è¾¼ ãĤĵãģ§ãģĦãĤĭ
ãģ«ãĤĪãģ£ãģ¦ ãģ¯
ãĤ¹ãĥĨ ãĥĥãĥĪ
ãĤ¹ãĥĨ ãĥ¼ãĥĪ
ãĤ¹ãĥĨ ãĥ¼ãĤŃ
ãģĿãģ® èĢĥãģĪ
ãģĿãģĵ ãĤī
ĠãģĵãĤĮãĤī ãģ®äººãĢħ
¾© åĭĻ
æĴĥ ãģ¡
ãģ«ä½ķ ãĤĴãģĻãĤĭ
ãģ«ä½ķ ãģĮãģĤãģ£ãģŁãģ®
Ġåį µ
Ġåį ³æĻĤ
Ġãĥĭ ãĥ¼ãĥ«
ãģĮæ¬²ãģĹãģĦ ãģªãĤī
ãĥĸãĥ« ãĥĥãĤ¯ãĥªãĥ³
ãģĭçŁ¥ãģ£ãģ¦ãĤĭ ãģ¨æĢĿãģĨ
ãģ¯å¤ ±
ãģ¯å¤ ļåĪĨ
Ġãģ©ãģĵãģ« è¡Įãģı
Ġãģ©ãģĵãģ« è¡ĮãģıãĤĵãģł
ĠãģĬåīįãģ¯ ä¿º
Ġå¤§ä¸Īå¤« ãģ§ãģĻãģĭ
æĥħ çĨ±
æĭ ħ
æĭ Ľ
ãģ¨è©± ãģĽãĤĭ
ãģĻãĤĭãģĵãģ¨ ãĤĴæľŁå¾ħ
éĢĥãģĴ åĩºãģĹãģŁ
ãģ«ãģĹãģŁ ãģĭ
ãģĮãģĤãģªãģŁ ãģ«ä¼ļãģĦ
ãĤīãĤĮ ãģ¾ãģĹãģŁ
ãĤīãĤĮ ãĤĭãģ®
ãĤīãĤĮ ãģªãģĭãģ£ãģŁãģ®
Ġç¢ºãģĭ ãģłãĤĪ
ãģ®çµ Į
ãģ®çµ ¦æĸĻ
ĠåĲĽãģĮ å½¼
ĠåĲĽãģĮ ãģĵãģĵãģ«ãģĦãĤĭ
ĠåĲĽãģĮ ä½ķãĤĴãģĹãģŁãģĭçŁ¥ãģ£ãģ¦ãĤĭ
è¨ĪçĶ» ãĤĴç«ĭ
ãĤĴåĩº ãģĽ
ãĥĪãĥ© ãĤ¹ãĥĪ
ãģ«åĲ ¹ãģįé£Ľãģ°
ĠãģĬé¡ĺãģĦ ãģ§ãģĻ
ĠãĥĩãĤ£ ãĤ¯ãĤ½ãĥ³
ĠãĥĩãĤ£ ãĥ¼ãĥ©ãĥ¼
ĠãĥĩãĤ£ ãĤ°ãĥĬãĥ³ãģ¯
¬ĳ ãģĦ
Ĥ² ãģĹ
Ĥ² ãģĹãģĦ
Ġåħ ĥ
Ġåħ µå£«
ãģ£ãģ¦ãģªãģĦ ãĤı
ãģ£ãģ¦ãģªãģĦ ãģ®ãģĭ
ãģ®åīį ãģ«ãģĤãĤĭ
ãģ®åīį ãģ«ç½®
ĠæĢ ªæĪĳ
ãĤ¤ãĥĪ ãĥ«
è¡Ģ ãģ§
è¡Ģ ãģ®æ
ãĥ¬ãĥ³ ãĥĢãĥ¼
ãĥģãĤ§ ãĤ³ãĤ¹ãĥŃãĥĲãĤŃãĤ¢
ãĥģãĤ§ ãĥ³ãĥĲãĥ¬ãĥ³
ãģ¨ãģĦãģĨãģĵãģ¨ ãģĭ
ãģ¨ãģĦãģĨãģĵãģ¨ ãģłãģ£ãģŁ
ãģ¨ãģĦãģĨãģĵãģ¨ ãģ§ãģ¯ãģĤãĤĬãģ¾ãģĽãĤĵ
ãģ¨ãģĦãģĨãģĵãģ¨ ãģłãģĳãģ§ãģĻ
éłŃ ãģ«
éłŃ èĵĭ
å¯¾ çļĦãģª
ĠãģĻãģ¹ãģ¦ ãģ®
ĠãģĻãģ¹ãģ¦ ãģĮ
ĠãĤĦãģģ ãĥªãĥĥãĤ¯
ãĤĴä¿¡ãģĺ ãģ¦ãĤĭ
ãĤĴä¿¡ãģĺ ãģ¦ãĤĭãģ®ãģĭ
ãģįãģŁãģĦ ãģªãĤī
ĠãģĤãģªãģŁãģ¯ç Ĺħæ°Ĺ
ĠãģĤãģªãģŁãģ¯ç ¾İãģĹãģĦ
ãĥķãĤ§ ãĥªãĥ¼
ãĥķãĤ§ ãĥŁãĥĭ
ãĥķãĤ§ ãĥŃãĤ¹ãĥĪãĥ³
ãĥĹãĥŃ ãĤ¯ãĤ¿ãĥ¼
Ġãĥŀãĥŀ ãģ¯
çĻ½ çĬ¶
ç«ĭ æİ¢åģµ
ç«ĭ ãģ¡å¯Ħ
èĩ Ń
ãģĮå½¼ ãģ®
Ġç§ģãĤĤ ãģĿãģĨãģł
Ġç§ģãĤĤ ãģĿãģĨãģłãģ£ãģŁ
Ġç§ģãĤĤ è¡ĮãģıãĤı
Ġãĥ¡ ãĤ¤ãĥ³
ãģ®åĳ ª
ãģ®åĳ ĬçĻ½
ãĤģãģŁ æĻĤ
å¤ī ãģªãģ®
å¤ī ãģłãĤı
ãĤĴçĲĨè§£ ãģĹãģŁ
ãģ«æĿ¥ãģŁ ãĤĵãģł
ãģĹãĤĪãģĨãģ¨ ãģĹãģ¦ãĤĭãģ®
Ġãģ©ãģĨãģĹãģ¦ ç§ģ
Ġãģ©ãģĨãģĹãģ¦ ãģĿãĤĵãģªãģ«
Ġä¿ºãģ¯ éĩĳ
Ġä¿ºãģ¯ ãģĬåīį
ãĤĴå¤± ãģĦãģŁãģıãģªãģĦ
º§ æ¨Ļ
ãģªãģĦãģ® ãģŃ
ãĥĪãĥ« ãĤ³
ãĥĪãĥ« ãĥ¼ãĥĳãĥ¼
æĢĸ ãģıãģ¦
çĲĨè§£ ãģ§ãģįãĤĭ
çĲĨè§£ ãģĹãģ¦ãģĦãģªãģĦ
çĲĨè§£ ãģĹãģ¦ãģĦãģ¾ãģĽãĤĵ
ãĥ´ãĤ£ ãĤ°
ãĥ´ãĤ£ ãĥĥãĥī
ãĥ´ãĤ£ ãĥĴ
ãģ®åĲįåīį ãģ§
åĪ© çĽĬ
Ġå®Ł é¨ĵ
ãģ«ãģ¯æ ķ°
ãģ«ãģ¯æ ħ£
ãģ®åį Ĭ
ĠæĦĽ ãģł
ãģĹãģ¦ãĤĭãģ®ãģĭ ãĤıãģĭãĤīãģªãģĦ
æľĿ ãģ«
æĸĻ ãģ§
è»¢ è»Ĭ
ãģĦãģıãģ¤ãģĭ ãģ®
ĠãģŁãģ¶ãĤĵ ãģŃ
ĠãģŁãģ¶ãĤĵ å½¼ãģ¯
æİ Ĵ
æİ ĺ
Ġ8 0
ãĥĺ ãĤ¤
ãģ«ãģĦãģŁ ãģ®
ãģ«è©± ãģĽ
ãģ«è©± ãģĿãģĨãģ¨
ãģ®åķıé¡Į ãģ¯
ãģ®åķıé¡Į ãģ§ãģĻ
ãĤĴåĬ©ãģĳ ãĤīãĤĮãģªãģĦ
ãĤĴåĬ©ãģĳ ãĤĪãģĨãģ¨
ãģ®æĻĤ ãģ«
ãģ®æĻĤ è¨Ī
å®¢ ãģĮãģĦãĤĭ
æĸŃ çīĩ
Ġä»ĬæĹ¥ ãģ¯åĲĽ
Ġä»ĬæĹ¥ ãģ®æ°ĹåĪĨ
å½¼å¥³ãģ¯ èĩªåĪĨ
é£Łãģ¹ ãĤīãĤĮãĤĭ
ĠãĤ¸ãĥ£ãĥĥãĤ¯ ãģ¯
æļ ĳãģĦ
ī© äºĭ
ī© èªŀ
ãģĹãģŁãģıãģªãģĦ ãģ®
ãģĹãģŁãģıãģªãģĦ ãģ®ãģĭ
ãĥ©ãĤ¹ ãĥĻãĤ¬ãĤ¹
å½¼ãģĮ ä½ķãģĭ
è¨ĢãĤı ãĤĮãģŁ
ãĤ¢ãĥĥãĥĹ ãģĹãģŁ
ãĥŃãĥ¼ ãĤ«ãĥ¼
Ġä»Ĭãģ¯ ãĥĢãĥ¡
éĻį ä¸ĭ
ãģķãģĽãĤĭ ãģĵãģ¨ãģ¯ãģ§ãģįãģªãģĦ
èµ·ãģĵ ãĤīãģªãģĭãģ£ãģŁ
ãĤĭãģĵãģ¨ãģĮãģ§ãģįãĤĭ ãģłãĤįãģĨ
æ¥Ń å®¶
ĠãģŁãģł ãģ®å
Ġå¥³ çİĭ
ãģ®ãĥĲ ãĥ³ãĥī
ãģ®ãĥĲ ãĥĥãĥĨ
Ġèª°ãģĮ è¨Ģãģ£ãģŁ
æĤªãģĦ ãģĵãģ¨
æĤªãģĦ ãģ®ãģĭ
ãģ®ãĤ¹ ãĥļ
ãģ®ãĤ¹ ãĥĿãĥ¼ãĥĦ
ĠãĥĹ ãĤ±
ĠãĥĹ ãĥ¬ãĤ¼ãĥ³ãĥĪ
ĠãĤ¿ ãĥĲãĤ³
ĠãĤ¿ ãĥĩãĤ¦ãĤ¹
ĠãĤ¿ ãĤ¤ãĥ¬ãĥ«
Ġç§ģãģ¯ç ĭĤ
ãģĿãĤĮãģĮ çµĤãĤı
å¤± æľĽ
å¤± èª¿çĹĩ
Ġãģ©ãģĵ ãģł
è¿ĳ ãģĦ
è¿ĳ ãģ¥
è¿ĳ ãģıãģ®
Ķ¯æīķ ãģ£ãģŁ
ãĤĴæľĽ ãĤĵãģ§
ĠéĢ±éĸĵ ãģĭ
ĠéĢ±éĸĵ ãģ»ãģ©
ãģ®åħ ±
ãģ®åħ ĥ
ãģ®åħ Ħ
ãģ®åħ µå£«
Ġãģ©ãģĨãģĦãģĨæĦıåĳ³ ãģĭãĤı
ç½® æīĢ
ç½® ãģįåİ»ãĤĬ
Ħª åħĪ
Ħª ç§Ģ
Ġãĥ¯ ãĥ¼ãĥī
è¦ĭãģ¦ ãģ¿ãĤĪãģĨ
ãģĮæŃ» ãĤĵãģ§ãģĦãĤĭ
Ġãģ¾ãģŁ æĿ¥
Ġãģ¾ãģŁ ä¼ļãģĪãģ¦
Ġãģ¾ãģŁ å¾Įãģ§
Ġç§ģãģ¯å½¼å¥³ ãģĮ
æĪ» ãģĹãģ¾ãģĻ
ãģĻãĤĭãģ¤ãĤĤãĤĬ ãģłãģ£ãģŁ
ãģĻãĤĭãģ¤ãĤĤãĤĬ ãģ¯ãģĤãĤĬãģ¾ãģĽãĤĵ
ĠãģĤãģªãģŁãģ¯æ ĺ
ĠãģĤãģªãģŁãģ¯æ ĦĽ
ĠãģĤãģªãģŁãģ¯æ ±ºãģĹãģ¦
ĠãģĤãģªãģŁãģ¯æ ĪĲåĬŁ
ĠãģĤãģªãģŁãģ¯æ Ń£ãģĹãģĭãģ£ãģŁ
èªŃ ãĤĢ
è¦ĭãģŁ ãĤĵãģł
ãĤĩãģĨ ãģ©ãģĵ
ãĥĸãĥ© ãĤ¸ãĥ«
ĠæĺİæĹ¥ ãģł
é£Ľãģ° ãģĻ
ãģ®å¥³æĢ§ ãģł
å© ¿
Ġ7 0
Ġ7 7
ãģĹãģı ãģªãģĭãģ£ãģŁ
ãĤĴæ°Ĺ ãģ«ãģĻãĤĭãģª
Ġå½¼ãģ¯ç İĭ
Ġå½¼ãģ¯ç Ĺħæ°Ĺ
Ġå½¼ãģ¯ç ĭĤãģ£ãģ¦ãĤĭ
Ġå½¼ãģ¯ç µ¶
è¨ĢãĤıãģªãģĦ ãģ¨
éģł ãģĸ
ãĤ¦ãĤ© ãĥ¼ãĥ«
ãĤ¦ãĤ© ãĥ¼ãĤ¿ãĥ¼
ãĤ¦ãĤ© ãĥĥãĤ·ãĥ¥
ãģ®æľĢ ä¸Ń
ãģ®æľĢ å¤§
ãģ®æľĢ æĦĽ
ãģ®æľĢ æĤª
ä¾¡åĢ¤ ãģĮãģªãģĦ
ªģ ãģ£
æĪĳãĢħ ãģĮ
æĪĳãĢħ ãģ¯æŃ£ãģĹãģĦ
ç©º éĸĵ
ç©º èħ¹
ç§ģãģ¯æ °Ĺ
ç§ģãģ¯æ ģĲ
ç§ģãģ¯æ ±ºãģĹãģ¦
ĠãĥĿ ãĥĥãĥĹ
ĠãĥĿ ãĥĥãĥī
ĠãĥĿ ãĤ¤ãĥ³ãĥĪ
éĢ² è¡Į
Ġãģ©ãĤĵãģª éģķãģĦ
Ġãģ©ãĤĵãģª ç¨®é¡ŀ
æķĻ èĢħ
æĬľ ãģĳãĤĭ
ãģ®è©±ãĤĴ ãģĹãģ¦ãĤĭãģ®
ĠçķªçĽ® ãģ®æ
Ġ9 00
ãģ«ãģĭ ãģĭãĤĭ
ãģ«ä¹Ĺ ãģĽ
ãģ«ä¹Ĺ ãģĽãģ¦ãģıãĤĮ
Ġç§ģãĤĴ ãĥıãĥĪ
ĠãĤ± ãĤ¹ãĥ©ãĥ¼
ĠãĤ± ãĥįãĥĩãĤ£
ĠãĤ» ãĥĬãĥ¼
ĠãĤ» ãĤŃãĥ¥ãĥªãĥĨãĤ£
ĠãģĿãĤĮãģ¯ç °¡åįĺãģ§ãģĻ
éĢŁ ãģĦ
ãģ®ãĥģ ãĥ§
ãģĹãģªãģĦãģ§ ãģıãĤĮ
çĹ º
ĠçĶ· ãģ¯
ãĤĴé£² ãĤģ
ãģ®å¨ĺ ãģ§ãģĻ
ãģ¯åı ĸãĤĬ
çµĮ åĸ¶
ãĤĴå¾ħ ãģ£ãģ¦ãģĦãģ¾ãģĻ
ãĤĴåĪĩ æĸŃ
Ķ¿ çŃĸ
ãģ«éĽ»è©± ãģĻãĤĭ
ãģ«éĽ»è©± ãģĹãģ¾ãģĻ
ãĤĴãģıãĤĮ ãĤĭ
ãĤĴãģıãĤĮ ãģªãģĦãģĭ
ç§ģãģ¯ç µ
ãĥ¼ãĥĬ ãĤ·ãĥ§ãĥĬãĥ«
ãĥ¼ãĥĲ ãĥĥãĥı
ãģ¯æĺ ¨æĹ¥
ãģ«ãģªãĤĬ ãģ¾ãģĹãģŁãģĭ
ãģ«ãģªãĤĬ ãģŁãģĭãģ£ãģŁ
ãģ®ãģŁãĤģãģ«å °ĳãģĹ
ãģ®ãģŁãĤģãģ«å ĢĴ
ãģ®è² »çĶ¨
ãģ®è² ¡çĶ£
èµ° ãĤĭ
èµ° ãĤĬ
ĠæľĢåĪĿ ãģĭãĤī
Ī¥ ãĤĮãģŁ
ãĤĴéĸĭ ãģį
ĠãģĮ ãģĤãĤĬãģ¾ãģĻ
ĠãģĮ ãģ£ãģĭãĤĬ
ç§ģãģ«ãģ¯ ãģ§ãģįãģªãģĦ
ç§ģãģ«ãģ¯ è¨ĢãĤıãģªãģĭãģ£ãģŁ
ãĤīãĤĮãģŁ ãģ®ãģĭ
ãĤĴå¿ĺ ãĤĮãģŁ
ãĥīãĤ¢ ãĤĴéĸī
ãģ®çĽ® æĴĥ
ĠéĿ ´
ĠéĿ ĴãģĦ
ĠæľĪ ãģ§ãģĻãģĭ
ãģ¯æľĢ ãĤĤ
ãģ¯æľĢ åĪĿ
ãģ¯æľĢ çµĤçļĦãģ«ãģ¯
ãģ®ä¸Ģéĥ¨ ãģ§ãģĻ
è¼ ¸
ĠD A
ĠD r
ĠD eLa
ãģªãĤĵãģł ãĤĪ
ãģ«ãģĬ ä¼ļãģĦ
ĠåŃĲä¾Ľ ãģĮ
ãģ®å® ¹
ãģ®å® ¿
ãģ®å® īåħ¨
ãģ®å® ĩå®Ļ
ãģ®å® ĿçŁ³
ãģ®å® Įåħ¨ãģª
ãĤ±ãĥ¼ ãĤŃ
éģĶãģ¯ èª°ãģ§ãģĻãģĭ
ĠãģĻãģĲ ãģ«è¡Įãģįãģ¾ãģĻ
ĠãģĻãģĲ ãģ«æĪ»ãĤĬãģ¾ãģĻ
æı ®
ĠA F
ĠA O
Ġä¸Ń çµ¶
Ġä¸Ń ãģ«åħ¥ãĤĭ
Ġä¸Ń ä½Ĳ
Ġä¸Ń å°ī
Ġãĥ¢ ãĥĩãĥ«
Ġãĥ¢ ãĥĲãĤ¤ãĥ«
ĠãģĿãģĵ ãģ«ãģ¯
ãĥ¼ãĥĵ ãĥ«
ãģ®çĬ łçī²
ãģ®ãĥĿ ãĤ±ãĥĥãĥĪ
ãģ®ãĥĿ ãĥ¼ãĥģ
ãĥŀãĥ¼ ãĤ«ãĤ¹
ãģłãģĳãģ§ ãģĦãģĦ
ãĤ¯ãĤ½éĩİéĥİ ãģĮ
¼Ķ å¥ı
æ¯ Ķ
çľł ãģ£ãģŁ
ĸĳ ãģĦ
ãĤĭãģ¤ãĤĤãĤĬ ãģ§ãģĻ
ãģĤãģĴ ãĤĭãĤĪ
ãĤĴå¼ķãģį èµ·ãģĵ
äººãĢħ ãģ¯
èªĵ ãģ£ãģ¦
è¨ĢãģĦãģŁãģĦ ãģ®
Ġä½ķãĤĤ è¨ĢãģĨ
ãģ®ãĥľ ãĥ¼ãĥī
ãģ®ãĥľ ãĥĪãĥ«
ãģ®ãĥľ ãĤ¿ãĥ³
æľį å½¹
Ġãģ§ãģį ãĤĮãģ°
ĠãģªãĤĵãģ¦ãģĵãģ¨ãģł ãĥĳãĥĪãĥªãĥĥãĤ¯
¥Ī ãĤĭ
æ±º å¿ĥ
ç© ıãĤĦ
ãģĮè¦ĭ ãģ¤ãģĳ
ãģĮè¦ĭ ãģ¤ãģĭ
ĠãĥĬ ãĤ¦
ĠãĥĬ ãĥ³ãĥĲãĥ¼
ĠãĥĬ ãĤ¤ãĤ¹
ãĤ¯ãĥŃ ãĤ¹
ãĤ¯ãĥŃ ãĥĥãĤ¯
ãģ«åº§ ãģ£ãģ¦ãģĦãģ¾ãģĻ
ãĤ¢ãĥ« ãĥĲãĥł
ãĤĴç¢º ç«ĭ
ĠéĻ ¤
ĠéĻ ¸è»į
æŃ³ ãģłãģ£ãģŁ
å¿ħè¦ģãģ¯ãģªãģĦ ãĤı
èģŀãģĦãģŁ ãĤĪ
èģŀãģĦãģŁ ãģĵãģ¨ãģĮãģĤãĤĭ
éķ·ãģĦ æĻĤéĸĵ
ãĤĴæķĳ ãģĦãģŁãģĦ
ãĤĴæķĳ ãģ£ãģŁãģ®
ãĤĴåĲ¸ ãģĦ
ãĤĴåĲ¸ ãģ£ãģ¦
ãģ®éĥ¨å±ĭ ãģ§
ãĤĴå¿ħè¦ģãģ¨ ãģĹãģ¾ãģĻ
¡Ī åĨħ
´łæĻ´ãĤīãģĹãģĦ ãģĵãģ¨ãģł
åĶ¯ä¸Ģ ãģ®ãģĵãģ¨ãģ¯
æ£ º
ĠT H
ĠT ime
Ġç§ģãģ®å ¦»
Ġç§ģãģ®å ĸĦèī¯ãģķ
ãģıãģªãĤĭ ãģ¨
ãĤĴæ¶Ī ãģĹãģ¦ãģĦãĤĭ
è¡¨ ãģĻãĤĭ
è¡¨ éĿ¢
ãģ®ãĥĨ ãĥĥãĥī
ãģ¯çµ ĤãĤı
ãģ¯çµ ĤãĤıãĤĬ
æĸĩ åĮĸ
çķĻ ãĤģ
èģŀãģĵ ãģĪãģªãģĭãģ£ãģŁ
éļł ãĤĮãĤĭ
ĠãĥķãĤ¡ ãĥ³
ãĤĭãģĵãģ¨ãģĮãģ§ãģįãģ¾ãģĻ ãģĮ
Ġä¸Ģä½ĵ ä½ķãĤĴ
Ġä¸Ģä½ĵ ãģ©ãģĨãĤĦãģ£ãģ¦
ĠæľĢå¾Į ãģ«
ãĤĴå®Ī ãĤĭ
ãĤĴå®Ī ãĤĭãģŁãĤģ
¬īãģĹãģĦ ãĤĪ
ĠC o
ãģĭä½ķãģĭ ãģ§
ĠãĤ¬ ãĥł
ĠãĤ¬ ãĥ¼ãĥī
ĠãĤ¬ ãĥ©ãĤ¹
ĠãĤ¬ ãĥ¼ãĥĪãĥ«
éģĬ ãĤĵãģ§
æľ¬å½ĵ ãģ«æ
æľ¬å½ĵ ãģ«å¿ĥéħį
ãģ¿ãģŁãģĦ ãģ«
ãģ¿ãģŁãģĦ ãģ¨æĢĿãģĦãģ¾ãģĻ
æ´» åĭķ
ãĤĴçĽĹ èģ´
ĸ² ãĤĮ
ãģ«éĸ¢ å¿ĥ
ãĤĴè©± ãģĹãģ¦
ãģĻãģ¹ãģį ãģ§ãģĻ
ãģĻãģ¹ãģį ãģĺãĤĥãģªãģĦ
ãģ®åľ° ä¸ĭ
ãģ®åľ° çĲĥ
Ġå½¼ãģ® è¨ĢãģĨ
è¡Įãģ£ãģ¦ ãĤĤ
è¡Įãģ£ãģ¦ ãģįãģŁ
ãĤĴè¦ĭãĤĭ ãģŁãĤģãģ«
ãĤĴæĮģãģ¤ ãģĵãģ¨ãģ«ãģªãĤĭ
ãģ«ä¼ļãģĨ ãģŁãĤģãģ«
ãģĮå¿ħè¦ģãģł ãĤı
ãĤĴæĦĽãģĹãģ¦ãĤĭ ãģ¨æĢĿãģĨ
Ġè¦ĭãģ¦ ãģ¦
ãĤĴä¸İãģĪãĤĭ ãģĵãģ¨ãģĮãģ§ãģįãĤĭ
ĺĺãĤĴ ãģ¤ãģĦãģ¦ãģĦãĤĭ
²¾ç¥ŀ ç§ĳåĮ»
ç¬ĳ ãģ£ãģ¦
ç¬ĳ ãģ£ãģ¦ãģĦãĤĭ
ç¬ĳ é¡Ķ
ãģ¯åħ Ħå¼Ł
ãģ¯åħ ĥæ°Ĺ
ĠæŃ£ ãģĹãģĭãģ£ãģŁ
ĠæŃ£ çĽ´ãģ«
Ġä½ķãģĮ è¨ĢãģĦãģŁãģĦãģ®
éĩı ãģ§
ĠãģĬçĪ¶ãģķãĤĵ ãģ¯
Ġå½¼ãģ¯ãģĤãģªãģŁ ãģ®ãģŁãĤģãģ«
çµĦ åĲĪ
çµĦ åĵ¡
è²· ãģ£ãģŁ
ĠãĤŃãĥ£ ãĥ³
ĠãĤŃãĥ£ ãĥ³ãĥĩãĤ£
ĠãĤŃãĥ£ ãĥ¡ãĥŃãĥ³
ãģ®å°ĳå¹´ ãģŁãģ¡ãģ¯
å§ ª
åĴ ³
ĠãĤĪãģı èģŀãģĦãģ¦ãģıãĤĮ
Ħļ ãģĭãģł
ãģªãĤĤãģ® ãģ§ãģ¯ãģªãģĦ
ãģ«éĢ£ãĤĮãģ¦ è¡Įãģ£ãģ¦
ãĤĴè¨± ãģĹãģ¦ãģıãģłãģķãģĦ
ãģ¯åį ĺ
ãĤĴå½¼ ãĤīãģ«
Ġç§ģãģ¯èĩªåĪĨ ãģ§ãģĿãĤĮ
ãģ¯æĪĳãĢħ ãģĮ
ãģ«æľ ¬å½ĵ
ãģ«æ°Ĺ ãĤĴãģ¤ãģĳãĤį
ãģ«æ°Ĺ ãģĮãģ¤ãģĦãģŁ
ãģ®ãĥ¡ ãĥĥãĤ»ãĥ¼ãĤ¸
ãĥĵãĤ¸ãĥįãĤ¹ ãģł
ãĤµãĤ¤ ãĤ¦ãĤ©ãĥĥãĤ·ãĥ¥
éĽĩ ãģ£ãģŁ
çī¹ å®ļ
çī¹ ãģ«ãģĤãģªãģŁ
ãĥĶãĥ¼ãĥ« ãģ®ãĤĪãģĨãģ«æ
ãĥĶãĥ¼ãĥ« å¤«äºº
æŃ© ãģįåĽŀ
ãĥ¢ãĥ¼ãĥĦãĤ¡ãĥ«ãĥĪ ãģ¯
ãĤ®ãĥ£ ãĥ³ãĥĦ
ãĤ®ãĥ£ ãĥ³ãĥĸãĥ©ãĥ¼
éĸĵéģķãģĦ ãĤĴãģĹãģŁ
ãģ²ãģ© ãģı
ãĤĴæıĲä¾Ľ ãģĹãģ¾ãģĻ
é©ļ ãģĦãģ¦ãģĦãĤĭ
éĬĢè¡Į å®¶
ĠF R
ĠF ed
ãĤĴãĤĦ ãģ£ãģ¦ãĤĭ
ãĤĵãģĺãĤĥãģªãģĦ ãģ®ãģĭ
ãĤĴå«Į ãģĦ
ãĤĴå«Į ãģ£ãģ¦ãģĦãĤĭ
Ġç§ģãģ¯æ µ·
ĠãģĤãģªãģŁãģĮæ Įģãģ£ãģ¦ãĤĭ
è¨Ģãģ£ãģ¦ æ¬²ãģĹãģĦ
è¦ĭãģ¤ãģĳ ãģŁãģ®
ãģ¯ãģĦãģ¤ ãĤĤãģ®
ãģ¯ãģĦãģ¤ ãģ§ãģĻãģĭ
ãģ®æľ¬ çī©
ç§ĺå¯Ĩ ãģł
ä»²éĸĵ ãģ¯
åĦª éĽħ
æĶ¾ ãģķãĤĮãģŁ
æĶ¾ éĢģ
Ġä¸ĸçķĮ ãĤĴæķĳãģĨ
ãĤ¹ãĤ¯ ãĥ¼ãĥ«
ãĤ¹ãĤ¯ ãĥ¯
ãĤ¹ãĤ¯ ãĥ¼ãĤ¿ãĥ¼
ãĤ¹ãĤ³ ãĤ¢
ãĥ¼ãĥ¬ ãĥ³
ãĥ¼ãĥ¬ ãĤ¹
ãĤĴæĶ¾ ãģĹãģ¦
ãĤĴæĶ¾ ãģ£ãģ¦ãģĬãģı
ĠãĤ½ ãĥ¼ãĤ»
ãĥ«ãĥķ ãĥĢãĥ³ãģ¯
ĠçĽ® ãĤĴè¦ļãģ¾ãģĻ
ãģĵãģ¨ãģĮãģ§ãģįãģŁ ãģªãĤī
åħ¨ãģ¦ ãģł
ĠåĨĹè«ĩ ãģĺãĤĥãģªãģĦãĤĪ
æºĸåĤĻ ãģ¯ãģ§ãģįãģ¦
ĠB LAC
ĠB MW
ãģ¯ãģĦãģĦ äººãģłãģ£ãģŁ
ãģ¯ãĤĤãģĨ ãģĦãģªãģĦ
ãģ¨çµĲå©ļ ãģĹãģ¦ãĤĭ
ãģĵãģ®å °ıãģķãģª
ãģĵãģ®å ĪĨéĩİ
Ġç§ģãģ«ãģ¯å ĪĨ
Ġãĥ¶æľĪ ãģł
Ġãĥ¶æľĪ ãģ§
Ġãĥ¶æľĪ ãĤĤ
ãĤĴæİ ¨
ãĤĴæİ ´
ãĤĴæ®ĭ ãģĹãģ¦ãģĦãĤĭ
ãģ«åĪ ĿãĤģãģ¦
ãĥķãĥĪ ãĤ¦ãĤ§ãĤ¢
Ġ15 0
Ġ15 00
ãģ®éĿ ĴãģĦ
åħĥ æ°Ĺ
Ġä¸Ģäºº ãģ«ãģĹãģ¦ãģıãĤĮ
æ¨ ¡
æ® ´ãĤī
ĠP C
İĩ çĽ´
ãģ®ãĤ¨ ãĥīãĥ¯ãĥ¼ãĥī
ãģ®ãĤ¨ ãĥįãĥ«ãĤ®ãĥ¼
Ġãĥļ ãĥĥãĥĳãĥ¼
ãĤĴæ¸¡ ãģĹãģ¦
ãģ¯åĪĨ ãģĭãģ£ãģ¦ãĤĭ
ãģ¯åĪĨ ãģĭãĤĭ
ãģ¯åĪĨ ãģĭãĤīãģªãģĭãģ£ãģŁ
Ġç§ģãģ¯ãģĿãģĨ æĢĿ
æĢĴ ãģ£ãģ¦ãĤĭ
ãĤĦãģĻ ãģĦ
ĠãģĬãģ¯ãĤĪãģĨ ãĥĩãĤ£ãĤ¯ãĤ½ãĥ³ãģķãĤĵ
ãģ®éĽ »
Ġãģ©ãģĨãģŀ åħ¥ãģ£ãģ¦
ĠãģĻãģĶãģĦ ãĤıãģŃ
ãĤ·ãĥ§ãĥ¼ ãģ¯
ãĤ·ãĥ§ãĥ¼ ãĤĴå®Łè¡Į
ĠãĤ¦ãĤ© ãĥ¬ãĤ¹
éĩįè¦ģãģª ãģĵãģ¨ãģł
ãģ§åĥįãģĦãģ¦ ãĤĭ
éĢ®æįķ ãģĻãĤĭ
èĦ Ī
èĦ Ĭé«
ĠG U
Ġä¸į æ³ķ
ãĤĴãģĭ ãģį
ãģĨãģ® ãģ¯ç°¡åįĺ
Ġå°ĳãģĹ ãģłãģĳ
ãĤĤãĤī ãģĪãģ¾ãģĻãģĭ
ãĤ¹ãĥĳ ãĤ¤ãĤ¢
Ġç§ģãģ¯ãģĵ ãģ®å°ĳå¥³
ãĤ·ãĤ§ ãĥĥãĥĹ
ãĤ·ãĤ§ ãĤ¤ãĤ¯
ãĤ·ãĤ§ ãĥ«ãĤ¿ãĥ¼
Ġè² ·
Ġè² ´æĹı
Ġè² §ãģĹãģĦ
ãĤĴçł´ æ»ħ
ãģ®èĭ ¥
ãģ®èĭ ¥ãģĦ
ãģ®èĭ ¥èĢħ
çĽĹ èģ´
ãģ«åħ¥ãĤĮ ãģ¾ãģĹãģŁãģĭ
Ġå¤ī ãģłãģª
Ġå¤ī ãģªçĶ·
ãģ«ä¼ļãģĦ ãģ«æĿ¥
ãģ«ä¼ļãģĦ ãģ«æĿ¥ãģ¦
·± ãģı
ãĤĴãģĹãģŁãģĦ ãģ¨æĢĿãģĦãģ¾ãģĻ
ĠãģĤãģªãģŁãģ¯ä½ķ ãĤĴãģĹãģ¦ãģĦãģŁãģ®
å¥´ãĤī ãģ¯
ãģĿãĤĮãĤĴå ł±åĳĬ
Ġä½ķãģ¦ äºĭãģł
ãģ®ãĥĸ ãĥŃãĥĥãĤ¯
ãģ«ãģªãģ£ãģ¦ãĤĭ ãĤı
ãĥĲãĤ¹ ãĥ«ãĥ¼ãĥł
ãģ«ãģ¤ãģĦãģ¦è©± ãģĿãģĨ
ãģ«ãģ¤ãģĦãģ¦è©± ãģĹãģ¾ãģĻ
ãģ«ãģ¤ãģĦãģ¦è©± ãģĹãģŁãģĦ
ãģ«è¿ ½
ãģ®ãĤĪãģĨãģ«æ ī±
å·ŀ ãģ§ãģ¯
èŃ¦å¯Ł ç½²
ä»ĺãģĳ ãģŁ
ãĤĴç¢ºèªį ãģĹãģ¾ãģĻ
¾ĵ åħĦå¼Ł
é§ Ĳè»Ĭ
ĥ³ å®ļ
ãģ®åĪ Ĺ
ãģ®åĪ ¤æĸŃ
ãģ®ãĥļ ãĤ¢
ãģ®ãĥļ ãĥ¼ãĤ¸ãĥ£ãĥ¼
ãĤ°ãĥ© ãĥķãĤ£
ãĤ°ãĥ© ãĥĩãĤ£ãĤ¹
ĠåĲĽãģ¯æ Ń£çĽ´
ãĥĳãĥ³ ãĥģ
ãĥĵãĥ³ ãĥķãĥĥãĥī
ãĥŁãĥ¥ ãĥ¬ãĥ¼ãĥĪ
ãĥĻãĥĥãĥī ãģ«å¯Ŀ
ĠãģķãĤĪãģĨãģªãĤī ãĥĢãĥ¼ãĥªãĥ³
èµ·ãģį ãģ¦ãģĦãĤĭ
ĠãĥķãĤ£ ãĥ¼ãĥĪ
éĿĻ ãģĭãģª
éĿĻ ãģĭãģ«
ĠçµĲå©ļ ãģĹãģ¦
Ġãĥľãĥĸ ãģł
ä¸Ģäººãģ§ ãģĦãĤĭ
æģĲ ãĤīãģı
èĲ½ ãģ¨ãģĹãģŁ
Ġãĥ¤ ãĥ¼ãĥī
ĠãĤ´ ãĥĥãĥī
ĠãĤ´ ãĥĥãĥĢãĥł
ãĤ¯ãĥ¬ ãĥł
ãĤ¯ãĥ¬ ãĥ¼ãĥ³
ãĤ¯ãĥ¬ ãĥ¡ãĥ³ãĤ¹
ãĤĴåį ĬåĪĨ
ãģĻãĤĭãģŁãĤģ ãģ«å
ãģ«åĢ Ĵ
ĠãģĵãĤĵãģª äºĭãģ¯
ãĤ¢ãĤ¤ ãĥªãĥĥãĤ·ãĥ¥
å®ī å®ĺ
å®ī å®ļ
å®ī ç½®æīĢ
ãģĮæĪ»ãģ£ãģ¦ ãģıãĤĭ
ãģĮæĪ»ãģ£ãģ¦ ãģıãĤĭãģ¨
ãģ®ãĥĻ ãĥ«
ãģ®èħ ĲæķĹ
ãĤ³ãĥ¼ãĥĪ ãĥĭãĥ¼
Ġä¿ºãģĮ ãĤĦãĤĭ
å¸« ãģ§ãģĻ
ãĤĴæīĭãģ«åħ¥ãĤĮãĤĭ ãģĵãģ¨ãģĮãģ§ãģį
çĬ¯ ãģł
ãĤĴå¤±ãģ£ãģŁ ãģ¨æĢĿãģĨ
è¨Ńå®ļ ãģĹãģ¾ãģĻ
é¤ Į
Ġè¡Įãģı ãģ®ãĤĪ
Ġéģħ ãģĭãĤĮæĹ©ãģĭãĤĮ
ãģ®ãĤ¿ ãĤ¤ãĥĹ
ãģªãĤĵãģ¦ è¨ĢãĤıãģªãģĦãģ§
ãģ§ä¼ļ ãĤıãģĽãģ¦ãģıãĤĮ
Ġå¯ Ĵ
ĠæĶ¾ ãģ£ãģ¦ãģĬ
ãģĿãĤĮãĤī ãģ¯
Ġä½ķãģĮèµ· ãģįãģŁãģ®ãģĭ
ãĤ¸ãĥ¥ ãĥ¼ãĥ«
Ġèĭ ¥ãģĦçĶ·
Ġèĭ ¥èĢħ
ãģĮåħ¥ ãģ£ãģ¦ãĤĭ
ãģĮåħ¥ ãģ£ãģ¦ãĤĭãģ®
ãģĮåħ¥ ãģ£ãģ¦ãģıãĤĭ
Ġéļ ł
åıİ æĽ¸
ãĥŁãĤ¹ ãĥŃãĥķ
ä»ĸãģ® èª°ãģĭ
ĠãĤ¯ãĤ½ ãĥĥ
ĠãĤ¯ãĤ½ ãģ£ãģŁãĤĮ
ĠåĪĨãģĭãģ£ãģ¦ãĤĭ ãģłãĤį
è¾ŀ ä»»
ãģ§æŃ» ãģ«
ãĤĴèªŃ ãĤĵãģł
ãĤĴèªŃ ãģ¿
ãĤĴèªŃ ãĤĢ
ãģ®çĪ¶è¦ª ãģ¯
åħĪçĶŁ ãĤĴãģĬæ¸¡
ãģĮæľĢåĪĿ ãģ®
ãĤĴæĢĸãģĮ ãģ£ãģ¦ãĤĭ
¿ł åĳĬ
Ġä¿¡ãģĺ ãĤĭãĤĪ
ĲĪ ä½µ
ãĥ¦ ãĥĭ
ãĥ¦ ãĥĭãĥ¼ãĤ¯
ãģ«ä»» ãģĽãĤĭ
ãģ«ä»» ãģĽãģ¦
ãĤĴä¸ĭ ãģ«
ãģ§ä½ķ ãģĮãģĤãģ£ãģŁ
Ġå· £
Ġãĥ¨ ãĥĥãĥĪ
ãģ®åģ ľ
ĠæĿ¥ ãģ¦ãģıãĤĮ
ĠæĿ¥ ãģªãģĦãģ®
ãĤĴåħ¥ åĬĽ
ãĤĴåŃ¦ ãĤĵãģł
ãĥ©ãĤºãĥŃ ãģ¯
Ġçī¹ åĪ¥ãģª
åĪĨãģĭ ãĤĬãģ¾ãģĻ
åĪĨãģĭ ãĤĬãģ¾ãģĽãĤĵ
ĠèĲ½ãģ¡çĿĢ ãģĭ
ĠèĲ½ãģ¡çĿĢ ãģĭãģªãģĦ
ãĥĭãĤ¢ å·ŀ
åº§ ãĤĬ
å£² æĺ¥
Ġç§ģãģ¯å¤ ĸåĩº
å¸Ĥ æ°ĳ
é£Ľãģ³ éĻįãĤĬ
ĠãĥģãĤ§ ãĥĥãĤ¯ãĤ¤ãĥ³
ãģ®åĳ½ ä»¤
æĮĩ åĲį
é»Ĵ äºº
é»Ĵ èī²
é»Ĵ äººãģ§ãģĻ
ãģ®è¨Ģèĳī ãģ§
ãĤĴä¿Ŀ ãģ¤
ãģĹãĤĪãģĨ ãģ¨ãģĹãģ¦
ãģĹãĤĪãģĨ ãģ¨ãĤĤ
Ġå¿ħè¦ģ ãģªãĤī
ä½İ ãģı
Ġãĥį ãĤ¬ãĥĨãĤ£ãĥĸ
ĠãģĿãģĵãģ« çĿĢ
ãģ¯å¿ħè¦ģ ãģªãģĦãģ®ãģĭ
ãĥªãĥĨãĤ£ ãĥ¼
ãģ®æĮĩ è¼ª
ãģ¯æŃ£ ãģĹãģĭãģ£ãģŁ
ãģ¯æŃ£ ç¢ºãģ«
ãĥīãĥ© ãĥŀ
Ġèµ ¤ãĤĵåĿĬ
ãģ®ãĥĢ ãĥ³
Ġéħ ·ãģĦ
ãĥĲãĥĥãĤ¯ ãĥīãĥ©ãĥķãĥĪ
åĲĮ æĻĤ
Ġä»ĬãģĻãģĲ ãģł
çµĲ å±Ģ
çµĲ ãģķãĤĮãģ¦ãģĦãģªãģĦ
Ġæ°ĹåĪĨ ãģ¯ãģ©ãģĨãģł
Ġæ°ĹåĪĨ ãģ¯èī¯ãģıãģªãģ£ãģŁ
ãĤĴèª¿ éģĶ
èĭ¥ãģĦ çĶ·
èĭ¥ãģĦ éłĥ
å§ĭãĤģ ãģ¾ãģĻ
åĸĦ ãĤĴå°
ãĤĴåĪĩãĤĬ åıĸ
ãĤĴåĪĩãĤĬ æĬľãģĳ
ãĤĴåĪĩãĤĬ èĲ½ãģ¨
éŃļ ãĤĤ
Ġå¿ĺãĤĮãģ¦ ãģŁ
çĨ± å¿ĥ
£ç ¦ģ
ªĵ ãģĭãĤī
çħ Ļèįī
įľ ç´¢
ãģµ ãģķ
ãģ®èĢĥãģĪ ãģ¯
Ġå°ıãģķãģª å¥³ãģ®åŃĲ
ãģĵãģ¨ãģ« ãģĹãģ¾ãģĹãģŁ
ĠãģĤãĤĮ ãģ¯ä½ķãģł
ĠæģĲ ãĤĮãĤĭ
ĠæģĲ æĢĸ
Ġç¬¬ ä¸Ģ
Ġç¬¬ ä¸Ģãģ«
Ġç¬¬ ä¸īå¸ĿåĽ½
ãģ«æĮģ ãģ£ãģ¦
ãģ«æĮģ ãģ£ãģ¦ãģĦãģŁ
ãĥĨãĥ¬ãĥĵ ãģ§
ĠãģĬãĤĦãģĻ ãģĦ
ãģ©ãģĨãģª ãģ£ãģ¦ãĤĭ
ãĤŃãĥªãĤ¹ãĥĪ ãģ®ãģŁãĤģ
å¿ĺ ãĤĮãģªãģĦ
ĠãģĿãĤĮãģ¯ãģĦãģĦ ãģĵãģ¨ãģł
ãĥ¡ãĥªãĥĥãĤ¯ æ°ı
ãĥĢãĥ³ ãĤµãĥ¼
®¶ãģ«å¸° ãĤĭ
éħĶ ãģ£ãģ¦ãĤĭ
ĠãĥķãĤ§ ãĥĩãĥĥãĤ¯ãĤ¹
åĢĴ ãģĹãģŁ
å·¥ åŃ¦
ĠãĥĹãĥŃ ãĤ¸ãĤ§ãĤ¯ãĥĪ
ä¸¡æĸ¹ ãģł
è¨ĢãĤıãģªãģĦãģ§ ãģıãģłãģķãģĦ
èģĸ åłĤ
èĻ «
èĻ Ĳå¾ħ
é» Ħèī²
Ġs s
ģ½ çī©
ħåĬĽ çļĦãģª
ãģĦãģªãģı ãģª
ãģĦãģªãģı ãģ¦
ãģĦãģªãģı ãģªãģ£ãģŁ
Ġåĳ ĬçĻ½
ãģıãģĿ ãģ£
ãģĹãģ¦ãģĦãģ¾ãģĽãĤĵ ãģ§ãģĹãģŁ
ãĥ¼ãĥ´ ãĥ¼ãĥ«èĪ¹éķ·
ãĤĴå¿ĥéħį ãģĹãģ¦ãĤĭ
ãĥĪãĥŃ ãĤ¤
ãģĤãģªãģŁãģ®ç «ĭåł´
ĠãģĤãģªãģŁãģĮå İ»
èª¤ ãĤĬ
ãģ®æĦıåĳ³ ãĤĤãģªãģĦ
ãģĭãĤīãģ® è¨ªåķı
ãģ¯æķ ´
Ġç· ļ
Ġç· ´ç¿Ĵ
èª°ãģ«ãĤĤ è¨ĢãĤıãģªãģĦ
ãģ®ç´ ł
ãģ®ç´ ĦæĿŁ
ãģ®ç´ ³å£«
å¾© è®Ĳ
ãģ®èŃ¦ åĳĬ
ãģ®èĪ¹ èį·
ãģĵãģ¨ãĤĴé¡ĺ ãģĨãĤĪ
ä¾µ å®³
ä¾¿ ãģ§
ä¾¿ ãĤĬ
ä¾¿ å±Ģ
ãģ®ãģ¯ãģĿãĤĮ ãģł
ä»ĸãģ®äºº ãģŁãģ¡
ãģ«çĿĢ ãģĳ
ãģ«çĿĢ ãģĳãĤĭ
è£½ éĢł
Ġåı¯æĦĽãģĦ ãĤı
ãĤĴæīĭãģ«åħ¥ãĤĮ ãģ¾ãģĹãģŁãģĭ
ä»»åĭĻ ãģł
èĭ¦ ãģĹãĤĵãģ§ãģĦãĤĭ
ãģ®ãĥģãĥ£ ãĥĹãĥªãĥ³
èį· çī©
ãģ«åĲĳãģĭ ãģĨ
ç¿Ĵ æħ£
Ġä¸Ĭ ç´ļ
Ġä¿¡ãģĺãĤīãĤĮãģªãģĦ ãĤı
ĦĢ å¼ı
ãĤĴè©¦ ãģĻ
ãĤĴè©¦ ãģĹãģ¦
Ġãģµ ãĥ¼ãĤĵ
ãģĭãĤĮãģŁ ãĤī
ãĤ¹ãĤŃ ãĥĥãĥĶãĥ¼
è¦³ å¯Ł
ãĤĴå£Ĭ ãģĹãģŁ
å¥ĩ å¦Ļ
ãĤ¢ãĥĳãĥ¼ãĥĪ ãģ§ä½ķãĤĴ
å¤© åĽ½
å¤© åĢĻ
Ġçı¾ åł´
Ġçı¾ å®Ł
Ġçı¾ åľ¨
ãģ«æŃ» ãģ¬
ãĥŃãĤ·ãĤ¢ èªŀ
äºĭæķħ ãģĺãĤĥãģªãģĦ
ãĥķãĥª ãĥ¼ãĥīãĥĭãĤ¢
ãģ®ç½ª ãĤĴçĬ¯
Ġè« ĸ
ãĤĴçĻº è¡¨
æĦļ ãģĭ
ãĤªãĥķ ãģł
å±ħ å¿ĥåľ°
ä¸įæĢĿèŃ° ãģªãģĵãģ¨ãģ§ãģĻ
ä¸İãģĪ ãĤīãĤĮãģŁ
ä¸Ģåº¦ãĤĤ ãģªãģĭãģ£ãģŁ
Ġä¸¡ è¦ª
ãģĮèµ·ãģį ãģ¦ãģĦãĤĭãģ®ãģĭ
å°ĳå¹´ ãģł
ãĤĴåıĸãĤĬæĪ» ãģĹ
ãĤĴåıĸãĤĬæĪ» ãģĻãģ®
ĠåħĪ éĢ±
ĠåħĪ æľĪ
ãģ®ãĥĩãĤ£ ãĥĬãĥ¼
ĠåĢĭäºº çļĦãģ«
¦ģ ãģĺ
å» ĥ
ç¨ ¼
ç¯ Ħ
ç¯ ĦåĽ²
ĥħ çĨ±
Ĩİ ãģĹãģ¿
ãģ«ä½¿ çĶ¨
ãĤĴãĤĤ ãģ£ãģ¦
ãĤĴãģ¤ãģĭ ãģ¿
ãĤĴãģ¤ãģĭ ãĤĵãģ§
Ġåº§ ãĤĬãģªãģķãģĦ
Ġåº¦ çĽ®
Ġç§ģãģ®ãģŁãĤģãģ« ä½ķãģĭ
ãĤ¯ãĥªãĤ¹ ãĥĨãĤ£ãĥ³
ãĤĴå± Īè¾±
å¥½ æĦı
å¥½ å¥ĩå¿ĥ
ãģ®æ©Ł ä¼ļ
ãģ®æ©Ł éĸ¢
èĢģ äºº
Ġé¦¬é¹¿ ãģĺãĤĥãģªãģĦãģĭ
ãĤĴèĩª çĶ±
ãģĵãģ¨ãģ¯ãģĤãĤĬãģ¾ãģĽãĤĵ ãģĭ
éłĨ çķª
ãĤĭãģĭçŁ¥ãģ£ãģ¦ãĤĭ ãģĭ
Ġä¸Ģãģ¤ ãģłãģĳ
ãĥķãĤ¡ãĥ¼ ãĤ¶ãĥ¼
ĠãĥĪãĥ© ãĥĥãĤ¯
ãģĿãĤĵãģªãģ« æĢ¥ãģĦ
æ©Łä¼ļ ãģĮãģĤãĤĭ
çĻºè¦ĭ ãģķãĤĮãģŁ
Ġä»ĸãģ« èª°
Ġä»ĸãģ« èª°ãģĮ
ãĤĴè¿Ķ ãģĹãģ¦æ¬²ãģĹãģĦ
ãĤĴèª¬ å¾Ĺ
ãĤĴåĪ©çĶ¨ ãģĹãģ¾ãģĻ
ãĤĴä½¿çĶ¨ ãģĹãģ¦
ãĤĴä½¿çĶ¨ ãģĹãģ¦ãģıãģłãģķãģĦ
Ġå¾Įãģ§ è©±ãģĿãģĨ
´Ī ãĤĬçī©ãģł
µ´ å®¤
æĤ² ãģĹãģĦ
ç¹ °ãĤĬè¿Ķ
ç°¡åįĺ ãģ§ãģĻ
ãģ«è¦ĭ ãģĽãĤĭ
ãĤĴéģĭ åĸ¶
Ġãģĵãģ®åł´æīĢ ãģ¯
äºĭå®Ł ä¸Ĭ
å®Ī ãĤĮãģªãģĦ
ãĤĴç«ĭ ãģ¡ä¸ĬãģĴ
ãĤĴçĩĥãĤĦ ãģĹãģ¦ãģĦãĤĭ
Ġ11 5
ãĤĴè¶ Ĭ
ãģ®è¾ ²å®¶
ãģ®è¶³ ãģ§
ãĥĲãĤ« ãģĺãĤĥãģªãģĦ
Ġä»Ĭåº¦ ãģ¯ä½ķ
ãĤĴæķĻãģĪãģ¦ ãģıãģłãģķãģĦ
ãĤĴæķĻãģĪãģ¦ ãĤĦãĤĭ
ĠãĥĻãĥĥãĥī ãģ§
µ® ãģĭ
åĦĢ å¼ı
ç¥ Ń
çĮ ®èº«
éĤª éģĵ
ĠW e
Ġd at
Ġè¡Į æĸ¹ä¸įæĺİ
ļ® èĤī
Ń° è«ĸ
ãģ®ãĤ¤ ãĥ¡ãĥ¼ãĤ¸
ãģ®ãĤ±ãĥĦ ãģ«ãĤŃãĤ¹
ãģ¨ä¿¡ãģĺ ãģ¦ãĤĭ
ãģ£ãģ¦ãģĦãģ¾ãģĽãĤĵ ãģ§ãģĹãģŁ
Ġãĥİ ãĥĥãĥĪ
ĠæºĸåĤĻ ãģ¯
çĶĺ ãģı
çĶĺ ãĤĦ
çĶĺ ãģ¿
ãģ«åį ĥ
ãģ«åį ±éĻº
ãģ«å±ħ ãģ¦ãģıãĤĮ
ãģ«å¾ĵ ãģĨ
ãģ«å¾ĵ ãģ£ãģ¦
å®īåħ¨ ãģª
ãģĮæĮģ ãģ£ãģ¦ãģĦãģŁ
Ġè³ Ńãģĳ
ãĤ³ãĥ¼ãĥĴãĥ¼ ãĤĴé£²
ĠãģĤãģªãģŁãģ¯ãģ¨ãģ¦ãĤĤ ç¾İãģĹãģĦ
Ġç§ģãģ¯åı ĭäºº
ãĥľãĥ³ ãĥĩ
ãĥįãĥĥãĥĪ ãĥ¯ãĥ¼ãĤ¯
å®¶ãģ«å¸° ãĤĭ
è²¬ä»» èĢħ
ĠåıĭéģĶ ãģ¨
ãģĿãĤĵãģªãģĵãģ¨ ãģĹãģªãģĦãģ§
Ġå®ĮçĴ§ ãģł
ĠãĤ·ãĤ§ ãĥĥãĥĹ
ĠæĹ¥éĸĵ ãģ§
èĭ¥ èĢħ
ãģ¨åĳ¼ãģ¶ ãģª
ãĥĸãĥ©ãĥĥãĤ¯ ãĤ¢ãĤ¦ãĥĪ
æ¯İ æĻ©
ĠãģĺãĤĥãģĤ ãģªãģľ
ãģĹãģ°ãĤīãģıãģ®éĸĵ ãģ¯
Ġãĥ´ãĤ£ ãĤ°
Ġå¤±ç¤¼ ãģĹãģ¾ãģĻ
ãĤĴå®Łè¡Į ãģĹãģ¾ãģĻ
ĠãĤ¹ãĥĪ ãĥ¬ãĥ¼ãĥĪ
ĠãĤ¹ãĥĪ ãĥ¼ãĥ³ãĤº
ãģ®éĩĳ ãģ§
ãģ®ãĤ¯ãĥ© ãĥĥãĥĹ
ãģ¨ãģ¯ä½ķ ãģ®éĸ¢ä¿ĤãĤĤãģªãģĦ
ãģĮãģ§ãģį ãģ¦ãĤĭ
Ġåĩº è¡Ģ
Ġåĺĺ ãģłãģª
ãģ£ãģ¦ãĤĤãģĦãģĦ ãģĭãģª
ãĤ¹ãĥĨãĤ£ ãĥ¼ãĥī
ãĤ¹ãĤ± ãĥĥãĥģ
Ġæ®ĭå¿µ ãģªãģĵãģ¨ãģ«
ãĤĴåĽŀ ãģĹãģ¦
ãĤıãģĭãĤĭ ãģ§ãģĹãĤĩãģĨ
ãģ®æī ĵ
éĢĨ æĸ¹åĲĳãģ«
ãĥķãĥŃ ãĥ¼ãĥĪ
ãģ®ç¾© çĲĨ
ãģĮæĴĥ ãģŁ
ãĥĩãĥ¥ ãĥªãĥ³
åıĹãģĳ ãģ¨
çĶŁå¾Ĵ ãģĮ
çļĨ ãģķãĤĵ
ãĤ¤ãĥ³ãĤ¿ ãĥ¼ãĥķãĤ§
æ³¨ æĸĩ
ãģ«èĪĪåĳ³ ãģĮãģĤãĤĭ
ãģ«è¡ĮãģįãģŁãģĦ ãģ®ãģĭ
æĽ¿ ãģĪ
Ġå¤§ãģįãģª çĶ·
è¿· è·¯
ãģ«å¯Ŀ ãģŁ
ãĤŃãĥ£ãĥ³ ãĤ»ãĥ«
Ġãĥĸãĥ© ãĥĥãĤ¯
Ġãĥĸãĥ© ãĤ¦ãĥ³
ãģĮæŃ»ãģ¬ ãģ¾ãģ§
Ġå¾ħãģ¦ ãĤĪ
ãģ®æľĢåĪĿ ãģ®
ãģ®è²¬ä»» ãģ§ãģĻ
ãģ®ãĥĿãĤ¤ãĥ³ãĥĪ ãģ¯
ãĤĴåį±éĻº ãģ«æĻĴ
ãģ®é«ª ãģ¯
ĠèĲ½ãģ¡çĿĢãģĳ ãĤĪ
°çĦ¡ ãģĹ
½° ãģĽ
½° çĺį
ç² ĭ
İ³ å¯Ĩ
ãģ¯ä»Ĭ æľĿ
ãĥ¼ãĤ« ãĤ¤ãĥĸ
ãĥ³ãĤ¬ ãĥ¼ãĥĪãĥ«
ãĥ¼ãĥį ãĥĥãĥĪ
ãĥ¼ãĥį ãĥªãĤ¢ãĤ¹
ä½ķãģĮèµ·ãģĵ ãĤĭãģĭ
ĠæĹ ©
ãĤĴå· »ãģį
ãĤĴå¼· è¦ģ
ãĥªãĥĲ ãĤ¤
ãĤ¢ãĥī ãĥ¬ãĤ¹
ãĥķãĥ©ãĥ³ ãĤ·ãĤ¹ãĤ³
ãģ®ç· ļ
ãģ®ç· ´ç¿Ĵ
ãģ®ãĥį ãĤ°ãĥŃ
ãĤĴçĪĨ çĻº
ãĤĴçĦ¡ è¦ĸ
ãĥŀãĤ¤ãĥ« ãĤº
ãĤĴèµ° ãģ£ãģŁ
ãģ®éŃ ļ
åħ· ä½ĵ
çĶŁãģ¾ãĤĮ ãģ¤ãģį
ãĤªãĥŁ ãĥ³ãĤ°
ãĤĵãģ§ãĤĤ ãģĦãģªãģĦ
åĩºçĻº ãģĹãģŁ
ãĥĨãĤ£ãĥ³ãĤ° ãģł
æĺĶ ãģ®ãģĵãģ¨ãģł
ãģ«è³ Ľ
ãĤĴçŁ¥ãĤĬãģŁãģĦ ãģĭ
åħ¨åĵ¡ ãģĮ
Ġãĥķãĥ¬ ãĥĩãĤ£
ä¸įåı¯èĥ½ ãģłãģ£ãģŁ
è¿½ è·¡
ĠãĤĦãģ£ãģ¦ãģ¿ ãĤĭ
ãĥķãĤ£ãĥ³ ãĥ¬ãĥ¼
ãģ»ãģĹãģĦ ãģ¨æĢĿãģ£ãģ¦ãģĦãĤĭ
ĠãĤ¤ãĤ¨ãĤ¹ ãģ¯
éģħåĪ» ãģł
ĠéĽ» æ°Ĺ
æ¸¡ ãģĻ
ĠåĨ· æĪ¦
ĠåĨ· èĶµ
ãĤĴæĬķãģĴ ãĤĭ
ãģ®ãģŁãĤģãģ«åĥįãģĦãģ¦ ãĤĭ
ĠéģķãģĨãĤĪ ãĤ«ãĥ«ãĥĵãĥ³
é§Ħ ãģł
Ġãģµãģĸ ãģĭãģ£ãģ¦ãĤĭãģ®
ãģ«èŃ¦åĳĬ ãģĹãĤĪãģĨãģ¨ãģĹãģŁ
ãĤĴè¶ħ ãģĪãģ¦ãģĦãĤĭ
re c
æ®ĭå¿µ ãģł
æ®ĭå¿µ ãģªãģĵãģ¨ãģ«
ĠéĢĥãģĴ ãĤį
ĩ¸ åĳ½
ĭĺ å®ļ
ãģ®ä½ľ æĽ²å®¶
ãģ®ãģĨãģ¡ ãģ®
ãģ®ãģĨãģ¡ ãģ«
ãģ«ãģĭãģĳ ãģ¦
ãģ«ãģĭãģĳ ãģ¦ãģĦãĤĭ
ãĤĴä¼ ¸ãģ°
ãĤĴä¼ ´ãģĨ
ãĤĴéĸī ãĤģãĤį
äºķ æĪ
ãĤĴæįķ ãĤī
ãĤĴæįķ ãģĪãĤĭ
ãĤĴæ³¨æĸĩ ãģĹãģŁ
ĠæĦıåĳ³ ãģĮ
Ġæ·± ãģķ
ãĤĴåĢ Ĵ
ãĤ¤ãĥ¯ ãĤ¤ãĥ¤
ãģ«åĬł ãģĪãģ¦
ãģ«æķ ĻãģĪãģ¦ãģıãĤĮ
ãģ«æķ ¬æĦı
ãĥķãĥ© ãĤ¦
ãģĮæīĭ ãģ«åħ¥ãĤĮãģŁ
ãģĮæ¬² ãģĹãģıãģªãģĦ
ãģ§ãģ¯ãģĦ ãģĳãģªãģĦ
Ġå½¼å¥³ãģ¯ç ¾İ
çĶ·ãģ®åŃĲ éģĶ
ãĥģãĥ§ ãĤ¦
ãĤªãĤªãĤ«ãĥŁ ãģ®éłŃ
ãĥĽãĥ¼ãĥł ãĥ¬ãĤ¹
ãĤĴæķĻ ãģĪ
ãĤĴæķĻ ãģĪãĤĭ
Ġ45 0
Ġåı¯èĥ½æĢ§ ãģĮãģĤãĤĬãģ¾ãģĻ
ä¿Ŀè¨¼ ãģĻãĤĭãģĵãģ¨ãģĮãģ§ãģįãģ¾ãģĻ
ĠãĤ«ãĤ¸ãĥİ ãģ§
Ġç§ģãģ«ä½ķãĤĴ ãģĹãģŁãģĦãģ®
Ġãĥ¬ãĤ¤ ãĥ¢ãĥ³ãĥī
ĠãĤıãģĭãģ£ãģ¦ãĤĭ ãĤıãģĭãģ£ãģ¦ãĤĭ
ãģ®åĳ³ ãģ¯
ãģ®åĳ³ æĸ¹
ãĥķãĥªãĥ¼ãĤ¯ ãģł
ãĤĴæĭĴåĲ¦ ãģĹãģŁ
åŁº æľ¬
è£ħç½® ãģ¯
ãĤĴè¿½ãģĦãģĭãģĳ ãģ¦ãģĦãĤĭ
ãĤĭãģ¤ãĤĤãĤĬãģ¯ãģªãģĦ ãĤı
ãģ®ãĥĹãĥŃ ãĤ°ãĥ©ãĥł
ãģ®ãĥĹãĥŃ ãĥĪãĤ³
ĠãĤ¦ãĤ£ãĥªãĤ¢ãĥł ãĤºåĪĳäºĭ
ãģ®åģ´ éĿ¢
¾¤ è¡Ĩ
æºĸ çļĦãģª
éĤ Ħ
Ġè¦ª åıĭ
Ġä¾ĭãģĪãģ° ãģ©ãĤĵãģª
ãĤĴèĢĥãģĪ ãĤį
ãģĹãĤĥ ãģ¿
ãģĮéĸĭ å§ĭ
Ġåħ¨ åĵ¡ãģł
ãĤĴæŃ£ ãģĹãģı
ĠãĤ¼ ãĥŃ
ĠãĤ¼ ãĥ¬ãĥ«
Ġç§ģãģ¯ä½ķãĤĴ ãģĻãĤĮãģ°ãģĦãģĦãģ®
ĠãģĿãĤĮãģ¨ ãĤªãĥ¼ãĤ¹ãĥĨãĤ£ãĥ³
ĠãģĿãĤĮãģĮå Ķ¯ä¸Ģ
çŁŃ ãģı
ãģ¯æĻĤ ãģ«ãģ¯
ãĤ¢ãĥ³ãĥī ãĥŃãĤ¤ãĥī
Ġçľł ãĤĭ
Ġä½ķãģĮèµ·ãģĵ ãģ£ãģ¦ãĤĤ
ãģ®çİĭ åĽ½
ĠèŃ° éķ·
ĠèŃ° è«ĸ
ãģ®ãĥĬ ãĥĥãĥĦ
Ġéĥ¨ éļĬ
ãĤĴè¹´ ãĤĬ
ãģ®éķ· ãģĦ
ãĤĴæĮģãģ£ãģŁ çĶ·
ãģ®è£ ħ
ãģ®èĩŃãģĦ ãģĮãģĻãĤĭ
ãĥĸãĥŃ ãĤ¦
åħĦ è²´
ãĥĲãĥ¼ãĤ¹ ãĥĩãĥ¼
ãĥ¡ãĥ³ ãĥķãĤ£ãĤ¹
åĩºèº« ãģ§ãģĻ
Ġç§ģãģ¯å¤§ åŃ¦
Ġãģĵãģĵãģ«ãģ¯ èª°ãĤĤãģĦãģªãģĦ
ãģ®ãģĵãģ¨ãĤĴèģŀãģĦãģŁ ãģĵãģ¨ãģĮãģĤãĤĬãģ¾ãģĻãģĭ
ãģ¯æľīåĲį äºº
éĸ¢å¿ĥ äºĭ
Ġæĺİ ãģĭãĤĬ
ĪĲåĬŁ ãģĹãģŁ
ãĤĴæľĢ åĪĿ
æĢĸãģĮ ãģ£ãģ¦ãĤĭ
ĠãĤ°ãĥ¬ ãĥĪãĤ²ãĥ³
ĠãĥĶãĥ³ ãĥĲãĥĥãĤ¯
ãĤĴéĢģãĤĬ åĩºãģĻ
ç«¯ ãģª
ãģĭãĤĮæĹ© ãģĭãĤĮæĹ©
ĠéģħåĪ» ãģłãģŀ
ãģ®ãģ¯ç¢ºãģĭ ãģł
é»Ļ ãģ£ãģ¦
ĠæĢĸãģĦ ãģ®
ãģĨãĤĵãģĸ ãĤĬãģł
ic k
»ãģį è¾¼ãģ¾
åĺ Ĩ
ĠçŁ¥ãģ£ãģ¦ãģŁ ãģ®
Ġè¦ªæĦĽãģªãĤĭ å¤§çµ±éłĺ
ãģ«éł¼ ãģ¿
ãĤĴä¼ĳ ãĤĵãģł
ãģĮè¡Į æĸ¹ä¸įæĺİ
ç§° è³Ľ
ä½ķãģĮèµ·ãģį ãģ¦ãģĦãĤĭãģ®ãģĭ
ä½ķãģĮèµ·ãģį ãģ¦ãĤĭãĤĵãģł
ãĤĴæĥ³åĥı ãģĹãģ¦
ãģ®åħ¥ ãĤĬåı£
ãĤ¯ãĥ« ãĥ¼ãĥ¬ãĥĥãĥĪ
ãģ«å®¶ ãģ«ãģĦãĤĭ
Ġç²¾ç¥ŀ ç§ĳåĮ»
Ġä½ķæĻĤ ãģ§ãģĻãģĭ
è©© äºº
ĠãģĿãģĨæĢĿ ãģĦãģ¾ãģĻ
ãĤ¸ãĥĥãĥĪ ãĤ«ãĥ¼ãĥī
ãĤ¸ãĥĥãĥĪ ãģ®æīĭç´Ļ
Ġèĩ ĨçĹħ
ãĤĴçªģãģį åĪº
ãģĮåŃĺåľ¨ ãģĻãĤĭ
ãĥŀãĤ¤ ãĤ±ãĥ«
ãĤĴè³ Ńãģĳ
ãĤĴè³ ¼åħ¥
çĶŁåĳ½ ä¿ĿéĻº
Ġãģ©ãģĨãĤĦ ãĤĵ
Ġãģ©ãģĨãĤĦ ãĤĭãģ®
é£¢ ãģĪ
ãĥıãĥ³ ãĤµãĥł
ĠãģĵãģĵãģĭãĤīåĩº ãģĹãģ¦ãģıãĤĮ
Ġãģ¤çĽ® ãģ¯
ãģªãģıãģ¦ ãģ¯ãģªãĤīãģªãģĦ
ãģ«è¡Įãģį ãģ¾ãģĹãĤĩãģĨ
ãĤĴè¦ĭãģ¤ãģĳãĤĭãģ® ãĤĴæīĭä¼Ŀ
ĠåĪĨãģĭ ãĤĭãģĭ
ä¼Ŀèª¬ ãģł
ĠãĥŃãĥ³ãĤ° ãĥĩãĥ¼ãĥ«
åĢĭäºº çļĦãģª
åĢĭäºº çļĦãģ«ãģ¯
Ġå½¼ãģ¯å¤§ä¸Īå¤« ãģĭ
ãĤĴæķ° ãģĪãģ¦
Ġåı³ ãģ«
å°ĭãģŃ ãģŁ
é£²ãģ¿ è¾¼ãĤĢ
ãĤĴä¸İãģĪãģ¦ãģıãĤĮ ãģŁ
ãĤĴä¸İãģĪãģ¦ãģıãĤĮ ãģ¾ãģĻ
ãģ¯å®īåħ¨ ãģł
ãģ®çµĦ åĲĪ
æļ´ åĬĽ
æļ´ å¾Ĵ
Ġæĸĩ æ³ķ
ãĤĴé£²ãģ¿ ãģªãģķãģĦ
ãģ«éĸ¢ãģĹãģ¦ ãģ¯
ãĤĴéĽ¢ãĤĮãĤĭ ãģĵãģ¨
ãģ®éĽ»è©± çķªåı·
ãģ«ä»»ãģĽ ãģªãģķãģĦ
ãģĬè©±ãģĹ ãģĹãģ¾ãģĻ
ãĤĴèª¿ãģ¹ ãģŁ
ãģģãģģãģģãģģ ãģģãģģãģģãģģ
Ġãĥıãĥ¼ãĤ·ãĥ¥ åħĪçĶŁ
ĠèģŀãģĵãģĪãģŁ ãģĭ
ĠèģŀãģĵãģĪãģŁ ãģłãĤį
al l
lo w
¦Ħæĥ³ ãģł
¬å¹³ ãģĺãĤĥãģªãģĦ
å« īå¦¬
åĶ Ĩ
åĶ ĩ
æµ Ħ
Ġéģ¸æĬŀãģ®ä½Ļåľ° ãģ¯ãģªãģĦ
İĦ ä»ĭ
ļ´ åĬĽ
ãģ«ä»ķ ãģĪãĤĭ
ãĤĴãģĶ åŃĺçŁ¥
ãĤĭãĤĪãģĨãģ« è¨Ģãģ£ãģŁ
ãģ¨ãĥĲ ãĥĥãĤ¸
ãģ®åĪĨ éĩİ
ãģ®åĲĳ ãģĵãģĨ
ĠæĮģ ãģ£ãģ¦
ãĤĴå¥½ãģį ãģª
ãĥ©ãĥĲ ãĥ©
Ġç«ĭ ãģ¦
Ġç«ĭ ãģ¡
Ġç¾İãģĹãģĦ ãĤı
ĠçŃĶãģĪ ãĤį
ãģ«æ±º ãĤģ
ãģĬä¼ļãģĦ ãģĹãģ¾ãģĹãĤĩãģĨ
ãģ®çĽ £
ãģ®çĽ £çĿ£
ä¼ı ãģĽ
Ġè¿ĳ ãģĦ
ãĥĹãĥªãĥ³ ãĤ»ãĤ¹
æī± ãģĨ
ãĥĳãĥ© ãĥĢãĤ¤ãĤ¹
ãģ©ãģĨæĦŁãģĺ ãģ¦
ãĤµãĥ³ãĥī ãĥ©
ãĤµãĥ³ãĥī ãĤ¤ãĥĥãĥģ
ãĤĤãģĨä¸Ģ äººãģ¯
Ġä¿ºãģ¯å ¸°ãĤĭ
ãģ«ç¸Ľ ãĤīãĤĮãģ¦ãģĦãĤĭ
Ġãĥīãĥ© ãĤ¯ãĥŃãĥ¯
ãģ®å¤ī åĮĸ
ãĥªãĥ³ãĤ¯ ãĤ¤ãĥ³
ãĤĴå¤±ãģĦ ãģ¤ãģ¤
ĠãĥĲãĤ¹ ãĥ«ãĥ¼ãĥł
ãĤĴåĲ¦å®ļ ãģĹ
ãĥĥãĥģãĤ§ ãĥ³
è¾¼ãģ¿ ãģ¾ãģĹãģŁ
ãģ¯å¤© ä½¿
ĠæĢ¥ãģĦ ãģ§
ãģĿãĤĮãģĮä½ķ ãģ§ãģĤãĤĮ
è¼Ŀ ãģı
ãĥĪãĥ¬ãĥĥãĥī ãĤ¹ãĥĪãĥ³
ãĥĪãĥ¬ãĥĥãĥī ãĤ¹ãĥĪãĥ¼ãĥ³
ĠSi re
Ġãģ§ãģįãģªãģĦ ãĤĵãģł
Ġä½ķãģĮçŁ¥ãĤĬãģŁãģĦ ãĤĵãģł
¿łèªł ãĤĴèªĵ
è§Ĵ åº¦
è§Ĵ è³ª
ãĤ¹ãĥĪãĥ©ãĥĥãĤµãĥ¼ å°ĳä½Ĳ
ãĥ»ãĥ»ãĥ»ãĥ»ãĥ»ãĥ»ãĥ»ãĥ» ãĥ»ãĥ»ãĥ»ãĥ»ãĥ»ãĥ»ãĥ»ãĥ»
ĠæĢĿãģĦåĩº ãģĽãģªãģĦ
ãĤ·ãĥ£ãĥ¯ãĥ¼ãĤĴæµ´ãģ³ ãģĽ
¨İ éĸ¢
²Ī ãĤĵãģ§ãģĦãĤĭ
æ¦ Ĥå¿µ
æ¦ ´å¼¾
æĹħ ãĤĴãģĻãĤĭ
Ġf or
Ġéĸĭãģĳ ãģ¦
ĸ° èģŀ
ãģ®ãģ»ãģ¨ãĤĵãģ© ãģ¯
ãģ«ä¼¼ ãģ¦ãģĦãĤĭ
ãģ¨ãĤŃãĥ£ ãĥªãĥ¼
Ġå¦¹ ãģĮ
ãģ®åĬ ´åĥį
ãģ®å¥½ æĦı
ãĤĴå¼¾ ãģı
ãĤıãģĸ ãģ¨
ãģ«åĤ ĻãģĪãģ¦
ãģ«å£² ãģ£ãģŁ
èªĺ æĭĲ
ãģ®æ¨© åĬĽ
è¦ĭãģĪãģ¾ãģĻ ãģŃ
ãĤ¢ãĤ¯ ãĤ»ãĤ¹
Ġç¾İ åĳ³ãģĹãģĦ
Ġä½ķãģ§ãĤĤ ãģªãģĦãĤı
ãģ«æ¨ª ãģŁãĤı
éĢĻ ãģĦ
Ġè¾ ²åł´
ãģ®ãĥ´ ãĤ¡
ãĥĳãĥ¼ ãĤ»ãĥ³ãĥĪ
å¾ģ æľį
ãģ®é¢¨ åĪº
ãģ®è¿ ·
ãģ®è¿ ½è·¡
ãģ®è§Ĵ åº¦
åıĶ çĪ¶
ĠãģĤãģªãģŁãģ¯ãģĿãģĨ ãģĹãģªãģĭãģ£ãģŁ
Ġãģªãģľãģĭ ãģ¯ãĤıãģĭãĤīãģªãģĦ
ãĥŁãĥį ãĤ½ãĤ¿
ãĥĢãĤ¤ ãĤ¨ãĥĥãĥĪ
åį´ çĤī
ãĤ¬ãĤ¤ ãĥ¢
ãģ«çģ« ãĤĴæĶ¾
è³¢ æĺİ
ä½ĵéĩį ãĤĴæ¸Ľ
èĥĮ éª¨
ãģ©ãģĵãģĭãĤī ãģ§ãĤĤ
ãĤ¸ãĤ§ãĤ¤ ãĤ½ãĥ³
ãĥķãĤ£ãĥĥãĥĪ ãĥįãĤ¹
ĠãĤ³ãĥ¼ãĥĪ ãĥĭãĥ¼
ãĤĴåĲĳ ãģĳ
ĳ¼ãģ³ åĩºãģĹ
ãĥ¬ãĥ³ãĤ¸ èī²
ĺĺãģ¤ãģį ãģł
Ġãģ©ãģĨãģĹãģ¦ãģĿãĤĵãģª ãģĵãģ¨ãģĮãģ§ãģįãĤĭãģ®
æİ¨ èĸ¦
ĠãĤ¿ãĤ¤ãĥł ãĤº
ãĤĴå¾ħãģ¡ ãģªãģķãģĦ
ĠCB S
Ġæķ°æĹ¥ å¾Įãģ«
ãģ¯åĪĨãģĭ ãģ£ãģ¦ãģŁ
¾ĹãģŁ ãĤĤãģ®ãģ¯
ãĤĴçĻºè¦ĭ ãģĹãģŁ
Ġé«ª ãģ®æ¯Ľ
ĠèĦ± ãģĴ
ãģ®ãĥ¯ãĥ¼ãĥł ãĥĽãĥ¼ãĥ«
Ġç´łæķµ ãģŃ
æŃ£çĽ´ãģª ãģ¨ãģĵãĤį
ç³»ãĤ¢ãĥ¡ãĥªãĤ« äºº
¥ĸçĪ¶ ãģ¨
ãģ®éħį éģĶ
±éĢļ çĤ¹
¾® ç¬ĳ
æĲ ¾
ç£¨ ãģį
Ġè¡Ģ ãģ¾ãģ¿ãĤĮ
Į» å¸«
Įĳ æĪ¦
ĵģ çī©
ãģ«çĽ´ éĿ¢
ãģ«éĢ£çµ¡ ãģĹãģ¦
Ġå¼ķãģį éĩĳãĤĴå¼ķ
ĠåĦĦ ãĥīãĥ«
ãĥ¼ãĥ¡ ãĥ³
ãĤĴæĳ ĺ
ãģ®åĩ¦ çĲĨ
ĠãĤģãģ¡ãĤĥãģıãģ¡ãĤĥ ãģª
Ġæ¸ Ī
Ġæ´Ĺ æ¿¯
ãĤ¯ãĤµ ãĤ¹
ãĤ¯ãĥ¬ãĤ¤ ãĤ¸ãĥ¼
ãĤĴåĻ ĽãĤĵãģł
ãĤĴåĹħ ãģĦãģł
ãĤĴåĨĴ ãģĻ
ãĤ¤ãĥİ ãĤ¯ãĥ©ãĥ«ãĤ¹
äººç¨® å·®åĪ¥
Ġç§ģãģ¯ä¸Ģ çĶŁ
ãĥªãĤ³ãĥ³ ãĥĲãĥ¬ãĥ¼
ãģ«å° İ
ãģ«å½¹ ç«ĭ
èª² å¾Į
ãģ®æĿ ¡ä»¶
ãģĿãĤĮèĩª ä½ĵ
ãĥīãĥ¬ãĥĥ ãĤµãĥ¼
ä¸ĢèĪ¬ çļĦãģª
ãĥŃãĤ³ ãĤ·
ãĥŃãĥ³ãĤ° ãĤ·ãĥ£ãĥ³ãĤ¯ãĤ¹
ãĥŃãĥŀãĥ³ ãĥģãĥĥãĤ¯
ãĤ«ãĤ¦ãĥ³ ãĤ»ãĥ©ãĥ¼
ãģĮå¾ħ ãģ¡ãģįãĤĮãģªãģĦ
ãĥĸãĥ¼ãĥĦ ãĤĴå±¥
åį± æ©Ł
ãģ«è¶³ ãĤĴè¸ı
ĠãĤ¢ãĥ© ãĥ¢
ĠãĤ¢ãĥī ãĤ³ãĥĥãĤ¯ãĤ¹
Ġãģĵãģĵãģ«å±ħ ãģŁ
ãģ«çŃĶ ãģĪãĤĭ
ĠãĤ¹ãĥĶ ãĥ¼ãĥģ
ĠãĤ¹ãĤ¦ãĤ§ ãĥ¼ãĥĩãĥ³
ĠãĤ¤ãĤ« ãĤĮãģ¦ãĤĭãģ®
ĠãĤ¤ãĥ³ãĥĩãĤ£ ãĤ¢ãĥ³
åĮĹ éĥ¨
ĠæĺİãĤīãģĭãģ« ãģŃ
ãģ®è©±ãĤĴèģŀãģĦãģŁ ãģĵãģ¨ãģĮãģĤãĤĭ
ãĥ¼ãĤ¸ãĥ§ ãĥ³
ãģ§æįķãģ¾ ãģĪãģ¦
ãĤ·ãĥ£ãĥ¼ãĥĹ ãģł
ãģĮæľĽ ãĤĵãģ§ãģĦãĤĭ
ç§ģãģ«çŁ¥ãĤīãģĽ ãģ¦ãģıãģłãģķãģĦ
ĠãģĿãĤĮãģ¯åħ ¬å¹³ãģĺãĤĥãģªãģĦ
ĠèģŀãģĦãģŁ ãĤĪ
ç¤¾ä¼ļ çļĦ
Ġç§ģãģ«ãģ¯ãģĿãĤĮãģĮ è¦ĭãģĪãĤĭ
Ġåħĥæ°Ĺ ãģłãĤĪ
ãģ®åħĪ çĶŁ
ĠæīĭéģħãĤĮ ãģ«ãģªãĤĭ
ĠéĿŀ å¸¸
ģ¥ãĤĴãģĭ ãģĭ
éĮł åī¤
ãģ®ãĥĨãĥ¼ãĥŀ ãģ¯ä½ķ
ĠMI N
çµ¶æľĽ çļĦãģª
èĬĿ å±ħ
ãģ®èĭ± éĽĦ
°¸ä¹ħ ãģ«
ĠãĥĴãĥ¥ ãĥ¼ãĥĸ
ãģ®åĪĩ ç¬¦
Ġä½ķãģĮèµ·ãģį ãģ¦ãĤĭãģ®ãģĭ
Ġéķ·ãģĦæĻĤéĸĵ ãģłãģ£ãģŁãĤı
ãģ®ãģ¯ç°¡åįĺ ãģł
Ġæ°ĹåĪĨãģĮèī¯ ãģıãģªãĤĭ
Ġç¬¬äºĮ ãģ«
ãĤĴæīĵãģ¡ çł´
ãĤ¹ãĥĬãĥĥãĥķ æĺłçĶ»
ãĤĴçĶŁãģĭ ãģĹãģ¦ãģĬãģı
ĠãģĤãģ¾ãĤĬãģ«ãĤĤ å¤ļãģı
ãģ«æ²¿ ãģ£ãģ¦
ĠãĥīãĤ¢ãĤĴéĸĭãģĳ ãĤĮ
è£ģåĪ¤æīĢ ãĤ³ãĥ³ãĥĿãĥ¼ãĤ¶ãĥ¼
Ġçµ¶å¯¾ãģ« ãģĤãĤĬãģ¾ãģĽãĤĵ
ãģ«å¿ľ ãģĺãģ¦
ãģ®æ¨Ļ æľ¬
Ġå½ĵãģ¦ãģ¦ãģ¿ãĤĪãģĨ ãģĭ
¤¼ åĦĢ
¸åŀĭ çļĦãģª
¹» è¦ļ
çĩĥ æĸĻ
éĨ ľ
Ġéĩį åĬĽ
Ġè¨ĢãĤı ãģªãģįãĤĥãģªãĤīãģªãģĦ
ĠèªĵãģĨ ãĤĪ
Ĥè Ĥª
ļĩ å¸Ŀ
ãģĭãģĭãĤĭ ãģłãĤįãģĨ
ãģ¨ä½ķãģĭ éĸ¢ä¿Ĥ
ãģĮçĻº çĶŁ
ãģĹãģ¦æŀľ ãģĹãģ¦æŀľ
ãĥĥãĤ·ãĥ§ ãĥĬãĥ¼
ä½ķãģĮèµ· ãģįãģ¦ãĤĭãģ®
ãĤĴæ¥½ ãģ«
ãĤĴæļĹ ç¤º
ãģ®åĩºæĿ¥ äºĭ
ĠãĤį ãģıãģ§ãģªãģĹ
è¡Ŀ åĭķ
ãĤ¢ãĥľ ãĥŃãĥķãĤ£ãĤ¢
ãģ«æĮĩ ç¤º
ãģĬå¬¢ ãģķãĤĵ
äºĭä¼ļ ãģ¯
ãģĤãĤĬå¾Ĺ ãģªãģĦ
ãĥĨãĥ¬ ãĥªãĥ³
ĠåĲĽãģ®æ ¬²ãģĹãģĦ
Ġéľĩ ãģĪãģ¦
ãĤ¦ãĥ¢ ãĥŃãĤ³ãĤ·
ä¸Ńæ¯Ĵ èĢħ
ãģ®éĹ ĺãģĦ
ãģ®éĺ² è¡Ľ
ãģ®èī¯ å¿ĥ
ãģ®è£ģ åĪ¤
ãĥĸãĥīãĤ¥ ãĥ«
ãĤŃãĥĦ ãĥį
ãģ¯ä½ķãģ§ãĤĤãģĹ ãģ¾ãģĻ
ãĤºãĥ¼ãĥª å·ŀ
ĠãģĤãģªãģŁãģ¯ãĤıãģĭ ãģ£ãģ¦ãģĦãģªãģĦ
ãĤ¤ãĥ³ãĤ¿ãĥ¼ãĥ³ ãĤ·ãĥĥãĥĹ
åĭ§ãĤģ ãģĹãģ¾ãģĻ
ãĥĢãĥ¼ãĥªãĥ³ãĤ° åįļå£«
Ġãģ¾ãĤĭ ãģ§
ãģ«èħ¹ ãĤĴç«ĭãģ¦
ãģĵãģĵãģĭãĤīåĩº ãĤĭãĤĵãģł
ĠãĤ¢ãĥ¬ ãĤ¯ãĤ¹
Ġç§ģãģ¯åĮ»èĢħ ãģ§ãģ¯ãģĤãĤĬãģ¾ãģĽãĤĵ
Ġç§ģãģŁãģ¡ãģ¯èŃ¦å®ĺ ãģ§ãģĻãģĭ
ľŁéĻĲ åĪĩãĤĮ
ãģ¯ãģ©ãģĨãģĦãģĨæĦıåĳ³ ãģ§ãģĻãģĭ
ãģ«ç²¾ éĢļ
ĠãĤ¯ãĥŃãĥĥãĤ¯ ãĥ¯ãĥ¼ãĤ¯
ãĥĽãĥĥ ãĥĸãĤº
«ĭæ±Ĥ æĽ¸
åĵĢãĤĮ ãģ¿
Ġåı· å®¤
éĩİèĽ® äºº
ĠæķĻãģĪãģ¦ ãģĤãģĴãĤĭãĤı
ĠçµĲæ§ĭ ãĤĪ
çĶŁãģįå»¶ ãģ³ãģŁ
ĠãĥľãĤ¤ ãĥ©ãĥ¼
Ġãĥľãĥ¼ãĥī ä¸Ĭ
ãĤĴãģĬè²·ãģĦ ãģĹãģŁãģĦãģ®ãģ§ãģĻãģĮ
ãģ®éłĨ åºı
Ġ201 7
ºĸåĤĻãģĮãģ§ãģįãģ¦ ãģĦãģ¾ãģĻ
ĠãģĤãģªãģŁãģ¯çĲĨè§£ ãģĹãģªãģĳãĤĮãģ°ãģªãĤīãģªãģĦ
Ġãĥ«ãĥ¼ãĥĪ ãĥ´ãĤ£ãĥĴ
ãĤĴé³ ´ãĤī
ãĤĴæĭĺ æĿŁ
Ġãģ©ãĤĵãģªæĦŁãģĺ ãģłãģ£ãģŁ
ĠéĿĴ ãģł
ãģ®ãĥŀãĥ³ ãĤ¿ãĥ³
Ġä½ķãĤĤèµ·ãģį ãģªãģĭãģ£ãģŁ
ãģĮè¦ĭãģ¤ ãģĭãģ£ãģŁ
Ġå¾Įãģ§ä¼ļ ãģĬãģĨ
ĠMAN TAN
®æ® ¿
ãģ¯åħī æłĦãģ§ãģĻ
å§« æ§ĺ
ãĤµãĤ¤ãĤŃãĥĥãĤ¯ ãģł
ãģ«èģŀãģĵ ãģĪãĤĭ
çĽ¸å¿ľ ãģĹãģĦ
ĠPT A
Ġå¯ĤãģĹãģĦ ãĤĪ
ãģ¯å°ĳãģĹéĮĨ ãģ³ãģŁ
ĠæģĲãĤīãģı ãģª
ĠãģĿãĤĮãģ«ãģ¤ãģĦãģ¦èĢĥãģĪãĤĭ ãģª
çľĭèŃ· å¸«
ãģ®åĢ¤ æ®µ
ĠãĥĢãĥ³ãĤ¦ãĤ£ ãĥĨãĤ£
ĠåĨ·éĿĻ ãģ«
Ġæ·±åĳ¼åĲ¸ ãģĹãģ¦
ãģĹãĤĥãģ¹ ãĤĬ
ãģŁãģ°ãģĵ ãĤĴåĲ¸ãģĨ
å¯ĤãģĹãģıãģªãĤĭ ãĤı
´©å£Ĭ ãģĹãģŁ
ĭ©çĮŁ ãģ®äºĭæķħ
ãģ°ãģĭãģ° ãģĭãģł
ãĤ¯ãĥĢãĥ¼ãĥ¢ ãĥĥãĥĪ
ãģ«åĽºåŁ· ãģĻãĤĭ
ãģĵãģ¨ãģĮãģ§ãģįãĤĭãģ¨ç¢ºä¿¡ ãģĹãģ¦ãģĦãĤĭ
ãĤ·ãĥ£ãĥĥãĥĪãĥĢãĤ¦ãĥ³ ãģĹãģ¾ãģĻ
ĠãģĬãģ°ãģĤãģ¡ãĤĥãĤĵãģĮæŃ» ãĤĴ
¢ľ èĲ½
©¶ æ¥µ
«èĮ¶ åºĹ
±åĲĪ å¤±èª¿çĹĩ
´» åĭķ
º» çĹº
åĺĺãĤĴãģ¤ ãģıãģ®
çĥ Īãģª
èī ¦
éĪ į
ĥĳ æĺŁ
Ķè¼ ĥ
ãĤĴãĥıãĤ¤ ãĤ¸ãĥ£ãĥĥãĤ¯
ãĤĴä¸»å¼µ ãģĻãĤĭ
ãĤ¹ãĤ³ãĥ³ ãĤ·ãĥ³
ãģ®åĽ³ éĿ¢
ãģ®å£« å®ĺåĢĻè£ľçĶŁ
ãģ¯å¾Ĺ æĦı
Ġå½¼ãģĮåħ¥ ãģ£ãģ¦ãģıãĤĭãģ¨
Ġæļ´ å¾Ĵ
ãģ¯æºĢæľĪ ãģł
ãĥīãĥ¼ãĥªãĥ¼ å§īå¦¹
ãĥīãĥ¼ãĥĬ ãĥĦ
ĠãģĿãģĨãģ¯æĢĿ ãĤıãģªãģĭãģ£ãģŁ
ĠãģĿãģĨé¡ĺ ãģĨãĤĪ
ãĤĴè³ŀ è³Ľ
ãĤĴèįĴ å»ĥ
ãģ®é£² ãģ¿çī©
Ġå½¼ãģ¯ãģ©ãģĵãģ¸ è¡Įãģ£ãģŁãģ®
ãĥ¡ãĤ«ãĥĭ ãĤºãĥł
ãĤ»ãĥķãĤ£ ãĥ¼ãĥĮ
ĠãĥŀãĤµãĥģãĥ¥ãĥ¼ ãĤ»ãĥĥãĥĦ
ãĥľãĥ¼ãĥ¢ ãĥ³ãĥĪ
è¦ļæĤ Ł
Ġãĥīãĥ¬ãĥĥ ãĤ·ãĥ³ãĤ°
ĠãĤ¹ãĤ® ãĥĥãĤ·ãĥ¥
Ġå¤§æĬ µ
Ķ¯æı ´
ĠãĤ¨ãĥĺ ãĥ³
ĠãĤ¨ãĤ¹ãĤ³ ãĥ¼ãĥĪ
Ġæľ¬å½ĵãģ«åĪĨ ãģĭãĤīãģªãģĦ
Ġãĥ©ãĥªãĥ´ãĤ£ ãĤ¨ãĥ¼ãĥ«ãģ¯
Ġãĥ¬ãĤ¯ãĤ¤ ãĤ¨ãĥł
ĠãĤıãģ¡ãĤħãģĨ ãĤµãĥ¤ãĤ¤ãĥ³
Ġãģ©ãĤĵãģªéģķãģĦ ãģĮãģĤãĤĭãģ®
çµĮåĸ¶ èĢħ
ĠãĤ¬ãĥ¼ãĥĪãĥ« ãĥ¼ãĥī
ĠãĤ½ãĥ¼ãĤ» ãĥ¼ãĤ¸
ĠBLAC K
Ġãĥļãĥĥãĥĳãĥ¼ åįļå£«
èĦĬé« Ħ
ãĥŁãĤ¹ãĥŃãĥķ åįļå£«
åħĪçĶŁãĤĴãģĬæ¸¡ ãģĹãģıãģłãģķãģĦ
å£²æĺ¥ å©¦
Ġç§ģãģ¯å¤ĸåĩº ä¸Ńãģ§ãģĻ
çµĲãģķãĤĮãģ¦ãģĦãģªãģĦ ãĥĹãĥŃãĤ»ãĤ¹
åĸĦãĤĴå° ½ãģı
ãĤ¤ãĥ³ãĤ¿ãĥ¼ãĥķãĤ§ ãĥ¼ãĤ¹
ĠåĨ·èĶµ åº«
äºķæĪ ¸
ĠãĤ¼ãĥ¬ãĥ« ãĥĢ
ĠãĤ¹ãĤ¦ãĤ§ãĥ¼ãĥĩãĥ³ è£½
! ?
! ãĢį
* ãĢģ
1 2
1 5
2 6
4 4
4 5
> ?
A L
A M
[...]
